<unk>	0
<s>	0
</s>	0
<0x00>	0
<0x01>	0
<0x02>	0
<0x03>	0
<0x04>	0
<0x05>	0
<0x06>	0
<0x07>	0
<0x08>	0
<0x09>	0
<0x0A>	0
<0x0B>	0
<0x0C>	0
<0x0D>	0
<0x0E>	0
<0x0F>	0
<0x10>	0
<0x11>	0
<0x12>	0
<0x13>	0
<0x14>	0
<0x15>	0
<0x16>	0
<0x17>	0
<0x18>	0
<0x19>	0
<0x1A>	0
<0x1B>	0
<0x1C>	0
<0x1D>	0
<0x1E>	0
<0x1F>	0
<0x20>	0
<0x21>	0
<0x22>	0
<0x23>	0
<0x24>	0
<0x25>	0
<0x26>	0
<0x27>	0
<0x28>	0
<0x29>	0
<0x2A>	0
<0x2B>	0
<0x2C>	0
<0x2D>	0
<0x2E>	0
<0x2F>	0
<0x30>	0
<0x31>	0
<0x32>	0
<0x33>	0
<0x34>	0
<0x35>	0
<0x36>	0
<0x37>	0
<0x38>	0
<0x39>	0
<0x3A>	0
<0x3B>	0
<0x3C>	0
<0x3D>	0
<0x3E>	0
<0x3F>	0
<0x40>	0
<0x41>	0
<0x42>	0
<0x43>	0
<0x44>	0
<0x45>	0
<0x46>	0
<0x47>	0
<0x48>	0
<0x49>	0
<0x4A>	0
<0x4B>	0
<0x4C>	0
<0x4D>	0
<0x4E>	0
<0x4F>	0
<0x50>	0
<0x51>	0
<0x52>	0
<0x53>	0
<0x54>	0
<0x55>	0
<0x56>	0
<0x57>	0
<0x58>	0
<0x59>	0
<0x5A>	0
<0x5B>	0
<0x5C>	0
<0x5D>	0
<0x5E>	0
<0x5F>	0
<0x60>	0
<0x61>	0
<0x62>	0
<0x63>	0
<0x64>	0
<0x65>	0
<0x66>	0
<0x67>	0
<0x68>	0
<0x69>	0
<0x6A>	0
<0x6B>	0
<0x6C>	0
<0x6D>	0
<0x6E>	0
<0x6F>	0
<0x70>	0
<0x71>	0
<0x72>	0
<0x73>	0
<0x74>	0
<0x75>	0
<0x76>	0
<0x77>	0
<0x78>	0
<0x79>	0
<0x7A>	0
<0x7B>	0
<0x7C>	0
<0x7D>	0
<0x7E>	0
<0x7F>	0
<0x80>	0
<0x81>	0
<0x82>	0
<0x83>	0
<0x84>	0
<0x85>	0
<0x86>	0
<0x87>	0
<0x88>	0
<0x89>	0
<0x8A>	0
<0x8B>	0
<0x8C>	0
<0x8D>	0
<0x8E>	0
<0x8F>	0
<0x90>	0
<0x91>	0
<0x92>	0
<0x93>	0
<0x94>	0
<0x95>	0
<0x96>	0
<0x97>	0
<0x98>	0
<0x99>	0
<0x9A>	0
<0x9B>	0
<0x9C>	0
<0x9D>	0
<0x9E>	0
<0x9F>	0
<0xA0>	0
<0xA1>	0
<0xA2>	0
<0xA3>	0
<0xA4>	0
<0xA5>	0
<0xA6>	0
<0xA7>	0
<0xA8>	0
<0xA9>	0
<0xAA>	0
<0xAB>	0
<0xAC>	0
<0xAD>	0
<0xAE>	0
<0xAF>	0
<0xB0>	0
<0xB1>	0
<0xB2>	0
<0xB3>	0
<0xB4>	0
<0xB5>	0
<0xB6>	0
<0xB7>	0
<0xB8>	0
<0xB9>	0
<0xBA>	0
<0xBB>	0
<0xBC>	0
<0xBD>	0
<0xBE>	0
<0xBF>	0
<0xC0>	0
<0xC1>	0
<0xC2>	0
<0xC3>	0
<0xC4>	0
<0xC5>	0
<0xC6>	0
<0xC7>	0
<0xC8>	0
<0xC9>	0
<0xCA>	0
<0xCB>	0
<0xCC>	0
<0xCD>	0
<0xCE>	0
<0xCF>	0
<0xD0>	0
<0xD1>	0
<0xD2>	0
<0xD3>	0
<0xD4>	0
<0xD5>	0
<0xD6>	0
<0xD7>	0
<0xD8>	0
<0xD9>	0
<0xDA>	0
<0xDB>	0
<0xDC>	0
<0xDD>	0
<0xDE>	0
<0xDF>	0
<0xE0>	0
<0xE1>	0
<0xE2>	0
<0xE3>	0
<0xE4>	0
<0xE5>	0
<0xE6>	0
<0xE7>	0
<0xE8>	0
<0xE9>	0
<0xEA>	0
<0xEB>	0
<0xEC>	0
<0xED>	0
<0xEE>	0
<0xEF>	0
<0xF0>	0
<0xF1>	0
<0xF2>	0
<0xF3>	0
<0xF4>	0
<0xF5>	0
<0xF6>	0
<0xF7>	0
<0xF8>	0
<0xF9>	0
<0xFA>	0
<0xFB>	0
<0xFC>	0
<0xFD>	0
<0xFE>	0
<0xFF>	0
in	-0
ər	-1
ar	-2
an	-3
də	-4
ın	-5
il	-6
ir	-7
▁b	-8
▁m	-9
da	-10
iy	-11
lər	-12
ən	-13
al	-14
ət	-15
▁s	-16
▁v	-17
▁t	-18
əs	-19
▁o	-20
lar	-21
ay	-22
as	-23
▁k	-24
un	-25
▁e	-26
▁y	-27
▁q	-28
əl	-29
▁i	-30
▁h	-31
▁d	-32
▁və	-33
at	-34
▁g	-35
ün	-36
li	-37
ək	-38
ır	-39
am	-40
əm	-41
st	-42
di	-43
er	-44
▁A	-45
aq	-46
dən	-47
dir	-48
ur	-49
▁ol	-50
mi	-51
▁il	-52
lı	-53
az	-54
aş	-55
ey	-56
lərin	-57
▁mü	-58
ad	-59
▁n	-60
▁B	-61
on	-62
▁ki	-63
əy	-64
iyy	-65
▁M	-66
əh	-67
▁ç	-68
zər	-69
lə	-70
iz	-71
ik	-72
▁da	-73
inin	-74
ib	-75
en	-76
or	-77
ların	-78
▁x	-79
ində	-80
▁ü	-81
▁ö	-82
asın	-83
can	-84
əb	-85
▁bir	-86
▁də	-87
is	-88
bay	-89
▁p	-90
▁r	-91
▁ş	-92
ağ	-93
baycan	-94
▁gö	-95
▁f	-96
ab	-97
əd	-98
zərbaycan	-99
ul	-100
ah	-101
ış	-102
ak	-103
ləri	-104
ası	-105
dan	-106
▁Azərbaycan	-107
iyyət	-108
dır	-109
öv	-110
im	-111
▁et	-112
ıl	-113
əsi	-114
ax	-115
ol	-116
▁İ	-117
▁S	-118
iş	-119
ub	-120
ür	-121
▁ilə	-122
▁bu	-123
▁in	-124
eç	-125
iq	-126
inə	-127
id	-128
lik	-129
it	-130
ini	-131
dı	-132
um	-133
es	-134
ev	-135
▁a	-136
ları	-137
liy	-138
▁Ə	-139
us	-140
et	-141
▁T	-142
əz	-143
▁Q	-144
ci	-145
▁R	-146
əf	-147
▁H	-148
dil	-149
anın	-150
▁ist	-151
▁"	-152
▁ver	-153
ük	-154
iya	-155
ov	-156
miş	-157
af	-158
▁on	-159
▁iş	-160
əq	-161
▁bil	-162
if	-163
ədə	-164
ında	-165
▁ar	-166
▁K	-167
la	-168
▁c	-169
əş	-170
▁D	-171
▁gör	-172
du	-173
əc	-174
▁üç	-175
ox	-176
ız	-177
▁edil	-178
▁N	-179
▁baş	-180
mək	-181
▁al	-182
lan	-183
ro	-184
▁əs	-185
▁z	-186
▁P	-187
lət	-188
ım	-189
▁üçün	-190
üm	-191
uş	-192
ra	-193
▁yar	-194
sə	-195
ının	-196
▁keç	-197
alar	-198
çı	-199
▁O	-200
lıq	-201
▁olun	-202
üş	-203
indən	-204
ki	-205
ması	-206
ek	-207
ac	-208
av	-209
▁öl	-210
▁döv	-211
ent	-212
ıb	-213
əti	-214
▁öz	-215
məsi	-216
əv	-217
diy	-218
▁tər	-219
▁olan	-220
ari	-221
ələr	-222
▁son	-223
asının	-224
əsində	-225
ist	-226
ələrin	-227
▁əl	-228
öy	-229
em	-230
lən	-231
mış	-232
▁olm	-233
illi	-234
▁u	-235
▁çox	-236
si	-237
asında	-238
unun	-239
ına	-240
şı	-241
▁E	-242
ut	-243
▁kimi	-244
▁hər	-245
alq	-246
əx	-247
▁Bu	-248
ğı	-249
ilər	-250
▁həm	-251
lu	-252
lay	-253
om	-254
▁yer	-255
▁“	-256
alı	-257
▁edir	-258
iv	-259
cə	-260
ül	-261
▁Ş	-262
▁ölk	-263
ını	-264
ez	-265
▁keçir	-266
▁F	-267
üt	-268
▁mən	-269
pub	-270
__	-271
▁Y	-272
publik	-273
espublik	-274
▁qar	-275
adə	-276
▁X	-277
ada	-278
▁üz	-279
üs	-280
əli	-281
▁gəl	-282
adı	-283
▁-	-284
▁gün	-285
el	-286
oy	-287
eyd	-288
mən	-289
əyə	-290
anı	-291
ıx	-292
▁dey	-293
ləş	-294
▁pro	-295
▁(	-296
▁Respublik	-297
▁dövlət	-298
miz	-299
▁C	-300
▁oldu	-301
adi	-302
▁G	-303
unu	-304
maq	-305
▁sah	-306
ıq	-307
ədən	-308
üny	-309
ma	-310
eni	-311
▁tərəf	-312
dur	-313
▁əm	-314
daş	-315
stər	-316
əyat	-317
larının	-318
arix	-319
▁ər	-320
▁V	-321
▁yaş	-322
liyev	-323
mət	-324
▁göstər	-325
▁dah	-326
▁Əliyev	-327
san	-328
▁həyat	-329
diyi	-330
▁sonra	-331
▁görə	-332
diril	-333
iyyat	-334
▁çıx	-335
uz	-336
öyük	-337
araq	-338
lam	-339
gər	-340
▁olar	-341
▁az	-342
▁bağ	-343
ekt	-344
▁daha	-345
ilə	-346
kiş	-347
▁təş	-348
▁təs	-349
▁isə	-350
▁zam	-351
lərinin	-352
kişaf	-353
▁tarix	-354
ident	-355
ənin	-356
eyn	-357
əsinin	-358
▁ay	-359
kil	-360
dar	-361
ezident	-362
rezident	-363
▁yol	-364
▁təh	-365
▁L	-366
▁ad	-367
..	-368
dim	-369
▁or	-370
ap	-371
ans	-372
▁keçiril	-373
▁Milli	-374
▁art	-375
əhər	-376
▁inkişaf	-377
▁təm	-378
▁qal	-379
par	-380
cı	-381
üz	-382
▁məs	-383
▁nə	-384
laş	-385
ütün	-386
lığ	-387
▁yeni	-388
▁yax	-389
▁düny	-390
▁fə	-391
▁qur	-392
▁böyük	-393
▁ən	-394
öz	-395
▁ildə	-396
▁əsas	-397
man	-398
ri	-399
▁məh	-400
▁onun	-401
▁bildir	-402
azır	-403
▁re	-404
▁di	-405
rmən	-406
axt	-407
▁fəal	-408
ələri	-409
▁el	-410
▁təd	-411
▁ic	-412
tis	-413
lara	-414
uq	-415
azir	-416
bir	-417
▁müh	-418
▁haq	-419
rə	-420
asına	-421
▁mər	-422
▁an	-423
▁qarşı	-424
elə	-425
iyas	-426
▁dər	-427
əsinə	-428
dib	-429
mişdir	-430
cü	-431
ürk	-432
akt	-433
liyi	-434
akı	-435
▁im	-436
orm	-437
aya	-438
▁sən	-439
ənc	-440
▁apar	-441
▁olduğ	-442
sil	-443
anda	-444
▁düş	-445
▁təşkil	-446
cu	-447
▁var	-448
▁bağlı	-449
əlum	-450
üb	-451
▁bütün	-452
▁dəy	-453
dər	-454
iyyəti	-455
▁Prezident	-456
lərdə	-457
▁edən	-458
unda	-459
▁U	-460
tir	-461
kı	-462
▁l	-463
ru	-464
adan	-465
▁insan	-466
olo	-467
▁tərəfindən	-468
▁do	-469
▁yaz	-470
▁haqq	-471
lərini	-472
▁edib	-473
lərə	-474
▁etmək	-475
▁bar	-476
mə	-477
▁olaraq	-478
ədər	-479
ılması	-480
muş	-481
▁şəhər	-482
▁biz	-483
əcək	-484
ətən	-485
▁söz	-486
▁veril	-487
acaq	-488
ayon	-489
ağı	-490
▁əh	-491
▁xalq	-492
ram	-493
ənd	-494
▁üzrə	-495
dik	-496
bər	-497
▁məq	-498
öh	-499
ından	-500
▁siyas	-501
ör	-502
bi	-503
iss	-504
▁məlum	-505
▁təl	-506
▁idi	-507
____	-508
▁qay	-509
▁İn	-510
▁tut	-511
əxs	-512
əfər	-513
▁yük	-514
▁On	-515
ot	-516
əss	-517
▁İl	-518
▁vəz	-519
▁möv	-520
üsus	-521
Az	-522
təl	-523
▁qədər	-524
isi	-525
üq	-526
▁Ç	-527
eh	-528
əlli	-529
lərinə	-530
▁yan	-531
▁hazır	-532
kar	-533
sa	-534
ina	-535
▁haqqında	-536
una	-537
▁Azərbaycanın	-538
▁Respublikasının	-539
▁sər	-540
▁say	-541
▁nüm	-542
▁mün	-543
▁de	-544
sı	-545
xalq	-546
▁bax	-547
yn	-548
▁mək	-549
sin	-550
eynəl	-551
siy	-552
▁nəti	-553
övlət	-554
eynəlxalq	-555
əyi	-556
▁göz	-557
arət	-558
▁arasında	-559
əkil	-560
kəz	-561
ta	-562
▁rayon	-563
▁verir	-564
ağa	-565
lü	-566
▁dövr	-567
▁əraz	-568
▁digər	-569
▁məlumat	-570
▁fəaliyyət	-571
▁əv	-572
▁at	-573
ifadə	-574
▁qeyd	-575
▁Bakı	-576
üc	-577
▁st	-578
▁xüsus	-579
larını	-580
▁şər	-581
kəm	-582
▁etm	-583
os	-584
▁yüks	-585
▁deyil	-586
xil	-587
▁ilk	-588
▁istifadə	-589
əng	-590
lük	-591
▁Dövlət	-592
anış	-593
təb	-594
ih	-595
eri	-596
▁lay	-597
▁məsəl	-598
▁tək	-599
▁dav	-600
əsini	-601
kt	-602
ılm	-603
esab	-604
▁qəb	-605
asını	-606
▁iştir	-607
▁Z	-608
▁ge	-609
▁təq	-610
sial	-611
üquq	-612
əyy	-613
ji	-614
asiya	-615
atı	-616
▁həyata	-617
▁tədbir	-618
məd	-619
larda	-620
inci	-621
idmət	-622
▁barədə	-623
▁kö	-624
▁edə	-625
art	-626
▁uğ	-627
qtis	-628
əbər	-629
▁Qar	-630
▁daxil	-631
▁çat	-632
uy	-633
lərində	-634
vəl	-635
▁şəxs	-636
▁nətic	-637
▁tam	-638
dət	-639
▁Nazir	-640
ex	-641
op	-642
▁rəh	-643
iyə	-644
ham	-645
▁mədən	-646
ob	-647
▁bilər	-648
▁olub	-649
▁vaxt	-650
▁əlaq	-651
əmiyyət	-652
▁özün	-653
▁təmin	-654
▁gen	-655
ımız	-656
▁əmək	-657
▁ağ	-658
fi	-659
▁belə	-660
abr	-661
▁yarad	-662
▁ya	-663
▁qoy	-664
▁id	-665
ılan	-666
▁xəbər	-667
lığı	-668
▁dil	-669
▁Av	-670
öl	-671
əndə	-672
eş	-673
▁Bir	-674
oş	-675
gi	-676
▁nəzər	-677
▁təhsil	-678
▁rəhbər	-679
ətb	-680
larına	-681
ğul	-682
may	-683
arı	-684
ayət	-685
raf	-686
▁hesab	-687
▁davam	-688
▁qəbul	-689
▁Ermən	-690
▁Türk	-691
asib	-692
▁biri	-693
▁iştirak	-694
▁tələb	-695
▁İlham	-696
▁dəf	-697
▁mal	-698
▁hüquq	-699
▁Al	-700
ers	-701
▁qan	-702
eydər	-703
▁hiss	-704
iyyə	-705
▁qaz	-706
inadən	-707
▁müx	-708
▁istinadən	-709
ğun	-710
▁xidmət	-711
dür	-712
▁po	-713
osial	-714
▁müəlli	-715
dığı	-716
▁həmin	-717
amət	-718
mışdır	-719
▁qər	-720
▁kon	-721
əyyən	-722
ilm	-723
imiz	-724
tim	-725
▁Heydər	-726
▁münasib	-727
▁iqtis	-728
ok	-729
▁təb	-730
undan	-731
▁yüksək	-732
yan	-733
▁əvvəl	-734
▁seç	-735
aşdır	-736
lardan	-737
▁milli	-738
▁nümay	-739
bət	-740
əni	-741
rop	-742
ya	-743
▁kom	-744
▁mad	-745
▁Ö	-746
dım	-747
▁müəyyən	-748
ic	-749
ğu	-750
▁ədə	-751
dü	-752
lərdən	-753
▁ir	-754
▁Ermənist	-755
təlif	-756
▁vur	-757
▁beynəlxalq	-758
▁heç	-759
▁müd	-760
▁vətən	-761
izm	-762
izə	-763
▁iki	-764
ləy	-765
mir	-766
ef	-767
ərq	-768
▁İs	-769
▁hal	-770
tab	-771
ök	-772
▁səb	-773
iqq	-774
▁ön	-775
ilik	-776
▁elə	-777
▁Respublikası	-778
▁ə	-779
oru	-780
▁av	-781
üf	-782
▁həl	-783
▁su	-784
laşdır	-785
▁edilməsi	-786
larında	-787
▁məktəb	-788
▁kənd	-789
▁istiq	-790
asiy	-791
▁Rus	-792
▁geniş	-793
▁ox	-794
est	-795
▁kitab	-796
ön	-797
ətin	-798
▁mil	-799
▁aş	-800
▁uz	-801
ələrinin	-802
ran	-803
▁ev	-804
▁yox	-805
▁dəyiş	-806
▁əsər	-807
▁müxtəlif	-808
kən	-809
aları	-810
▁min	-811
▁diqq	-812
▁böl	-813
▁if	-814
▁çal	-815
rı	-816
▁layih	-817
lərindən	-818
▁çək	-819
bl	-820
▁olmuş	-821
▁münasibət	-822
▁uğur	-823
larla	-824
▁zaman	-825
▁səbəb	-826
▁üm	-827
▁bur	-828
idə	-829
ca	-830
rans	-831
səd	-832
▁növ	-833
ləndir	-834
ait	-835
▁yet	-836
▁An	-837
qiq	-838
lah	-839
▁fik	-840
▁tap	-841
▁təqdim	-842
ətir	-843
▁Ü	-844
akin	-845
▁uş	-846
▁yaşay	-847
üv	-848
omi	-849
▁onların	-850
ərək	-851
▁ilin	-852
lərlə	-853
▁Əliyevin	-854
əst	-855
▁sosial	-856
▁istiqamət	-857
itet	-858
▁gənc	-859
▁ək	-860
per	-861
lıb	-862
liyinin	-863
▁məş	-864
evr	-865
▁dəst	-866
▁Azərbaycanda	-867
▁sev	-868
...	-869
▁açı	-870
▁qor	-871
akim	-872
exn	-873
dilər	-874
asit	-875
tima	-876
".	-877
▁pros	-878
rin	-879
▁güc	-880
iqi	-881
▁başq	-882
▁etdir	-883
▁olunmuş	-884
▁danış	-885
sul	-886
▁çalış	-887
▁etdiyi	-888
▁Avrop	-889
▁sür	-890
olog	-891
ux	-892
van	-893
əyin	-894
▁olur	-895
▁oğ	-896
abağ	-897
ündə	-898
▁müddət	-899
▁yaxın	-900
▁qiy	-901
qan	-902
▁ermən	-903
▁gətir	-904
▁əməkdaş	-905
orp	-906
▁imk	-907
ırdı	-908
luq	-909
▁müs	-910
▁dəfə	-911
▁bər	-912
əmiz	-913
▁Mü	-914
stan	-915
əvi	-916
dam	-917
▁maraq	-918
▁şəkil	-919
yni	-920
▁Mər	-921
▁akt	-922
rat	-923
od	-924
▁El	-925
▁diqqət	-926
▁xüsusi	-927
mız	-928
▁sal	-929
▁onu	-930
iyanın	-931
ed	-932
ud	-933
▁səh	-934
▁sist	-935
▁sax	-936
▁azad	-937
▁səv	-938
çi	-939
əssis	-940
▁xan	-941
əmməd	-942
▁olduğu	-943
▁artıq	-944
▁form	-945
Azərbaycan	-946
▁səviyy	-947
▁çıxış	-948
▁tarixi	-949
dirilməsi	-950
▁vəzif	-951
▁li	-952
▁Ar	-953
▁təc	-954
▁bildirir	-955
asir	-956
▁üzv	-957
▁Həm	-958
çilər	-959
▁müst	-960
▁uy	-961
rup	-962
ilən	-963
▁olduğunu	-964
▁xari	-965
qram	-966
▁təşkilat	-967
əsiz	-968
▁yanaş	-969
▁maddə	-970
mr	-971
▁probl	-972
▁vasit	-973
▁uşaq	-974
caq	-975
▁yay	-976
▁alın	-977
aç	-978
▁şa	-979
▁yerləş	-980
▁hadi	-981
alan	-982
▁olunur	-983
▁zamanı	-984
xan	-985
ast	-986
▁par	-987
▁doğ	-988
arib	-989
▁əks	-990
▁müb	-991
min	-992
▁olunan	-993
ivers	-994
▁eh	-995
▁yaradı	-996
▁proses	-997
iki	-998
▁məqsəd	-999
oğ	-1000
▁siyasi	-1001
ələrdə	-1002
▁edilmiş	-1003
mağa	-1004
ılmış	-1005
ığ	-1006
▁mərkəz	-1007
ləm	-1008
larından	-1009
▁nazir	-1010
▁sır	-1011
▁dünya	-1012
▁qız	-1013
▁alt	-1014
▁ictima	-1015
________	-1016
▁qiymət	-1017
əsən	-1018
▁qərar	-1019
oq	-1020
▁I	-1021
dakı	-1022
irdi	-1023
siz	-1024
edi	-1025
▁şəkildə	-1026
ələn	-1027
▁hey	-1028
▁əməl	-1029
məyə	-1030
▁dəyər	-1031
ika	-1032
ədi	-1033
▁inf	-1034
▁edər	-1035
▁uyğun	-1036
▁kəs	-1037
▁Am	-1038
çinin	-1039
▁müv	-1040
biyyat	-1041
üvv	-1042
▁am	-1043
üd	-1044
əqil	-1045
iversitet	-1046
▁hərbi	-1047
irlər	-1048
ti	-1049
eat	-1050
stit	-1051
▁ərz	-1052
▁mədəniyyət	-1053
▁aç	-1054
lis	-1055
ılır	-1056
▁elmi	-1057
▁hakim	-1058
▁görüş	-1059
adın	-1060
▁imkan	-1061
▁bildirib	-1062
▁Qarabağ	-1063
▁yaxşı	-1064
▁problem	-1065
▁bəz	-1066
▁yazı	-1067
ova	-1068
▁üzər	-1069
▁olmaq	-1070
▁ölkəmiz	-1071
urn	-1072
▁başqa	-1073
landır	-1074
məsinə	-1075
▁təsir	-1076
▁rol	-1077
▁torp	-1078
ansı	-1079
▁nəfər	-1080
ünü	-1081
▁müq	-1082
▁sənət	-1083
ovun	-1084
eda	-1085
tür	-1086
dığ	-1087
▁yaran	-1088
▁Ermənistan	-1089
kün	-1090
▁en	-1091
▁zər	-1092
▁sahib	-1093
▁ona	-1094
irk	-1095
▁iqtisadi	-1096
larımız	-1097
ili	-1098
ladı	-1099
▁bəy	-1100
▁keçirilən	-1101
məy	-1102
masına	-1103
▁Ağ	-1104
▁Mərkəz	-1105
azı	-1106
▁qanun	-1107
▁nümayəndə	-1108
usu	-1109
▁müt	-1110
▁müharib	-1111
▁etmiş	-1112
▁təhlük	-1113
▁ib	-1114
dafi	-1115
▁Avropa	-1116
▁qey	-1117
▁iç	-1118
▁ik	-1119
tar	-1120
▁fa	-1121
eft	-1122
diq	-1123
dıq	-1124
gion	-1125
▁tik	-1126
▁Prezidenti	-1127
▁səd	-1128
iyası	-1129
▁qazan	-1130
▁j	-1131
▁vətəndaş	-1132
ant	-1133
▁istəy	-1134
▁sistem	-1135
▁yaradıcı	-1136
▁qrup	-1137
▁əlav	-1138
▁dair	-1139
eçə	-1140
▁mey	-1141
alıdır	-1142
ərç	-1143
din	-1144
▁etdi	-1145
▁hadisə	-1146
iyasının	-1147
▁müasir	-1148
rik	-1149
▁qarşıs	-1150
ələrində	-1151
▁çıxar	-1152
▁texn	-1153
nin	-1154
əsindən	-1155
müş	-1156
sal	-1157
▁ət	-1158
ünün	-1159
▁xarici	-1160
▁isteh	-1161
▁Mən	-1162
▁müstəqil	-1163
əlb	-1164
▁int	-1165
emi	-1166
▁döy	-1167
▁təsdiq	-1168
▁nəticəsində	-1169
▁ərzində	-1170
▁edilib	-1171
▁üst	-1172
▁mus	-1173
▁Baş	-1174
▁əsasən	-1175
▁qəz	-1176
ort	-1177
▁başlay	-1178
▁hansı	-1179
oz	-1180
▁yetir	-1181
▁ədəbiyyat	-1182
amı	-1183
azım	-1184
▁mühüm	-1185
çısı	-1186
▁orqan	-1187
▁Rusiya	-1188
▁Məh	-1189
▁düşün	-1190
▁Məc	-1191
▁idar	-1192
▁şərait	-1193
▁əldə	-1194
▁çatdır	-1195
afiq	-1196
tər	-1197
oloji	-1198
siya	-1199
▁türk	-1200
▁işğ	-1201
▁Kon	-1202
▁nö	-1203
▁adam	-1204
ləşdir	-1205
▁zamanda	-1206
pl	-1207
▁ölkə	-1208
əlidir	-1209
▁əhəmiyyət	-1210
ünki	-1211
▁çevr	-1212
imi	-1213
▁yarat	-1214
rət	-1215
▁Son	-1216
▁eyni	-1217
var	-1218
▁tur	-1219
▁siyasət	-1220
▁qurul	-1221
əhr	-1222
ail	-1223
▁malik	-1224
aların	-1225
▁pay	-1226
▁hök	-1227
▁əhal	-1228
▁dol	-1229
▁olmay	-1230
ulu	-1231
tif	-1232
eatr	-1233
▁bizim	-1234
▁neçə	-1235
▁əlavə	-1236
▁olunub	-1237
▁səs	-1238
▁artır	-1239
▁ek	-1240
▁Ab	-1241
▁mily	-1242
▁açıq	-1243
▁Onun	-1244
yabr	-1245
diyini	-1246
▁edilir	-1247
▁xat	-1248
▁proqram	-1249
▁ob	-1250
iliy	-1251
ünə	-1252
▁illərdə	-1253
▁sahəsində	-1254
lərimiz	-1255
▁hərək	-1256
▁top	-1257
iri	-1258
aln	-1259
cud	-1260
▁tətb	-1261
▁Biz	-1262
▁tutul	-1263
əlik	-1264
▁sil	-1265
▁möh	-1266
▁edilən	-1267
▁vəziyyət	-1268
▁man	-1269
▁fərq	-1270
▁xanım	-1271
ılıb	-1272
▁din	-1273
▁Un	-1274
▁işğal	-1275
▁cav	-1276
▁region	-1277
▁ümum	-1278
ark	-1279
▁qüvv	-1280
▁ab	-1281
▁növb	-1282
alnız	-1283
▁eht	-1284
▁Komi	-1285
hur	-1286
tən	-1287
ərbaycan	-1288
▁müəssis	-1289
▁mərh	-1290
end	-1291
isində	-1292
urnal	-1293
▁edəc	-1294
▁torpaq	-1295
▁məhsul	-1296
məz	-1297
▁döyüş	-1298
ond	-1299
▁fikir	-1300
eq	-1301
▁hazırlan	-1302
▁mövcud	-1303
▁müvafiq	-1304
▁yenidən	-1305
aşa	-1306
▁gələn	-1307
▁imz	-1308
▁oğlu	-1309
irə	-1310
▁qayda	-1311
▁baz	-1312
▁get	-1313
əkk	-1314
▁müş	-1315
▁azərbaycan	-1316
▁Belə	-1317
▁iz	-1318
gə	-1319
▁öy	-1320
▁tən	-1321
▁nəzərdə	-1322
▁is	-1323
▁avt	-1324
▁xəs	-1325
▁ətraf	-1326
▁lazım	-1327
▁verən	-1328
▁ax	-1329
▁–	-1330
▁düz	-1331
▁Hər	-1332
ern	-1333
▁edərək	-1334
▁qadın	-1335
▁qab	-1336
lığın	-1337
▁mübar	-1338
iyev	-1339
asından	-1340
tə	-1341
▁şe	-1342
ətbu	-1343
mam	-1344
",	-1345
ələrə	-1346
kr	-1347
▁mövz	-1348
▁rəs	-1349
▁gözəl	-1350
▁müəllim	-1351
▁göstərir	-1352
ult	-1353
aat	-1354
▁cüm	-1355
lub	-1356
ovet	-1357
▁elm	-1358
▁iy	-1359
▁ix	-1360
▁bit	-1361
▁Məmməd	-1362
ayev	-1363
tı	-1364
ilərin	-1365
na	-1366
▁səfər	-1367
ndər	-1368
▁yanaşı	-1369
ver	-1370
ron	-1371
▁götür	-1372
▁cin	-1373
qiqat	-1374
▁Universitet	-1375
▁qon	-1376
▁real	-1377
▁tərk	-1378
BŞ	-1379
▁vurğul	-1380
▁ictimai	-1381
▁dərəc	-1382
ilir	-1383
▁cəmiyyət	-1384
qaz	-1385
▁uzun	-1386
maz	-1387
▁Or	-1388
nam	-1389
▁yalnız	-1390
▁icra	-1391
ıcı	-1392
▁inkişafı	-1393
▁bölg	-1394
ərçiv	-1395
▁təbi	-1396
▁idarə	-1397
▁İt	-1398
yü	-1399
▁can	-1400
▁yen	-1401
▁zəng	-1402
▁oyn	-1403
▁sənəd	-1404
”.	-1405
▁səm	-1406
▁cavab	-1407
▁ibarət	-1408
▁soy	-1409
▁olmuşdur	-1410
▁çərçiv	-1411
bur	-1412
▁müm	-1413
əsr	-1414
▁deyib	-1415
anında	-1416
iç	-1417
pr	-1418
▁mümkün	-1419
▁sağ	-1420
▁erməni	-1421
ərr	-1422
▁oy	-1423
dın	-1424
▁tel	-1425
▁şey	-1426
▁Əs	-1427
umi	-1428
uh	-1429
▁respublik	-1430
gün	-1431
izi	-1432
▁ABŞ	-1433
pi	-1434
ələrini	-1435
▁mərhəl	-1436
▁ifadə	-1437
▁həmçinin	-1438
▁dost	-1439
▁həll	-1440
▁boy	-1441
▁tanın	-1442
▁çəkil	-1443
▁nəz	-1444
▁əz	-1445
liyin	-1446
sız	-1447
▁şirk	-1448
▁qəl	-1449
▁müra	-1450
ətbuat	-1451
▁bay	-1452
ess	-1453
▁işlər	-1454
▁müraci	-1455
▁ot	-1456
ilməsi	-1457
▁məc	-1458
▁bəl	-1459
▁nail	-1460
ektiv	-1461
▁adı	-1462
▁cid	-1463
adiyyat	-1464
üseyn	-1465
▁Amma	-1466
▁etmişdir	-1467
ırlar	-1468
▁qeyri	-1469
▁aşağı	-1470
ətta	-1471
▁Lakin	-1472
▁yerinə	-1473
çu	-1474
▁başa	-1475
▁müdafi	-1476
▁kən	-1477
▁lid	-1478
▁baxım	-1479
▁çətin	-1480
▁görün	-1481
ənub	-1482
▁Əl	-1483
▁öyr	-1484
▁verib	-1485
▁mah	-1486
▁Üm	-1487
▁bunu	-1488
▁jurnal	-1489
ecə	-1490
▁aid	-1491
▁formal	-1492
stitut	-1493
▁ail	-1494
▁nümun	-1495
▁Ak	-1496
ank	-1497
ıs	-1498
▁adlı	-1499
▁ildən	-1500
iləri	-1501
▁birinci	-1502
▁illər	-1503
rib	-1504
▁üzərində	-1505
▁ciddi	-1506
▁dəstək	-1507
▁İr	-1508
▁tarixli	-1509
▁,	-1510
▁əsasında	-1511
▁tədbirlər	-1512
▁Türkiyə	-1513
▁altında	-1514
▁cəh	-1515
▁cümlə	-1516
məm	-1517
▁arx	-1518
ativ	-1519
▁Qan	-1520
▁Şur	-1521
▁met	-1522
rukt	-1523
ləndiril	-1524
▁dəyişik	-1525
izam	-1526
▁olacaq	-1527
▁söy	-1528
▁Türkiy	-1529
inq	-1530
▁çərçivəsində	-1531
▁Çünki	-1532
▁Əli	-1533
▁azərbaycanlı	-1534
ormasiya	-1535
zadə	-1536
ust	-1537
afqaz	-1538
ədar	-1539
▁sədri	-1540
kin	-1541
ununla	-1542
▁müz	-1543
▁mənim	-1544
▁dem	-1545
▁un	-1546
▁film	-1547
▁mövq	-1548
abit	-1549
▁kim	-1550
▁şəhərində	-1551
işə	-1552
irəm	-1553
▁Xalq	-1554
▁bac	-1555
ədim	-1556
▁plan	-1557
▁müraciət	-1558
▁milyon	-1559
ağır	-1560
▁dir	-1561
şıl	-1562
▁ener	-1563
▁ölkənin	-1564
▁nömr	-1565
▁xəstəl	-1566
ənn	-1567
▁göndər	-1568
▁No	-1569
▁olması	-1570
▁Qeyd	-1571
▁Düny	-1572
▁məz	-1573
likdə	-1574
ələrinə	-1575
ara	-1576
▁araşdır	-1577
▁onlar	-1578
▁gəlir	-1579
▁təhlükəsiz	-1580
▁ikinci	-1581
▁təcr	-1582
ektor	-1583
urs	-1584
atının	-1585
obil	-1586
▁təkli	-1587
▁təyin	-1588
▁Təh	-1589
▁şair	-1590
əkar	-1591
əql	-1592
▁müzak	-1593
▁sıra	-1594
▁qoyul	-1595
▁əsr	-1596
alarının	-1597
▁Pro	-1598
▁daş	-1599
▁özünü	-1600
▁istehsal	-1601
ətinin	-1602
▁öyrən	-1603
ris	-1604
axçı	-1605
▁dünyanın	-1606
▁demək	-1607
▁nəş	-1608
acib	-1609
▁it	-1610
▁qət	-1611
▁nam	-1612
▁istiqamətində	-1613
mişdi	-1614
▁bin	-1615
▁bərp	-1616
oc	-1617
▁burada	-1618
▁Beynəlxalq	-1619
izin	-1620
eg	-1621
▁tətbiq	-1622
▁dayan	-1623
▁başlan	-1624
▁elekt	-1625
▁olunması	-1626
▁Allah	-1627
ator	-1628
▁hələ	-1629
▁avtom	-1630
▁addım	-1631
▁xey	-1632
▁as	-1633
daşı	-1634
▁rəq	-1635
▁həq	-1636
▁şeir	-1637
imizin	-1638
gil	-1639
▁Vətən	-1640
yə	-1641
ep	-1642
▁qəzet	-1643
▁Gənc	-1644
▁nümayiş	-1645
ologiya	-1646
▁yolu	-1647
▁bəzi	-1648
▁orta	-1649
əhrəm	-1650
▁əməliyyat	-1651
▁prezident	-1652
uc	-1653
▁poz	-1654
▁ayrı	-1655
ayı	-1656
▁edəcək	-1657
ruktur	-1658
▁köç	-1659
▁vacib	-1660
▁cümlədən	-1661
▁İş	-1662
II	-1663
▁xoş	-1664
▁gələcək	-1665
▁silah	-1666
ərrüf	-1667
▁Hüseyn	-1668
lığa	-1669
▁yad	-1670
mun	-1671
ida	-1672
▁zəngin	-1673
▁xət	-1674
▁Əh	-1675
▁saxlan	-1676
▁məhz	-1677
▁indi	-1678
▁necə	-1679
▁ür	-1680
▁qaldır	-1681
▁qurum	-1682
iyada	-1683
ınız	-1684
▁əlaqədar	-1685
öb	-1686
▁Həmin	-1687
▁Mir	-1688
▁hərəkət	-1689
▁dəyişiklik	-1690
ati	-1691
▁olduq	-1692
▁fakt	-1693
lim	-1694
▁təcrüb	-1695
▁məşğul	-1696
ert	-1697
▁tez	-1698
▁musiqi	-1699
▁saat	-1700
▁cəlb	-1701
▁iqtisadiyyat	-1702
▁qayı	-1703
ali	-1704
▁ziy	-1705
mışdı	-1706
▁bun	-1707
liyini	-1708
▁nəs	-1709
▁görül	-1710
ələrlə	-1711
▁dur	-1712
▁təklif	-1713
iyyətlə	-1714
▁Naxçı	-1715
▁ümumi	-1716
tifaq	-1717
duğu	-1718
▁alim	-1719
▁fəaliyyəti	-1720
ımızın	-1721
▁etməyə	-1722
▁St	-1723
ban	-1724
▁ağır	-1725
ərim	-1726
▁hökum	-1727
▁fər	-1728
uzey	-1729
lad	-1730
▁rej	-1731
▁ola	-1732
▁Meh	-1733
▁Ümum	-1734
sk	-1735
rend	-1736
ələrdən	-1737
▁mətbuat	-1738
▁edilmişdir	-1739
▁vəs	-1740
▁xar	-1741
▁Mədən	-1742
▁ruh	-1743
ırıq	-1744
▁prof	-1745
oll	-1746
acağ	-1747
▁Qər	-1748
▁dünyada	-1749
▁işləri	-1750
▁müav	-1751
▁peş	-1752
▁miq	-1753
▁dağ	-1754
▁təx	-1755
▁Sər	-1756
▁çevril	-1757
sən	-1758
▁hüquqi	-1759
▁daşı	-1760
▁neft	-1761
▁möhkəm	-1762
▁həsr	-1763
malar	-1764
▁norm	-1765
▁adına	-1766
▁birgə	-1767
of	-1768
▁Bakıda	-1769
ƏR	-1770
▁sürət	-1771
əbb	-1772
▁tərkib	-1773
▁naziri	-1774
ual	-1775
ayda	-1776
eyf	-1777
əqliyyat	-1778
eks	-1779
▁ak	-1780
▁layiq	-1781
▁yerli	-1782
frans	-1783
nun	-1784
▁yoxdur	-1785
sun	-1786
məlidir	-1787
lk	-1788
▁qorun	-1789
▁teatr	-1790
ahat	-1791
həd	-1792
dığını	-1793
siniz	-1794
ayıb	-1795
ala	-1796
▁kömək	-1797
ılmışdır	-1798
əcəy	-1799
▁arz	-1800
▁Nazirliyi	-1801
▁tədqiqat	-1802
suz	-1803
▁idman	-1804
ışdır	-1805
andan	-1806
vət	-1807
ütöv	-1808
▁hav	-1809
raz	-1810
nın	-1811
alın	-1812
çisi	-1813
irus	-1814
▁ənən	-1815
▁sahədə	-1816
▁cinayət	-1817
▁ərazisində	-1818
məsini	-1819
ülh	-1820
▁ord	-1821
▁xəst	-1822
▁qul	-1823
öhbət	-1824
iyyətinin	-1825
ibar	-1826
las	-1827
▁sat	-1828
▁oxu	-1829
▁manat	-1830
▁məqsədilə	-1831
nə	-1832
▁Mərkəzi	-1833
▁yaşayan	-1834
▁eləcə	-1835
▁qoş	-1836
ədii	-1837
ektoru	-1838
▁his	-1839
▁qarşısında	-1840
dikləri	-1841
▁dən	-1842
▁Frans	-1843
▁millət	-1844
▁part	-1845
▁keçirilməsi	-1846
▁lider	-1847
lində	-1848
ıram	-1849
▁tamam	-1850
▁yön	-1851
▁mədəni	-1852
adığı	-1853
▁hüc	-1854
isinin	-1855
▁mat	-1856
▁əvəz	-1857
▁nəzərə	-1858
▁müqav	-1859
▁ali	-1860
▁maraqlı	-1861
▁nəşr	-1862
ləyir	-1863
▁təz	-1864
▁Bur	-1865
▁Nazirliyinin	-1866
▁ort	-1867
çilik	-1868
▁Azərbaycana	-1869
çılar	-1870
lanan	-1871
▁verilən	-1872
▁Akad	-1873
▁Ay	-1874
▁Qur	-1875
veri	-1876
əfli	-1877
▁ins	-1878
▁dəqiq	-1879
abiq	-1880
liyinə	-1881
çılıq	-1882
▁kor	-1883
▁yerləşən	-1884
▁İc	-1885
▁keçmiş	-1886
▁meydan	-1887
▁nömrəli	-1888
▁təmsil	-1889
▁cür	-1890
▁kat	-1891
ündən	-1892
üç	-1893
▁edirlər	-1894
▁Hac	-1895
▁qat	-1896
okrat	-1897
▁məşhur	-1898
▁şəh	-1899
▁tanış	-1900
▁komi	-1901
▁rus	-1902
gent	-1903
▁lazımdır	-1904
dəki	-1905
),	-1906
▁əməkdaşlıq	-1907
▁sayı	-1908
▁bal	-1909
▁təsərrüf	-1910
▁keyf	-1911
▁kons	-1912
▁xarakt	-1913
▁qədim	-1914
▁mənt	-1915
▁Komit	-1916
məsində	-1917
▁insanların	-1918
▁ölkədə	-1919
▁şöb	-1920
erial	-1921
▁bütöv	-1922
▁etdiril	-1923
ılmasına	-1924
▁ün	-1925
▁halda	-1926
▁şah	-1927
yekt	-1928
rinsi	-1929
▁Ali	-1930
▁faiz	-1931
ləğ	-1932
▁güclü	-1933
▁etibar	-1934
▁may	-1935
▁inkişafına	-1936
▁informasiya	-1937
▁uzaq	-1938
▁rəsmi	-1939
atlar	-1940
________________	-1941
▁deyə	-1942
üst	-1943
mayaraq	-1944
əxsus	-1945
ologiy	-1946
▁ərazilər	-1947
▁tör	-1948
▁prinsi	-1949
▁dövründə	-1950
▁İnstitut	-1951
luğ	-1952
▁olmaqla	-1953
▁vəsait	-1954
əbək	-1955
▁birlikdə	-1956
milli	-1957
▁Öz	-1958
lığının	-1959
▁ölüm	-1960
ağın	-1961
üsü	-1962
▁Bundan	-1963
sədi	-1964
▁kr	-1965
▁Mədəniyyət	-1966
▁əy	-1967
osk	-1968
ana	-1969
▁yardım	-1970
▁ter	-1971
▁sonr	-1972
▁pul	-1973
▁hətta	-1974
▁ərazi	-1975
▁mod	-1976
▁Bütün	-1977
▁dərin	-1978
iyasi	-1979
▁üzvü	-1980
ürcü	-1981
vi	-1982
▁yaşam	-1983
▁olmayan	-1984
çik	-1985
▁inc	-1986
▁münaq	-1987
ard	-1988
▁bundan	-1989
məti	-1990
▁irəli	-1991
▁məcbur	-1992
Trend	-1993
▁nəzarət	-1994
SR	-1995
lament	-1996
▁başladı	-1997
ssiy	-1998
▁məhkəm	-1999
ahib	-2000
lığını	-2001
maqla	-2002
▁dek	-2003
nı	-2004
▁Qafqaz	-2005
ünas	-2006
▁dön	-2007
lin	-2008
za	-2009
▁qı	-2010
▁yaşlı	-2011
ahidə	-2012
▁başçısı	-2013
alıq	-2014
ımı	-2015
ərg	-2016
▁Fər	-2017
▁istər	-2018
▁Məs	-2019
gir	-2020
amız	-2021
▁tə	-2022
▁özü	-2023
ləndirilməsi	-2024
▁öndər	-2025
lamaq	-2026
ip	-2027
▁düşmən	-2028
▁ölkəmizin	-2029
yor	-2030
▁yux	-2031
▁qəhrəm	-2032
▁təbii	-2033
▁çağır	-2034
▁İdar	-2035
▁məqsədi	-2036
▁məsul	-2037
▁olunm	-2038
▁müavini	-2039
əlil	-2040
▁insanlar	-2041
umuz	-2042
▁Böyük	-2043
abin	-2044
əsilə	-2045
taxt	-2046
▁qəs	-2047
əqq	-2048
məsinin	-2049
ləşdiril	-2050
▁bələd	-2051
▁yaradılması	-2052
▁Şərq	-2053
▁qaç	-2054
▁uğr	-2055
▁amma	-2056
ənab	-2057
▁edirdi	-2058
ıldı	-2059
▁əhat	-2060
▁tikin	-2061
▁islah	-2062
▁abidə	-2063
laq	-2064
kaf	-2065
▁Dağ	-2066
▁Təd	-2067
▁ası	-2068
▁təşəbb	-2069
▁edək	-2070
▁avtomobil	-2071
▁Fond	-2072
▁Kom	-2073
▁sim	-2074
dul	-2075
ktyabr	-2076
▁azal	-2077
▁sözləri	-2078
▁xarakter	-2079
▁sənay	-2080
▁sülh	-2081
▁imt	-2082
▁şəbək	-2083
oqraf	-2084
ost	-2085
▁müdafiə	-2086
▁Ancaq	-2087
▁As	-2088
▁yaşayış	-2089
luğu	-2090
▁sadə	-2091
manın	-2092
▁yat	-2093
adığ	-2094
▁dövrdə	-2095
liyə	-2096
▁jurnalist	-2097
▁həqiq	-2098
liğ	-2099
▁burax	-2100
▁ma	-2101
▁İslam	-2102
▁səl	-2103
əbi	-2104
lış	-2105
▁turizm	-2106
▁pr	-2107
▁onlara	-2108
entyabr	-2109
▁İttifaq	-2110
dənin	-2111
▁Sovet	-2112
essor	-2113
layıb	-2114
rada	-2115
abinet	-2116
▁strat	-2117
bol	-2118
▁ehtiya	-2119
▁bədii	-2120
▁mühit	-2121
▁buna	-2122
▁Nazirlər	-2123
▁mükaf	-2124
▁dərs	-2125
▁Ona	-2126
mil	-2127
▁yüksəl	-2128
▁Naxçıvan	-2129
▁qayğı	-2130
▁qır	-2131
axtar	-2132
▁SSR	-2133
▁edirəm	-2134
▁kiş	-2135
▁baxmayaraq	-2136
▁fəl	-2137
prel	-2138
oyabr	-2139
▁növbəti	-2140
▁Yeni	-2141
▁həmişə	-2142
ələrindən	-2143
▁əsrin	-2144
▁rəng	-2145
▁şəx	-2146
▁xər	-2147
▁daxili	-2148
indəki	-2149
and	-2150
ələ	-2151
oskv	-2152
▁Tur	-2153
▁ədəbi	-2154
▁məras	-2155
əncam	-2156
▁rəhbəri	-2157
▁ixtis	-2158
lığında	-2159
▁qap	-2160
▁tib	-2161
▁gəlib	-2162
▁.	-2163
▁eş	-2164
▁göstərən	-2165
▁Dünya	-2166
▁Bil	-2167
▁gir	-2168
▁yarım	-2169
▁səviyyədə	-2170
▁hamı	-2171
str	-2172
▁təbliğ	-2173
lıqlı	-2174
▁səmər	-2175
▁idey	-2176
əsidir	-2177
zib	-2178
▁zərur	-2179
▁kiçik	-2180
plom	-2181
▁səf	-2182
▁xatır	-2183
iyyətli	-2184
▁sağlam	-2185
▁bəyan	-2186
▁bərpa	-2187
sının	-2188
▁Şuş	-2189
üfuz	-2190
məyi	-2191
malı	-2192
▁ödən	-2193
iniz	-2194
▁əhəmiyyətli	-2195
qır	-2196
▁ötən	-2197
▁dini	-2198
mizin	-2199
kəmli	-2200
▁tox	-2201
▁İran	-2202
▁Əmək	-2203
▁sərhəd	-2204
▁illik	-2205
azırda	-2206
abər	-2207
▁Qaz	-2208
▁san	-2209
eyi	-2210
▁söhbət	-2211
kray	-2212
▁Həsən	-2213
▁eks	-2214
▁mənə	-2215
▁mənb	-2216
”,	-2217
rar	-2218
▁ayr	-2219
▁maliyyə	-2220
▁kin	-2221
▁vasitəsilə	-2222
▁müşahidə	-2223
▁aşkar	-2224
iyi	-2225
uğ	-2226
▁val	-2227
itab	-2228
▁nüfuz	-2229
stitus	-2230
▁kar	-2231
▁həd	-2232
məklə	-2233
▁onları	-2234
▁mənəvi	-2235
▁mübarizə	-2236
sinin	-2237
▁Prezidentinin	-2238
▁Di	-2239
▁daim	-2240
estiv	-2241
veric	-2242
▁Moskv	-2243
ilmiş	-2244
▁uğurla	-2245
▁alıb	-2246
▁formalaş	-2247
▁hücum	-2248
▁itir	-2249
əzər	-2250
▁duy	-2251
br	-2252
etik	-2253
▁hakimiyyət	-2254
▁Ermənistanın	-2255
örd	-2256
▁gül	-2257
▁Ər	-2258
▁asılı	-2259
▁yığ	-2260
TA	-2261
▁Par	-2262
aha	-2263
▁enerji	-2264
▁rəhbərliyi	-2265
diri	-2266
▁bilir	-2267
sın	-2268
▁rayonunun	-2269
irin	-2270
şünas	-2271
▁xadi	-2272
▁ailə	-2273
▁nar	-2274
▁bazar	-2275
vər	-2276
▁ifa	-2277
▁keçirilib	-2278
ilib	-2279
atik	-2280
əkim	-2281
anlar	-2282
▁verdiyi	-2283
isti	-2284
dikdən	-2285
▁tapş	-2286
əssam	-2287
iqtis	-2288
əlman	-2289
▁Br	-2290
mayıl	-2291
▁Şah	-2292
▁nəqliyyat	-2293
▁deyir	-2294
▁bilmir	-2295
▁tanı	-2296
▁qardaş	-2297
▁cəm	-2298
▁fərqli	-2299
▁yanında	-2300
ahı	-2301
▁Kr	-2302
dud	-2303
▁oyun	-2304
▁elan	-2305
▁gündə	-2306
əxt	-2307
mər	-2308
eral	-2309
əxəssis	-2310
▁konfrans	-2311
övq	-2312
▁kil	-2313
▁uğrunda	-2314
▁bərabər	-2315
▁ölkəmizdə	-2316
iqtisadi	-2317
əğ	-2318
▁şəhid	-2319
və	-2320
ibi	-2321
▁pl	-2322
▁Sən	-2323
asiyası	-2324
emik	-2325
şa	-2326
▁münaqiş	-2327
pan	-2328
▁məruz	-2329
▁inan	-2330
mür	-2331
▁Qanunun	-2332
▁üstün	-2333
▁başçı	-2334
▁Nizam	-2335
▁olundu	-2336
lüy	-2337
▁Kabinet	-2338
oten	-2339
düyü	-2340
lıqla	-2341
əri	-2342
səf	-2343
ümüz	-2344
liklə	-2345
yev	-2346
▁Dağlıq	-2347
dək	-2348
lob	-2349
▁sin	-2350
▁doğru	-2351
▁küt	-2352
əff	-2353
▁paytaxt	-2354
nik	-2355
▁Cənub	-2356
əsənət	-2357
▁fil	-2358
▁şərt	-2359
ec	-2360
▁şirkət	-2361
arası	-2362
▁məm	-2363
ülən	-2364
məli	-2365
pər	-2366
▁ediblər	-2367
örmət	-2368
▁bacar	-2369
▁əhatə	-2370
▁Tər	-2371
▁şəhəri	-2372
▁adlandır	-2373
▁önəm	-2374
▁xəstəlik	-2375
masında	-2376
▁lakin	-2377
▁işıq	-2378
▁məqal	-2379
istan	-2380
atları	-2381
▁yerdə	-2382
▁almaq	-2383
▁çap	-2384
▁Eyni	-2385
▁sözlərinə	-2386
▁Gör	-2387
mədən	-2388
▁təsv	-2389
▁poten	-2390
▁gedən	-2391
▁At	-2392
etr	-2393
daq	-2394
▁Alman	-2395
bəy	-2396
▁Onlar	-2397
üy	-2398
▁kənar	-2399
▁sentyabr	-2400
▁axtar	-2401
▁Akadem	-2402
ləyən	-2403
atın	-2404
▁oktyabr	-2405
çək	-2406
ktoru	-2407
▁aparılan	-2408
▁Əgər	-2409
işi	-2410
▁məb	-2411
▁şəxsi	-2412
▁Bel	-2413
übh	-2414
▁uğurlu	-2415
▁öv	-2416
▁diplom	-2417
▁qarşılıqlı	-2418
▁günü	-2419
əcəyi	-2420
▁aydın	-2421
▁hazırda	-2422
dikdə	-2423
▁prinsip	-2424
▁baxımından	-2425
▁yanvar	-2426
zibati	-2427
onun	-2428
▁dünyaya	-2429
▁məqam	-2430
pert	-2431
▁təkcə	-2432
▁xatir	-2433
▁küç	-2434
▁İsmayıl	-2435
ahid	-2436
▁bayram	-2437
▁meda	-2438
dalət	-2439
▁şəxsiyyət	-2440
▁Əhməd	-2441
▁noyabr	-2442
▁direktoru	-2443
▁bunun	-2444
▁sıx	-2445
empi	-2446
▁Mus	-2447
▁sığ	-2448
▁Ukray	-2449
lənməsi	-2450
▁iştirakçı	-2451
▁dekabr	-2452
lobal	-2453
▁olsun	-2454
▁çay	-2455
▁görür	-2456
▁hissəsi	-2457
ES	-2458
▁aradan	-2459
▁edildi	-2460
▁icr	-2461
▁olsa	-2462
▁təmiz	-2463
▁sar	-2464
▁hakimiyyəti	-2465
eviz	-2466
idi	-2467
ZƏR	-2468
dəs	-2469
▁əhalinin	-2470
▁xalqın	-2471
ahim	-2472
onav	-2473
six	-2474
ümə	-2475
▁oxuy	-2476
ell	-2477
▁uc	-2478
▁koll	-2479
▁verilməsi	-2480
atur	-2481
▁sektor	-2482
inc	-2483
▁kif	-2484
▁müəllif	-2485
▁Bununla	-2486
uman	-2487
▁mis	-2488
▁Gürcü	-2489
▁professor	-2490
▁iddi	-2491
▁obyekt	-2492
▁Təş	-2493
kilər	-2494
MT	-2495
▁hab	-2496
▁töh	-2497
▁müsbət	-2498
eyt	-2499
▁qəsəb	-2500
imal	-2501
▁mərkəzi	-2502
oloq	-2503
anə	-2504
▁Rayon	-2505
▁:	-2506
▁musiq	-2507
adr	-2508
▁Mirz	-2509
▁aprel	-2510
ide	-2511
məyən	-2512
▁beş	-2513
utbol	-2514
▁Bay	-2515
▁görkəmli	-2516
▁məni	-2517
▁kam	-2518
▁kifayət	-2519
gird	-2520
▁mübariz	-2521
▁sual	-2522
ror	-2523
empion	-2524
layır	-2525
ədir	-2526
▁yağ	-2527
əll	-2528
▁şək	-2529
▁yeri	-2530
▁təlim	-2531
▁əksər	-2532
▁özünün	-2533
▁dövlətin	-2534
▁sənətkar	-2535
ləşdirilməsi	-2536
▁xüsusilə	-2537
riban	-2538
▁Xoc	-2539
▁gedir	-2540
AzTrend	-2541
▁qis	-2542
▁tamaş	-2543
▁ondan	-2544
▁qonaq	-2545
▁xal	-2546
▁işi	-2547
▁geri	-2548
▁məntəq	-2549
say	-2550
▁etir	-2551
vest	-2552
▁demokrat	-2553
▁medi	-2554
▁başlam	-2555
icarət	-2556
▁universitet	-2557
▁dedi	-2558
▁ancaq	-2559
▁ger	-2560
▁keçirilir	-2561
▁tarixində	-2562
umu	-2563
▁Burada	-2564
▁əsgər	-2565
▁komanda	-2566
▁səhn	-2567
şaq	-2568
▁mart	-2569
▁mar	-2570
oğlu	-2571
▁yüz	-2572
▁habelə	-2573
▁töhf	-2574
▁insanın	-2575
▁səy	-2576
▁bilməz	-2577
onavirus	-2578
▁rom	-2579
▁dəniz	-2580
onal	-2581
▁yönəl	-2582
▁keçən	-2583
qt	-2584
anına	-2585
dılar	-2586
▁Universitetinin	-2587
▁müzakirə	-2588
▁mövzu	-2589
▁qiymətləndir	-2590
▁qida	-2591
▁çev	-2592
▁Hazırda	-2593
cıl	-2594
ətli	-2595
▁qəhrəman	-2596
▁müsabiq	-2597
asp	-2598
məl	-2599
▁sor	-2600
lak	-2601
ətə	-2602
▁aşağıdakı	-2603
masının	-2604
rast	-2605
axı	-2606
məmiş	-2607
▁yaxşıl	-2608
▁dep	-2609
ayır	-2610
mid	-2611
▁aktyor	-2612
▁Ax	-2613
▁Təşkil	-2614
▁kompl	-2615
liz	-2616
▁fayda	-2617
iyaya	-2618
▁cənab	-2619
bas	-2620
▁sak	-2621
▁edilsin	-2622
▁cəhət	-2623
yun	-2624
▁alan	-2625
ani	-2626
▁olunmuşdur	-2627
▁yarış	-2628
örp	-2629
▁yazır	-2630
;.	-2631
▁material	-2632
mü	-2633
▁yaxud	-2634
▁mütəxəssis	-2635
▁Əb	-2636
▁mon	-2637
▁bəh	-2638
übut	-2639
▁qanunveric	-2640
▁tamaşa	-2641
▁ehtiyac	-2642
▁siy	-2643
inal	-2644
▁ürək	-2645
▁bənd	-2646
eyh	-2647
▁qısa	-2648
▁reda	-2649
etmə	-2650
▁maddi	-2651
▁fevr	-2652
▁tanınmış	-2653
bul	-2654
larımızın	-2655
şam	-2656
▁bizə	-2657
▁sözü	-2658
▁düzgün	-2659
▁səlah	-2660
▁komp	-2661
▁yek	-2662
▁məlumata	-2663
▁Şurasının	-2664
▁verilib	-2665
ill	-2666
▁Az	-2667
▁qələb	-2668
▁salın	-2669
▁imzalan	-2670
▁isteda	-2671
olk	-2672
urdu	-2673
İN	-2674
▁fəlsəf	-2675
▁etməsi	-2676
▁daşıy	-2677
▁vardır	-2678
▁dörd	-2679
▁sahibkar	-2680
▁öldür	-2681
▁tal	-2682
andar	-2683
lığına	-2684
▁siyasəti	-2685
yas	-2686
arif	-2687
▁ayında	-2688
▁xalqının	-2689
masını	-2690
iyalar	-2691
▁Kitab	-2692
brahim	-2693
▁xeyli	-2694
▁ehtiy	-2695
▁giz	-2696
▁baxış	-2697
AN	-2698
ümü	-2699
itar	-2700
qust	-2701
▁nəticə	-2702
▁sübut	-2703
kə	-2704
▁rejiss	-2705
▁Elə	-2706
▁prezidenti	-2707
▁Konstitus	-2708
▁İst	-2709
irik	-2710
▁Məcli	-2711
▁hissə	-2712
▁büd	-2713
lanır	-2714
ubil	-2715
uxtar	-2716
▁aləm	-2717
▁fiz	-2718
▁stat	-2719
▁səmərəli	-2720
adir	-2721
▁Cav	-2722
usunda	-2723
▁uç	-2724
rastruktur	-2725
kur	-2726
yar	-2727
▁elektron	-2728
anal	-2729
əliklə	-2730
▁hörmət	-2731
▁Gün	-2732
lil	-2733
▁şagird	-2734
usunun	-2735
erik	-2736
bar	-2737
▁istis	-2738
▁bitir	-2739
▁BMT	-2740
ıblar	-2741
▁ixtisas	-2742
▁Təhsil	-2743
yer	-2744
ks	-2745
▁Art	-2746
▁edirik	-2747
....	-2748
▁işləm	-2749
▁səhif	-2750
▁birləş	-2751
məkdə	-2752
▁sədr	-2753
▁dili	-2754
tub	-2755
▁tərc	-2756
▁həkim	-2757
▁rayonunda	-2758
▁Teatr	-2759
▁Ən	-2760
sik	-2761
▁razı	-2762
▁hədə	-2763
▁qalan	-2764
▁Elm	-2765
▁işə	-2766
duz	-2767
▁verdi	-2768
çiləri	-2769
dirilib	-2770
▁aparıcı	-2771
▁qol	-2772
ləyib	-2773
əkkür	-2774
▁sayəsində	-2775
▁fot	-2776
zim	-2777
▁SSRİ	-2778
▁Məmmədov	-2779
▁Part	-2780
▁orada	-2781
▁qızı	-2782
▁mərasim	-2783
▁ide	-2784
tez	-2785
▁ulu	-2786
▁Ulu	-2787
ğın	-2788
▁tədris	-2789
▁bor	-2790
▁Türkiyənin	-2791
▁mahnı	-2792
▁infrastruktur	-2793
▁ermənilər	-2794
sman	-2795
▁İndi	-2796
uk	-2797
▁müqavil	-2798
saq	-2799
malıdır	-2800
eb	-2801
▁Kam	-2802
int	-2803
bəttə	-2804
Lİ	-2805
▁qarşıl	-2806
mağı	-2807
▁göstəric	-2808
ski	-2809
ləvi	-2810
oli	-2811
ayan	-2812
▁texnologiy	-2813
əxan	-2814
▁klub	-2815
siyasi	-2816
▁ust	-2817
▁yazıçı	-2818
▁məxsus	-2819
▁ham	-2820
ılmasını	-2821
▁Buna	-2822
▁potensial	-2823
itan	-2824
▁sakin	-2825
▁Bak	-2826
▁böy	-2827
▁rayonu	-2828
uli	-2829
▁gec	-2830
▁danışıq	-2831
▁müsəlman	-2832
▁amil	-2833
ni	-2834
bə	-2835
▁Fondunun	-2836
▁faci	-2837
▁rəhbərlik	-2838
▁keyfiyyət	-2839
ça	-2840
▁üs	-2841
▁Cənubi	-2842
ayis	-2843
▁Tədbir	-2844
alarında	-2845
▁Tarix	-2846
▁həb	-2847
▁akad	-2848
▁Daha	-2849
▁Məhəmməd	-2850
▁İbrahim	-2851
▁rəssam	-2852
▁baxımdan	-2853
ata	-2854
▁koronavirus	-2855
▁məhdud	-2856
eji	-2857
sen	-2858
▁quruc	-2859
▁parlament	-2860
▁muzey	-2861
▁yubil	-2862
ğənn	-2863
linin	-2864
▁yaradır	-2865
▁qov	-2866
▁Ram	-2867
▁obraz	-2868
▁div	-2869
▁XX	-2870
▁şəxslər	-2871
ahan	-2872
▁Əf	-2873
anının	-2874
▁ətrafında	-2875
▁Ölk	-2876
adıq	-2877
ge	-2878
▁mühaf	-2879
ücü	-2880
▁Ord	-2881
▁müzakir	-2882
nes	-2883
▁gey	-2884
▁İqtis	-2885
▁iyul	-2886
▁futbol	-2887
asa	-2888
ərgin	-2889
▁oxucu	-2890
uliyev	-2891
pərvər	-2892
▁for	-2893
uya	-2894
▁xərc	-2895
aman	-2896
ləh	-2897
▁mövqe	-2898
iyar	-2899
▁invest	-2900
▁həc	-2901
çiliy	-2902
▁ibarətdir	-2903
hiz	-2904
▁bildirdi	-2905
▁sabit	-2906
▁nümayəndələri	-2907
Bu	-2908
▁Sonra	-2909
▁bununla	-2910
▁dəh	-2911
lənir	-2912
əstəkar	-2913
▁xüsusiyyət	-2914
▁maş	-2915
▁Agent	-2916
▁soyqır	-2917
qar	-2918
▁anadan	-2919
işin	-2920
məyib	-2921
iləş	-2922
ig	-2923
dadır	-2924
▁qorx	-2925
laşdırılması	-2926
▁ör	-2927
▁Bəz	-2928
▁Məhkəm	-2929
əncə	-2930
▁inzibati	-2931
oh	-2932
ətdə	-2933
▁biridir	-2934
▁İnsan	-2935
▁Şəhər	-2936
▁ədalət	-2937
edit	-2938
adır	-2939
▁sur	-2940
idməti	-2941
▁vit	-2942
▁əmin	-2943
▁açıqlam	-2944
▁Yar	-2945
ka	-2946
ideyn	-2947
diyev	-2948
▁terror	-2949
▁şübh	-2950
▁özünə	-2951
▁sistemi	-2952
▁oper	-2953
▁məktub	-2954
mır	-2955
▁istəm	-2956
▁töv	-2957
▁etməklə	-2958
▁qələm	-2959
▁körp	-2960
▁bəhs	-2961
▁müqayis	-2962
▁Abdul	-2963
▁hava	-2964
alarına	-2965
▁peşəkar	-2966
▁məsələləri	-2967
▁tənq	-2968
▁təsvir	-2969
lor	-2970
▁xil	-2971
▁məsələ	-2972
▁davamlı	-2973
▁Rusiyanın	-2974
atında	-2975
▁psix	-2976
▁zəruri	-2977
tib	-2978
▁yetiş	-2979
▁imzal	-2980
eli	-2981
▁üzərinə	-2982
asiyasının	-2983
ars	-2984
▁deput	-2985
▁qlobal	-2986
▁ölkələri	-2987
▁tərəfdən	-2988
osi	-2989
▁etsin	-2990
▁yuxarı	-2991
▁məbləğ	-2992
▁bən	-2993
əbr	-2994
▁üsul	-2995
diyim	-2996
▁övlad	-2997
▁alır	-2998
▁təchiz	-2999
▁öncə	-3000
eder	-3001
▁Müh	-3002
▁ölkələrin	-3003
andart	-3004
▁Hacı	-3005
gen	-3006
▁iştirakı	-3007
▁dəvət	-3008
▁boyu	-3009
▁olmalıdır	-3010
▁ticarət	-3011
▁Sal	-3012
muşdur	-3013
rac	-3014
▁dərəcədə	-3015
▁təkmil	-3016
ayrı	-3017
▁sovet	-3018
isk	-3019
▁yəni	-3020
orta	-3021
▁nailiyyət	-3022
--	-3023
▁mem	-3024
▁atəş	-3025
▁pey	-3026
▁yolux	-3027
atların	-3028
ernet	-3029
başa	-3030
hal	-3031
acağı	-3032
▁gecə	-3033
mur	-3034
ahət	-3035
siyası	-3036
▁Oyun	-3037
bəxt	-3038
▁Müs	-3039
edaq	-3040
▁Təbi	-3041
▁struktur	-3042
▁icl	-3043
uluq	-3044
▁Xocalı	-3045
uğam	-3046
▁yenə	-3047
▁adını	-3048
▁məsləh	-3049
▁yum	-3050
▁hallarda	-3051
▁Məlum	-3052
isinə	-3053
▁yaxşılaşdır	-3054
▁şəxslərin	-3055
▁hesabına	-3056
▁Çin	-3057
▁mənz	-3058
▁Min	-3059
▁İtal	-3060
▁Mehriban	-3061
▁Nizami	-3062
▁Xəzər	-3063
▁Kor	-3064
▁boş	-3065
▁həbs	-3066
he	-3067
ılacaq	-3068
▁vide	-3069
▁Sil	-3070
▁Paş	-3071
aloq	-3072
▁qabil	-3073
▁qoruy	-3074
▁cəz	-3075
▁təəss	-3076
anlı	-3077
▁Qüvv	-3078
▁ada	-3079
▁qeydiyyat	-3080
▁pis	-3081
▁avqust	-3082
▁dilində	-3083
ilikdə	-3084
▁azadlıq	-3085
▁fəx	-3086
▁kitabxan	-3087
▁ef	-3088
▁saylı	-3089
▁təbrik	-3090
▁kadr	-3091
▁vermək	-3092
▁fəaliyyətinin	-3093
▁İşlər	-3094
▁göstərilən	-3095
▁tamamilə	-3096
▁Müdafi	-3097
▁tab	-3098
▁müsahib	-3099
▁İk	-3100
gilis	-3101
▁narahat	-3102
▁keçirdiyi	-3103
▁sav	-3104
AS	-3105
▁məsələlər	-3106
▁ağrı	-3107
▁istiqamətdə	-3108
▁dəyişikliklər	-3109
land	-3110
aj	-3111
▁malikdir	-3112
ədək	-3113
▁sın	-3114
mar	-3115
▁festiv	-3116
TAC	-3117
▁kurs	-3118
▁növbədə	-3119
minən	-3120
▁Səh	-3121
ZƏRTAC	-3122
əddin	-3123
▁həv	-3124
alara	-3125
arlıq	-3126
▁müdiri	-3127
▁ağac	-3128
▁Bəl	-3129
▁sərg	-3130
▁istedad	-3131
▁toplan	-3132
atına	-3133
ləq	-3134
emək	-3135
arkən	-3136
▁əsl	-3137
adağ	-3138
▁ictimaiyyət	-3139
▁pers	-3140
▁seçki	-3141
▁tikintis	-3142
tərəfli	-3143
▁tədbirlərin	-3144
▁məhv	-3145
▁Xidmət	-3146
▁tətbiqi	-3147
ült	-3148
▁Re	-3149
əyan	-3150
▁televiz	-3151
▁sənaye	-3152
▁pozul	-3153
▁gerçək	-3154
urd	-3155
▁etdirən	-3156
▁fak	-3157
▁bunlar	-3158
▁sisteminin	-3159
).	-3160
izəd	-3161
▁standart	-3162
▁rolu	-3163
▁formalaşdır	-3164
▁yerə	-3165
umq	-3166
dıqdan	-3167
▁sərəncam	-3168
lüyü	-3169
▁vermiş	-3170
▁sahələrdə	-3171
▁texniki	-3172
mədi	-3173
▁gözlən	-3174
layan	-3175
▁münasibətilə	-3176
ahlı	-3177
▁həf	-3178
▁Xari	-3179
▁Proqram	-3180
▁ölkələrdə	-3181
▁toxun	-3182
ülmüş	-3183
▁ümummilli	-3184
▁istəyir	-3185
▁rə	-3186
▁har	-3187
exan	-3188
▁məsləhət	-3189
▁Və	-3190
▁Mal	-3191
duq	-3192
lərarası	-3193
ekay	-3194
▁zərər	-3195
▁inkişafında	-3196
manı	-3197
▁Məsələn	-3198
▁qalib	-3199
▁İlk	-3200
▁Komissiy	-3201
arə	-3202
und	-3203
▁orq	-3204
▁mət	-3205
▁Məcəll	-3206
əddəs	-3207
▁yekun	-3208
iyalı	-3209
eqor	-3210
▁Nov	-3211
lərimizin	-3212
dük	-3213
larım	-3214
alarını	-3215
dikcə	-3216
▁elektrik	-3217
▁olmam	-3218
tih	-3219
▁Turizm	-3220
se	-3221
▁xilas	-3222
▁əsərləri	-3223
umqayı	-3224
▁ana	-3225
▁Mək	-3226
▁adət	-3227
iyasında	-3228
▁Sosial	-3229
▁Beləliklə	-3230
▁hökumət	-3231
▁Komitəsinin	-3232
mayan	-3233
▁incəsənət	-3234
liyində	-3235
▁Yer	-3236
▁model	-3237
▁fiziki	-3238
udi	-3239
▁müharibə	-3240
diş	-3241
▁qayıt	-3242
▁qarş	-3243
▁dəmir	-3244
▁radi	-3245
əmin	-3246
▁Osman	-3247
▁mədəniyyəti	-3248
▁rejim	-3249
enin	-3250
qın	-3251
▁Mah	-3252
▁II	-3253
▁verilir	-3254
▁doktoru	-3255
▁vurğulayıb	-3256
▁Öl	-3257
▁investis	-3258
▁kütləvi	-3259
▁tip	-3260
▁Abbas	-3261
▁xətt	-3262
mal	-3263
lükəsiz	-3264
▁silahlı	-3265
▁Füz	-3266
▁rast	-3267
ılmaz	-3268
▁qeydə	-3269
▁kök	-3270
▁ölç	-3271
▁rejissor	-3272
▁bədən	-3273
▁mövqey	-3274
▁Birinci	-3275
▁ömr	-3276
ğunu	-3277
▁doğma	-3278
▁birləşdir	-3279
▁Onların	-3280
▁Bal	-3281
▁Yəni	-3282
▁düşür	-3283
▁əvvəlki	-3284
▁qabaq	-3285
▁qonş	-3286
▁biləcək	-3287
▁təsərrüfatı	-3288
▁Cəfər	-3289
▁xalqımızın	-3290
▁gətirib	-3291
▁həlli	-3292
▁of	-3293
▁əsaslı	-3294
▁müharibəsi	-3295
▁sə	-3296
umqayıt	-3297
madan	-3298
▁Təs	-3299
▁gərgin	-3300
▁orqanlarının	-3301
ığı	-3302
▁tutur	-3303
düy	-3304
alarda	-3305
▁strateji	-3306
▁kəndində	-3307
▁demokratik	-3308
▁Fransa	-3309
adığını	-3310
▁ödə	-3311
▁Məclisin	-3312
▁gənclər	-3313
apon	-3314
▁axşam	-3315
fer	-3316
▁quruluş	-3317
▁sub	-3318
▁hadis	-3319
ləmək	-3320
▁Həmçinin	-3321
▁alınması	-3322
▁xalqı	-3323
gah	-3324
istik	-3325
▁yaradıcılıq	-3326
idir	-3327
▁ortaya	-3328
kər	-3329
ökum	-3330
▁Xüsus	-3331
▁içində	-3332
▁xaric	-3333
▁çünki	-3334
▁valideyn	-3335
▁Cüm	-3336
▁Yax	-3337
▁İkinci	-3338
ter	-3339
▁üzvləri	-3340
▁namizəd	-3341
▁müğənn	-3342
▁özəl	-3343
▁işlə	-3344
▁qızıl	-3345
əmbər	-3346
▁vəziyyəti	-3347
▁keçiriləcək	-3348
▁çevir	-3349
▁Gəncə	-3350
▁zir	-3351
▁qaydada	-3352
▁müəllifi	-3353
▁icaz	-3354
azıl	-3355
▁etdirir	-3356
▁milyard	-3357
▁Uşaq	-3358
▁tədbirləri	-3359
əki	-3360
▁nis	-3361
rasiya	-3362
▁bəzən	-3363
▁res	-3364
əif	-3365
onu	-3366
▁köçür	-3367
▁başlayıb	-3368
▁məhkəmə	-3369
▁məsuliyyət	-3370
▁dəstəyi	-3371
▁Bunun	-3372
▁öh	-3373
▁mübad	-3374
▁Kar	-3375
▁bayr	-3376
stanın	-3377
▁Ser	-3378
▁Çox	-3379
ayıl	-3380
sinə	-3381
▁əb	-3382
▁tərz	-3383
▁Səm	-3384
▁büdc	-3385
▁rahat	-3386
▁kompleks	-3387
əbh	-3388
▁gəlmiş	-3389
▁qoşul	-3390
▁təşəbbüsü	-3391
▁inşa	-3392
▁şü	-3393
▁Təhlükəsiz	-3394
lənən	-3395
res	-3396
oji	-3397
EA	-3398
▁tənzim	-3399
qil	-3400
▁bilik	-3401
rom	-3402
▁polis	-3403
unk	-3404
▁Qərb	-3405
▁bür	-3406
▁mərkəzində	-3407
▁tərəfdaş	-3408
▁səfir	-3409
▁bəstəkar	-3410
▁bank	-3411
▁Kat	-3412
rəy	-3413
▁qorunması	-3414
▁hökm	-3415
▁For	-3416
mrük	-3417
asil	-3418
▁fevral	-3419
▁məcburi	-3420
▁ümid	-3421
iblər	-3422
ruz	-3423
▁fakült	-3424
əcəyini	-3425
▁qayn	-3426
▁Azərbaycanı	-3427
▁day	-3428
▁Sab	-3429
əndi	-3430
▁human	-3431
▁hekay	-3432
▁etdiyini	-3433
▁təltif	-3434
▁akademik	-3435
saylı	-3436
▁Mirzə	-3437
▁cəhd	-3438
▁tövsiy	-3439
OV	-3440
▁xadim	-3441
▁Kərim	-3442
▁Muxtar	-3443
▁nəsil	-3444
▁qəlb	-3445
▁tərb	-3446
▁tərtib	-3447
▁ı	-3448
təş	-3449
▁Cümhur	-3450
▁cənub	-3451
▁Xarici	-3452
▁oxum	-3453
▁Şir	-3454
▁məğ	-3455
abil	-3456
▁hədəf	-3457
nət	-3458
▁Muzey	-3459
▁həqiqət	-3460
▁miqdar	-3461
▁aktiv	-3462
▁həyatı	-3463
▁içər	-3464
▁mexan	-3465
▁artırılması	-3466
▁fəaliyyətini	-3467
▁borc	-3468
▁zəif	-3469
kuror	-3470
▁çempion	-3471
▁Məhz	-3472
▁vahid	-3473
▁Britan	-3474
▁qərara	-3475
▁üstünlük	-3476
▁qarşısını	-3477
▁təkrar	-3478
ışı	-3479
laraq	-3480
asım	-3481
kret	-3482
ıma	-3483
▁dağı	-3484
ırdılar	-3485
▁Mar	-3486
▁tənqid	-3487
məs	-3488
▁özündə	-3489
▁İnstitutunun	-3490
▁təxminən	-3491
mələri	-3492
▁Gül	-3493
eyr	-3494
▁sadəcə	-3495
▁Yol	-3496
▁regional	-3497
▁layihəsi	-3498
▁əlaqələrin	-3499
▁konsert	-3500
▁heyvan	-3501
inif	-3502
▁çətinlik	-3503
▁İcra	-3504
▁ardı	-3505
exniki	-3506
▁birbaşa	-3507
▁təzy	-3508
veç	-3509
▁Yan	-3510
Qar	-3511
▁təsis	-3512
▁müddətdə	-3513
▁ehtiyat	-3514
▁təmir	-3515
ənilən	-3516
▁başlayır	-3517
▁şəhərinin	-3518
▁razıl	-3519
▁artisti	-3520
▁qulluq	-3521
▁qərarı	-3522
▁oğl	-3523
▁ziyalı	-3524
ktor	-3525
▁sonrakı	-3526
▁Mil	-3527
qur	-3528
▁tibbi	-3529
▁iyun	-3530
▁kollektiv	-3531
▁bul	-3532
▁maarif	-3533
▁Təbii	-3534
▁mövzusunda	-3535
lanıb	-3536
▁yoldaş	-3537
▁Neft	-3538
▁asan	-3539
piya	-3540
ələş	-3541
▁parç	-3542
▁çar	-3543
▁sürətlə	-3544
▁Mərkəzinin	-3545
▁xəstəxan	-3546
alicə	-3547
▁Olim	-3548
▁Quliyev	-3549
▁arzu	-3550
▁Digər	-3551
mızı	-3552
▁gəz	-3553
▁Qız	-3554
▁inam	-3555
▁ser	-3556
▁Silahlı	-3557
▁mənzil	-3558
▁məlumatlar	-3559
▁şik	-3560
▁gəm	-3561
▁Rəs	-3562
▁Gürcüstan	-3563
▁Po	-3564
▁nəh	-3565
eyir	-3566
▁İnkişaf	-3567
▁kanal	-3568
▁törət	-3569
▁olduqca	-3570
▁diqqətə	-3571
▁telef	-3572
mayıb	-3573
▁imper	-3574
ilayət	-3575
əliyev	-3576
▁önəmli	-3577
▁avadan	-3578
▁Ass	-3579
▁ayaq	-3580
▁Artıq	-3581
▁otur	-3582
İn	-3583
ement	-3584
▁Hətta	-3585
▁Cin	-3586
əşf	-3587
▁olmaz	-3588
mini	-3589
▁dollar	-3590
dr	-3591
▁ekspert	-3592
anov	-3593
▁tutulmuş	-3594
usif	-3595
ag	-3596
▁düşünc	-3597
▁məşq	-3598
▁Üz	-3599
▁sevg	-3600
▁internet	-3601
▁təhlil	-3602
▁bağlıdır	-3603
▁Əsas	-3604
bu	-3605
▁Ötən	-3606
▁kəndi	-3607
liyindən	-3608
▁fərdi	-3609
anım	-3610
▁birində	-3611
▁Sey	-3612
▁orqanları	-3613
lükdə	-3614
▁gələcəkdə	-3615
ayın	-3616
mizi	-3617
əvv	-3618
iyaz	-3619
▁vəh	-3620
▁Məktəb	-3621
▁dövlətinin	-3622
▁təşəbbüs	-3623
▁olunacaq	-3624
gör	-3625
▁dövrü	-3626
▁qür	-3627
▁böh	-3628
▁istifadəyə	-3629
▁doğur	-3630
▁sif	-3631
▁gəlin	-3632
əyən	-3633
▁km	-3634
▁dərc	-3635
AR	-3636
baş	-3637
▁fon	-3638
ustaf	-3639
▁tutan	-3640
▁siz	-3641
▁mür	-3642
▁Feder	-3643
ğəmbər	-3644
▁qad	-3645
▁Tel	-3646
▁ziyarət	-3647
▁mümkündür	-3648
▁ermənilərin	-3649
▁müddətində	-3650
▁çıxan	-3651
▁Əv	-3652
▁ov	-3653
▁Pol	-3654
▁siyasətinin	-3655
aks	-3656
▁əlamət	-3657
▁Respublikasında	-3658
▁ardıcıl	-3659
▁katibi	-3660
▁meydana	-3661
▁anlay	-3662
▁respublikamız	-3663
▁yerləşir	-3664
ler	-3665
▁sinif	-3666
▁arasındakı	-3667
stanbul	-3668
▁təşkili	-3669
▁kön	-3670
▁kaf	-3671
ləşmiş	-3672
▁Bizim	-3673
▁Qor	-3674
▁dəfələrlə	-3675
▁istəyirəm	-3676
▁Hal	-3677
▁dövləti	-3678
▁bizi	-3679
dirilir	-3680
aspor	-3681
▁onunla	-3682
siv	-3683
▁poez	-3684
▁gənclərin	-3685
çilərin	-3686
▁təhlükəsizlik	-3687
▁əməkdaşlığın	-3688
▁doğul	-3689
▁port	-3690
▁şimal	-3691
▁çalışan	-3692
layev	-3693
aqif	-3694
▁mark	-3695
▁qaytar	-3696
▁ləğ	-3697
işli	-3698
oğraf	-3699
salı	-3700
ix	-3701
▁kap	-3702
ici	-3703
alının	-3704
▁çalışır	-3705
cid	-3706
▁qalx	-3707
▁mübadil	-3708
▁İrəv	-3709
▁Əliyeva	-3710
▁konkret	-3711
ərb	-3712
▁vər	-3713
▁Sam	-3714
▁kredit	-3715
ımıza	-3716
▁canlı	-3717
▁əvvəlcə	-3718
▁İm	-3719
▁komissiy	-3720
▁dram	-3721
▁pri	-3722
▁ilkin	-3723
▁minnət	-3724
namə	-3725
▁suy	-3726
▁ədəd	-3727
▁Mur	-3728
▁Bun	-3729
ahi	-3730
▁tapşır	-3731
epar	-3732
▁icrası	-3733
▁Sumqayıt	-3734
arın	-3735
ızı	-3736
form	-3737
▁üçüncü	-3738
lassik	-3739
▁Şam	-3740
tik	-3741
▁səlahiyyət	-3742
darlıq	-3743
ılmasında	-3744
ton	-3745
air	-3746
▁cəhətdən	-3747
▁Məclis	-3748
▁vətənpərvər	-3749
ərkən	-3750
oritet	-3751
kü	-3752
▁tibb	-3753
▁qarış	-3754
▁mütləq	-3755
▁yaddaş	-3756
▁prosesi	-3757
allı	-3758
▁ixrac	-3759
▁addımlar	-3760
ƏT	-3761
Mən	-3762
▁hissəsində	-3763
▁AM	-3764
▁vəf	-3765
sında	-3766
▁funk	-3767
▁Liq	-3768
▁Sev	-3769
laşma	-3770
▁Su	-3771
▁işğaldan	-3772
▁bəs	-3773
▁kont	-3774
adət	-3775
ısı	-3776
▁başçısının	-3777
▁keçirilmiş	-3778
diyinə	-3779
▁aq	-3780
lanması	-3781
▁əgər	-3782
▁Hakim	-3783
acağını	-3784
▁Zəng	-3785
▁hazırlanması	-3786
adiq	-3787
▁Müdafiə	-3788
▁İstanbul	-3789
▁rəsm	-3790
təşəm	-3791
▁dayandır	-3792
▁ayır	-3793
▁cəmiyyətin	-3794
isini	-3795
məsindən	-3796
amaq	-3797
▁yaratmaq	-3798
▁mane	-3799
▁qorum	-3800
▁İd	-3801
▁gündən	-3802
▁illərində	-3803
▁En	-3804
▁sahibi	-3805
iylə	-3806
edici	-3807
▁məğlub	-3808
▁Azər	-3809
AP	-3810
▁ep	-3811
ultur	-3812
▁Qub	-3813
sını	-3814
▁qüd	-3815
▁dərhal	-3816
▁tem	-3817
▁müəyyənləşdir	-3818
andem	-3819
▁çoxsaylı	-3820
▁günah	-3821
dıqları	-3822
pektiv	-3823
▁hansısa	-3824
▁xidməti	-3825
▁görülən	-3826
▁gəldi	-3827
▁təsiri	-3828
əbbət	-3829
▁köçkün	-3830
▁normativ	-3831
əyini	-3832
▁etibarən	-3833
arəti	-3834
▁biznes	-3835
▁tərcümə	-3836
▁alınıb	-3837
▁la	-3838
▁tamaşaçı	-3839
▁görmək	-3840
▁Af	-3841
▁paylaş	-3842
▁uşaqların	-3843
▁xoşbəxt	-3844
▁əməkdaşları	-3845
▁Dax	-3846
▁ayının	-3847
▁kişi	-3848
qa	-3849
▁təv	-3850
▁müalicə	-3851
▁Yusif	-3852
▁Ad	-3853
▁saz	-3854
inki	-3855
▁muğam	-3856
lının	-3857
timai	-3858
▁yerində	-3859
▁institut	-3860
▁ingilis	-3861
▁pal	-3862
▁XI	-3863
▁Rəh	-3864
edaqoji	-3865
zadənin	-3866
▁Akademiyasının	-3867
▁etdilər	-3868
iliyi	-3869
▁Kənd	-3870
▁işlərin	-3871
▁seçkilər	-3872
▁təsad	-3873
▁layihə	-3874
▁Nur	-3875
▁cəs	-3876
▁Ukrayna	-3877
▁fikr	-3878
▁təşkilatçı	-3879
▁ordu	-3880
▁kəsb	-3881
▁cəbh	-3882
▁Mustaf	-3883
düm	-3884
▁Müəlli	-3885
▁yayım	-3886
▁səbəbdən	-3887
▁Yun	-3888
▁yubiley	-3889
mamış	-3890
ılmasının	-3891
▁Yazı	-3892
▁Zər	-3893
▁daxilində	-3894
imizə	-3895
oda	-3896
▁etdirilməsi	-3897
indi	-3898
▁bi	-3899
lat	-3900
▁yaxından	-3901
▁heyət	-3902
▁sizin	-3903
tor	-3904
▁Novruz	-3905
▁başlı	-3906
▁kül	-3907
yıq	-3908
▁Bakıya	-3909
otik	-3910
tü	-3911
▁aparılır	-3912
lənib	-3913
▁mükafat	-3914
maları	-3915
▁mövs	-3916
▁sahil	-3917
▁düşən	-3918
▁faydalı	-3919
▁yemək	-3920
val	-3921
▁uğurlar	-3922
▁şəxsin	-3923
▁möhtəşəm	-3924
əlim	-3925
▁Sizin	-3926
▁üslub	-3927
▁şöbəsinin	-3928
▁fəaliyyətinə	-3929
ikasiya	-3930
▁istənilən	-3931
müşdür	-3932
▁etmişdi	-3933
▁prioritet	-3934
▁olunmasına	-3935
▁telefon	-3936
▁səviyyəsində	-3937
▁təşəkkür	-3938
▁sir	-3939
▁mülk	-3940
▁düşünür	-3941
▁nüfuzlu	-3942
atda	-3943
ımızı	-3944
amik	-3945
əmiyyəti	-3946
standa	-3947
▁Seç	-3948
▁verəcək	-3949
ıntı	-3950
umun	-3951
▁dövrün	-3952
▁Qurban	-3953
▁ul	-3954
▁enerj	-3955
ərin	-3956
alarından	-3957
gül	-3958
qilab	-3959
bək	-3960
▁Ağdam	-3961
▁açılış	-3962
sına	-3963
▁Rom	-3964
▁əslində	-3965
çıq	-3966
olu	-3967
▁barəsində	-3968
anr	-3969
amış	-3970
▁qara	-3971
▁isti	-3972
▁Onu	-3973
adlı	-3974
▁keçirir	-3975
▁yaradılmış	-3976
inf	-3977
▁mövcuddur	-3978
▁perspektiv	-3979
ədiy	-3980
▁istəyən	-3981
▁Mis	-3982
▁strateg	-3983
ərdə	-3984
▁dal	-3985
▁qadağ	-3986
ensiy	-3987
▁fəs	-3988
ağında	-3989
▁Hey	-3990
▁Birliyinin	-3991
əniz	-3992
▁bəş	-3993
▁etiraz	-3994
▁Kabinetinin	-3995
▁bələdiyy	-3996
▁çoxlu	-3997
▁şərəf	-3998
▁mö	-3999
kili	-4000
▁əksini	-4001
▁ötür	-4002
▁ölkələr	-4003
▁qən	-4004
▁medal	-4005
▁əlaqələr	-4006
▁Pr	-4007
▁istehsalı	-4008
iyyətində	-4009
avüz	-4010
▁yaşadığı	-4011
▁deyən	-4012
▁çağırış	-4013
▁vəziyyətdə	-4014
▁Şuşa	-4015
▁buy	-4016
▁qürur	-4017
iyasına	-4018
▁Türkiyədə	-4019
▁planlaşdır	-4020
met	-4021
▁tapşırıq	-4022
▁Hərbi	-4023
▁hissi	-4024
▁nümayəndəsi	-4025
sək	-4026
diyiniz	-4027
eter	-4028
iyik	-4029
og	-4030
▁yaşayır	-4031
▁dərəcə	-4032
▁bölüş	-4033
övqəl	-4034
▁çıxıb	-4035
ama	-4036
mənin	-4037
▁Vaqif	-4038
▁bələdiyyə	-4039
▁həyatında	-4040
dum	-4041
▁Ver	-4042
ağına	-4043
▁layihələr	-4044
lama	-4045
aktik	-4046
mit	-4047
▁siyahı	-4048
▁Sur	-4049
▁əlaqələri	-4050
▁ləğv	-4051
▁hərb	-4052
aket	-4053
▁miss	-4054
▁yaratdığı	-4055
▁Dem	-4056
ment	-4057
mon	-4058
▁ərəb	-4059
▁görünür	-4060
şən	-4061
▁dialoq	-4062
▁kəm	-4063
▁yarıs	-4064
tan	-4065
EV	-4066
▁Sult	-4067
▁Daxili	-4068
▁nöqt	-4069
▁heyəti	-4070
alardan	-4071
eganə	-4072
▁Yapon	-4073
▁turist	-4074
▁kəskin	-4075
imn	-4076
▁ediləcək	-4077
lav	-4078
▁sp	-4079
ağının	-4080
▁qarşılan	-4081
▁Tam	-4082
eyin	-4083
▁ünvan	-4084
▁uşaqlar	-4085
▁quraşdır	-4086
üley	-4087
▁Qazaxı	-4088
▁Əvvəl	-4089
▁Nik	-4090
▁İttifaqı	-4091
▁mas	-4092
▁Ölkəm	-4093
▁inteq	-4094
▁AMEA	-4095
▁Füzuli	-4096
▁nəf	-4097
▁Osmanlı	-4098
▁haqda	-4099
▁stans	-4100
▁əş	-4101
▁Cinayət	-4102
əkkəb	-4103
▁tərkibində	-4104
▁adından	-4105
NES	-4106
bəst	-4107
▁nəinki	-4108
əməxsus	-4109
▁rəqəm	-4110
aət	-4111
▁toy	-4112
▁vaxtı	-4113
ələb	-4114
▁normal	-4115
▁səhər	-4116
▁dar	-4117
▁günlərdə	-4118
▁Əməkdar	-4119
▁sanki	-4120
alə	-4121
▁sahəsi	-4122
▁təcavüz	-4123
▁nizam	-4124
iyadan	-4125
▁Qasım	-4126
▁qiymətləndiril	-4127
ona	-4128
▁Səf	-4129
▁Yaş	-4130
vad	-4131
▁münasibətlərin	-4132
▁bilən	-4133
bil	-4134
▁Bakının	-4135
▁zor	-4136
▁qoyub	-4137
mı	-4138
▁üns	-4139
▁şəhərin	-4140
▁park	-4141
ahis	-4142
▁sonunda	-4143
▁qurulması	-4144
▁Ümummilli	-4145
▁tutulan	-4146
▁vardı	-4147
▁fond	-4148
▁vergi	-4149
▁sakini	-4150
▁mənada	-4151
▁Əlbəttə	-4152
▁müqəddəs	-4153
▁Xan	-4154
▁tikintisi	-4155
▁kəşf	-4156
▁ömür	-4157
▁imtina	-4158
▁dostluq	-4159
kum	-4160
▁kitabı	-4161
▁Göy	-4162
▁təzyiq	-4163
▁vitse	-4164
iyyətini	-4165
▁qoşun	-4166
noz	-4167
▁klassik	-4168
▁vilayət	-4169
▁Gənclər	-4170
▁qonşu	-4171
▁etdirilir	-4172
▁qrupu	-4173
atlı	-4174
▁gedib	-4175
intaq	-4176
▁Ukrayn	-4177
▁lideri	-4178
prezident	-4179
▁Cəmiyyət	-4180
▁yoldaşı	-4181
▁aparılması	-4182
ıbəy	-4183
▁daimi	-4184
Biz	-4185
▁etməyi	-4186
▁Orta	-4187
▁Olimpiya	-4188
▁Əmir	-4189
ura	-4190
▁istir	-4191
▁AT	-4192
adək	-4193
YEV	-4194
uncu	-4195
▁xeyir	-4196
▁ətraflı	-4197
ayi	-4198
aca	-4199
ilmişdir	-4200
yanın	-4201
▁özünəməxsus	-4202
▁Sərəncam	-4203
▁könül	-4204
olun	-4205
iyin	-4206
▁deməkdir	-4207
▁metr	-4208
▁qalıb	-4209
mud	-4210
▁maliyy	-4211
▁rəisi	-4212
▁şəraitində	-4213
▁Təhlükəsizlik	-4214
övqəladə	-4215
▁tərəqq	-4216
▁rek	-4217
▁dərk	-4218
▁San	-4219
aba	-4220
▁Bayram	-4221
▁içərisində	-4222
▁dövlətimizin	-4223
▁meş	-4224
▁bütövlüy	-4225
Al	-4226
▁iddia	-4227
▁yür	-4228
AT	-4229
▁Hesab	-4230
▁mürəkkəb	-4231
çilərinin	-4232
▁məhəbbət	-4233
▁olmayaraq	-4234
▁gərək	-4235
əvvür	-4236
ava	-4237
▁Ümumiyyətlə	-4238
▁qarşılaş	-4239
▁diqqəti	-4240
▁əsəri	-4241
▁sayda	-4242
▁olmasına	-4243
▁trans	-4244
▁problemləri	-4245
▁elmləri	-4246
▁Moskva	-4247
▁əsir	-4248
eron	-4249
▁aldığı	-4250
▁düzəl	-4251
▁xadimi	-4252
alizm	-4253
▁təhsili	-4254
▁şikayət	-4255
▁unu	-4256
▁sığorta	-4257
▁Elmlər	-4258
▁etdik	-4259
▁əleyh	-4260
▁səmimi	-4261
▁sayt	-4262
ahir	-4263
əmiş	-4264
▁sərbəst	-4265
▁təyy	-4266
arlar	-4267
CO	-4268
erika	-4269
▁islahatlar	-4270
▁xidmətləri	-4271
▁icazə	-4272
▁respublika	-4273
yu	-4274
▁insanlara	-4275
▁tikinti	-4276
▁maddəsinin	-4277
erin	-4278
▁etməlidir	-4279
ch	-4280
▁peşə	-4281
yaslı	-4282
▁sırasında	-4283
▁müstəqillik	-4284
▁güz	-4285
▁Xat	-4286
▁problemlər	-4287
▁rolunu	-4288
▁ənənəvi	-4289
ens	-4290
▁qalır	-4291
▁təf	-4292
atçı	-4293
▁daşın	-4294
▁sözlə	-4295
rail	-4296
yaz	-4297
▁qurğu	-4298
▁ədəbiyyatı	-4299
▁izah	-4300
kun	-4301
▁məscid	-4302
rum	-4303
▁komit	-4304
▁iri	-4305
▁media	-4306
ülməsi	-4307
rətli	-4308
▁quruculu	-4309
▁göstərdiyi	-4310
imə	-4311
▁niş	-4312
esi	-4313
▁Mon	-4314
▁coğraf	-4315
▁arzul	-4316
▁alaraq	-4317
▁Hökum	-4318
▁qanunsuz	-4319
▁Siz	-4320
▁təqdir	-4321
alic	-4322
tr	-4323
▁fəxri	-4324
ovanın	-4325
lanmış	-4326
▁poli	-4327
▁faizi	-4328
▁dinamik	-4329
▁əlver	-4330
▁əc	-4331
▁Almaniya	-4332
▁yola	-4333
bayev	-4334
uma	-4335
▁illərin	-4336
texniki	-4337
▁daşıyır	-4338
yut	-4339
▁şərq	-4340
şünaslıq	-4341
▁fikrin	-4342
▁həcm	-4343
ğa	-4344
▁Zeyn	-4345
▁onlardan	-4346
▁yazıb	-4347
▁şt	-4348
▁Şurası	-4349
▁axtarış	-4350
▁başlayaraq	-4351
▁Azərbaycanla	-4352
▁sevin	-4353
sub	-4354
likləri	-4355
▁ələ	-4356
ıç	-4357
▁İttifaqının	-4358
▁yeganə	-4359
sınız	-4360
adlıq	-4361
giltər	-4362
▁kommun	-4363
▁yaradılıb	-4364
▁Bunu	-4365
▁münasibətləri	-4366
▁çəkən	-4367
▁imkanları	-4368
atını	-4369
▁Val	-4370
▁tədqiq	-4371
▁pandem	-4372
▁əsrdə	-4373
▁element	-4374
lənmiş	-4375
dətli	-4376
▁dəyərli	-4377
bit	-4378
▁atası	-4379
▁bilərsiniz	-4380
▁yurd	-4381
aqları	-4382
üstəm	-4383
məyin	-4384
▁məsaf	-4385
▁ci	-4386
▁zav	-4387
▁həmkar	-4388
▁eff	-4389
cək	-4390
▁medalı	-4391
▁mübahis	-4392
▁məktəbi	-4393
▁ittih	-4394
▁yaradıcılığı	-4395
ladığı	-4396
▁Tərəf	-4397
ing	-4398
ultik	-4399
ləyi	-4400
▁Sə	-4401
▁rif	-4402
▁general	-4403
▁Bank	-4404
▁ərazidə	-4405
▁keçirmək	-4406
▁verilmişdir	-4407
azımi	-4408
▁resurs	-4409
▁ümumilikdə	-4410
▁naminə	-4411
yla	-4412
▁mənfi	-4413
▁əmlak	-4414
▁hüququ	-4415
▁Qara	-4416
▁mə	-4417
▁soruş	-4418
▁des	-4419
▁Sar	-4420
▁irəlil	-4421
▁əf	-4422
ləndirir	-4423
▁ehtir	-4424
▁proqramı	-4425
▁Qır	-4426
▁göy	-4427
alt	-4428
kəl	-4429
▁çıxır	-4430
▁çoxdur	-4431
▁münasibətlər	-4432
▁göstərmək	-4433
▁ulduz	-4434
▁nəticəsi	-4435
▁don	-4436
▁vəfat	-4437
▁xüsusən	-4438
▁pil	-4439
burq	-4440
▁parlaq	-4441
əyir	-4442
alif	-4443
▁sevgi	-4444
ultikultur	-4445
▁qala	-4446
bəti	-4447
▁zon	-4448
ahiş	-4449
▁qalmış	-4450
▁yaxınlaş	-4451
▁sahələrində	-4452
ülü	-4453
anların	-4454
▁Ərəb	-4455
▁Nəs	-4456
▁deyilir	-4457
▁Nərim	-4458
inad	-4459
ometr	-4460
▁yazdığı	-4461
▁səbəbi	-4462
ord	-4463
▁əmələ	-4464
ellekt	-4465
▁hökuməti	-4466
▁həy	-4467
▁şərh	-4468
▁tutub	-4469
▁Avstr	-4470
▁cəmiyyəti	-4471
▁Səməd	-4472
▁buyur	-4473
dəbiyyat	-4474
▁aktual	-4475
▁artım	-4476
▁ehtim	-4477
▁indiki	-4478
▁İmam	-4479
▁yaxınlığında	-4480
▁insanları	-4481
▁məmnun	-4482
ənkər	-4483
▁İdarəsinin	-4484
▁Top	-4485
▁kapit	-4486
idd	-4487
▁vətəndaşların	-4488
ambl	-4489
ləndirmək	-4490
ij	-4491
▁birinin	-4492
mənəvi	-4493
▁texnik	-4494
▁anal	-4495
▁tutulur	-4496
adakı	-4497
▁güm	-4498
▁Asiya	-4499
▁Əliyevanın	-4500
▁mül	-4501
▁müəllimi	-4502
▁sərt	-4503
▁edilməsinə	-4504
▁qış	-4505
▁festival	-4506
▁bəlkə	-4507
▁vəzifə	-4508
▁Səfər	-4509
▁lazımi	-4510
ağını	-4511
▁bilərlər	-4512
▁Komandan	-4513
ildi	-4514
▁yolunda	-4515
▁maliyyələş	-4516
▁Əz	-4517
▁bacarıq	-4518
illik	-4519
▁İdarə	-4520
▁aktris	-4521
▁müalic	-4522
övh	-4523
▁İnc	-4524
▁həvəs	-4525
▁Tib	-4526
yektiv	-4527
▁yarar	-4528
▁bah	-4529
▁unut	-4530
ülüb	-4531
ünya	-4532
▁Qəb	-4533
▁dəhliz	-4534
sir	-4535
▁şirkəti	-4536
▁virus	-4537
▁eşit	-4538
▁Amerika	-4539
üleyman	-4540
▁birinə	-4541
▁kəl	-4542
▁rayonun	-4543
▁onda	-4544
Türk	-4545
▁Hüseynov	-4546
▁Kür	-4547
əmir	-4548
▁indiy	-4549
xana	-4550
▁inkişafının	-4551
▁etnik	-4552
▁veriliş	-4553
ələndir	-4554
▁investisiya	-4555
LİYEV	-4556
imdə	-4557
erv	-4558
▁ac	-4559
▁əsası	-4560
▁tələbə	-4561
▁oxş	-4562
çin	-4563
▁iradə	-4564
▁yaradılan	-4565
▁İqtisadi	-4566
▁Tal	-4567
▁Film	-4568
▁başlıca	-4569
▁İctimai	-4570
▁verilmiş	-4571
ucu	-4572
▁maddələr	-4573
▁etiraf	-4574
▁diaspor	-4575
▁Nəti	-4576
isindən	-4577
formasiya	-4578
masından	-4579
▁diplomatik	-4580
▁Birləşmiş	-4581
ıldığı	-4582
▁bol	-4583
pekt	-4584
itər	-4585
▁dinc	-4586
▁gediş	-4587
▁hərtərəfli	-4588
▁reallaşdır	-4589
▁müqayisədə	-4590
▁Aş	-4591
ünür	-4592
lıqlar	-4593
▁istinad	-4594
▁bat	-4595
▁törəd	-4596
▁bilərik	-4597
▁bas	-4598
▁nəticələri	-4599
liyyə	-4600
▁həqiqi	-4601
ivil	-4602
▁er	-4603
▁Rəş	-4604
▁etdikləri	-4605
III	-4606
▁davr	-4607
▁dərman	-4608
▁giriş	-4609
▁yerlərdə	-4610
▁layiqli	-4611
nov	-4612
AZƏRTAC	-4613
əllü	-4614
▁Şim	-4615
▁vermişdir	-4616
▁tabe	-4617
▁imkanı	-4618
▁əlverişli	-4619
▁minnətdar	-4620
▁onlarla	-4621
▁iclas	-4622
▁nark	-4623
▁boyun	-4624
öhnə	-4625
luğun	-4626
aqq	-4627
▁Bələd	-4628
▁Universiteti	-4629
▁humanitar	-4630
▁formada	-4631
▁soyqırımı	-4632
uf	-4633
abad	-4634
olklor	-4635
dlü	-4636
əxlaq	-4637
▁Hüquq	-4638
▁tök	-4639
▁Uz	-4640
PA	-4641
▁qapı	-4642
▁keçid	-4643
▁təvəllü	-4644
▁Ev	-4645
▁nazirinin	-4646
mələr	-4647
izmi	-4648
▁maşın	-4649
▁təxrib	-4650
Qarabağ	-4651
amb	-4652
ilməsinə	-4653
▁səfiri	-4654
▁deyildi	-4655
▁məhkum	-4656
yön	-4657
asız	-4658
▁şairin	-4659
▁alman	-4660
re	-4661
▁duran	-4662
▁dövlətlərin	-4663
▁təhsilin	-4664
▁danışıb	-4665
▁metod	-4666
▁ödəniş	-4667
▁istedadlı	-4668
▁hüquqlarının	-4669
▁Laç	-4670
▁fəaliyyətə	-4671
▁mülki	-4672
düz	-4673
▁mənzər	-4674
iyyətin	-4675
▁çağ	-4676
▁Bax	-4677
▁Parlament	-4678
▁hün	-4679
▁Lənkər	-4680
pt	-4681
▁respublikanın	-4682
▁Paris	-4683
▁vurul	-4684
▁bəri	-4685
▁yarada	-4686
itərəfli	-4687
▁ƏLİYEV	-4688
imin	-4689
neft	-4690
▁kino	-4691
▁XV	-4692
üncü	-4693
▁İngiltər	-4694
ht	-4695
fon	-4696
▁mövsüm	-4697
▁etibarlı	-4698
usuna	-4699
▁Düş	-4700
▁qiymətli	-4701
▁ittiham	-4702
asiyanın	-4703
▁oynayır	-4704
▁Qanununun	-4705
▁keçib	-4706
▁təsəvvür	-4707
uda	-4708
▁Üzeyir	-4709
▁ərazilərdə	-4710
▁təşv	-4711
▁təvəllüdlü	-4712
▁İsveç	-4713
▁tay	-4714
ss	-4715
şeron	-4716
▁məzm	-4717
▁Ley	-4718
anlıq	-4719
ürs	-4720
▁alət	-4721
gedən	-4722
əqqəti	-4723
▁mükəm	-4724
▁tar	-4725
▁Qal	-4726
▁çatıb	-4727
▁tanım	-4728
▁İsrail	-4729
▁açıb	-4730
maqda	-4731
itor	-4732
▁sürətli	-4733
mədiy	-4734
▁konsep	-4735
▁mühafizə	-4736
Bakı	-4737
▁oğlan	-4738
ahıs	-4739
▁sifar	-4740
əyib	-4741
ion	-4742
▁mətn	-4743
gəl	-4744
əsə	-4745
lığından	-4746
▁hamısı	-4747
▁dahi	-4748
arıstan	-4749
▁Müharib	-4750
▁məktəbin	-4751
▁məhrum	-4752
▁tutaraq	-4753
▁mükəmməl	-4754
▁Rüstəm	-4755
▁zirv	-4756
lək	-4757
▁görüb	-4758
▁taley	-4759
▁Daş	-4760
▁janr	-4761
▁zəh	-4762
▁razılaş	-4763
amlı	-4764
▁Dil	-4765
▁bağış	-4766
sini	-4767
▁davranış	-4768
▁Polis	-4769
▁yaşı	-4770
▁əksəriyyəti	-4771
▁Fon	-4772
eksiy	-4773
ülə	-4774
ağız	-4775
ünən	-4776
▁əleyhinə	-4777
▁Seçki	-4778
▁üstündə	-4779
iyasını	-4780
▁problemlərin	-4781
▁satış	-4782
şr	-4783
ayn	-4784
▁vaxtlar	-4785
▁şöh	-4786
▁Azərbaycanlı	-4787
ırda	-4788
▁müəllimin	-4789
essiy	-4790
▁salam	-4791
▁olmuşdu	-4792
▁sənəti	-4793
▁hadisələr	-4794
ülf	-4795
▁ili	-4796
▁gömrük	-4797
əmizə	-4798
▁Oğ	-4799
▁Amerik	-4800
sində	-4801
▁paytaxtı	-4802
▁müdrik	-4803
▁sün	-4804
muşdu	-4805
ko	-4806
▁qoh	-4807
▁Cəlil	-4808
▁Müasir	-4809
▁inş	-4810
▁verə	-4811
▁adi	-4812
▁sərgi	-4813
ülür	-4814
▁Qarayev	-4815
ba	-4816
▁əvvəllərində	-4817
dön	-4818
işət	-4819
BA	-4820
▁keçirilmişdir	-4821
asiyalar	-4822
▁ört	-4823
▁Əslində	-4824
larımızı	-4825
▁mübadiləsi	-4826
▁qanunvericilik	-4827
▁Respublika	-4828
▁Süleyman	-4829
▁almış	-4830
▁məskun	-4831
əncamı	-4832
əqin	-4833
▁edirdilər	-4834
iyanı	-4835
üfi	-4836
ləmə	-4837
▁məhsulları	-4838
sev	-4839
əth	-4840
▁çəkir	-4841
▁dolu	-4842
ensiya	-4843
ilərinin	-4844
▁mühafiz	-4845
imizi	-4846
məkdədir	-4847
kan	-4848
▁Mətbuat	-4849
▁yenilik	-4850
▁düşüb	-4851
▁Fik	-4852
emin	-4853
▁səc	-4854
oç	-4855
▁imkanlar	-4856
▁müəssisələrinin	-4857
▁əhali	-4858
▁müğənni	-4859
▁etdirmək	-4860
▁daxildir	-4861
▁öhdə	-4862
əssas	-4863
▁xalqına	-4864
▁sizə	-4865
▁artist	-4866
▁olmağa	-4867
▁Bəzi	-4868
▁Mənim	-4869
▁üzü	-4870
lənməsinə	-4871
▁risk	-4872
▁işlərinin	-4873
▁kənarda	-4874
ind	-4875
▁xahiş	-4876
▁istisna	-4877
AzAZƏRTAC	-4878
▁Naxçıv	-4879
▁sənin	-4880
▁Tədbirdə	-4881
▁Məş	-4882
▁mexanizm	-4883
▁Elmi	-4884
içək	-4885
ild	-4886
▁qurban	-4887
▁divar	-4888
▁ümumiyyətlə	-4889
ayih	-4890
▁yalan	-4891
▁yaranan	-4892
▁rəğ	-4893
▁işçi	-4894
▁kafed	-4895
▁yaşıl	-4896
məyəcək	-4897
▁göstərib	-4898
▁Bol	-4899
▁ikitərəfli	-4900
usunu	-4901
▁həlak	-4902
▁intellekt	-4903
▁Komitəsi	-4904
▁hazırlıq	-4905
eksan	-4906
▁mədəniyyətinin	-4907
▁miqy	-4908
▁təcrübə	-4909
çının	-4910
birinə	-4911
▁çevrilib	-4912
▁pub	-4913
oviç	-4914
▁şairi	-4915
imizdə	-4916
▁Məcəlləsinin	-4917
▁qrupunun	-4918
▁kol	-4919
▁sərn	-4920
▁heyətinin	-4921
şıq	-4922
anını	-4923
▁edərkən	-4924
▁hazırlanmış	-4925
▁ölkələrində	-4926
▁İtaliya	-4927
▁saxlay	-4928
▁istirahət	-4929
çıların	-4930
▁imtahan	-4931
▁bütövlükdə	-4932
▁yandır	-4933
abitə	-4934
ID	-4935
▁ton	-4936
▁yolunun	-4937
ılmalıdır	-4938
▁zidd	-4939
▁qoydu	-4940
▁meh	-4941
▁Sultan	-4942
▁xarakterli	-4943
▁yor	-4944
▁post	-4945
▁ölkəyə	-4946
▁minlərlə	-4947
▁üzləş	-4948
▁tələblərinə	-4949
▁problemi	-4950
ral	-4951
əfiq	-4952
▁Kabineti	-4953
▁olmadan	-4954
▁kilometr	-4955
▁araşdırmalar	-4956
▁şəraitdə	-4957
le	-4958
▁hesabat	-4959
▁sərf	-4960
anıq	-4961
▁tipli	-4962
▁Sonr	-4963
mizə	-4964
eksi	-4965
▁əşy	-4966
▁günün	-4967
süz	-4968
▁olduğundan	-4969
▁hakimiyyətə	-4970
irt	-4971
əxş	-4972
ifə	-4973
▁Şimali	-4974
▁xəsarət	-4975
▁regionda	-4976
▁sadiq	-4977
▁Fir	-4978
eqoriya	-4979
▁təşkilatçılığı	-4980
izdə	-4981
çü	-4982
▁dövlətçilik	-4983
▁ekoloji	-4984
▁Müst	-4985
▁söylə	-4986
▁etmir	-4987
ilərə	-4988
ıla	-4989
▁edin	-4990
▁təməl	-4991
amışdır	-4992
▁günə	-4993
▁cəmi	-4994
▁tarixinin	-4995
▁təbiət	-4996
▁yaradan	-4997
▁odur	-4998
mat	-4999
▁İspan	-5000
unt	-5001
▁Qadın	-5002
▁qurtar	-5003
▁bl	-5004
▁rəqab	-5005
eyx	-5006
▁olunduğu	-5007
▁Əliyevə	-5008
AM	-5009
▁əlil	-5010
likdən	-5011
madı	-5012
▁mənsub	-5013
▁Qəz	-5014
ber	-5015
▁qələbə	-5016
lıqdan	-5017
▁inqilab	-5018
▁doğr	-5019
▁əsərlər	-5020
▁geyim	-5021
▁Nə	-5022
▁zəm	-5023
▁foto	-5024
▁əziyyət	-5025
İV	-5026
▁üzə	-5027
▁Festiv	-5028
▁danışıqlar	-5029
▁əlaqə	-5030
▁həssas	-5031
risti	-5032
▁xətti	-5033
▁Keç	-5034
▁aparır	-5035
▁olmasını	-5036
▁Şəm	-5037
▁nadir	-5038
▁istərsə	-5039
▁səhv	-5040
İs	-5041
▁səhiyyə	-5042
▁bəşər	-5043
lərimizi	-5044
estr	-5045
▁Pey	-5046
əffəq	-5047
iyaların	-5048
▁etim	-5049
▁tarixinə	-5050
▁Müq	-5051
bəyli	-5052
▁vətəndaşı	-5053
▁şəklində	-5054
▁Kons	-5055
▁anası	-5056
▁olmayıb	-5057
ilərək	-5058
▁xas	-5059
▁saç	-5060
daxil	-5061
▁Nikol	-5062
▁siyasətin	-5063
ibə	-5064
▁surətdə	-5065
oqrafiya	-5066
▁Dər	-5067
▁zabit	-5068
▁soyqırım	-5069
▁Abdullayev	-5070
▁televiziya	-5071
Azər	-5072
▁diz	-5073
ındakı	-5074
▁qovuş	-5075
yasiya	-5076
▁Şər	-5077
▁Hacıbəy	-5078
▁müvəqqəti	-5079
▁İdman	-5080
▁tr	-5081
günkü	-5082
▁sevinc	-5083
▁başlayan	-5084
ənlər	-5085
daşlıq	-5086
▁aparan	-5087
▁İncəsənət	-5088
▁göstərdi	-5089
▁işg	-5090
▁XIX	-5091
▁mağ	-5092
▁qarşısının	-5093
anrı	-5094
▁prosesində	-5095
▁Rəsul	-5096
▁Şirvan	-5097
istika	-5098
▁eksp	-5099
▁komandan	-5100
▁Qarabağın	-5101
▁Tək	-5102
imum	-5103
▁görülüb	-5104
▁sü	-5105
▁yem	-5106
▁vacibdir	-5107
▁niyə	-5108
ləşdirilmiş	-5109
▁Əsgər	-5110
▁Görüş	-5111
əndis	-5112
▁plat	-5113
▁yataq	-5114
▁fəlsəfə	-5115
▁Hindi	-5116
▁lab	-5117
▁Səhiyyə	-5118
dədir	-5119
urlar	-5120
maya	-5121
əbrayıl	-5122
▁Paşin	-5123
▁dəhş	-5124
çıları	-5125
▁rəqs	-5126
▁aparılıb	-5127
ou	-5128
▁prot	-5129
▁Akademik	-5130
▁Mol	-5131
▁müvəffəq	-5132
▁inform	-5133
▁III	-5134
▁Universitetində	-5135
axta	-5136
▁bildirilib	-5137
▁Yanvar	-5138
▁Fondu	-5139
▁İki	-5140
▁Seyid	-5141
oler	-5142
peratur	-5143
oğl	-5144
▁Ba	-5145
▁Yaxın	-5146
▁sivil	-5147
▁soyuq	-5148
ımızda	-5149
dıqda	-5150
▁idarəetmə	-5151
▁poetik	-5152
▁kart	-5153
▁sm	-5154
▁Britaniya	-5155
▁səviyyəsi	-5156
▁edilməlidir	-5157
▁bərpası	-5158
▁nümunələri	-5159
üddətli	-5160
▁qələmə	-5161
▁Er	-5162
mədə	-5163
▁evdə	-5164
▁həyatını	-5165
▁Tə	-5166
eya	-5167
▁nisb	-5168
▁məkan	-5169
▁Nat	-5170
▁ərzaq	-5171
▁şahidi	-5172
▁Musiqi	-5173
▁göstərilir	-5174
▁cəmiyyətdə	-5175
▁sözün	-5176
▁Tey	-5177
▁ata	-5178
▁dilinin	-5179
eddi	-5180
qal	-5181
▁əbədi	-5182
▁gü	-5183
▁iqtisadiyyatın	-5184
▁Sizə	-5185
▁sərvət	-5186
▁həmrəy	-5187
▁səfəri	-5188
▁təsadüf	-5189
▁Abşeron	-5190
sün	-5191
altı	-5192
▁döz	-5193
alinin	-5194
▁vaxtında	-5195
▁otaq	-5196
▁başlamış	-5197
▁vurğulan	-5198
▁sentyabrın	-5199
▁aşıq	-5200
▁Man	-5201
▁orqanizm	-5202
▁tapıb	-5203
▁müharibəsində	-5204
▁Söz	-5205
▁əsasını	-5206
dılması	-5207
▁imza	-5208
▁Layih	-5209
▁müqavilə	-5210
▁siyahıs	-5211
▁səsi	-5212
▁gələr	-5213
dığım	-5214
▁çatış	-5215
▁daşıyan	-5216
ərçəng	-5217
▁əxlaq	-5218
olerant	-5219
▁nağ	-5220
▁qardaşı	-5221
▁agent	-5222
▁sonradan	-5223
▁Həyat	-5224
alət	-5225
▁düşüncə	-5226
........	-5227
əşt	-5228
▁ürəy	-5229
▁Mahmud	-5230
acaqdır	-5231
övr	-5232
▁ərəf	-5233
▁funksiy	-5234
cədə	-5235
▁İrəvan	-5236
▁Xidmətinin	-5237
yam	-5238
▁apardığı	-5239
▁Qanun	-5240
rəm	-5241
▁mag	-5242
▁gücü	-5243
▁layihələrin	-5244
ımda	-5245
▁Ber	-5246
▁prokuror	-5247
▁sahələri	-5248
▁iclasında	-5249
▁Heç	-5250
atlarının	-5251
▁sərnişin	-5252
▁azı	-5253
tal	-5254
▁frans	-5255
▁təminatı	-5256
▁Qayda	-5257
su	-5258
▁vasitə	-5259
▁vari	-5260
▁avadanlıq	-5261
əcər	-5262
▁iştirakçıları	-5263
dünya	-5264
▁əziz	-5265
▁fəda	-5266
▁Hacıyev	-5267
▁mik	-5268
iyyəsi	-5269
▁düşmüş	-5270
▁Səd	-5271
▁bağlan	-5272
▁yolla	-5273
▁bayramı	-5274
▁məsələsi	-5275
▁Kateqoriya	-5276
▁ölkəmizə	-5277
▁redaktoru	-5278
▁vasitəsi	-5279
▁saray	-5280
▁fikri	-5281
▁nisbətən	-5282
▁sakit	-5283
Bir	-5284
▁temperatur	-5285
OVID	-5286
▁Təbr	-5287
▁nit	-5288
▁İranın	-5289
▁Müstəqil	-5290
▁təəssüf	-5291
▁direktor	-5292
▁yaşamaq	-5293
maqdadır	-5294
▁təkan	-5295
arx	-5296
▁sınaq	-5297
▁uyğunlaşdır	-5298
silə	-5299
idin	-5300
nək	-5301
▁Axund	-5302
▁qohum	-5303
va	-5304
▁Be	-5305
lərdir	-5306
əmək	-5307
▁hündür	-5308
dülər	-5309
▁Özbək	-5310
▁hissəsinin	-5311
▁deputatı	-5312
ılsın	-5313
▁əhalisinin	-5314
▁Göz	-5315
▁yarısında	-5316
dığımız	-5317
olkov	-5318
İD	-5319
▁Allahın	-5320
ozis	-5321
qres	-5322
▁xərit	-5323
▁reak	-5324
▁Ədəbiyyat	-5325
▁Həz	-5326
▁rəy	-5327
▁Qəhrəm	-5328
▁inkişafını	-5329
▁sab	-5330
▁Üç	-5331
▁qadağan	-5332
▁saxlamaq	-5333
▁islam	-5334
son	-5335
▁qaldırılması	-5336
▁Avropanın	-5337
▁başına	-5338
▁Gö	-5339
▁istintaq	-5340
laşan	-5341
▁çirk	-5342
▁vəhş	-5343
ofiq	-5344
▁yaşında	-5345
▁Hələ	-5346
▁Region	-5347
ətlə	-5348
tam	-5349
▁Çempion	-5350
▁müstəqilliyi	-5351
▁çoxu	-5352
▁keçirən	-5353
▁Müt	-5354
▁Konfrans	-5355
▁gizli	-5356
▁xanımın	-5357
lanma	-5358
▁anlam	-5359
▁keçirildi	-5360
ünc	-5361
▁işinə	-5362
▁oğul	-5363
▁Şəki	-5364
▁ünv	-5365
əffaf	-5366
▁iq	-5367
▁olmasa	-5368
▁əhəmiyyəti	-5369
info	-5370
▁tövsiyə	-5371
▁zövq	-5372
▁öndərin	-5373
▁vaxtda	-5374
Ar	-5375
▁layihələri	-5376
▁Aleksan	-5377
▁Təşkilatının	-5378
▁təhlükəsizliyi	-5379
örək	-5380
▁saxlam	-5381
enz	-5382
▁ko	-5383
▁hüquqları	-5384
▁edildiyi	-5385
▁Qazaxıstan	-5386
▁Akt	-5387
▁İnformasiya	-5388
▁qaçqın	-5389
qyaslı	-5390
yaş	-5391
▁folklor	-5392
▁demişdir	-5393
▁Murad	-5394
▁gündəlik	-5395
▁Mak	-5396
▁yaranmış	-5397
▁obyektiv	-5398
▁bilin	-5399
▁hissəsini	-5400
▁rifah	-5401
▁başlanğı	-5402
▁Möv	-5403
▁Sabir	-5404
▁kampan	-5405
▁cari	-5406
▁heykəl	-5407
▁yolunu	-5408
▁tərbiy	-5409
▁oc	-5410
▁sonuncu	-5411
▁mənaf	-5412
▁ATƏT	-5413
▁nəhəng	-5414
lıqda	-5415
▁Mas	-5416
vil	-5417
mada	-5418
▁Millət	-5419
lardır	-5420
▁fikrincə	-5421
ubok	-5422
▁dünyasını	-5423
▁fərman	-5424
▁qiyməti	-5425
▁qüvvələri	-5426
▁quş	-5427
əmadi	-5428
▁həftə	-5429
▁aktlarının	-5430
▁fir	-5431
diyimiz	-5432
▁start	-5433
ülük	-5434
▁növü	-5435
▁münasibəti	-5436
lərim	-5437
çay	-5438
çusu	-5439
▁Səb	-5440
▁Ölkə	-5441
▁Ramiz	-5442
▁Moskvada	-5443
▁nəticələn	-5444
▁verildi	-5445
▁Mik	-5446
▁yaradıb	-5447
▁görən	-5448
▁versin	-5449
▁Müb	-5450
▁Texn	-5451
▁olmur	-5452
abbar	-5453
▁Naz	-5454
əmi	-5455
▁UNES	-5456
asitə	-5457
▁müdafiəsi	-5458
mində	-5459
▁audi	-5460
▁savaş	-5461
▁mərasimi	-5462
▁təqa	-5463
▁işləyən	-5464
▁mərtəb	-5465
▁Cəbrayıl	-5466
▁fikirlər	-5467
ilməz	-5468
▁oxun	-5469
▁cər	-5470
lov	-5471
ologiyası	-5472
▁sənədlər	-5473
▁qaldı	-5474
▁du	-5475
▁etmişlər	-5476
▁him	-5477
▁magist	-5478
▁qüvvəyə	-5479
▁Kan	-5480
▁məsələlərin	-5481
qnoz	-5482
let	-5483
astik	-5484
ütb	-5485
▁töhfə	-5486
▁ehtiram	-5487
▁KİV	-5488
▁Anar	-5489
ret	-5490
▁şüur	-5491
▁multikultur	-5492
▁zavod	-5493
▁qorumaq	-5494
▁Ek	-5495
▁ri	-5496
▁müşayi	-5497
▁Öndər	-5498
aye	-5499
▁Forum	-5500
▁Proqramı	-5501
▁bölgədə	-5502
▁əlbəttə	-5503
ew	-5504
▁Şa	-5505
▁yazılmış	-5506
▁soydaş	-5507
▁Apar	-5508
▁daşım	-5509
▁nəticələr	-5510
ənən	-5511
əncər	-5512
▁Qarabağda	-5513
əsimi	-5514
▁Qoş	-5515
▁tezliklə	-5516
▁əmr	-5517
▁duyğu	-5518
▁adamı	-5519
▁deyildir	-5520
▁Tofiq	-5521
▁final	-5522
▁çiçək	-5523
üstü	-5524
▁Uzun	-5525
▁qadınlar	-5526
▁mərhələdə	-5527
▁Xət	-5528
▁edilərək	-5529
▁Zaq	-5530
acı	-5531
▁Bab	-5532
▁yayıb	-5533
▁köhnə	-5534
▁bildirmişdir	-5535
▁sol	-5536
▁nəticədə	-5537
▁şirkətinin	-5538
▁gücləndirilməsi	-5539
▁qoruyub	-5540
▁üzvlərinin	-5541
▁mot	-5542
▁Əziz	-5543
▁gedə	-5544
ansız	-5545
luğunu	-5546
mer	-5547
yon	-5548
mişlər	-5549
▁məktəbdə	-5550
▁dəqiqə	-5551
▁dərindən	-5552
▁est	-5553
▁etdiyimiz	-5554
▁Nəticədə	-5555
acağıq	-5556
▁turn	-5557
▁bel	-5558
▁tərcüm	-5559
▁Həsənov	-5560
ai	-5561
▁narkotik	-5562
▁əhalisi	-5563
▁Müş	-5564
▁olmadığını	-5565
▁nitq	-5566
nif	-5567
▁sistemində	-5568
prezidenti	-5569
▁könüllü	-5570
ətini	-5571
ahür	-5572
üter	-5573
ovuz	-5574
▁səbəbindən	-5575
diklərini	-5576
▁iyunun	-5577
▁Kim	-5578
▁əhval	-5579
ədiyi	-5580
▁nəticəsidir	-5581
▁Xatır	-5582
avasitə	-5583
▁tolerant	-5584
iyyətinə	-5585
▁qətlə	-5586
▁fikirləri	-5587
paq	-5588
▁təşkilatların	-5589
▁unudul	-5590
▁Arif	-5591
dilli	-5592
▁bənz	-5593
ASI	-5594
gid	-5595
▁Bar	-5596
▁Yux	-5597
orator	-5598
▁tax	-5599
acaqlar	-5600
▁həyatın	-5601
▁ildön	-5602
duğunu	-5603
▁təzahür	-5604
▁oktyabrın	-5605
▁təyyar	-5606
okol	-5607
əkbər	-5608
▁arxiv	-5609
▁bəhr	-5610
▁tanınan	-5611
▁müşav	-5612
▁Saz	-5613
▁aparmaq	-5614
liklər	-5615
▁kafedr	-5616
▁kəmər	-5617
▁Doğ	-5618
rav	-5619
▁dəyərləndir	-5620
▁Laçın	-5621
▁vurub	-5622
▁qoyulan	-5623
▁Peyğəmbər	-5624
▁Partiyasının	-5625
▁gətirir	-5626
▁birini	-5627
▁açıqlamasında	-5628
▁edəcəy	-5629
▁araşdırma	-5630
imli	-5631
▁hekt	-5632
▁yaralan	-5633
əndər	-5634
▁memarlıq	-5635
▁Mərkəzində	-5636
▁ünsiyyət	-5637
▁olduqda	-5638
▁çəkib	-5639
▁alq	-5640
▁sektorunun	-5641
▁şeyi	-5642
▁arxasında	-5643
▁qulluqçu	-5644
▁tədbirdə	-5645
▁Vla	-5646
▁Hadi	-5647
▁siq	-5648
▁kos	-5649
▁Misir	-5650
▁çəkin	-5651
▁qərb	-5652
▁kimin	-5653
▁sahə	-5654
ımın	-5655
▁Dav	-5656
▁artması	-5657
▁Mac	-5658
quş	-5659
üzə	-5660
ian	-5661
şrut	-5662
▁adamları	-5663
▁olardı	-5664
▁etməl	-5665
▁rep	-5666
▁olanda	-5667
▁nik	-5668
▁mütəmadi	-5669
▁Günü	-5670
▁məktəbinin	-5671
▁lent	-5672
▁fransız	-5673
▁noyabrın	-5674
▁müay	-5675
olit	-5676
▁Müəllif	-5677
▁mövqeyi	-5678
▁qəbulu	-5679
▁Dram	-5680
▁işini	-5681
▁zərb	-5682
PU	-5683
ommun	-5684
umuzun	-5685
▁Əmin	-5686
▁Pal	-5687
laşmış	-5688
▁Prezidentinə	-5689
▁bilavasitə	-5690
əyəcan	-5691
▁yerləşdiril	-5692
▁Araz	-5693
▁insanı	-5694
▁çatdırıb	-5695
▁kür	-5696
▁zal	-5697
▁proqnoz	-5698
▁Qızıl	-5699
▁şəffaf	-5700
▁Ələkbər	-5701
lilər	-5702
▁bəxş	-5703
▁qəbir	-5704
▁həqiqətən	-5705
▁bənzər	-5706
▁əsaslanan	-5707
▁vətənpərvərlik	-5708
bilisi	-5709
əcəkdir	-5710
əmz	-5711
▁olunurdu	-5712
▁tutulub	-5713
aqn	-5714
şah	-5715
laşıb	-5716
ərli	-5717
▁təfəkkür	-5718
▁Əsəd	-5719
▁dəfn	-5720
yönlü	-5721
▁Bor	-5722
mik	-5723
▁həyatının	-5724
▁May	-5725
ena	-5726
▁subyekt	-5727
▁sakinləri	-5728
▁em	-5729
▁müəssisələrində	-5730
▁ölümündən	-5731
üngül	-5732
▁evə	-5733
ww	-5734
incə	-5735
▁ey	-5736
▁ssen	-5737
▁Şirk	-5738
ider	-5739
▁Elçin	-5740
▁qadının	-5741
iyaları	-5742
▁yaranır	-5743
▁edilə	-5744
ləmiş	-5745
▁təşkilatlar	-5746
▁Rusiyada	-5747
El	-5748
ğını	-5749
▁azadlığı	-5750
▁vermir	-5751
▁dramatur	-5752
riq	-5753
xal	-5754
▁Sp	-5755
▁Kəlb	-5756
irmi	-5757
▁variant	-5758
▁həft	-5759
▁sit	-5760
▁tərəfdar	-5761
▁qəzeti	-5762
FA	-5763
amın	-5764
▁nəzarəti	-5765
▁qətnam	-5766
▁qaş	-5767
▁işin	-5768
▁prinsipi	-5769
▁Şamaxı	-5770
▁xanımı	-5771
▁video	-5772
▁yəh	-5773
lənmə	-5774
▁bildirilir	-5775
karlıq	-5776
▁ordusu	-5777
▁oğur	-5778
▁qulaq	-5779
▁Kral	-5780
ensiv	-5781
▁çəkilən	-5782
▁qəsəbəsində	-5783
▁od	-5784
▁İsa	-5785
▁təbəq	-5786
▁Şəh	-5787
▁miqdarda	-5788
▁and	-5789
▁Kamal	-5790
▁yerini	-5791
▁("	-5792
▁Kitabxan	-5793
▁ant	-5794
▁anlayış	-5795
▁verg	-5796
▁məhsullarının	-5797
veren	-5798
▁əq	-5799
▁əvvəllər	-5800
▁psixoloji	-5801
▁ekran	-5802
▁tikil	-5803
▁etdim	-5804
ağıyev	-5805
▁yaşan	-5806
▁ailəsi	-5807
▁hadisələri	-5808
▁qəzetinin	-5809
▁irsi	-5810
ayış	-5811
▁pop	-5812
landiya	-5813
▁təəssür	-5814
▁Partiyası	-5815
dirlər	-5816
▁güzəşt	-5817
▁qıs	-5818
▁qırmızı	-5819
▁AZƏRTAC	-5820
▁kağız	-5821
▁görüşdə	-5822
▁tayf	-5823
▁telek	-5824
▁səviyyəli	-5825
▁ala	-5826
▁səhnə	-5827
▁dam	-5828
▁səciyy	-5829
▁tərəfi	-5830
lal	-5831
▁ildir	-5832
maqdan	-5833
şev	-5834
ministr	-5835
▁kamer	-5836
▁balıq	-5837
▁işinin	-5838
▁ucal	-5839
▁Ermənistanda	-5840
larus	-5841
▁aylıq	-5842
▁nəşriyyat	-5843
▁müxalif	-5844
▁ölkələrinin	-5845
ləyə	-5846
ulyar	-5847
üqar	-5848
▁böhran	-5849
▁zəhmət	-5850
▁marşrut	-5851
▁qorunub	-5852
▁getdikcə	-5853
▁qanunun	-5854
▁Tədqiqat	-5855
▁qraf	-5856
▁əksinə	-5857
əsin	-5858
▁Babayev	-5859
▁Əd	-5860
dimir	-5861
▁ocaq	-5862
əcəyinə	-5863
vaz	-5864
mişəm	-5865
▁Qarab	-5866
▁dalğ	-5867
məramlı	-5868
▁almışdır	-5869
▁Con	-5870
▁filmi	-5871
vat	-5872
▁müəssisələri	-5873
▁ədəbiyyatının	-5874
▁sizi	-5875
▁olmasının	-5876
▁keçirib	-5877
▁test	-5878
laşır	-5879
▁Dəniz	-5880
▁kədər	-5881
▁altı	-5882
▁islahatların	-5883
▁pedaqoji	-5884
▁istehlak	-5885
▁Rz	-5886
▁dik	-5887
▁vasitələrinin	-5888
▁söyləyib	-5889
tul	-5890
▁İqtisadiyyat	-5891
▁Teymur	-5892
▁Bəzən	-5893
▁aldı	-5894
xah	-5895
▁axır	-5896
▁işğalçı	-5897
▁Lənkəran	-5898
▁təmas	-5899
əhsil	-5900
▁yazılı	-5901
▁AS	-5902
▁Sahib	-5903
▁sayılan	-5904
▁xaricdə	-5905
▁olduğuna	-5906
anıstan	-5907
▁müddəti	-5908
▁İnt	-5909
▁fikirlərini	-5910
obus	-5911
larınız	-5912
▁UNESCO	-5913
▁Zeynal	-5914
▁yanına	-5915
▁Lond	-5916
▁göstəricisi	-5917
▁quruculuğu	-5918
▁vasitələri	-5919
▁əhəmiyyətini	-5920
▁mətb	-5921
▁Koll	-5922
▁qaynaq	-5923
hüquq	-5924
▁Qüvvələrinin	-5925
▁Har	-5926
▁Ümumi	-5927
▁yiy	-5928
▁Azərbaycandakı	-5929
▁suveren	-5930
dirmək	-5931
KO	-5932
dirib	-5933
▁qadınların	-5934
▁ehtiyacı	-5935
▁bəd	-5936
▁Xəlil	-5937
▁Komissiyasının	-5938
▁buyurur	-5939
▁Vur	-5940
▁təntən	-5941
amal	-5942
▁fonunda	-5943
▁bugünkü	-5944
▁üstünə	-5945
▁intensiv	-5946
olkovnik	-5947
mədəni	-5948
▁dövrlərdə	-5949
▁orqanı	-5950
kal	-5951
▁prosesinin	-5952
▁Şeyx	-5953
▁Şərqi	-5954
▁cüt	-5955
▁seçk	-5956
ükür	-5957
.)	-5958
▁sənətinin	-5959
əcəyik	-5960
▁hadisələrin	-5961
▁keçirilməsinə	-5962
▁Kazım	-5963
▁Avropada	-5964
up	-5965
ros	-5966
bin	-5967
▁Aleksandr	-5968
▁simv	-5969
▁pər	-5970
avi	-5971
laşdırma	-5972
doğ	-5973
▁Prezidentin	-5974
ha	-5975
▁təhlükəli	-5976
maların	-5977
▁diss	-5978
dilməsi	-5979
▁şəxslərə	-5980
▁MD	-5981
əp	-5982
▁dönəm	-5983
▁xalç	-5984
▁səviyyəsinin	-5985
▁işıqlandır	-5986
bat	-5987
▁tərbiyə	-5988
▁Əməkdaşlıq	-5989
▁Elekt	-5990
▁qabaqcıl	-5991
▁arxe	-5992
▁Aşıq	-5993
▁Gəl	-5994
oğlunun	-5995
▁həyəcan	-5996
təz	-5997
afqazinfo	-5998
▁mükafatı	-5999
▁Araşdır	-6000
▁mərasimində	-6001
itorinq	-6002
▁sonralar	-6003
▁məlumatları	-6004
eor	-6005
▁yaradılmışdır	-6006
▁lə	-6007
▁Eks	-6008
▁tanıy	-6009
▁cəsarət	-6010
ristian	-6011
▁sərmay	-6012
▁dövlətçiliy	-6013
vin	-6014
▁layihənin	-6015
▁günəş	-6016
▁xərçəng	-6017
vənd	-6018
adənin	-6019
▁sözügedən	-6020
▁Azərbaycandan	-6021
▁müstəs	-6022
▁Məq	-6023
▁xalça	-6024
▁götürüb	-6025
▁evi	-6026
ayevin	-6027
ekst	-6028
▁təşkilatları	-6029
▁altına	-6030
▁mərhələsində	-6031
▁Nam	-6032
▁çatışmaz	-6033
ric	-6034
▁müqaviləsi	-6035
An	-6036
əmə	-6037
əqqi	-6038
osu	-6039
▁məqsədyönlü	-6040
▁məişət	-6041
▁əməkdar	-6042
iyaziyyat	-6043
▁istədiy	-6044
▁APA	-6045
▁həz	-6046
▁zül	-6047
▁səsver	-6048
▁etmə	-6049
elin	-6050
ladaq	-6051
▁mənş	-6052
ıdır	-6053
▁süni	-6054
▁deyər	-6055
▁Fət	-6056
▁məzmun	-6057
▁əlaqələrinin	-6058
▁səsləndir	-6059
▁həyatda	-6060
▁tutmuş	-6061
eatrı	-6062
əsiq	-6063
▁vəzifəsində	-6064
▁uçuş	-6065
dağ	-6066
▁buraxı	-6067
▁mühəndis	-6068
▁Dey	-6069
imul	-6070
▁məzun	-6071
▁doktor	-6072
▁Arx	-6073
izasiya	-6074
▁markalı	-6075
▁gözlənilir	-6076
▁boyunca	-6077
▁müddə	-6078
mədiyi	-6079
eys	-6080
iyyətə	-6081
▁xalqların	-6082
ülb	-6083
KT	-6084
▁adlanan	-6085
▁olublar	-6086
▁olurdu	-6087
▁boğ	-6088
▁həllini	-6089
▁illiyi	-6090
ləşir	-6091
laşması	-6092
▁seçim	-6093
▁budur	-6094
▁ittifaq	-6095
▁redak	-6096
əzur	-6097
▁uzan	-6098
▁tul	-6099
▁gətirən	-6100
▁orij	-6101
▁Aslan	-6102
▁Maliyyə	-6103
▁Bağır	-6104
▁dövrünün	-6105
▁bəyin	-6106
▁günlük	-6107
▁qatı	-6108
▁Xüsusi	-6109
ləşmə	-6110
ental	-6111
▁təhsilini	-6112
▁Ermənistana	-6113
▁təqsir	-6114
▁çevrilir	-6115
CAN	-6116
işlər	-6117
▁Günün	-6118
▁olarkən	-6119
məni	-6120
▁vitam	-6121
antin	-6122
▁raket	-6123
▁təbliği	-6124
▁yüngül	-6125
▁YAP	-6126
ğunun	-6127
siyaya	-6128
şevik	-6129
▁bab	-6130
avaş	-6131
▁dilinə	-6132
▁məqsədlə	-6133
ıldığını	-6134
▁müstəsna	-6135
▁boru	-6136
▁aidiyyəti	-6137
▁hasil	-6138
oran	-6139
▁yanvarın	-6140
əkkiz	-6141
▁dö	-6142
▁innov	-6143
keş	-6144
for	-6145
▁İy	-6146
▁Ədliyyə	-6147
▁qəf	-6148
dində	-6149
▁korp	-6150
▁rəmz	-6151
▁qərarına	-6152
▁Qədim	-6153
BAY	-6154
▁himay	-6155
▁fars	-6156
▁futbolçu	-6157
▁yolun	-6158
▁koman	-6159
▁olunmalıdır	-6160
▁vəkili	-6161
▁etməli	-6162
▁Bəh	-6163
▁Tay	-6164
BAYCAN	-6165
▁dövlətlər	-6166
▁Rəhim	-6167
▁məlumatların	-6168
▁Böl	-6169
▁Mübar	-6170
▁vəsiq	-6171
▁layihəsinin	-6172
▁şir	-6173
▁aktrisa	-6174
▁qoyur	-6175
▁Vladimir	-6176
▁başqaları	-6177
▁yolda	-6178
▁Əhalinin	-6179
▁xəl	-6180
▁fili	-6181
giz	-6182
üzar	-6183
▁haqqı	-6184
▁Ol	-6185
▁Pak	-6186
▁blok	-6187
ZƏRBAYCAN	-6188
▁qoyulmuş	-6189
▁publis	-6190
əyaq	-6191
▁stimul	-6192
▁məsələyə	-6193
▁məclis	-6194
▁ordusunun	-6195
▁fevralın	-6196
▁müxbir	-6197
▁deyirdi	-6198
▁ayrıca	-6199
luğunun	-6200
▁sayının	-6201
lo	-6202
▁mikro	-6203
▁Fransanın	-6204
▁gimn	-6205
▁fəaliyyətində	-6206
▁Ümumdünya	-6207
▁ərəfəsində	-6208
▁Yaq	-6209
▁bunların	-6210
▁Qrup	-6211
▁görüntü	-6212
▁xatırlad	-6213
əyal	-6214
aməti	-6215
▁emal	-6216
▁müstəv	-6217
▁Məhkəməsinin	-6218
▁qismində	-6219
▁Aydın	-6220
▁mm	-6221
zu	-6222
▁yolları	-6223
com	-6224
ləyic	-6225
▁yanğın	-6226
iliyə	-6227
▁maks	-6228
▁dissert	-6229
ələk	-6230
▁kils	-6231
▁tarixə	-6232
▁Bəlkə	-6233
▁kitabın	-6234
▁Xəst	-6235
▁igid	-6236
ass	-6237
▁Mart	-6238
▁doldur	-6239
▁tük	-6240
▁bunları	-6241
▁gördüyü	-6242
▁süd	-6243
ılırdı	-6244
düyünü	-6245
▁vak	-6246
▁Qərar	-6247
▁Teatrının	-6248
▁təminat	-6249
▁laborator	-6250
▁Ordusunun	-6251
alarla	-6252
ope	-6253
atoru	-6254
▁əkin	-6255
gəndər	-6256
▁rəhbərləri	-6257
▁çatdırılması	-6258
▁Həb	-6259
ATO	-6260
ədəm	-6261
▁gəlmək	-6262
▁eşq	-6263
anıqlı	-6264
▁alıram	-6265
▁birləşdirən	-6266
▁Məclisinin	-6267
avr	-6268
▁kur	-6269
▁cih	-6270
▁zədə	-6271
▁Belarus	-6272
▁təsərrüfat	-6273
oca	-6274
▁orijinal	-6275
▁Qafqazda	-6276
▁AZƏRBAYCAN	-6277
▁bəlli	-6278
▁qarşıya	-6279
▁mobil	-6280
▁Mem	-6281
▁gələc	-6282
▁nəfərin	-6283
▁köməyi	-6284
▁xeyr	-6285
müddətli	-6286
▁acı	-6287
Əs	-6288
bom	-6289
▁təcrübəsi	-6290
▁birlik	-6291
▁Cəl	-6292
▁bacarı	-6293
aqlı	-6294
▁partiya	-6295
▁Xal	-6296
boy	-6297
dıb	-6298
kon	-6299
▁bildirən	-6300
etika	-6301
▁Mün	-6302
idən	-6303
▁mayın	-6304
▁olmadığı	-6305
▁pozulması	-6306
▁zamanlar	-6307
Ermən	-6308
▁olmalı	-6309
▁sözlər	-6310
▁ehtimal	-6311
▁Hərək	-6312
▁Yazıçılar	-6313
diyindən	-6314
▁haqlı	-6315
▁bölgəsində	-6316
▁çök	-6317
▁həllinə	-6318
dınca	-6319
▁Düz	-6320
acağına	-6321
▁ölkələrdən	-6322
▁inkişafın	-6323
▁İb	-6324
iti	-6325
▁ləyaq	-6326
▁çıxışı	-6327
çev	-6328
▁nümunəsi	-6329
▁yayın	-6330
▁xalqa	-6331
lantı	-6332
avat	-6333
▁təşkilatın	-6334
----	-6335
▁təhlükə	-6336
▁Birliyi	-6337
▁Assosi	-6338
▁Kö	-6339
▁seçilən	-6340
▁fəlsəfi	-6341
▁dərəcəli	-6342
▁Quba	-6343
rif	-6344
▁Bəs	-6345
▁adamlar	-6346
▁imtah	-6347
▁artırır	-6348
▁nümunə	-6349
▁canlandır	-6350
▁istərdim	-6351
▁Zəngəzur	-6352
▁göstərilməsi	-6353
ədd	-6354
▁mindən	-6355
əccü	-6356
▁Ey	-6357
▁Dünyanın	-6358
ernativ	-6359
▁vərəq	-6360
▁İraq	-6361
▁ziyan	-6362
alandır	-6363
▁Fil	-6364
mos	-6365
lamış	-6366
▁diqqətini	-6367
▁vəziyyətə	-6368
▁təşviq	-6369
▁Mustafa	-6370
▁gözləyir	-6371
▁bildiriblər	-6372
▁mənasında	-6373
▁körpü	-6374
məməsi	-6375
▁Leyla	-6376
▁bütövlüyü	-6377
▁tarixdə	-6378
▁py	-6379
▁Cabbar	-6380
▁...	-6381
▁aprelin	-6382
əlz	-6383
▁In	-6384
▁Cənab	-6385
▁Əks	-6386
▁Müx	-6387
▁gələcəyi	-6388
▁yüzlərlə	-6389
▁ideya	-6390
içik	-6391
ləndirən	-6392
▁Xatırladaq	-6393
▁yeniy	-6394
▁oynay	-6395
▁özlərini	-6396
LİK	-6397
▁quy	-6398
▁Yük	-6399
▁modern	-6400
pək	-6401
▁dekabrın	-6402
▁Fəx	-6403
▁başlamışdır	-6404
aktiki	-6405
▁razılıq	-6406
▁etn	-6407
▁işlərinə	-6408
▁quru	-6409
▁Assambl	-6410
▁Qərbi	-6411
▁qanunvericiliy	-6412
▁varsa	-6413
▁Qazax	-6414
▁səni	-6415
▁yaranması	-6416
▁IV	-6417
ork	-6418
əcəb	-6419
▁səlahiyyətli	-6420
▁təsnif	-6421
▁ağıl	-6422
▁açılması	-6423
▁çıxışında	-6424
▁kateqor	-6425
▁müşayiət	-6426
▁sədrinin	-6427
ovu	-6428
əccüb	-6429
layn	-6430
▁Rəssam	-6431
▁verməyə	-6432
acir	-6433
▁bilərəm	-6434
metr	-6435
▁ölçü	-6436
▁Yen	-6437
▁Yuxarı	-6438
▁təqaüd	-6439
▁söykən	-6440
▁qayıd	-6441
ətlər	-6442
▁fasil	-6443
▁həcmi	-6444
ayəti	-6445
▁sahələrinin	-6446
▁zorakı	-6447
yanı	-6448
lışı	-6449
fə	-6450
▁Park	-6451
ikmət	-6452
sizlik	-6453
▁Nadir	-6454
▁xüsusiyyətləri	-6455
Məmməd	-6456
▁hazırlanan	-6457
ılaraq	-6458
▁Hava	-6459
▁fer	-6460
▁MDB	-6461
əssüf	-6462
▁çıxdı	-6463
▁mövqeyini	-6464
ke	-6465
▁reallıq	-6466
üşü	-6467
▁sarı	-6468
afizə	-6469
mdar	-6470
▁mənbəyi	-6471
▁Nəc	-6472
▁səviyyəsinə	-6473
üğ	-6474
▁əlamətdar	-6475
▁hektar	-6476
▁Xüsusilə	-6477
▁şəraiti	-6478
▁rəqabət	-6479
▁nah	-6480
ədqiqat	-6481
▁sayılır	-6482
▁mütt	-6483
▁Təsərrüf	-6484
▁toplantı	-6485
▁adları	-6486
▁əcn	-6487
▁aylarında	-6488
▁müzakirələr	-6489
▁dərd	-6490
▁Xor	-6491
▁müstəqilliyini	-6492
▁riayət	-6493
▁sabiq	-6494
ənlərin	-6495
▁yaxınlarda	-6496
▁qanuna	-6497
▁Yay	-6498
▁TV	-6499
▁İnstitutu	-6500
▁özümüz	-6501
▁xidmətlər	-6502
▁Cümhuriyyətinin	-6503
▁Prokuror	-6504
tay	-6505
▁elmlər	-6506
▁roman	-6507
ərəqqi	-6508
▁edənlər	-6509
▁bilməyən	-6510
▁ustad	-6511
▁pəncər	-6512
▁pat	-6513
▁sürücü	-6514
▁fəlak	-6515
əxtiyar	-6516
layaraq	-6517
ardı	-6518
▁saxlanılıb	-6519
luğa	-6520
▁yiyələn	-6521
▁Qon	-6522
mağın	-6523
▁Alban	-6524
▁Ban	-6525
▁kəsin	-6526
▁etsə	-6527
▁kompüter	-6528
▁nəzərdən	-6529
sağ	-6530
▁müştər	-6531
▁Bələdiyyə	-6532
▁dəhşətli	-6533
▁sənayes	-6534
eti	-6535
qulu	-6536
▁getmək	-6537
▁valyut	-6538
ehr	-6539
▁martın	-6540
▁münaqişəsinin	-6541
qud	-6542
ıncı	-6543
▁respublikamızın	-6544
▁yaradıcılığında	-6545
▁reklam	-6546
▁toxum	-6547
▁qaydaları	-6548
▁qüvvələrinin	-6549
▁kəsi	-6550
▁vurğuladı	-6551
▁təhvil	-6552
▁şərəfli	-6553
▁şeirləri	-6554
▁artıb	-6555
xar	-6556
▁daşıyıcı	-6557
▁yeddi	-6558
▁avi	-6559
▁Nəsimi	-6560
ləndirilən	-6561
▁ödəy	-6562
▁işləyir	-6563
usiya	-6564
▁Əbülf	-6565
▁sənə	-6566
▁Erməni	-6567
idro	-6568
▁sus	-6569
akir	-6570
▁ədalətli	-6571
▁münaqişənin	-6572
▁alınmış	-6573
▁The	-6574
▁maraqla	-6575
ləndi	-6576
▁Günəş	-6577
rək	-6578
▁məlumatına	-6579
▁RES	-6580
▁katib	-6581
▁yoluxma	-6582
uv	-6583
▁görülür	-6584
▁turş	-6585
▁anlaş	-6586
▁prose	-6587
PUB	-6588
▁özləri	-6589
▁nəhayət	-6590
▁zəmin	-6591
▁Minsk	-6592
▁olurlar	-6593
▁Ham	-6594
ləşməsi	-6595
▁yaratdı	-6596
▁bilsin	-6597
təzəm	-6598
▁İranda	-6599
▁kitabxana	-6600
▁avtobus	-6601
▁NATO	-6602
▁adətən	-6603
▁;	-6604
▁sərəncamı	-6605
▁özüm	-6606
laşdırılmış	-6607
▁genişləndiril	-6608
▁fır	-6609
▁öhdəs	-6610
▁prosedur	-6611
▁narazı	-6612
▁atasının	-6613
▁RESPUB	-6614
▁fəxr	-6615
▁edilməsini	-6616
▁danışan	-6617
▁dinin	-6618
▁müavin	-6619
▁əsərin	-6620
▁qazanıb	-6621
iyər	-6622
▁şəhərinə	-6623
▁Televiz	-6624
▁Oper	-6625
▁şəxsən	-6626
▁qanlı	-6627
▁qənaət	-6628
▁iqtisadiyyatı	-6629
dad	-6630
▁nəfəs	-6631
▁həyət	-6632
▁bitki	-6633
miqyaslı	-6634
▁Türkmən	-6635
▁intellektual	-6636
oqrafik	-6637
▁sifariş	-6638
mağ	-6639
▁şahid	-6640
▁rayonda	-6641
ınc	-6642
▁Təşkilatı	-6643
▁yazıçısı	-6644
▁nailiyyətlər	-6645
▁keyfiyyətli	-6646
▁əlindən	-6647
▁RESPUBLİK	-6648
▁məhsuldar	-6649
▁hədd	-6650
▁hədiyyə	-6651
▁görmüş	-6652
▁istək	-6653
▁olanlar	-6654
▁münasibətdə	-6655
▁gördük	-6656
▁geyin	-6657
▁hazırlayıb	-6658
▁əfsan	-6659
Hər	-6660
▁proqramları	-6661
▁xəz	-6662
▁RESPUBLİKASI	-6663
▁əvəzinə	-6664
▁Xaç	-6665
▁Assambley	-6666
▁Alim	-6667
▁etdikdən	-6668
ülbül	-6669
▁Tahir	-6670
did	-6671
▁öyrənilməsi	-6672
▁London	-6673
onent	-6674
rant	-6675
▁Nəriman	-6676
▁dilə	-6677
▁birliyi	-6678
▁şən	-6679
▁özündən	-6680
▁məhəl	-6681
əhərrəm	-6682
▁Konv	-6683
▁COVID	-6684
▁qoyduğu	-6685
▁Ankar	-6686
▁rəngli	-6687
▁almağa	-6688
▁açan	-6689
malıyıq	-6690
▁meto	-6691
Ağ	-6692
▁Rəcəb	-6693
lilik	-6694
sədə	-6695
▁arxa	-6696
yana	-6697
mayın	-6698
arları	-6699
▁deyim	-6700
tida	-6701
▁tarixini	-6702
▁çalışıb	-6703
urt	-6704
▁Tif	-6705
▁Konstitusiya	-6706
▁sənədlərin	-6707
udur	-6708
eyri	-6709
▁metal	-6710
▁evində	-6711
▁uzunmüddətli	-6712
▁layiqincə	-6713
▁hökmdar	-6714
tin	-6715
▁təəccüb	-6716
▁görüşüb	-6717
yəvi	-6718
▁bıç	-6719
gey	-6720
tament	-6721
▁əsərlərində	-6722
▁Tibb	-6723
asan	-6724
ren	-6725
tom	-6726
▁əsrlər	-6727
▁yazırdı	-6728
anından	-6729
larımıza	-6730
▁Həzrət	-6731
▁Qaf	-6732
lanaraq	-6733
iyab	-6734
▁mes	-6735
incisi	-6736
▁dediyi	-6737
▁mübarizədə	-6738
▁döyüşlərdə	-6739
▁əlində	-6740
▁mərhələsi	-6741
əhlə	-6742
▁De	-6743
▁ortaq	-6744
▁yönəldil	-6745
▁işlərə	-6746
▁şam	-6747
▁effektiv	-6748
▁nəzəri	-6749
tərəm	-6750
▁rəğbət	-6751
▁Mad	-6752
▁vətəndaşları	-6753
▁qüdrətli	-6754
ovla	-6755
▁gedər	-6756
▁Agentliyinin	-6757
▁yəqin	-6758
▁nəv	-6759
▁yubileyi	-6760
▁Hol	-6761
▁dünyasının	-6762
səyə	-6763
▁yağış	-6764
▁ifadəsi	-6765
▁əsərlərinin	-6766
▁Nəqliyyat	-6767
▁sahibkarlıq	-6768
▁karantin	-6769
▁əzab	-6770
▁şəhərdə	-6771
▁rəhbərliyinin	-6772
əyinin	-6773
▁Qanununda	-6774
▁Pl	-6775
anət	-6776
diniz	-6777
▁önündə	-6778
▁infeksiy	-6779
▁hakimiyyətinin	-6780
▁alınan	-6781
▁alqış	-6782
▁yey	-6783
▁rabitə	-6784
▁əməkdaşı	-6785
mənalı	-6786
ərar	-6787
▁dövlətləri	-6788
▁Demokrat	-6789
▁yerləri	-6790
▁aiddir	-6791
▁qərarlar	-6792
▁işçisi	-6793
▁lövh	-6794
▁xidmətlərin	-6795
pir	-6796
▁görülmüş	-6797
okal	-6798
▁çevrildi	-6799
▁həs	-6800
lərimizə	-6801
▁şeirlər	-6802
əsgər	-6803
▁indiyədək	-6804
etin	-6805
▁ban	-6806
Milli	-6807
mışlar	-6808
▁görürük	-6809
▁vəzifəsinə	-6810
▁oluna	-6811
▁rayonlarında	-6812
skinin	-6813
▁səkkiz	-6814
mizdə	-6815
▁karyer	-6816
Dövlət	-6817
▁şübhəsiz	-6818
▁Bəyan	-6819
▁verirdi	-6820
▁tərzi	-6821
▁forması	-6822
▁Başqa	-6823
?!	-6824
▁Yaqub	-6825
aliya	-6826
eport	-6827
▁müəyyənləşdiril	-6828
▁yun	-6829
eytinq	-6830
▁ideal	-6831
sional	-6832
▁muxtar	-6833
▁ardınca	-6834
unc	-6835
təbər	-6836
▁mühitin	-6837
▁Kiçik	-6838
▁çarp	-6839
ərdi	-6840
▁mühafizəsi	-6841
▁Aq	-6842
▁Administr	-6843
çər	-6844
▁Pir	-6845
▁inteqrasiya	-6846
▁edim	-6847
▁Hakimiyyətinin	-6848
▁öyrənmək	-6849
▁Vətəndaş	-6850
▁uşağın	-6851
▁görüşü	-6852
▁Federasiyasının	-6853
▁topl	-6854
▁Qorqud	-6855
▁komitəsinin	-6856
▁the	-6857
▁semin	-6858
▁Rum	-6859
▁Şöb	-6860
ce	-6861
▁tutdu	-6862
udiy	-6863
▁paltar	-6864
▁Ceyh	-6865
▁ifaçı	-6866
▁rest	-6867
▁vəzifəli	-6868
▁göstəricilər	-6869
ılmışdı	-6870
▁əvvəlində	-6871
▁Mix	-6872
qul	-6873
▁qurumun	-6874
lıdır	-6875
▁nədən	-6876
sel	-6877
layıcı	-6878
▁Yalnız	-6879
▁cəmiyyətinin	-6880
▁nəfəri	-6881
▁əməkdaşlığı	-6882
ılma	-6883
▁Dəmir	-6884
▁Ağayev	-6885
▁dünyanı	-6886
▁buraxılış	-6887
▁olacaqdır	-6888
▁kq	-6889
▁Heyətinin	-6890
▁Cəm	-6891
▁miqyasında	-6892
▁fövqəladə	-6893
▁deyirlər	-6894
Av	-6895
göz	-6896
▁ərazisi	-6897
▁respublikada	-6898
▁idilər	-6899
AZ	-6900
▁insana	-6901
mayacaq	-6902
rak	-6903
▁Xidməti	-6904
▁prospekt	-6905
idar	-6906
▁vaxtilə	-6907
ino	-6908
maması	-6909
mışam	-6910
▁dayanır	-6911
ommunikasiya	-6912
▁vaxtlarda	-6913
▁nəslin	-6914
▁peyğəmbər	-6915
▁mətbəx	-6916
▁saatlarında	-6917
lənin	-6918
▁İsgəndər	-6919
uar	-6920
iva	-6921
▁görüşlər	-6922
▁azərbaycanlılar	-6923
▁Ras	-6924
▁uçot	-6925
▁təqdirdə	-6926
▁bilərdi	-6927
▁dövlətə	-6928
danın	-6929
▁Dost	-6930
▁immun	-6931
▁Sənaye	-6932
▁Siyasi	-6933
▁inteqr	-6934
▁alternativ	-6935
▁dəyişib	-6936
▁binası	-6937
▁müntəzəm	-6938
▁qarşısına	-6939
laya	-6940
▁det	-6941
▁dəyəri	-6942
▁Türkiyəyə	-6943
baz	-6944
əndiyev	-6945
▁Ox	-6946
▁cinayətkar	-6947
raq	-6948
arəng	-6949
verdiyev	-6950
▁göstərmişdir	-6951
▁qoc	-6952
▁səyahət	-6953
▁desək	-6954
sevər	-6955
▁ora	-6956
▁günlər	-6957
▁bəyən	-6958
▁termin	-6959
müh	-6960
▁nağıl	-6961
▁mif	-6962
▁Met	-6963
▁misr	-6964
▁diş	-6965
▁Sim	-6966
▁işləy	-6967
▁əyani	-6968
▁peyvənd	-6969
ext	-6970
gilər	-6971
▁təcili	-6972
▁Ma	-6973
▁coğrafi	-6974
▁uşaqları	-6975
▁quruculuq	-6976
▁dünyagör	-6977
▁gündüz	-6978
ladıq	-6979
dıqca	-6980
▁Et	-6981
▁səp	-6982
olik	-6983
▁mağaz	-6984
▁etdiyim	-6985
▁sisteminə	-6986
▁Gen	-6987
pa	-6988
▁sədaq	-6989
▁etimad	-6990
▁müqayisə	-6991
atla	-6992
tmaq	-6993
oqquş	-6994
▁rəqib	-6995
▁sağlamlıq	-6996
QD	-6997
▁oyunun	-6998
▁Yaponiya	-6999
▁sonuna	-7000
▁nif	-7001
▁kişilər	-7002
▁rəv	-7003
▁ah	-7004
▁təkliflər	-7005
razı	-7006
▁Tovuz	-7007
▁Rob	-7008
▁müqavim	-7009
▁Rza	-7010
▁süt	-7011
▁kitablar	-7012
▁yaranıb	-7013
▁yaşamış	-7014
verici	-7015
oyun	-7016
▁Tarixi	-7017
▁qalmaq	-7018
oniya	-7019
▁vəzifələr	-7020
ej	-7021
▁ölkələrimiz	-7022
▁Sadə	-7023
▁keçdi	-7024
▁iqt	-7025
der	-7026
▁diqqətlə	-7027
▁növləri	-7028
▁Cəmiyyətinin	-7029
▁İz	-7030
▁İnstitutunda	-7031
kənd	-7032
▁hesabı	-7033
▁cavan	-7034
▁hü	-7035
▁mötəbər	-7036
▁genişmiqyaslı	-7037
▁redaktor	-7038
▁sorğu	-7039
▁op	-7040
dəf	-7041
IN	-7042
▁separ	-7043
▁hüceyr	-7044
Ab	-7045
▁nəzdində	-7046
luğunda	-7047
mu	-7048
ədəki	-7049
▁hökumətinin	-7050
▁yazılan	-7051
▁Agentliyi	-7052
▁etməkdə	-7053
▁göl	-7054
▁hazırkı	-7055
▁artırmaq	-7056
▁zəlz	-7057
▁sahəyə	-7058
▁filologiya	-7059
sikl	-7060
enant	-7061
▁Təəssüf	-7062
▁bilmək	-7063
▁Eldar	-7064
ure	-7065
▁zəhər	-7066
▁alimlər	-7067
gəçev	-7068
birindən	-7069
▁hərəkəti	-7070
itik	-7071
▁kəşfiyyat	-7072
▁iştirakçısı	-7073
▁saxlanılması	-7074
ənə	-7075
▁monitorinq	-7076
linik	-7077
▁tarixin	-7078
▁Bəxtiyar	-7079
emyer	-7080
▁mahn	-7081
▁binanın	-7082
▁təhdid	-7083
▁yanlış	-7084
tidai	-7085
▁barış	-7086
▁qüs	-7087
əqiq	-7088
dirir	-7089
▁Təsərrüfatı	-7090
▁serial	-7091
▁tədqiqatlar	-7092
▁İngiltərə	-7093
▁caz	-7094
▁cihaz	-7095
ünüz	-7096
▁Ast	-7097
▁Yev	-7098
▁Vəliyev	-7099
▁geos	-7100
ənah	-7101
▁siviliz	-7102
▁öt	-7103
▁cinsi	-7104
▁açır	-7105
▁şəbəkələrdə	-7106
▁Fövqəladə	-7107
DU	-7108
▁nişan	-7109
iliyini	-7110
▁Şt	-7111
▁yuxu	-7112
▁büdcə	-7113
▁nəfərə	-7114
ruc	-7115
▁Qol	-7116
görən	-7117
▁Yeri	-7118
▁açıqlayıb	-7119
▁bəndini	-7120
▁statusu	-7121
▁səth	-7122
▁idmançı	-7123
umb	-7124
▁gəlmişkən	-7125
eytenant	-7126
▁diplomat	-7127
▁Cavid	-7128
▁kontekst	-7129
▁səfərbər	-7130
▁erkən	-7131
▁çəkmək	-7132
▁yanaşma	-7133
▁mövzusu	-7134
▁saziş	-7135
▁ömrünün	-7136
▁duz	-7137
▁Prof	-7138
▁dövriyy	-7139
▁oğlunun	-7140
▁qazandır	-7141
▁Əfq	-7142
▁toqquş	-7143
▁təhq	-7144
▁Mat	-7145
▁enerjisi	-7146
▁verməsi	-7147
▁istismar	-7148
▁işində	-7149
▁günləri	-7150
▁vəsaiti	-7151
▁çəkiliş	-7152
▁xeyirxah	-7153
▁maddəsində	-7154
fa	-7155
▁xanın	-7156
▁pozunt	-7157
▁münaqişə	-7158
▁Tələb	-7159
azan	-7160
▁işçilər	-7161
ləşdirmək	-7162
şir	-7163
▁Bəli	-7164
▁çayı	-7165
▁Bolq	-7166
▁Cavad	-7167
▁qədəm	-7168
▁vəzifələri	-7169
▁edilməsində	-7170
izmə	-7171
▁xristian	-7172
▁xəyan	-7173
▁çıxarılması	-7174
▁platform	-7175
▁cild	-7176
▁Mark	-7177
▁gürcü	-7178
▁təqdimatı	-7179
dövlət	-7180
▁məmur	-7181
▁tədbiri	-7182
▁orqanlarında	-7183
▁müayinə	-7184
əcəklər	-7185
ilməsini	-7186
ətdən	-7187
izmin	-7188
▁sut	-7189
amızın	-7190
▁heyrət	-7191
▁düşdü	-7192
ilan	-7193
▁işğalı	-7194
▁millətin	-7195
▁ərazisinə	-7196
▁çır	-7197
tifik	-7198
▁təsviri	-7199
▁paral	-7200
▁mesaj	-7201
▁Vəz	-7202
▁iyulun	-7203
dirdi	-7204
▁zərbə	-7205
▁Ərdoğ	-7206
▁siyasətini	-7207
▁tələbələr	-7208
▁radio	-7209
▁xidmətə	-7210
ümlü	-7211
▁aləmdə	-7212
▁Lit	-7213
▁onlayn	-7214
▁yetirilməsi	-7215
▁işləmiş	-7216
▁göstəriş	-7217
▁işgüzar	-7218
▁olunmasını	-7219
▁anbar	-7220
▁Le	-7221
əviyyat	-7222
▁Şəhid	-7223
▁başlanğıc	-7224
▁çıxarır	-7225
▁dilini	-7226
▁prinsipləri	-7227
▁Konqres	-7228
▁gələndə	-7229
▁şeydən	-7230
▁olmaması	-7231
kir	-7232
▁qayğısı	-7233
▁ibn	-7234
▁Təsad	-7235
▁suyun	-7236
han	-7237
bud	-7238
oks	-7239
▁iclası	-7240
▁etməkdən	-7241
▁sahənin	-7242
▁qurumları	-7243
məsin	-7244
▁yenidənqur	-7245
▁çatdırmaq	-7246
eriya	-7247
uzə	-7248
▁Bərdə	-7249
▁dairəsi	-7250
▁misal	-7251
▁şirin	-7252
dəy	-7253
▁vəd	-7254
▁məsələlərə	-7255
▁sənədli	-7256
▁Mehdiyev	-7257
▁aqrar	-7258
▁qüvvələr	-7259
▁Əhmədov	-7260
adaş	-7261
▁verirlər	-7262
▁konst	-7263
▁xəstəliyi	-7264
▁hüdud	-7265
▁irəliləy	-7266
▁auditor	-7267
istanın	-7268
▁hadisəsi	-7269
▁forum	-7270
ımdan	-7271
▁kral	-7272
iyəm	-7273
İR	-7274
adar	-7275
▁verdiyini	-7276
▁qram	-7277
rul	-7278
▁görülmüşdür	-7279
▁mütəxəssislər	-7280
▁Kol	-7281
▁Məlik	-7282
▁fənn	-7283
▁sənədləri	-7284
▁reytinq	-7285
▁matç	-7286
▁Nazirliyinə	-7287
▁əməkdaşlığa	-7288
▁bina	-7289
pə	-7290
▁Mikayıl	-7291
▁bəziləri	-7292
▁şərti	-7293
▁yatır	-7294
▁deputat	-7295
▁motiv	-7296
▁rektoru	-7297
▁Qüvvələri	-7298
asport	-7299
▁bərk	-7300
▁Azad	-7301
▁faktı	-7302
EN	-7303
▁bariz	-7304
▁Yas	-7305
▁yaşına	-7306
▁bazasının	-7307
▁zol	-7308
▁məqsədə	-7309
▁birmənalı	-7310
▁biləcəyi	-7311
▁faktor	-7312
HT	-7313
▁portret	-7314
▁qüdrət	-7315
▁uşaqlara	-7316
▁mülkiyyət	-7317
rəti	-7318
▁təşkilatlarının	-7319
▁Sadıq	-7320
▁Hadisə	-7321
ubern	-7322
▁Hindistan	-7323
▁müəllifin	-7324
▁tələbələri	-7325
▁yaradıcılığının	-7326
▁gücləndiril	-7327
ləşib	-7328
qab	-7329
çiliyi	-7330
▁Məhərrəm	-7331
▁Nəz	-7332
▁bərq	-7333
▁xəstə	-7334
▁yoluna	-7335
▁verərək	-7336
▁dostu	-7337
▁Port	-7338
▁balaca	-7339
buki	-7340
▁qəti	-7341
▁əsərində	-7342
▁tələbələrin	-7343
▁məktəbində	-7344
▁işdə	-7345
▁əlif	-7346
▁ast	-7347
▁fürs	-7348
vəti	-7349
▁Dəst	-7350
Şah	-7351
oya	-7352
▁Torp	-7353
ƏN	-7354
▁saf	-7355
▁Musa	-7356
edia	-7357
▁Allaha	-7358
▁çəkilmiş	-7359
▁pill	-7360
ladım	-7361
▁vəziyyətin	-7362
▁Odur	-7363
▁tədbirin	-7364
▁terrorçu	-7365
▁əhaliyə	-7366
▁miqyas	-7367
məmək	-7368
▁təşkilatı	-7369
▁çevrilmişdir	-7370
ayiq	-7371
▁döyüşçü	-7372
▁təşkilatının	-7373
▁yarımada	-7374
▁tit	-7375
▁damar	-7376
nəzər	-7377
▁sabah	-7378
▁danışır	-7379
gəçevir	-7380
şərq	-7381
əvəz	-7382
▁aparıb	-7383
▁uzaqgörən	-7384
▁meyvə	-7385
▁Kəlbəcər	-7386
▁tələblərə	-7387
▁gözü	-7388
▁çətindir	-7389
▁Yüksək	-7390
▁Roma	-7391
Mü	-7392
siyada	-7393
▁koronavirusa	-7394
ordin	-7395
▁Sonda	-7396
▁formalaşması	-7397
▁Gömrük	-7398
▁ruhu	-7399
▁çıxmış	-7400
▁suvar	-7401
▁başçılıq	-7402
▁yoxsa	-7403
▁istifadəsi	-7404
naməsi	-7405
▁Ölkəmizdə	-7406
▁gəlməsi	-7407
▁statistik	-7408
afiz	-7409
▁texnologiyaları	-7410
▁yoxsul	-7411
arıq	-7412
▁filmin	-7413
▁Hökuməti	-7414
▁rütb	-7415
▁Pər	-7416
▁Nazirliyindən	-7417
▁durum	-7418
urnalist	-7419
▁hazırlanıb	-7420
▁evin	-7421
▁xatirə	-7422
▁xor	-7423
▁xəstəliy	-7424
ağından	-7425
nda	-7426
▁Müxtəlif	-7427
▁bölgələrdə	-7428
▁etməyin	-7429
▁Əm	-7430
▁xırda	-7431
▁atılan	-7432
▁dünyası	-7433
▁Ək	-7434
ilsiz	-7435
▁dəyişir	-7436
▁guya	-7437
▁nöq	-7438
▁populyar	-7439
aqlar	-7440
əyev	-7441
▁gücləndir	-7442
▁döş	-7443
▁vacibliyini	-7444
▁Həkim	-7445
▁obrazı	-7446
▁yaratmışdır	-7447
▁Ağır	-7448
▁bitk	-7449
▁diri	-7450
▁qalibi	-7451
▁sessiy	-7452
lana	-7453
▁Sol	-7454
▁Fat	-7455
siyalar	-7456
▁qabiliyyəti	-7457
▁turnir	-7458
▁İdarəsi	-7459
çt	-7460
▁Siy	-7461
▁qabağ	-7462
▁vəkil	-7463
▁Görüşdə	-7464
▁Dan	-7465
▁müda	-7466
▁qəd	-7467
▁təbliğat	-7468
▁sön	-7469
▁poem	-7470
ləməyə	-7471
ely	-7472
▁potensialının	-7473
▁əməkdaşlarının	-7474
▁mehriban	-7475
imdən	-7476
▁məsələni	-7477
▁ordeni	-7478
▁materiallar	-7479
▁Oğuz	-7480
ons	-7481
▁mütərəqqi	-7482
▁xalqımız	-7483
▁köl	-7484
aşır	-7485
işir	-7486
▁Ələsgər	-7487
▁lap	-7488
▁məntiq	-7489
▁Xəbər	-7490
▁Cümhuriyyəti	-7491
getika	-7492
▁uzunluğu	-7493
▁eyn	-7494
▁haldır	-7495
mas	-7496
əkkil	-7497
Ax	-7498
▁rejissoru	-7499
▁cavablandır	-7500
▁olunaraq	-7501
▁ərazilərində	-7502
▁keş	-7503
▁Məm	-7504
ilməlidir	-7505
▁kir	-7506
▁not	-7507
▁etməliyik	-7508
masın	-7509
▁istəyi	-7510
jimi	-7511
mələrin	-7512
▁gördüm	-7513
▁əvəzsiz	-7514
▁standartlara	-7515
▁Aşağı	-7516
▁beyn	-7517
▁cərəyan	-7518
▁göstəril	-7519
▁Var	-7520
▁Ap	-7521
▁xəyal	-7522
▁dəyərlərin	-7523
ester	-7524
▁Çingiz	-7525
▁praktik	-7526
▁məf	-7527
▁sonsuz	-7528
▁araya	-7529
▁dan	-7530
▁rejimi	-7531
▁vəhdət	-7532
▁seçil	-7533
▁şur	-7534
▁ehtiva	-7535
▁gələrək	-7536
ook	-7537
▁Adil	-7538
▁övladı	-7539
əyinə	-7540
omin	-7541
▁Tanrı	-7542
▁xəstəxanaya	-7543
▁hökmü	-7544
▁qarşıda	-7545
▁düşmənin	-7546
mad	-7547
▁çalışırlar	-7548
▁Kommun	-7549
▁imzaladığı	-7550
ğının	-7551
▁saxlanılır	-7552
▁olduqlarını	-7553
▁payız	-7554
▁Aprel	-7555
▁mənəviyyat	-7556
▁olunmasında	-7557
▁dayanıqlı	-7558
▁Mey	-7559
▁etməsinə	-7560
▁Dövlətimizin	-7561
▁Kompl	-7562
▁növbəsində	-7563
▁kimsə	-7564
▁incəsən	-7565
İNİN	-7566
▁Eln	-7567
▁orqanının	-7568
▁Cahan	-7569
▁piyada	-7570
▁Müz	-7571
▁Qanununa	-7572
▁taleyi	-7573
▁Ceyhun	-7574
▁İKT	-7575
▁deyilən	-7576
osof	-7577
ambıq	-7578
▁yuxarıda	-7579
▁edilmişdi	-7580
▁qəhrəmanlıq	-7581
▁idxal	-7582
▁Paşinyan	-7583
▁müttəfiq	-7584
▁anti	-7585
▁xidmətinin	-7586
sent	-7587
▁örnək	-7588
▁kənara	-7589
rad	-7590
▁modeli	-7591
▁Mehdi	-7592
▁təhqir	-7593
uni	-7594
▁elmin	-7595
▁ölkələrə	-7596
▁Nyu	-7597
▁əsaslandır	-7598
▁Naxçıvanda	-7599
▁çatdırılıb	-7600
▁qıl	-7601
▁dolğun	-7602
▁texnika	-7603
▁nəql	-7604
dırlar	-7605
▁Ekspert	-7606
▁uğursuz	-7607
ori	-7608
üsx	-7609
▁imzalanmış	-7610
▁ölüb	-7611
▁müstəqilliyinin	-7612
▁bağır	-7613
▁oxşar	-7614
jet	-7615
səm	-7616
▁qurmaq	-7617
▁gözləri	-7618
▁Fikrət	-7619
▁Əbd	-7620
▁Bunlar	-7621
poz	-7622
▁məlumatı	-7623
▁Qəbələ	-7624
▁şöhrət	-7625
▁Teatrında	-7626
▁hallar	-7627
hesab	-7628
▁Təsadüfi	-7629
taj	-7630
▁ərazilərin	-7631
▁cərim	-7632
▁Ter	-7633
siyanın	-7634
▁sektorunda	-7635
Tbilisi	-7636
▁problemlərinin	-7637
▁əlaqələndir	-7638
▁böyüy	-7639
▁vuruş	-7640
▁ap	-7641
issor	-7642
▁Həbib	-7643
▁Bağ	-7644
aur	-7645
▁bağç	-7646
▁fəsil	-7647
men	-7648
azar	-7649
▁qarşıdur	-7650
▁arvad	-7651
▁yaradılmasına	-7652
▁profil	-7653
▁Pay	-7654
▁kompozis	-7655
▁Sizi	-7656
adıqları	-7657
gin	-7658
▁Bayramov	-7659
▁Akademiyası	-7660
▁effekt	-7661
▁amansız	-7662
▁bütövlüyünün	-7663
▁faş	-7664
pres	-7665
▁bərqərar	-7666
▁qalıq	-7667
▁Radi	-7668
▁şöbə	-7669
quz	-7670
▁potensi	-7671
▁Vaxt	-7672
▁bilmə	-7673
▁geosiyasi	-7674
▁Üst	-7675
lidir	-7676
▁yenilən	-7677
▁bolşevik	-7678
rip	-7679
▁tank	-7680
▁zəfər	-7681
▁Vas	-7682
Cənub	-7683
▁açılışı	-7684
▁sevimli	-7685
▁həmsəd	-7686
▁irsinin	-7687
▁Yaxşı	-7688
▁qoyulub	-7689
▁səfərdə	-7690
▁kəsə	-7691
▁əbəd	-7692
laşdırmaq	-7693
onim	-7694
▁danışmaq	-7695
ricən	-7696
▁Şək	-7697
essoru	-7698
▁pilot	-7699
▁məntiqi	-7700
▁nüsx	-7701
▁keçdiyi	-7702
▁töhfələr	-7703
▁çıxarıb	-7704
duğ	-7705
▁bıçaq	-7706
▁potensialı	-7707
▁Çex	-7708
▁pyes	-7709
▁misilsiz	-7710
lüm	-7711
▁İspaniya	-7712
▁ərazisindən	-7713
▁estetik	-7714
eterburq	-7715
▁vərdiş	-7716
▁oldum	-7717
uyğun	-7718
▁seçilmiş	-7719
▁fərqlən	-7720
▁ayı	-7721
▁işar	-7722
▁təzə	-7723
▁qayıdan	-7724
▁razılaşdır	-7725
▁qəribə	-7726
▁arzulay	-7727
dığına	-7728
▁yada	-7729
iyyənin	-7730
▁Gəncəvi	-7731
▁abadlıq	-7732
▁Maraq	-7733
▁teatrın	-7734
▁illərdir	-7735
qat	-7736
▁Cəlal	-7737
▁oxuyur	-7738
▁böhr	-7739
▁dördüncü	-7740
▁olacağı	-7741
▁yorul	-7742
eksiya	-7743
▁işçiləri	-7744
casına	-7745
▁olduqları	-7746
▁qazandığı	-7747
▁Şıx	-7748
▁günündə	-7749
▁nəfərdən	-7750
▁etməkdir	-7751
▁axı	-7752
ain	-7753
ersiya	-7754
▁ixt	-7755
▁vətəndaşlar	-7756
▁sabitlik	-7757
▁Mingəçevir	-7758
▁paralel	-7759
əssamı	-7760
▁operativ	-7761
▁saxlayır	-7762
pg	-7763
▁əd	-7764
▁çoxdan	-7765
▁əlyaz	-7766
▁etdirib	-7767
▁məmul	-7768
▁bilirlər	-7769
məliyik	-7770
▁sahələr	-7771
▁asılıdır	-7772
məkdən	-7773
mental	-7774
usun	-7775
▁xadimləri	-7776
▁iqlim	-7777
▁planı	-7778
▁yap	-7779
▁lən	-7780
▁suyu	-7781
qərb	-7782
▁heyran	-7783
▁amerik	-7784
▁düy	-7785
▁aparılmış	-7786
▁Stat	-7787
▁Onlardan	-7788
▁kan	-7789
▁Şimal	-7790
▁Vüqar	-7791
▁ödənilməsi	-7792
▁cam	-7793
▁Əfəndiyev	-7794
▁gələ	-7795
▁tərkibinə	-7796
▁öhdəsindən	-7797
adam	-7798
▁AR	-7799
▁salır	-7800
▁Fə	-7801
▁kadrların	-7802
Mİ	-7803
▁tullantı	-7804
▁inter	-7805
orn	-7806
▁genişləndir	-7807
▁çıxmaq	-7808
ökumət	-7809
▁şəbəkə	-7810
xilə	-7811
▁şirkətləri	-7812
▁şübhə	-7813
▁sertifik	-7814
▁evinə	-7815
▁məkanında	-7816
ləşən	-7817
birini	-7818
▁sahəsinin	-7819
▁Sərhəd	-7820
▁sistemli	-7821
▁bölün	-7822
▁arxeoloji	-7823
▁tapır	-7824
▁cəd	-7825
▁Nig	-7826
mışdılar	-7827
▁işləmək	-7828
▁albom	-7829
▁münaqişəsi	-7830
▁vaxtdan	-7831
▁Federasiyası	-7832
icdan	-7833
▁Koreya	-7834
▁dəyərlər	-7835
▁Nəh	-7836
▁nüv	-7837
▁əməli	-7838
minin	-7839
atar	-7840
ow	-7841
▁karb	-7842
▁ork	-7843
▁yürüş	-7844
nak	-7845
▁avqustun	-7846
▁gəldikdə	-7847
açı	-7848
▁Almaniyanın	-7849
▁Səl	-7850
▁texnoloji	-7851
▁professoru	-7852
▁layihələrinin	-7853
▁bayrağı	-7854
▁sözünü	-7855
SO	-7856
▁xalqlarının	-7857
atan	-7858
▁Cəfərov	-7859
yeni	-7860
luğuna	-7861
aydı	-7862
əmən	-7863
▁mərhələ	-7864
▁bura	-7865
▁dillərində	-7866
▁əsərlərini	-7867
▁öhdəlik	-7868
▁adamın	-7869
▁çoxal	-7870
▁ədib	-7871
▁tanınır	-7872
▁efir	-7873
kəs	-7874
təhsil	-7875
▁olunmuşdu	-7876
▁yaradıcılığına	-7877
▁Tiflis	-7878
▁ölkədən	-7879
▁bilmirəm	-7880
▁məsələnin	-7881
▁zamanın	-7882
ruh	-7883
▁tikilib	-7884
▁Təbriz	-7885
▁yoxlan	-7886
▁təsirini	-7887
▁kəndin	-7888
▁ağz	-7889
▁memar	-7890
▁atıb	-7891
osunun	-7892
▁istism	-7893
▁Fu	-7894
▁Qırğ	-7895
▁salmaq	-7896
▁maksimum	-7897
▁Aİ	-7898
▁yaşayıb	-7899
ranz	-7900
▁əlaqəli	-7901
ilin	-7902
▁avro	-7903
▁korrup	-7904
▁əylən	-7905
▁artan	-7906
▁məzar	-7907
▁qubern	-7908
▁Ur	-7909
▁alınır	-7910
ətinə	-7911
▁qüvvələrin	-7912
▁ənənələri	-7913
▁işləyib	-7914
▁ass	-7915
.,	-7916
▁Abdulla	-7917
▁qəna	-7918
yot	-7919
▁məlumatlandır	-7920
▁Əraz	-7921
▁kitabında	-7922
▁Təq	-7923
▁Put	-7924
▁ans	-7925
▁Paşa	-7926
▁Xəstəxan	-7927
▁respublikamızda	-7928
▁Möh	-7929
▁Nor	-7930
ST	-7931
▁Rəşad	-7932
▁rəssamı	-7933
▁getdi	-7934
▁bilib	-7935
▁seçilir	-7936
alaraq	-7937
▁çəkdiyi	-7938
▁Növ	-7939
▁ölkəni	-7940
▁materialları	-7941
▁üzərindən	-7942
▁işçilərinin	-7943
▁pensiya	-7944
▁edilməsinin	-7945
"-	-7946
▁işığ	-7947
▁maddəsi	-7948
▁Ot	-7949
▁ucuz	-7950
▁icraçı	-7951
▁kob	-7952
öhbəti	-7953
▁gələcəyə	-7954
▁Ağa	-7955
ribən	-7956
▁tapmaq	-7957
▁başı	-7958
▁istinadla	-7959
▁kimya	-7960
▁Liv	-7961
▁güman	-7962
▁Bildirilib	-7963
alları	-7964
▁saxlanılan	-7965
▁Maq	-7966
▁görünən	-7967
çuluq	-7968
▁irs	-7969
▁müəssisə	-7970
▁sığın	-7971
▁Sen	-7972
▁təchizatı	-7973
▁formalaşmasında	-7974
▁İbrahimov	-7975
▁balans	-7976
ikin	-7977
▁xəbərdarlıq	-7978
piada	-7979
▁tədbirlərdə	-7980
▁sağal	-7981
▁İnzibati	-7982
▁binasının	-7983
▁yerləşdirilib	-7984
▁keçirilməsində	-7985
▁qüvvə	-7986
▁fəaliyyətin	-7987
▁oxumaq	-7988
▁alması	-7989
iyasından	-7990
▁Polşa	-7991
▁Ra	-7992
tədqiqat	-7993
▁günlərində	-7994
dəniz	-7995
▁Ordusu	-7996
▁kəndinin	-7997
▁guş	-7998
▁Mül	-7999
▁şəraitinin	-8000
asiyaya	-8001
lədi	-8002
io	-8003
▁səmərəl	-8004
▁abidələri	-8005
afa	-8006
ten	-8007
ssiya	-8008
▁Qeyri	-8009
daxili	-8010
▁Yox	-8011
undamental	-8012
▁faktlar	-8013
▁bilmədi	-8014
▁İsmayılov	-8015
▁Şuşada	-8016
rov	-8017
▁Tərtər	-8018
vətən	-8019
▁yollar	-8020
▁romant	-8021
▁ailənin	-8022
▁Məmmədova	-8023
▁QHT	-8024
▁xidmətindən	-8025
▁tədricən	-8026
▁məharət	-8027
▁keçirilməsini	-8028
▁anda	-8029
▁oldular	-8030
▁İsteh	-8031
▁niyyətində	-8032
▁AD	-8033
opar	-8034
▁düşərg	-8035
▁uğurları	-8036
▁fit	-8037
▁Gürcüstanın	-8038
▁Bür	-8039
▁regionun	-8040
▁mərkəzinə	-8041
▁dilindən	-8042
▁ədəbiyyatşünas	-8043
▁işlən	-8044
ayeva	-8045
▁edilirdi	-8046
▁imkanlarının	-8047
unuz	-8048
▁yönəlmiş	-8049
▁Qafqazın	-8050
▁ASC	-8051
▁seçilib	-8052
▁silin	-8053
▁çevrilməsi	-8054
rab	-8055
org	-8056
▁süm	-8057
▁pillə	-8058
▁həyatına	-8059
▁maddəsinə	-8060
▁Ul	-8061
▁edəcəkdir	-8062
▁müsahibəsində	-8063
▁əhəmiyyətə	-8064
▁Strat	-8065
sağlığı	-8066
ervator	-8067
▁tələbi	-8068
▁Sovetinin	-8069
▁MM	-8070
▁məhsulların	-8071
▁Qul	-8072
▁mətbu	-8073
▁bəyanat	-8074
▁konf	-8075
alında	-8076
▁mir	-8077
Şərq	-8078
lamağa	-8079
sion	-8080
▁Fərman	-8081
▁Zəfər	-8082
▁faktiki	-8083
Əliyev	-8084
▁çörək	-8085
▁Ener	-8086
▁klubu	-8087
▁pedaq	-8088
▁universitetin	-8089
▁parçalan	-8090
▁pan	-8091
▁vəzifələrin	-8092
▁from	-8093
de	-8094
▁Röv	-8095
Allah	-8096
▁məqalə	-8097
Azərbaycanın	-8098
▁gətirdi	-8099
▁çevik	-8100
▁inandır	-8101
ua	-8102
▁Səlim	-8103
▁Bilir	-8104
▁prosesinə	-8105
▁müharibəsinin	-8106
▁üzünə	-8107
▁islahat	-8108
▁məhdudiyyət	-8109
▁qaçır	-8110
▁qadir	-8111
abir	-8112
mamaq	-8113
▁təyinatlı	-8114
▁elminin	-8115
▁Fransada	-8116
seç	-8117
▁dərslik	-8118
▁edəcəklər	-8119
▁yerləşdiyi	-8120
sızlıq	-8121
elik	-8122
▁siyahıya	-8123
Gənc	-8124
▁məsələlərdən	-8125
irtual	-8126
▁Sənət	-8127
▁edəcəyik	-8128
▁Da	-8129
▁məx	-8130
▁çəkilib	-8131
otel	-8132
▁ürəyi	-8133
▁Oruc	-8134
▁rüb	-8135
ulla	-8136
▁müdaxilə	-8137
iliyinin	-8138
▁ildönümü	-8139
▁ideoloji	-8140
.-	-8141
▁viz	-8142
▁mədə	-8143
▁Kubok	-8144
▁etibarilə	-8145
▁sük	-8146
▁Nəzər	-8147
ildən	-8148
▁artmasına	-8149
▁problemin	-8150
▁maaş	-8151
▁sevgisi	-8152
▁adının	-8153
▁Don	-8154
lılar	-8155
AD	-8156
▁deməyə	-8157
▁yetirir	-8158
ruk	-8159
▁qarışıq	-8160
▁Sadəcə	-8161
▁açılıb	-8162
vadrat	-8163
▁istiqamətləri	-8164
▁küçəsi	-8165
▁Fəl	-8166
▁bilirdi	-8167
stans	-8168
lini	-8169
ula	-8170
▁xəbərdar	-8171
avil	-8172
orand	-8173
▁tələbləri	-8174
uşu	-8175
▁məktəblərdə	-8176
▁tapa	-8177
▁mak	-8178
▁ibtidai	-8179
▁xatırlay	-8180
▁Qasımov	-8181
asiyaların	-8182
ikal	-8183
▁niyyət	-8184
▁ifasında	-8185
▁men	-8186
▁oradan	-8187
▁kompleksi	-8188
ləndirmə	-8189
▁məruzə	-8190
▁olunduğunu	-8191
▁bilməyib	-8192
▁qonaqlar	-8193
▁Kərimov	-8194
▁cərr	-8195
avan	-8196
▁təqdimat	-8197
▁komandası	-8198
bənd	-8199
▁minə	-8200
▁dildə	-8201
irov	-8202
▁hissəsinə	-8203
ılmasından	-8204
▁text	-8205
▁fəsad	-8206
▁nifrət	-8207
▁kub	-8208
▁mərkəzləri	-8209
▁mədəniyyətin	-8210
▁yadda	-8211
▁təsərrüfatının	-8212
▁tend	-8213
▁lüğ	-8214
▁təmiri	-8215
▁gümüş	-8216
▁şax	-8217
alılar	-8218
▁dərəcəsi	-8219
▁kobud	-8220
mədiyini	-8221
əssüm	-8222
▁təəssürat	-8223
▁regionlarda	-8224
▁dəyərləri	-8225
▁alimləri	-8226
▁Zərifə	-8227
▁əsərlərin	-8228
▁sair	-8229
Vətən	-8230
had	-8231
▁yıx	-8232
▁itk	-8233
▁sam	-8234
▁göstərirdi	-8235
▁qoyan	-8236
▁hazırlığı	-8237
▁Dadaş	-8238
▁əyalət	-8239
▁ibadət	-8240
▁Nərimanov	-8241
Türkiyə	-8242
ano	-8243
▁fundamental	-8244
▁alış	-8245
ulmuş	-8246
amızda	-8247
əsindəki	-8248
▁Mənə	-8249
əffər	-8250
▁səhnəyə	-8251
▁Məlumata	-8252
▁əvvəlcədən	-8253
▁cins	-8254
▁Regional	-8255
əlayiq	-8256
▁Nazim	-8257
▁Özbəkistan	-8258
▁gəlirdi	-8259
▁sank	-8260
lərindəki	-8261
▁Ukraynanın	-8262
▁inkişafa	-8263
▁qurtul	-8264
▁İnan	-8265
▁fədakar	-8266
▁riyaziyyat	-8267
▁məlumdur	-8268
▁yuy	-8269
əndən	-8270
▁əsrlərdə	-8271
▁Vil	-8272
▁məndən	-8273
senz	-8274
ue	-8275
▁dosent	-8276
▁işlərini	-8277
mersiya	-8278
siklope	-8279
▁Məclisi	-8280
▁jurnalının	-8281
▁meyv	-8282
▁Füzul	-8283
▁çıxarmaq	-8284
öyüş	-8285
▁təsadüfi	-8286
▁si	-8287
▁filosof	-8288
laşdırır	-8289
▁Oktyabr	-8290
▁məsələdə	-8291
▁vaksin	-8292
▁süz	-8293
ayt	-8294
▁çeş	-8295
▁protokol	-8296
▁azərbaycançılıq	-8297
mələrinin	-8298
▁məktəbə	-8299
▁şübhəli	-8300
yub	-8301
▁üsyan	-8302
▁yağı	-8303
▁poçt	-8304
▁imkanlarını	-8305
▁şüş	-8306
▁şagirdlərin	-8307
▁qismən	-8308
▁nəğ	-8309
▁etməy	-8310
▁bacısı	-8311
▁rüs	-8312
▁Şair	-8313
▁sətir	-8314
▁rəhmət	-8315
▁minnətdarlığını	-8316
▁Ailə	-8317
▁azadlıqlarının	-8318
▁dünən	-8319
▁həllində	-8320
Hüseyn	-8321
▁Nəcəf	-8322
▁Binə	-8323
▁Ch	-8324
▁uca	-8325
▁bitirib	-8326
▁Sağ	-8327
▁içməli	-8328
▁Cey	-8329
aret	-8330
▁axar	-8331
▁əli	-8332
AL	-8333
ikası	-8334
omb	-8335
▁Müsəlman	-8336
▁Rumın	-8337
▁proseslər	-8338
▁Serb	-8339
▁Hallar	-8340
ogen	-8341
▁əsirg	-8342
▁kal	-8343
ews	-8344
▁taxıl	-8345
▁pol	-8346
▁dəyərlərə	-8347
▁Avstriya	-8348
adıcı	-8349
vari	-8350
▁göstərə	-8351
▁sahibkarlığın	-8352
▁xanəndə	-8353
▁pambıq	-8354
ilməsində	-8355
▁kvadrat	-8356
▁halları	-8357
▁çayının	-8358
ülər	-8359
▁vicdan	-8360
▁yazmaq	-8361
▁Müəllim	-8362
ğal	-8363
▁gözəllik	-8364
▁şeiri	-8365
▁Rusiyaya	-8366
▁Rəq	-8367
▁lisenz	-8368
məlidirlər	-8369
▁Kən	-8370
▁tür	-8371
▁salınması	-8372
▁şüc	-8373
▁Fr	-8374
▁qəzetində	-8375
▁musiqisi	-8376
▁gördü	-8377
Yeni	-8378
▁baza	-8379
▁təmsilçisi	-8380
▁həsrət	-8381
▁sevən	-8382
▁Cavan	-8383
▁məsələn	-8384
▁bazası	-8385
▁regionların	-8386
qol	-8387
▁Halbuki	-8388
▁bölgələrində	-8389
▁Fin	-8390
▁yerlərində	-8391
▁Ümumilikdə	-8392
imər	-8393
▁Müqəddəs	-8394
▁müharibənin	-8395
zaman	-8396
▁Fondun	-8397
▁illərdən	-8398
▁Nüm	-8399
▁kilsə	-8400
▁ərsəyə	-8401
enn	-8402
▁yayılan	-8403
▁Düşünür	-8404
▁başını	-8405
▁Tağıyev	-8406
imizdən	-8407
▁imzalayıb	-8408
▁MK	-8409
▁xatirəsinə	-8410
▁təxribat	-8411
▁monoqraf	-8412
orativ	-8413
▁nəzəriyy	-8414
▁ikisi	-8415
▁doğum	-8416
▁toz	-8417
▁məbəd	-8418
azadə	-8419
▁torpaqlarımızın	-8420
▁buz	-8421
▁vermişdi	-8422
▁Fa	-8423
▁Orada	-8424
▁ilədək	-8425
ett	-8426
dab	-8427
▁silsil	-8428
▁şif	-8429
▁xəstəlikləri	-8430
▁yaranmasına	-8431
▁Sin	-8432
▁tim	-8433
▁həvalə	-8434
▁olmayacaq	-8435
▁oxuc	-8436
ze	-8437
don	-8438
▁sada	-8439
çəl	-8440
▁sürüc	-8441
ərçək	-8442
rika	-8443
▁torpaqları	-8444
duqdan	-8445
▁hazırlamaq	-8446
▁Zaman	-8447
▁mahiyyəti	-8448
▁veriləcək	-8449
▁proseslərin	-8450
▁seyr	-8451
▁Palat	-8452
▁Professor	-8453
avənd	-8454
▁Qələb	-8455
▁adamların	-8456
▁tərkibi	-8457
▁başlanılıb	-8458
▁Nəsr	-8459
▁Tom	-8460
▁İlkin	-8461
▁olim	-8462
▁Ko	-8463
▁başında	-8464
▁Qlobal	-8465
▁Cəmiyyəti	-8466
▁kitabının	-8467
ısını	-8468
arda	-8469
▁nəsə	-8470
▁qazıntı	-8471
erey	-8472
dirici	-8473
▁Müdafiəsi	-8474
▁maraqlıdır	-8475
▁bizdə	-8476
▁indiyə	-8477
▁kab	-8478
▁xidmətin	-8479
▁Pənah	-8480
qun	-8481
▁qurumların	-8482
▁turizmin	-8483
lit	-8484
▁nur	-8485
▁yenidənqurma	-8486
▁reaksiya	-8487
▁sonu	-8488
▁Komissiyası	-8489
▁Qırmızı	-8490
şax	-8491
▁göstərici	-8492
▁xarakterizə	-8493
▁Braz	-8494
▁yayılması	-8495
yol	-8496
▁edəndə	-8497
▁şərəfinə	-8498
▁sığort	-8499
türk	-8500
▁qərəz	-8501
▁təqribən	-8502
asi	-8503
qor	-8504
▁mineral	-8505
landı	-8506
▁Axı	-8507
ly	-8508
▁avtomob	-8509
uculuq	-8510
▁məbləği	-8511
ləyici	-8512
▁idarəet	-8513
▁sistemləri	-8514
▁qismi	-8515
▁status	-8516
▁gəldiyi	-8517
▁dostları	-8518
▁Görkəmli	-8519
▁böyükdür	-8520
▁sui	-8521
▁arzusu	-8522
▁orden	-8523
▁mənafe	-8524
Rusiya	-8525
▁miqyasda	-8526
▁göstərməyə	-8527
▁səhifəsində	-8528
▁rey	-8529
▁kitabları	-8530
▁Ət	-8531
▁Doğru	-8532
astika	-8533
▁sevgil	-8534
▁yaradıldı	-8535
▁namaz	-8536
▁ayrılan	-8537
ləşdirir	-8538
▁Yerli	-8539
▁Əvvəlcə	-8540
karlar	-8541
▁vəzifəsini	-8542
▁genişlən	-8543
▁tərif	-8544
▁harada	-8545
▁Ağc	-8546
▁təp	-8547
▁etmişəm	-8548
▁dizayn	-8549
▁ictimaiyyəti	-8550
▁səmim	-8551
▁kimyəvi	-8552
▁person	-8553
▁oxuyub	-8554
▁mühitinin	-8555
ndə	-8556
ınızı	-8557
▁Sür	-8558
▁Ticarət	-8559
▁kər	-8560
▁oyunu	-8561
▁salıb	-8562
▁mübahisə	-8563
▁sk	-8564
▁açdı	-8565
rini	-8566
▁Şuşanın	-8567
▁təkliflərini	-8568
▁Kər	-8569
▁xron	-8570
Heydər	-8571
▁Mük	-8572
▁açıqlama	-8573
▁Avropaya	-8574
▁dövrünə	-8575
▁insanlarla	-8576
isə	-8577
▁istəyirik	-8578
▁Zaqat	-8579
▁müc	-8580
▁təzahürü	-8581
▁stadi	-8582
dirilmiş	-8583
▁salon	-8584
▁köməkçisi	-8585
▁kənddə	-8586
▁xəbəri	-8587
▁törətdiyi	-8588
▁meyil	-8589
▁doğurur	-8590
▁Qanunveric	-8591
lədiyi	-8592
▁hökumətin	-8593
ureatı	-8594
▁Fəal	-8595
▁mühiti	-8596
▁Avtom	-8597
▁məbləğində	-8598
▁smart	-8599
▁tərəfində	-8600
▁Anad	-8601
▁maraqları	-8602
səy	-8603
▁bilmər	-8604
dirildi	-8605
▁konstitus	-8606
layış	-8607
▁məsələdir	-8608
▁gəncləri	-8609
▁qəzəb	-8610
▁köçkünlərin	-8611
mişik	-8612
▁YU	-8613
ation	-8614
udilər	-8615
▁gətirmək	-8616
▁istədiyi	-8617
arlı	-8618
▁tərəqqi	-8619
ebook	-8620
▁oynam	-8621
▁sabitliyin	-8622
▁sülhməramlı	-8623
▁Qarşı	-8624
▁rəngarəng	-8625
▁qətiyyətli	-8626
▁Müsabiq	-8627
▁gənclərə	-8628
▁Səud	-8629
▁inşası	-8630
▁xalqları	-8631
əfəkk	-8632
lili	-8633
▁dad	-8634
▁lirik	-8635
▁qəsəbə	-8636
▁səsləndiril	-8637
▁qaranlıq	-8638
▁dastan	-8639
▁Rəşid	-8640
▁Həmrəy	-8641
▁etdirdi	-8642
▁cəmiyyətə	-8643
▁xam	-8644
▁uşağı	-8645
▁bilirəm	-8646
▁deyirəm	-8647
ranzit	-8648
▁mülah	-8649
məmişdir	-8650
▁Ruh	-8651
▁bəhrələn	-8652
▁Hikmət	-8653
▁meşə	-8654
▁başladılar	-8655
▁Bah	-8656
▁polkovnik	-8657
▁təntənəli	-8658
▁qurumlar	-8659
gö	-8660
▁səviyyəsini	-8661
▁çər	-8662
▁cəzalandır	-8663
▁birdən	-8664
▁ürəkdən	-8665
lıqların	-8666
▁sənayesi	-8667
▁meyl	-8668
▁vəzifəsi	-8669
▁yarı	-8670
▁Fərmanın	-8671
▁müəllimlərin	-8672
▁Əy	-8673
işik	-8674
▁Bəy	-8675
▁təklifi	-8676
ologiyanın	-8677
▁məna	-8678
▁hazırladığı	-8679
▁Ədalət	-8680
▁ağl	-8681
▁olmağı	-8682
▁qoymaq	-8683
▁naz	-8684
▁till	-8685
▁Pedaqoji	-8686
sından	-8687
▁nəşri	-8688
▁olarsa	-8689
mark	-8690
təbəli	-8691
▁istəyirdi	-8692
▁emalı	-8693
▁Robert	-8694
▁olacağını	-8695
▁Ölkədə	-8696
▁ssenari	-8697
▁analiz	-8698
▁qafqazinfo	-8699
mühafizə	-8700
▁tədqiqatçı	-8701
▁aspekt	-8702
▁Kal	-8703
▁keçirdi	-8704
▁laureatı	-8705
acebook	-8706
▁burda	-8707
▁qəhrəmanı	-8708
▁Açıq	-8709
edil	-8710
▁ötr	-8711
▁İsmayıllı	-8712
▁tolerantlıq	-8713
▁yüksəldilməsi	-8714
▁doq	-8715
▁qızın	-8716
▁müddətinə	-8717
sif	-8718
▁siyahısına	-8719
den	-8720
▁Fətəli	-8721
▁İman	-8722
▁abidəsi	-8723
▁gətirdiyi	-8724
▁Nəhayət	-8725
qtay	-8726
obu	-8727
ediya	-8728
▁MMC	-8729
▁radikal	-8730
▁ümumiləş	-8731
▁mərhələsinə	-8732
▁əməkh	-8733
▁möc	-8734
odu	-8735
▁bələdiyyənin	-8736
▁qit	-8737
▁Emin	-8738
▁ötrü	-8739
▁ömrü	-8740
▁yaratmağa	-8741
hər	-8742
▁qanuni	-8743
▁şəhərlərində	-8744
▁Soy	-8745
▁qaldırmaq	-8746
Ay	-8747
▁Görün	-8748
enko	-8749
▁şəhərindəki	-8750
▁doğuran	-8751
▁yunan	-8752
utu	-8753
▁Abbasov	-8754
▁icrasına	-8755
▁çağdaş	-8756
▁dünyagörüş	-8757
▁yaşat	-8758
▁faizini	-8759
▁yerlərinin	-8760
▁Dek	-8761
qu	-8762
siyasının	-8763
lıqları	-8764
▁tarixindən	-8765
▁şid	-8766
▁zərərli	-8767
▁dis	-8768
▁sahəsinə	-8769
▁külək	-8770
▁istilik	-8771
▁çoxşax	-8772
▁şəkər	-8773
▁başlanan	-8774
▁Konvensiy	-8775
▁Adı	-8776
▁Tamaşa	-8777
kim	-8778
▁Ge	-8779
▁mükafatlandır	-8780
▁Tayy	-8781
▁İmper	-8782
▁Ölkəmizin	-8783
▁rejiminin	-8784
▁Vaş	-8785
▁güll	-8786
ınıza	-8787
kənar	-8788
▁çıxması	-8789
▁Vahid	-8790
▁çatdırdı	-8791
lax	-8792
▁Dep	-8793
▁forma	-8794
▁saxta	-8795
ilməsinin	-8796
▁tədbirlərinin	-8797
dıqlarını	-8798
obel	-8799
▁Liqasının	-8800
▁olmuşam	-8801
▁sərmayə	-8802
▁kafedrasının	-8803
▁əsgəri	-8804
▁olmasından	-8805
▁yerindən	-8806
▁cəza	-8807
▁işdən	-8808
▁sədrliyi	-8809
▁əlaqələn	-8810
▁əzəm	-8811
sər	-8812
▁çatan	-8813
▁kitabda	-8814
salar	-8815
tiş	-8816
▁hissədə	-8817
▁fikrini	-8818
ye	-8819
▁mac	-8820
▁Sah	-8821
▁pandemiya	-8822
▁Sərəncamına	-8823
▁Molla	-8824
▁And	-8825
▁yaxşılaş	-8826
TAc	-8827
▁edəcəyi	-8828
▁seçilməsi	-8829
▁Ekologiya	-8830
▁meydanında	-8831
▁rədd	-8832
▁tapmışdır	-8833
▁tutduğu	-8834
▁mahiyyətini	-8835
▁Ümid	-8836
▁yazılıb	-8837
▁mühacir	-8838
▁olduğumuz	-8839
▁Elektron	-8840
▁hüququn	-8841
▁Bey	-8842
▁Afrika	-8843
▁xidmətlərinə	-8844
▁sözlərini	-8845
▁qurultay	-8846
▁Tim	-8847
▁özümü	-8848
▁baxır	-8849
▁məhdudlaşdır	-8850
▁mini	-8851
▁silsilə	-8852
tmək	-8853
▁alınmaqla	-8854
axış	-8855
▁bildi	-8856
▁unikal	-8857
▁Bülbül	-8858
▁valyuta	-8859
emat	-8860
▁disk	-8861
▁ikən	-8862
▁telekanal	-8863
▁illəri	-8864
▁prosesini	-8865
▁edildiyini	-8866
▁yaradacaq	-8867
▁gördüy	-8868
▁hazırlaş	-8869
omen	-8870
ılar	-8871
▁rit	-8872
▁Akif	-8873
▁müəssisəsi	-8874
▁Dünyada	-8875
▁oynayan	-8876
▁üzündən	-8877
▁məktəblərin	-8878
▁halında	-8879
Qur	-8880
▁bazarında	-8881
▁Zir	-8882
mışıq	-8883
▁süjet	-8884
kl	-8885
hazırda	-8886
▁Söhbət	-8887
▁atəşə	-8888
▁ağa	-8889
▁Em	-8890
▁açılışında	-8891
▁təsirli	-8892
aktiv	-8893
▁evinin	-8894
▁Mütəxəssis	-8895
olla	-8896
▁proqramlar	-8897
dəmir	-8898
anları	-8899
▁Vətənə	-8900
▁Məmmədovun	-8901
▁əməliyyatı	-8902
▁Fuad	-8903
▁Şəmkir	-8904
▁siyahısı	-8905
▁Təlim	-8906
lasın	-8907
▁Ömər	-8908
▁Lat	-8909
▁yazar	-8910
▁həlledici	-8911
▁Gəncədə	-8912
▁Masallı	-8913
ifik	-8914
▁Çar	-8915
ətləri	-8916
larımı	-8917
▁beyin	-8918
▁mühasir	-8919
timal	-8920
▁üstə	-8921
▁məskunlaş	-8922
rinin	-8923
asiyasına	-8924
▁Muğam	-8925
▁Macarıstan	-8926
▁gəlmişdir	-8927
▁müsahibə	-8928
tək	-8929
▁qəza	-8930
▁hərəkətləri	-8931
▁azdır	-8932
▁önünə	-8933
▁ip	-8934
▁vətəndaşlarının	-8935
▁nümunəsidir	-8936
▁istəmir	-8937
TİNİN	-8938
▁abad	-8939
▁Təkcə	-8940
▁dənizi	-8941
▁məcburiyyətində	-8942
▁kütlə	-8943
▁pen	-8944
bari	-8945
▁çevrilən	-8946
▁gözləy	-8947
önül	-8948
▁mərhum	-8949
▁yaradılır	-8950
▁proqramının	-8951
▁ədəbiyyatın	-8952
uvar	-8953
darma	-8954
▁qazanan	-8955
üləcək	-8956
▁yollarının	-8957
▁Tayyib	-8958
▁dəstəkləyir	-8959
▁Dağı	-8960
▁Əkbər	-8961
▁ərizə	-8962
şal	-8963
▁xalqımıza	-8964
▁Plan	-8965
▁komponent	-8966
asıdır	-8967
▁möhkəmləndiril	-8968
▁səsini	-8969
▁dedim	-8970
▁etsinlər	-8971
▁ciz	-8972
▁unudulmaz	-8973
▁siyasətinə	-8974
quluz	-8975
ium	-8976
▁açılır	-8977
▁ilində	-8978
▁Qırğızı	-8979
eton	-8980
▁fakültəsinin	-8981
▁evlən	-8982
▁danışdı	-8983
▁Oqtay	-8984
▁Per	-8985
▁ölkəsi	-8986
▁özlərinə	-8987
▁göstərmiş	-8988
ola	-8989
oğul	-8990
▁gərginlik	-8991
▁masa	-8992
dəni	-8993
ürlər	-8994
▁İvan	-8995
▁sonlarında	-8996
▁intih	-8997
▁hak	-8998
dırım	-8999
▁ölümü	-9000
▁Kabinetinə	-9001
▁üzünü	-9002
▁İtaliyanın	-9003
▁cədvəl	-9004
▁Noyabr	-9005
başına	-9006
▁Can	-9007
▁Sergey	-9008
▁toxunul	-9009
▁həqiqəti	-9010
▁kapital	-9011
▁məntəqəsi	-9012
▁sahibliyi	-9013
LƏR	-9014
▁çatır	-9015
▁nikah	-9016
▁istiqlal	-9017
eşə	-9018
▁Məcəlləsində	-9019
▁sona	-9020
▁göstəricisidir	-9021
")	-9022
▁seminar	-9023
▁xəyanət	-9024
▁ağız	-9025
▁yayılıb	-9026
▁Səhmdar	-9027
▁fermer	-9028
▁səbəbləri	-9029
▁Cahangir	-9030
lərdəndir	-9031
▁məsələsinə	-9032
▁olmadığ	-9033
▁məmnunluq	-9034
▁Fərhad	-9035
▁sult	-9036
▁önə	-9037
▁yeniyet	-9038
hökumət	-9039
▁oke	-9040
▁iqtisadiyyatına	-9041
▁əməyi	-9042
▁iqtidar	-9043
▁Sonralar	-9044
▁ailəsində	-9045
Re	-9046
▁doqquz	-9047
imcə	-9048
▁qarşısı	-9049
▁qaydalarını	-9050
yak	-9051
karı	-9052
▁ictimaiyyətinə	-9053
▁etdikdə	-9054
arsa	-9055
▁bak	-9056
▁ədəbiyyatında	-9057
dəfəlik	-9058
▁ixtisası	-9059
................	-9060
▁Qarabağa	-9061
▁sahilində	-9062
▁fen	-9063
ətənin	-9064
▁taxt	-9065
▁yanacaq	-9066
▁yazıçının	-9067
matik	-9068
▁səhnədə	-9069
bəyov	-9070
▁qurb	-9071
▁xatırlat	-9072
▁torpağa	-9073
▁zək	-9074
▁gəlmişdi	-9075
anç	-9076
▁nəsr	-9077
Sİ	-9078
▁Oyunları	-9079
▁Təc	-9080
▁Xətai	-9081
ızıl	-9082
▁mütəfəkk	-9083
▁Kanada	-9084
▁atam	-9085
▁xərcləri	-9086
▁dövlətlərinin	-9087
th	-9088
▁Deməli	-9089
▁ekspon	-9090
dığından	-9091
▁dolları	-9092
▁mətbuatda	-9093
▁Oyunlarının	-9094
▁təsdiqləyir	-9095
▁seçkilərində	-9096
▁dağıd	-9097
▁şirkətin	-9098
sınlar	-9099
▁bitirdikdən	-9100
kəndi	-9101
qədi	-9102
ptom	-9103
▁boğaz	-9104
▁Sentyabr	-9105
▁liderin	-9106
şad	-9107
▁yazan	-9108
arsel	-9109
▁milyondan	-9110
eziya	-9111
▁evdən	-9112
▁mədəniyyətinə	-9113
▁qətiyyətlə	-9114
▁Her	-9115
▁nas	-9116
▁gəliş	-9117
iter	-9118
umanitar	-9119
▁AzərTAc	-9120
▁qorxu	-9121
▁diaq	-9122
▁Mükaf	-9123
▁Qı	-9124
▁Lim	-9125
▁koordin	-9126
▁üsulu	-9127
▁pensiy	-9128
▁çatmaq	-9129
▁qazanmaq	-9130
▁ölkəmizi	-9131
▁Şahin	-9132
▁qox	-9133
▁atır	-9134
▁Mübariz	-9135
▁keçirilməsinin	-9136
▁şəhərə	-9137
▁gəlinir	-9138
asıb	-9139
▁qaşığı	-9140
▁Fərmanı	-9141
▁gizlət	-9142
▁Dəh	-9143
▁Vik	-9144
▁xidmətlərinin	-9145
▁inanc	-9146
▁İlyas	-9147
▁xalqlar	-9148
▁əriz	-9149
▁açaraq	-9150
işəhər	-9151
▁gil	-9152
▁Samir	-9153
▁pozuntu	-9154
▁bayraq	-9155
ırdıq	-9156
kov	-9157
▁tikilmiş	-9158
▁vüs	-9159
▁götürülüb	-9160
▁təsbit	-9161
▁aydınlıq	-9162
abet	-9163
▁Çıx	-9164
diyin	-9165
▁bizimlə	-9166
▁süf	-9167
▁sinf	-9168
hüquqi	-9169
▁Rafiq	-9170
▁qum	-9171
▁əsassız	-9172
▁çəkilir	-9173
▁turistlərin	-9174
▁düşünürəm	-9175
▁tənzimlənməsi	-9176
▁camaat	-9177
▁Vaşinq	-9178
urov	-9179
▁ictimaiyyətə	-9180
ləsi	-9181
▁hərf	-9182
▁mərkəzinin	-9183
www	-9184
▁keçirməyə	-9185
▁Axşam	-9186
onald	-9187
▁yəhudi	-9188
▁şanlı	-9189
▁böyüm	-9190
▁konsul	-9191
▁partiyanın	-9192
▁Səudiyyə	-9193
gü	-9194
▁arv	-9195
▁tələs	-9196
▁Mer	-9197
▁çevrilmiş	-9198
▁inamla	-9199
▁qaydalarına	-9200
▁görülməsi	-9201
▁vurğulay	-9202
▁qurulub	-9203
On	-9204
▁Qurbanov	-9205
▁ye	-9206
▁davran	-9207
▁müəllimlər	-9208
▁etdirilib	-9209
▁rəmzi	-9210
▁güv	-9211
▁vurğulayan	-9212
zə	-9213
▁gücünü	-9214
▁qoymuş	-9215
▁məsuliyyəti	-9216
▁sök	-9217
ster	-9218
▁keçərək	-9219
▁Səfir	-9220
▁Texnologiy	-9221
▁Məz	-9222
▁uzad	-9223
▁maraqlarını	-9224
▁Tibbi	-9225
▁bircə	-9226
▁Torpaq	-9227
ps	-9228
▁olanların	-9229
▁orqanlarına	-9230
▁təqib	-9231
▁tərəfdaşlıq	-9232
fonik	-9233
▁keçmək	-9234
▁bütövlüyünü	-9235
▁şəxsə	-9236
rof	-9237
▁Həqiq	-9238
▁məhəllə	-9239
Neft	-9240
▁Yaz	-9241
osional	-9242
dıcı	-9243
▁XXI	-9244
▁oturub	-9245
▁iştirakçılarına	-9246
▁Pat	-9247
▁situ	-9248
▁incə	-9249
▁Ana	-9250
▁gah	-9251
▁istef	-9252
▁sistemini	-9253
▁qazandı	-9254
▁höv	-9255
▁görəndə	-9256
lanın	-9257
alığı	-9258
lərimi	-9259
▁dayanan	-9260
▁Bin	-9261
▁şiş	-9262
ahab	-9263
▁Növbəti	-9264
▁olay	-9265
▁yarandı	-9266
dey	-9267
▁Kiyev	-9268
▁dirçəl	-9269
▁prosesləri	-9270
▁Layihə	-9271
▁konfransında	-9272
▁Musiq	-9273
▁tərəfə	-9274
▁sonda	-9275
▁əlifb	-9276
▁şöbəsi	-9277
▁report	-9278
işt	-9279
▁Həş	-9280
▁Xocavənd	-9281
▁üzüm	-9282
yəm	-9283
▁La	-9284
▁günümüz	-9285
▁diyar	-9286
▁qanunla	-9287
çərişəhər	-9288
▁övladları	-9289
▁Os	-9290
izədi	-9291
▁İstanbulda	-9292
▁sel	-9293
▁Sərvət	-9294
▁Pakistan	-9295
▁radə	-9296
▁Ven	-9297
▁əmri	-9298
▁mübarizəyə	-9299
mama	-9300
▁marağı	-9301
▁düşündür	-9302
EFA	-9303
▁güllə	-9304
▁Andr	-9305
▁yeniləş	-9306
aft	-9307
oqram	-9308
ovest	-9309
alaşdır	-9310
▁tir	-9311
siyaları	-9312
ehran	-9313
▁çırp	-9314
▁Cor	-9315
▁Mustafayev	-9316
ilərini	-9317
▁fikirləş	-9318
abi	-9319
▁çalışmışdır	-9320
▁cəbhə	-9321
▁sümük	-9322
▁xəzin	-9323
▁hesabında	-9324
▁formasında	-9325
▁şans	-9326
▁mülahiz	-9327
▁operator	-9328
▁məqalələr	-9329
▁mədəniyyətini	-9330
▁Brazil	-9331
▁istə	-9332
▁miqdarı	-9333
▁namizədi	-9334
alda	-9335
mosfer	-9336
sinlər	-9337
▁dairə	-9338
▁müşavir	-9339
▁Kap	-9340
▁dəri	-9341
▁təhsilə	-9342
▁önc	-9343
▁tranzit	-9344
iliyin	-9345
▁Sankt	-9346
▁sintez	-9347
▁Qap	-9348
manında	-9349
▁tariximizin	-9350
▁müalicəsi	-9351
pp	-9352
▁fin	-9353
▁fərqlənir	-9354
▁Bankı	-9355
▁bilməy	-9356
▁vurğulamışdır	-9357
▁Şərif	-9358
▁Binəqədi	-9359
▁Mür	-9360
▁Əbdül	-9361
▁Şirin	-9362
▁aer	-9363
▁görər	-9364
keç	-9365
şər	-9366
▁stək	-9367
ann	-9368
▁nəyə	-9369
▁tələblər	-9370
▁Qanunvericilik	-9371
Dədə	-9372
▁olmadı	-9373
pərəst	-9374
▁Gürcüstanda	-9375
▁halı	-9376
▁qəbiristan	-9377
▁ayrılmaz	-9378
▁gündəmə	-9379
▁Din	-9380
);	-9381
▁Rey	-9382
▁qalın	-9383
▁hədiyy	-9384
▁həkk	-9385
▁Ərəbist	-9386
fiq	-9387
▁rəqəmsal	-9388
▁məktəblərində	-9389
▁personaj	-9390
ıra	-9391
NESKO	-9392
▁Forumu	-9393
▁qın	-9394
Ermənistan	-9395
ləşdirmə	-9396
▁istəyirlər	-9397
▁şəxsləri	-9398
ılmalı	-9399
▁çöl	-9400
▁zənc	-9401
məsə	-9402
▁sırasına	-9403
dığınız	-9404
saqqal	-9405
▁məşqçisi	-9406
▁prosesdə	-9407
▁sahibləri	-9408
▁prepar	-9409
▁çıxarı	-9410
▁maraqlarına	-9411
cıq	-9412
▁təhlükəsi	-9413
▁nat	-9414
uri	-9415
▁tərəvəz	-9416
▁lob	-9417
▁Müğənn	-9418
▁İlqar	-9419
liklərinin	-9420
▁fasiləsiz	-9421
▁davamı	-9422
▁epiz	-9423
▁göstərəcək	-9424
▁Qiy	-9425
roz	-9426
dafiə	-9427
▁PR	-9428
▁sərgisi	-9429
əməsi	-9430
▁tükən	-9431
▁Vol	-9432
▁hissəsidir	-9433
▁düşməsi	-9434
▁müdaxil	-9435
rü	-9436
dirən	-9437
acağam	-9438
▁Bolqarıstan	-9439
▁edilmir	-9440
▁əcnəbi	-9441
asar	-9442
▁yetirmək	-9443
▁söylədi	-9444
▁təşəkk	-9445
▁sistemin	-9446
▁poeziya	-9447
▁mütəxəssisləri	-9448
▁otel	-9449
▁hörmətlə	-9450
▁məhsulun	-9451
▁işləməyə	-9452
▁taraz	-9453
▁Şübh	-9454
▁Mirzəyev	-9455
örmətli	-9456
▁Futbol	-9457
▁vitamin	-9458
▁alov	-9459
▁Almaniyada	-9460
▁oyunçu	-9461
▁bəndində	-9462
▁Təhlükəsizliyi	-9463
▁Kin	-9464
arük	-9465
ullah	-9466
▁Təşkilat	-9467
olunmaz	-9468
ner	-9469
▁ailəsinin	-9470
▁məzmunun	-9471
▁ris	-9472
▁göstərirlər	-9473
▁filmlər	-9474
▁elədi	-9475
▁tədarük	-9476
▁barmaq	-9477
▁qazanmış	-9478
▁nahiy	-9479
▁özlərinin	-9480
rəs	-9481
▁Qaradağ	-9482
▁Topl	-9483
▁maraqlan	-9484
▁xeyriyyə	-9485
▁proqramlarının	-9486
ederal	-9487
▁adlanır	-9488
▁Çinin	-9489
▁qayıdış	-9490
▁hazırlanır	-9491
▁narahatlıq	-9492
atürk	-9493
▁müsabiqə	-9494
▁başladığı	-9495
▁Ölkənin	-9496
▁birdəfəlik	-9497
▁radələrində	-9498
▁təşəkkürünü	-9499
▁asanlıqla	-9500
▁Natiq	-9501
▁işçilərin	-9502
▁sənayesinin	-9503
dat	-9504
ilərinə	-9505
▁Yunanıstan	-9506
▁əməliyyatlar	-9507
▁yerdən	-9508
▁Bər	-9509
asiyasını	-9510
ülal	-9511
eninq	-9512
▁İngilis	-9513
▁çoxşaxəli	-9514
istem	-9515
çox	-9516
ulun	-9517
▁Mor	-9518
▁Vüs	-9519
▁əzm	-9520
Kitab	-9521
blem	-9522
▁ictimaiyyətin	-9523
▁xalqını	-9524
▁etmişik	-9525
İM	-9526
▁Əminəm	-9527
▁nəticələrinə	-9528
▁əlaqəsi	-9529
▁təyyarə	-9530
▁ilham	-9531
▁mənşəli	-9532
▁məhsulu	-9533
▁Sərəncamı	-9534
akar	-9535
▁sanb	-9536
▁Demokratik	-9537
landiy	-9538
▁Elnur	-9539
▁pedaqoq	-9540
▁orda	-9541
▁prosesin	-9542
▁Mixail	-9543
▁Depar	-9544
▁başlandı	-9545
▁Düşünürəm	-9546
▁Suriya	-9547
iyazi	-9548
▁təqv	-9549
▁İx	-9550
▁Kos	-9551
ametr	-9552
Böyük	-9553
▁məsci	-9554
▁vəsaitin	-9555
▁səviyyəyə	-9556
▁görüşündə	-9557
oslav	-9558
▁illiyinə	-9559
▁qalması	-9560
▁torpağı	-9561
▁Xaçmaz	-9562
▁inkar	-9563
▁hissələri	-9564
▁Əbülfəs	-9565
məmməd	-9566
▁liman	-9567
▁reallaş	-9568
▁prinsiplərinə	-9569
▁vilayətinin	-9570
▁Premyer	-9571
▁Qərargah	-9572
▁Müv	-9573
▁komissiyasının	-9574
ülmüşdür	-9575
▁Rövşən	-9576
▁Həmid	-9577
▁istifadəsinə	-9578
▁doğrusu	-9579
▁maddənin	-9580
▁Maddə	-9581
saydı	-9582
▁Əlizadə	-9583
▁nəticələrini	-9584
▁Britaniyanın	-9585
Kərim	-9586
▁yeraltı	-9587
▁yayılmış	-9588
▁xəstəliyin	-9589
▁vurdu	-9590
erlər	-9591
▁Bat	-9592
▁qurub	-9593
▁Məhkəmə	-9594
əzi	-9595
▁yollarını	-9596
▁YUNESKO	-9597
qi	-9598
▁nor	-9599
▁oyan	-9600
▁ümumtəhsil	-9601
▁müdir	-9602
▁Qəhrəmanı	-9603
▁satışı	-9604
▁dəyişən	-9605
▁qurulan	-9606
▁qonağı	-9607
ləndirici	-9608
▁Ermənilər	-9609
udu	-9610
▁mühazir	-9611
Kor	-9612
▁güclən	-9613
▁şəhadət	-9614
▁Nobel	-9615
tisas	-9616
▁kişinin	-9617
▁oynayıb	-9618
▁ərazisindəki	-9619
biri	-9620
▁Hökumət	-9621
▁bilirik	-9622
▁konfransda	-9623
düs	-9624
▁dayaq	-9625
▁dəstə	-9626
▁romanı	-9627
▁əraziyə	-9628
araf	-9629
▁UEFA	-9630
ruktiv	-9631
▁məsuliyyətli	-9632
▁qurumlarının	-9633
▁cis	-9634
▁veter	-9635
lilərin	-9636
▁özünüz	-9637
iyalarının	-9638
▁Mərkəzin	-9639
▁işarə	-9640
▁plana	-9641
▁mənası	-9642
▁bişir	-9643
▁olmasın	-9644
▁əsirgəm	-9645
▁minimum	-9646
▁qadını	-9647
▁çempionu	-9648
▁Ağcab	-9649
▁qəlbində	-9650
▁Füzulinin	-9651
▁gələni	-9652
▁nən	-9653
▁yazılar	-9654
▁saxt	-9655
▁gecik	-9656
▁separatçı	-9657
örə	-9658
▁Əbu	-9659
▁Deput	-9660
▁amerikalı	-9661
ərrik	-9662
▁alsaq	-9663
▁böyü	-9664
▁fəth	-9665
birinin	-9666
▁Teatrı	-9667
▁kommunikasiya	-9668
alin	-9669
▁xiyab	-9670
▁Orxan	-9671
uly	-9672
odi	-9673
▁amillər	-9674
▁dəyərləndiril	-9675
▁təcrid	-9676
▁torpaqların	-9677
▁çalışırdı	-9678
▁yarımbənd	-9679
▁Klub	-9680
▁simptom	-9681
müs	-9682
ayə	-9683
▁Diqq	-9684
▁dirij	-9685
▁qondarma	-9686
▁nədir	-9687
▁qalacaq	-9688
madığını	-9689
▁həmsədr	-9690
orlar	-9691
▁Məsəl	-9692
▁nem	-9693
▁maşını	-9694
Məh	-9695
ğunluq	-9696
▁Beh	-9697
▁Fəxri	-9698
▁imzalanması	-9699
▁nazirliyin	-9700
XC	-9701
▁strategiyasının	-9702
▁mahiyyət	-9703
▁İstər	-9704
▁məşqçi	-9705
▁Nar	-9706
avar	-9707
▁paket	-9708
ürdü	-9709
▁əməliyyatları	-9710
▁etməyən	-9711
Peterburq	-9712
▁kəndlərində	-9713
▁Bəş	-9714
▁Millətlər	-9715
▁Bul	-9716
▁boyn	-9717
▁seçic	-9718
ologiyasının	-9719
▁ssenar	-9720
▁Mold	-9721
▁qarışdır	-9722
▁dinlən	-9723
▁Sədri	-9724
▁verilsin	-9725
▁kosmik	-9726
▁Qət	-9727
▁əsəb	-9728
▁fərmanı	-9729
▁baxılması	-9730
▁rayonlarda	-9731
kinin	-9732
▁xatirəsi	-9733
▁bölməsində	-9734
andakı	-9735
▁Ki	-9736
▁prinsipial	-9737
Am	-9738
▁Qus	-9739
▁iltih	-9740
▁açılan	-9741
▁Tehran	-9742
▁hör	-9743
iyent	-9744
▁ölkəsinin	-9745
▁komandiri	-9746
▁lib	-9747
▁Qoşul	-9748
▁iyirmi	-9749
▁müf	-9750
▁qəh	-9751
▁rəhbərliyinə	-9752
▁Sənəd	-9753
▁qeydiyyata	-9754
▁Fili	-9755
▁əraziləri	-9756
▁Sərvətlər	-9757
▁zamanlarda	-9758
▁olduğum	-9759
▁Oyunlarında	-9760
▁ayrılıb	-9761
▁yetkin	-9762
▁hələlik	-9763
ÜR	-9764
▁müvəffəqiyyətlə	-9765
▁qrafik	-9766
▁müəssisələrin	-9767
▁təhlili	-9768
▁virtual	-9769
əvan	-9770
baba	-9771
▁Məlumat	-9772
▁qüsur	-9773
▁bitkilər	-9774
▁çalar	-9775
▁abz	-9776
▁ayından	-9777
▁Ben	-9778
▁tanıt	-9779
▁avtomat	-9780
▁bilməzdi	-9781
▁mərhələsinin	-9782
▁oxuyan	-9783
▁keçirdikləri	-9784
▁beləliklə	-9785
▁Razı	-9786
▁onlarda	-9787
▁deb	-9788
adıqda	-9789
▁ərazisinin	-9790
▁sərkər	-9791
▁bağırsaq	-9792
▁sənətkarın	-9793
▁Özü	-9794
▁fəhlə	-9795
▁yavaş	-9796
▁alimin	-9797
sanın	-9798
▁Bəstəkar	-9799
▁təcavüzkar	-9800
▁istif	-9801
▁yarısı	-9802
▁uşaqlıq	-9803
▁xa	-9804
▁Əla	-9805
▁uydur	-9806
neçə	-9807
▁klubunun	-9808
▁gizlə	-9809
▁nüvə	-9810
▁yekunlarına	-9811
▁mit	-9812
▁məqamda	-9813
▁müqavimət	-9814
▁dünyəvi	-9815
▁Əzim	-9816
▁sülhün	-9817
▁maddələrin	-9818
oloqlar	-9819
▁qrupları	-9820
▁Yardım	-9821
▁torpaqlarının	-9822
▁kamil	-9823
▁Muzeyi	-9824
▁diqqətinə	-9825
▁fən	-9826
▁nəc	-9827
axanı	-9828
▁Avtomobil	-9829
▁Hansı	-9830
▁şəxsiyyəti	-9831
Azərbaycanda	-9832
ramp	-9833
▁Fran	-9834
malarının	-9835
▁vaxta	-9836
▁çəkisi	-9837
▁Necə	-9838
ulur	-9839
▁Üstəlik	-9840
▁kövr	-9841
▁ideyası	-9842
▁texnologiyalar	-9843
▁obyektlərinin	-9844
▁quldur	-9845
▁səsvermə	-9846
▁dönüş	-9847
▁azaldılması	-9848
axtarış	-9849
ətlərin	-9850
."	-9851
▁mövzuda	-9852
VQD	-9853
▁yoxlam	-9854
▁pərdə	-9855
▁təslim	-9856
▁olunduq	-9857
▁fabr	-9858
▁ehtimalı	-9859
▁məqsədləri	-9860
▁mütəxəssislərin	-9861
ləşməsinə	-9862
▁maraqlandır	-9863
▁yazıları	-9864
▁Yaradıcı	-9865
▁şöhrətli	-9866
▁XVIII	-9867
larımızdan	-9868
▁nümunələr	-9869
▁Departament	-9870
ıldıqdan	-9871
▁avtomobili	-9872
▁etdirdiyi	-9873
▁partlayış	-9874
məmişdi	-9875
▁kollektivi	-9876
çilərə	-9877
əfa	-9878
▁müxalifət	-9879
▁səyy	-9880
▁Ərdoğan	-9881
mirdi	-9882
ədis	-9883
▁güləş	-9884
▁istiqaməti	-9885
lüyünü	-9886
▁dövrə	-9887
aci	-9888
pul	-9889
▁Məras	-9890
adanın	-9891
▁Lu	-9892
▁küçə	-9893
▁çiy	-9894
▁qanad	-9895
Bak	-9896
▁büdcəsinin	-9897
▁saxlayıb	-9898
▁tərəflər	-9899
cisi	-9900
▁timsal	-9901
▁dəyişdir	-9902
▁AZ	-9903
▁Vergi	-9904
▁törədən	-9905
▁atan	-9906
▁tapşırığ	-9907
yet	-9908
▁Bi	-9909
▁qüvvəsi	-9910
▁Avrasiya	-9911
▁yaşadıqları	-9912
qara	-9913
▁çıxa	-9914
▁Meks	-9915
▁fas	-9916
▁Muzeyinin	-9917
bədii	-9918
▁Ziya	-9919
dinin	-9920
▁Konservator	-9921
▁səbir	-9922
▁hadisələrə	-9923
eqativ	-9924
▁akadem	-9925
▁söhbəti	-9926
!”	-9927
▁işsiz	-9928
▁gəlirlər	-9929
▁araşdırılması	-9930
out	-9931
▁nümunəvi	-9932
▁yaraş	-9933
▁bilinən	-9934
alaş	-9935
▁alınaraq	-9936
▁tənqidi	-9937
▁xarakteri	-9938
inar	-9939
▁Atatürk	-9940
▁töhfəsini	-9941
▁məktəblər	-9942
▁Zaur	-9943
▁hamısını	-9944
▁təkmilləşdiril	-9945
rəh	-9946
▁pap	-9947
▁mükafatına	-9948
▁göndərilib	-9949
ütləvi	-9950
▁məhkəməyə	-9951
▁yəhudilər	-9952
▁əsasları	-9953
xoz	-9954
▁Qoşulmama	-9955
▁əlinə	-9956
▁qayıdır	-9957
ağımız	-9958
▁İstehsal	-9959
mişdilər	-9960
▁baxıb	-9961
▁olunmur	-9962
▁sırada	-9963
▁siqaret	-9964
▁kompleksinin	-9965
▁vuran	-9966
▁Yevlax	-9967
▁mətbuata	-9968
təlik	-9969
▁bunlara	-9970
▁sistemlərinin	-9971
▁başqalarının	-9972
▁əkil	-9973
ts	-9974
▁aren	-9975
▁duyur	-9976
▁naxış	-9977
▁bilmirlər	-9978
▁hala	-9979
▁meydanç	-9980
▁yardımı	-9981
▁Tərəflər	-9982
▁aralarında	-9983
▁hazırlanmasında	-9984
▁Tac	-9985
▁İşğal	-9986
▁To	-9987
▁dəstələri	-9988
▁xəstəliklərin	-9989
▁dağlıq	-9990
▁ifaçısı	-9991
▁Saziş	-9992
▁ayrılmış	-9993
▁qurulmuş	-9994
▁alimi	-9995
▁Forumunun	-9996
▁regionunda	-9997
ğur	-9998
mırdı	-9999
▁olmas	-10000
▁mask	-10001
▁qayıda	-10002
▁ehtiramla	-10003
▁salınıb	-10004
▁təhlükəsizliyin	-10005
▁yardımçı	-10006
əllim	-10007
▁vəziyyətinə	-10008
▁edildikdən	-10009
▁praktiki	-10010
▁boşan	-10011
▁gənclik	-10012
ilərdən	-10013
▁gözləm	-10014
▁qeydiyyatdan	-10015
▁səhh	-10016
▁qərargah	-10017
▁Sarı	-10018
ələm	-10019
▁yaşadığ	-10020
▁Döyüş	-10021
▁ifşa	-10022
aşın	-10023
▁qətli	-10024
▁Ətraf	-10025
▁qırğın	-10026
İK	-10027
▁qaydası	-10028
bal	-10029
▁etməsini	-10030
▁manatdan	-10031
▁şəraitin	-10032
▁refer	-10033
▁qapalı	-10034
▁icrasını	-10035
▁kəməri	-10036
▁kimə	-10037
▁Slov	-10038
▁yerin	-10039
▁hidro	-10040
▁nöqsan	-10041
▁fotoş	-10042
▁Trend	-10043
▁ildönüm	-10044
▁Kommunist	-10045
çılığın	-10046
▁Məşhur	-10047
▁itkin	-10048
▁kabinet	-10049
▁məlumatlara	-10050
▁malların	-10051
bəş	-10052
▁deməli	-10053
▁minnətdarlıq	-10054
▁verər	-10055
▁KO	-10056
▁borcu	-10057
▁Yəqin	-10058
▁tədqiqi	-10059
▁məktəblərinin	-10060
▁işlərdən	-10061
▁güzəştli	-10062
▁dövrünü	-10063
▁girov	-10064
▁qəddar	-10065
▁iqtisad	-10066
▁əsərinin	-10067
▁Adam	-10068
▁jurnalistlərin	-10069
▁bəşəri	-10070
▁tərbiyəsi	-10071
▁aktların	-10072
▁seçkiləri	-10073
▁Tar	-10074
▁Latv	-10075
▁povest	-10076
▁bürünc	-10077
▁yaşamağa	-10078
▁banisi	-10079
▁şəxsiyyətin	-10080
▁dəhlizi	-10081
▁istəyib	-10082
▁Sadiq	-10083
ladığ	-10084
▁Qafar	-10085
▁oyunları	-10086
▁mətbuatın	-10087
▁rəf	-10088
▁törə	-10089
▁Lev	-10090
▁Fiz	-10091
Bizim	-10092
▁xəstəliklər	-10093
▁buraya	-10094
▁perspektivləri	-10095
iyində	-10096
orf	-10097
▁dü	-10098
▁ölkələrindən	-10099
▁təşkilati	-10100
▁üf	-10101
▁siqn	-10102
▁Dini	-10103
▁Rauf	-10104
▁vəziyyətinin	-10105
▁tabeliyində	-10106
▁etməmiş	-10107
▁məsələlərinə	-10108
omat	-10109
▁Hacıbəyli	-10110
▁alimlərin	-10111
▁biləcəyini	-10112
▁teatrı	-10113
▁əsərlərindən	-10114
▁Dədə	-10115
▁mərd	-10116
▁faciəsi	-10117
▁Hazır	-10118
▁nələr	-10119
▁qu	-10120
▁hörmətli	-10121
isiya	-10122
ılmaq	-10123
▁insanlarda	-10124
▁sevdiyi	-10125
lanmaq	-10126
▁keçməsi	-10127
obustan	-10128
▁qalası	-10129
▁işlət	-10130
▁əsaslanır	-10131
▁bacarığı	-10132
▁rüş	-10133
▁saxlanması	-10134
aspi	-10135
▁Zakir	-10136
▁Est	-10137
▁Toplusu	-10138
dirilən	-10139
asət	-10140
▁Rasim	-10141
▁Saat	-10142
▁pulu	-10143
▁Lider	-10144
▁per	-10145
▁qəzetin	-10146
▁demişdi	-10147
one	-10148
▁mühakim	-10149
▁salan	-10150
▁təxirə	-10151
üstə	-10152
▁oluruq	-10153
▁vasitələrin	-10154
▁eksper	-10155
▁diaqnoz	-10156
dirsə	-10157
▁göstəriciləri	-10158
▁çəkdi	-10159
▁ayda	-10160
▁Nümay	-10161
▁şəhərindən	-10162
▁küçəsində	-10163
▁təbiəti	-10164
▁Demək	-10165
▁ikili	-10166
▁Yəh	-10167
eir	-10168
▁hakimi	-10169
▁Sərgi	-10170
▁başçısına	-10171
▁Mülki	-10172
▁Prezidentimiz	-10173
▁aparılmışdır	-10174
▁Hav	-10175
▁ital	-10176
▁Ermənistanla	-10177
▁hadisənin	-10178
ia	-10179
▁digərləri	-10180
▁Zaqatala	-10181
▁qoyulması	-10182
▁hazırlay	-10183
əvinin	-10184
▁ilahi	-10185
▁Texniki	-10186
▁proqramında	-10187
▁işlənib	-10188
▁Dörd	-10189
▁Dar	-10190
▁yam	-10191
▁idim	-10192
▁öyrət	-10193
▁repert	-10194
▁azadlıqdan	-10195
▁ləz	-10196
əqədər	-10197
▁çatdı	-10198
söhbət	-10199
▁çıxart	-10200
SES	-10201
▁baxmaq	-10202
▁seçkilərdə	-10203
▁çıxaraq	-10204
▁maddələri	-10205
▁vəzifəsindən	-10206
▁emosional	-10207
▁əqidə	-10208
▁bib	-10209
▁dəm	-10210
▁Ağcabədi	-10211
▁məhsullar	-10212
qin	-10213
urnalı	-10214
qanuni	-10215
te	-10216
bus	-10217
▁düşmənə	-10218
▁vəziyyətdən	-10219
▁Düzdür	-10220
▁manata	-10221
▁ahəng	-10222
rey	-10223
ASAN	-10224
▁komandir	-10225
▁Müslüm	-10226
▁məktubu	-10227
miləş	-10228
▁veriblər	-10229
▁düşər	-10230
▁filminin	-10231
itiv	-10232
▁eşid	-10233
▁Dəhliz	-10234
▁alç	-10235
▁saxlaya	-10236
▁w	-10237
▁İmt	-10238
▁lis	-10239
▁ağıllı	-10240
▁ölkələrlə	-10241
udə	-10242
▁yas	-10243
▁məzmunu	-10244
▁tarixən	-10245
ətində	-10246
▁Ramazan	-10247
zam	-10248
▁Goran	-10249
▁plastik	-10250
▁ixtiyar	-10251
▁neqativ	-10252
▁Razılığa	-10253
▁Rzayev	-10254
▁savadlı	-10255
▁möhtərəm	-10256
▁tədbirlərə	-10257
▁dönəmində	-10258
▁Gədə	-10259
▁mövcudluğu	-10260
▁limanın	-10261
▁alınmışdır	-10262
EZ	-10263
▁yarımçıq	-10264
▁çatışmazlığı	-10265
▁qəsəbəsi	-10266
▁səslən	-10267
▁qəzəl	-10268
▁payı	-10269
▁Ermənistanı	-10270
▁Xəl	-10271
▁lək	-10272
▁ziddiyyət	-10273
▁ictimaiyyətinin	-10274
▁bilet	-10275
▁bildirmək	-10276
▁Fevr	-10277
duqları	-10278
▁Qubadlı	-10279
▁bəndə	-10280
ocalı	-10281
▁mahnısı	-10282
▁maşının	-10283
▁məkanda	-10284
itam	-10285
▁saxlayan	-10286
▁şagirdləri	-10287
viz	-10288
▁sülal	-10289
ero	-10290
anq	-10291
günə	-10292
▁tələbəsi	-10293
kam	-10294
kom	-10295
▁Müharibə	-10296
▁Nəsrəddin	-10297
▁sağlamlığı	-10298
▁Əsər	-10299
▁şərtləri	-10300
▁ədəbiyyata	-10301
▁nəsillərə	-10302
dirilməsinə	-10303
▁Kamran	-10304
Axund	-10305
əşəkkil	-10306
▁bacı	-10307
▁big	-10308
▁Saray	-10309
▁sayını	-10310
York	-10311
▁dünyasında	-10312
▁idarəçilik	-10313
erialı	-10314
▁nömrəsi	-10315
▁nəzarətdə	-10316
▁Qən	-10317
asiyaları	-10318
▁alətləri	-10319
▁tanınması	-10320
▁suallar	-10321
ındadır	-10322
▁ustası	-10323
Mir	-10324
Ən	-10325
▁uzaqlaş	-10326
▁məktəbləri	-10327
▁bəst	-10328
▁gətirilən	-10329
▁yayımlanan	-10330
▁yaralı	-10331
əşr	-10332
▁Bakıdakı	-10333
▁qəsdən	-10334
▁Lis	-10335
▁hazırdır	-10336
▁sırf	-10337
▁bildirirəm	-10338
▁düşünülmüş	-10339
era	-10340
▁məsələlərlə	-10341
▁temperaturu	-10342
▁meyar	-10343
▁Keçmiş	-10344
▁sanballı	-10345
ınca	-10346
▁Qaç	-10347
itter	-10348
▁müstəvidə	-10349
▁yürüt	-10350
▁buğ	-10351
▁suvarma	-10352
▁fəaliyyətindən	-10353
▁eləm	-10354
▁rəsmiləş	-10355
▁müşaviri	-10356
▁səhnəsində	-10357
rit	-10358
▁strategiyası	-10359
▁münasibətlərdə	-10360
Sən	-10361
xanlı	-10362
▁işıqlı	-10363
▁çıxışları	-10364
▁Əməl	-10365
▁mühərrik	-10366
▁filmdə	-10367
rol	-10368
▁Səhər	-10369
▁çəkilməsi	-10370
▁Portuq	-10371
UN	-10372
▁Zəngilan	-10373
▁romantik	-10374
bert	-10375
▁müharibədə	-10376
▁bulud	-10377
▁filmində	-10378
▁nomin	-10379
▁pulsuz	-10380
▁göndəril	-10381
▁saytında	-10382
▁Assambleyasının	-10383
əzz	-10384
▁Sor	-10385
ras	-10386
İst	-10387
Mədən	-10388
▁gözlənilən	-10389
▁işlədiyi	-10390
armon	-10391
▁danışarkən	-10392
▁fiq	-10393
▁Şəhr	-10394
▁bölmələri	-10395
ulması	-10396
▁durur	-10397
▁vul	-10398
▁timsalında	-10399
▁keyfiyyətinin	-10400
▁komandasının	-10401
▁təzyiqi	-10402
▁maye	-10403
▁oxuculara	-10404
Müs	-10405
andır	-10406
▁zərərçək	-10407
▁Kir	-10408
▁VI	-10409
▁qabiliyyət	-10410
▁etdirmişdir	-10411
▁arvadı	-10412
▁ruhunda	-10413
▁vətəndaşlıq	-10414
▁sərkərdə	-10415
▁sıradan	-10416
Ər	-10417
▁qoşunları	-10418
urum	-10419
üldü	-10420
▁aydan	-10421
▁Kəm	-10422
▁olmasıdır	-10423
▁təcrübəli	-10424
▁kanalizasiya	-10425
▁temp	-10426
▁Ön	-10427
▁Qay	-10428
misiniz	-10429
▁gözlə	-10430
▁adlarını	-10431
▁ayağa	-10432
▁başda	-10433
▁qabarıq	-10434
▁imiş	-10435
▁xoşbəxtlik	-10436
▁futbolçusu	-10437
madığı	-10438
▁fərd	-10439
▁yüksəliş	-10440
ision	-10441
▁qaydalara	-10442
▁qüvvədə	-10443
yaşlı	-10444
▁cərimə	-10445
▁hövz	-10446
▁Anadolu	-10447
rix	-10448
▁Araşdırmalar	-10449
▁düzən	-10450
▁rusiyalı	-10451
▁üzündə	-10452
▁xatirəsini	-10453
▁Proqramının	-10454
▁tərənn	-10455
▁dilin	-10456
Bay	-10457
usa	-10458
▁magistral	-10459
▁bilməyəcək	-10460
St	-10461
▁əlini	-10462
▁məntəqələri	-10463
asiyanı	-10464
▁gəlincə	-10465
▁doğrudan	-10466
▁neftin	-10467
▁Xoş	-10468
▁Bəhram	-10469
▁səbəblərdən	-10470
▁Statistika	-10471
▁çıl	-10472
urta	-10473
uç	-10474
▁yana	-10475
▁qorunmasına	-10476
▁illərlə	-10477
▁etməkdədir	-10478
▁möhkəmləndir	-10479
▁Dekabr	-10480
▁quruluşu	-10481
▁Bakıdan	-10482
▁təminatının	-10483
▁Elxan	-10484
ektron	-10485
▁çiyin	-10486
▁artill	-10487
Bİ	-10488
▁formalaşmasına	-10489
larıdır	-10490
?"	-10491
▁Şuranın	-10492
▁dövlətinə	-10493
▁Ordub	-10494
indədir	-10495
▁Viktor	-10496
▁Yolları	-10497
▁məsələsində	-10498
▁təmsilçiləri	-10499
rid	-10500
▁izləyic	-10501
amet	-10502
həm	-10503
▁ansambl	-10504
▁obrazını	-10505
▁Bunlardan	-10506
▁Fer	-10507
▁imi	-10508
▁yerləşdir	-10509
▁sinir	-10510
▁istehsalının	-10511
▁müqabil	-10512
▁etdiyiniz	-10513
eyli	-10514
CAR	-10515
▁Çıxış	-10516
▁abidələr	-10517
ümün	-10518
▁rəis	-10519
▁Talıb	-10520
▁qazın	-10521
▁şirkətlər	-10522
▁adamlarının	-10523
▁Şərqdə	-10524
▁jurnalistlər	-10525
▁əsrə	-10526
▁Ondan	-10527
▁eşidən	-10528
ılsa	-10529
▁Sa	-10530
iminin	-10531
▁uğurlara	-10532
▁AXC	-10533
▁Müğənni	-10534
▁görünüş	-10535
anınmış	-10536
▁Vaşinqton	-10537
▁obyektlərin	-10538
▁Karl	-10539
▁qəlbi	-10540
▁Trans	-10541
▁qatar	-10542
▁konfransı	-10543
▁Sak	-10544
▁Parisdə	-10545
sələr	-10546
ilərdə	-10547
ullayev	-10548
▁Hakimiyyəti	-10549
▁yaxşıdır	-10550
allar	-10551
▁publisistik	-10552
aqon	-10553
▁Yaşar	-10554
▁bizdən	-10555
▁hüz	-10556
▁vokal	-10557
▁olunmasının	-10558
unçu	-10559
kür	-10560
▁qaynar	-10561
!"	-10562
▁şeirlərində	-10563
▁Alt	-10564
▁Dir	-10565
▁çətinliklər	-10566
▁fizika	-10567
▁orkestr	-10568
▁VII	-10569
lüyündə	-10570
▁sa	-10571
▁Müzəffər	-10572
▁izləmək	-10573
▁İnsanlar	-10574
▁Brüs	-10575
▁yetirən	-10576
▁Qərarı	-10577
▁rəğmən	-10578
▁əlç	-10579
▁ses	-10580
▁yal	-10581
axçıvan	-10582
▁əməlləri	-10583
▁evləri	-10584
▁çərşən	-10585
abilit	-10586
▁toplaş	-10587
▁hay	-10588
▁istiqamətlərdə	-10589
▁mənfə	-10590
▁Məsələ	-10591
imark	-10592
At	-10593
▁pian	-10594
▁sənətin	-10595
▁yetişdir	-10596
▁tət	-10597
▁planet	-10598
▁kod	-10599
estri	-10600
▁şaxələn	-10601
▁zəngindir	-10602
adig	-10603
▁büruzə	-10604
▁məsələlərdə	-10605
əcik	-10606
▁Ail	-10607
▁oxumuş	-10608
▁cansağlığı	-10609
inski	-10610
bundan	-10611
ılmağa	-10612
▁müəllifidir	-10613
.”.	-10614
▁Na	-10615
test	-10616
▁infrastrukturun	-10617
idli	-10618
ÜRK	-10619
▁rəhbərinin	-10620
▁bilmirdi	-10621
▁paytaxtın	-10622
▁əngəl	-10623
▁məkanı	-10624
▁Paytaxt	-10625
▁pasport	-10626
▁dramaturq	-10627
▁ruhunu	-10628
▁qurucusu	-10629
▁əla	-10630
▁naməlum	-10631
▁mənasını	-10632
▁jurnalı	-10633
▁dözüm	-10634
▁Əsədov	-10635
▁süq	-10636
▁idmanın	-10637
▁Xəs	-10638
Xalq	-10639
deh	-10640
ital	-10641
▁milyonlarla	-10642
ğından	-10643
▁klinik	-10644
vanın	-10645
çüsü	-10646
icat	-10647
▁smartfon	-10648
▁Türkmənistan	-10649
▁analitik	-10650
sp	-10651
▁yaxındır	-10652
▁Goranboy	-10653
▁Avqust	-10654
▁Humanitar	-10655
▁Çempionlar	-10656
▁endir	-10657
▁obyektləri	-10658
▁keçdikcə	-10659
▁türkdilli	-10660
▁Tez	-10661
▁şifahi	-10662
▁Yasamal	-10663
▁yapon	-10664
ləriniz	-10665
▁mehman	-10666
▁stəkan	-10667
▁başlamaq	-10668
▁ehtiyatlarının	-10669
▁şöbəsinə	-10670
mişdim	-10671
▁Sk	-10672
▁iclasda	-10673
▁Bağırov	-10674
▁şərab	-10675
▁Rabitə	-10676
ursuz	-10677
▁vətəndaşlara	-10678
▁möcüz	-10679
▁sahəsindəki	-10680
▁sürən	-10681
▁Xorvat	-10682
▁şəbəkədə	-10683
▁istedadı	-10684
▁ekspertiz	-10685
▁ideyaları	-10686
▁borclu	-10687
▁belədir	-10688
▁Cen	-10689
▁artırılmasına	-10690
oza	-10691
ladan	-10692
XI	-10693
▁Litva	-10694
▁Norveç	-10695
adov	-10696
▁türb	-10697
▁Əvvəllər	-10698
▁Məmmədquluz	-10699
▁jurnalistik	-10700
▁ixtisaslı	-10701
▁ədliyyə	-10702
▁paylaşım	-10703
▁salınmış	-10704
▁əlaməti	-10705
▁texnologiya	-10706
▁Keçən	-10707
qr	-10708
▁Televiziya	-10709
▁atdığı	-10710
▁qayıdıb	-10711
▁sutka	-10712
ace	-10713
▁anasının	-10714
▁demokratiya	-10715
▁yaradıcılığını	-10716
▁BDU	-10717
▁Çal	-10718
▁sfer	-10719
▁İnkişafı	-10720
▁binaların	-10721
▁Polş	-10722
lülük	-10723
▁Nider	-10724
▁”	-10725
edilməz	-10726
▁Vəli	-10727
▁torpağın	-10728
▁İnternet	-10729
Əl	-10730
▁məharətlə	-10731
▁açmaq	-10732
aqnost	-10733
▁hamının	-10734
▁Müşfiq	-10735
▁quyu	-10736
▁qr	-10737
▁bölgə	-10738
▁səyləri	-10739
▁Ed	-10740
▁rub	-10741
▁dəstəsi	-10742
▁planlaşdırılır	-10743
ener	-10744
ləməsi	-10745
▁optimal	-10746
▁Ordu	-10747
▁böyrək	-10748
▁görkəm	-10749
▁səviyyəsindən	-10750
▁bölgənin	-10751
▁keyfiyyəti	-10752
▁Qran	-10753
▁müddətə	-10754
▁məscidi	-10755
▁zərif	-10756
:"	-10757
▁Beş	-10758
▁Əfqanıstan	-10759
▁müəssisəsinin	-10760
▁Kompleks	-10761
ein	-10762
▁Qax	-10763
▁edənlərin	-10764
▁vəziyyətini	-10765
▁Problem	-10766
▁Nigar	-10767
leytenant	-10768
▁qiymətləndirir	-10769
umunun	-10770
▁azaldır	-10771
▁sanitar	-10772
▁sakinlərinin	-10773
ruq	-10774
▁dənizinin	-10775
▁intihar	-10776
▁arzulayıram	-10777
▁ətrafındakı	-10778
▁Həmrəyliyi	-10779
▁dəb	-10780
çə	-10781
▁Flor	-10782
▁Oktyabrın	-10783
▁olmamış	-10784
▁üzərindəki	-10785
sam	-10786
ıltı	-10787
ümüzü	-10788
▁dialoqun	-10789
The	-10790
▁Yad	-10791
oğrul	-10792
▁ailəsinə	-10793
▁hərəkatının	-10794
ərincə	-10795
▁rəhbərlərinin	-10796
ansa	-10797
▁yarpaq	-10798
▁Səid	-10799
▁imzalanıb	-10800
pirant	-10801
▁həddindən	-10802
▁məqamlar	-10803
şək	-10804
▁əməkhaqq	-10805
▁opera	-10806
▁multikultural	-10807
edic	-10808
mamışdır	-10809
▁Tamaş	-10810
▁lif	-10811
▁tamaşaya	-10812
▁dib	-10813
▁sevir	-10814
▁Ənvər	-10815
▁yaradılmasının	-10816
▁qanı	-10817
▁musiqisinin	-10818
▁havada	-10819
▁mitinq	-10820
şt	-10821
▁davamçısı	-10822
▁başçıları	-10823
▁siyasətçi	-10824
▁Əsasnamə	-10825
ity	-10826
▁Tramp	-10827
▁içəri	-10828
▁dollara	-10829
ediy	-10830
▁cərrah	-10831
▁verin	-10832
▁verməklə	-10833
stanı	-10834
▁Cavanşir	-10835
əcəyəm	-10836
▁mübarizənin	-10837
▁kitabların	-10838
▁diqqətin	-10839
ont	-10840
ovski	-10841
ford	-10842
▁amillərdən	-10843
▁Əlavə	-10844
▁aşıl	-10845
▁Qida	-10846
▁Ankara	-10847
▁Far	-10848
▁hissləri	-10849
▁ölkədir	-10850
▁Qısa	-10851
▁İstintaq	-10852
▁səbəbini	-10853
uta	-10854
▁etmədən	-10855
▁Axundov	-10856
▁mahnıları	-10857
▁gəldiyini	-10858
▁prokurorluq	-10859
lanmışdır	-10860
▁əşyaları	-10861
▁partiyalar	-10862
▁binalar	-10863
▁Cəlilabad	-10864
▁sektoru	-10865
▁Agentliyin	-10866
eçen	-10867
▁Kil	-10868
▁liderimiz	-10869
▁abidələrin	-10870
▁büdcəsi	-10871
▁möhkəmlən	-10872
▁bölməsinin	-10873
▁iman	-10874
▁kommersiya	-10875
▁idarəsinin	-10876
▁qoyun	-10877
çülük	-10878
▁DİN	-10879
▁alındı	-10880
▁törədilmiş	-10881
▁vəhşilik	-10882
İDEN	-10883
əmizin	-10884
▁xəttinin	-10885
▁etik	-10886
▁şərəflə	-10887
asiyasında	-10888
▁Çay	-10889
EZİDEN	-10890
▁vanda	-10891
▁iradəsi	-10892
▁ehtiyatları	-10893
itur	-10894
▁anlayışı	-10895
▁razılığı	-10896
▁edildikdə	-10897
▁aralı	-10898
▁qalmışdı	-10899
▁Co	-10900
▁gətirə	-10901
▁İsveçrə	-10902
▁qardaşlıq	-10903
▁zaraf	-10904
Mənim	-10905
▁məqsədlər	-10906
Or	-10907
▁beşinci	-10908
▁Yenə	-10909
▁ailədə	-10910
▁oynadığı	-10911
essional	-10912
▁Könül	-10913
▁qoyuldu	-10914
▁qrupun	-10915
▁bənzərsiz	-10916
ydı	-10917
▁Dünən	-10918
dem	-10919
▁götürür	-10920
▁sərvəti	-10921
▁Vasif	-10922
▁Muğ	-10923
▁taxta	-10924
göl	-10925
▁Rəsmi	-10926
▁tapşırığı	-10927
▁yetərincə	-10928
▁təbiətin	-10929
▁Paşinyanın	-10930
▁əri	-10931
▁vurğulamaq	-10932
▁Respublikasına	-10933
▁görmə	-10934
üntü	-10935
▁ustalıq	-10936
▁həvəslə	-10937
▁edəcəyini	-10938
▁sənədin	-10939
▁zəlzələ	-10940
malıdırlar	-10941
jissor	-10942
adşah	-10943
▁keçirildiyi	-10944
▁məsələsini	-10945
▁Bankının	-10946
▁üçtərəfli	-10947
▁dəyişdirilməsi	-10948
▁Zaqafqaz	-10949
▁ailələri	-10950
▁hüququna	-10951
▁işlərində	-10952
iyyən	-10953
▁apardı	-10954
▁xarakterik	-10955
▁adlandırılan	-10956
▁şirkətlərinin	-10957
ropa	-10958
▁Tanınmış	-10959
EC	-10960
▁əsərdə	-10961
▁bəşəriyyətin	-10962
▁Cinayətlər	-10963
▁ermənilərə	-10964
▁Rəy	-10965
▁Sonradan	-10966
▁suya	-10967
▁hekayə	-10968
▁konstruk	-10969
▁imperiyasının	-10970
▁vətəndaşın	-10971
▁Nəb	-10972
▁rəvayət	-10973
▁aləmində	-10974
▁Əməliyyat	-10975
▁kifayətlən	-10976
▁kv	-10977
mərtəbəli	-10978
dirilmişdir	-10979
arkeş	-10980
▁sektorun	-10981
ordan	-10982
▁büdcəsindən	-10983
▁Ziy	-10984
▁ucald	-10985
▁daşnak	-10986
▁Məhkəməsi	-10987
▁uduz	-10988
▁mərhələyə	-10989
▁Aktyor	-10990
▁qeydiyyatı	-10991
Əli	-10992
▁olmuşlar	-10993
örf	-10994
çın	-10995
▁Liqası	-10996
▁Mədəni	-10997
▁oruc	-10998
▁Sentyabrın	-10999
▁kamera	-11000
▁Xankəndi	-11001
▁kiloqram	-11002
▁istismara	-11003
▁sənətinə	-11004
▁qalmışdır	-11005
▁qoşunlarının	-11006
cuq	-11007
▁mərkəzlərinin	-11008
▁çağırıb	-11009
cel	-11010
otek	-11011
▁Krem	-11012
skaya	-11013
▁yarandığı	-11014
▁cib	-11015
olist	-11016
▁Göründüyü	-11017
▁tələbat	-11018
Əh	-11019
▁Quran	-11020
▁İndiy	-11021
▁vətənə	-11022
▁təkam	-11023
▁tutmaq	-11024
▁Moskvaya	-11025
▁Babək	-11026
▁alacaq	-11027
▁gündür	-11028
osp	-11029
▁yetiril	-11030
larımızda	-11031
▁qoru	-11032
▁konser	-11033
▁həbsxan	-11034
▁ml	-11035
▁Qoşun	-11036
sixoloji	-11037
▁əlavələr	-11038
▁qoyulmuşdur	-11039
▁Əlaq	-11040
▁təsnifat	-11041
▁siyasətində	-11042
▁restor	-11043
▁qoymuşdur	-11044
▁sx	-11045
▁hücuma	-11046
▁fotoşəkil	-11047
▁iltihab	-11048
▁başlamışdı	-11049
▁minnətdarlığ	-11050
▁Üçüncü	-11051
▁PREZİDEN	-11052
▁edilməklə	-11053
▁prodüs	-11054
▁Kur	-11055
▁itkilər	-11056
▁rəssamın	-11057
amiz	-11058
▁bakt	-11059
Qaz	-11060
▁innovativ	-11061
▁Hamı	-11062
▁işlərlə	-11063
▁dəstəyini	-11064
▁Vahab	-11065
▁maqn	-11066
alınmaz	-11067
▁tərəfin	-11068
▁hallarının	-11069
▁söyləy	-11070
▁mənimlə	-11071
▁xaricdən	-11072
girdi	-11073
▁şagirdlər	-11074
▁tarixdən	-11075
▁əməliyyatlarına	-11076
▁sözünün	-11077
▁fotos	-11078
▁xərclər	-11079
▁Qaydaları	-11080
Son	-11081
▁Yazıçı	-11082
▁mərhəm	-11083
▁teatrının	-11084
▁qazanmışdır	-11085
▁nəfərlik	-11086
▁faciə	-11087
▁etməyib	-11088
▁Əliyevi	-11089
▁Faiq	-11090
▁yarımadasında	-11091
▁Kamil	-11092
▁qarşılanıb	-11093
▁qrupuna	-11094
istifadə	-11095
▁hüquqlarını	-11096
▁Soveti	-11097
▁intizam	-11098
▁publisist	-11099
▁kəndləri	-11100
▁Atası	-11101
▁məqamı	-11102
▁torpaqlarını	-11103
lüklə	-11104
▁mol	-11105
▁valideynləri	-11106
▁sənətə	-11107
▁İnqilab	-11108
▁modelinin	-11109
▁bomb	-11110
▁dəlil	-11111
▁Şübhəsiz	-11112
▁həmrəylik	-11113
▁vurğulanıb	-11114
zi	-11115
götür	-11116
▁ölkəsində	-11117
▁Tən	-11118
▁dır	-11119
▁Gimn	-11120
▁birliyinin	-11121
▁Div	-11122
▁köklü	-11123
oport	-11124
▁balet	-11125
▁immunitet	-11126
▁Qac	-11127
▁Elmar	-11128
▁kəsiş	-11129
▁fərqi	-11130
▁gedirdi	-11131
alim	-11132
▁Sabunçu	-11133
▁istehsalat	-11134
iqlal	-11135
▁qılınc	-11136
▁atəşkəs	-11137
▁miqyaslı	-11138
▁Naxçıvanın	-11139
▁çalışırıq	-11140
▁müdafiəsinin	-11141
▁Fəxr	-11142
▁vüsət	-11143
ısının	-11144
▁islahatları	-11145
ira	-11146
lisi	-11147
İl	-11148
▁nisbət	-11149
lul	-11150
▁otuz	-11151
▁Şura	-11152
▁qətl	-11153
çiliyin	-11154
▁Məcnun	-11155
▁binasında	-11156
▁şagirdi	-11157
▁Ob	-11158
▁satın	-11159
his	-11160
ücum	-11161
soy	-11162
▁gener	-11163
▁müraciəti	-11164
▁tanıyan	-11165
▁Gədəbəy	-11166
▁etməlidirlər	-11167
▁sənətçi	-11168
Report	-11169
▁qazanır	-11170
▁Hüquqları	-11171
▁maraqlarının	-11172
asion	-11173
lərinizi	-11174
▁Opera	-11175
▁deyərlər	-11176
▁tikintisinə	-11177
▁dəstəklənməsi	-11178
ılmır	-11179
▁istehsalçı	-11180
▁oynamışdır	-11181
▁söndür	-11182
▁şəbəkəsi	-11183
▁əhəmiyyətindən	-11184
müşdü	-11185
▁Salyan	-11186
▁əsilli	-11187
▁Qab	-11188
▁Qr	-11189
▁qoruyur	-11190
erk	-11191
▁Paşayev	-11192
▁talan	-11193
▁tapşırıqlar	-11194
▁Qanunu	-11195
▁sind	-11196
▁sərhədləri	-11197
▁energetika	-11198
▁tətbiqinə	-11199
▁cavabı	-11200
▁göstərilib	-11201
▁Elmir	-11202
▁yenicə	-11203
▁Bayr	-11204
▁standartlarına	-11205
▁imkanlarından	-11206
▁dedikdə	-11207
mamalıdır	-11208
▁səfirliyinin	-11209
▁horm	-11210
▁məntəqələrində	-11211
▁xidmətlərindən	-11212
▁Qərbin	-11213
▁genetik	-11214
▁təməli	-11215
▁tale	-11216
yoru	-11217
▁Eləcə	-11218
▁Namiq	-11219
▁Şəhərin	-11220
▁müharibəyə	-11221
▁sahələrin	-11222
▁süfr	-11223
▁müsabiqənin	-11224
▁rastlaş	-11225
▁faktları	-11226
▁tarixlərində	-11227
▁Nümayəndə	-11228
▁sözündən	-11229
▁Qəhrəman	-11230
▁dolaş	-11231
▁Memorand	-11232
vay	-11233
▁PREZİDENTİNİN	-11234
▁ekstr	-11235
▁ara	-11236
▁yerlərə	-11237
▁kubok	-11238
orasiya	-11239
siklopediy	-11240
▁məzmunda	-11241
▁müəssisələrinə	-11242
▁ərazilərinin	-11243
axan	-11244
▁şahzadə	-11245
▁profilaktik	-11246
ribun	-11247
▁Yek	-11248
dular	-11249
▁məmlək	-11250
▁menec	-11251
▁epid	-11252
ıqlı	-11253
laması	-11254
▁Salman	-11255
ümkün	-11256
▁anam	-11257
▁qast	-11258
ələrimiz	-11259
▁dediyinə	-11260
quruculuq	-11261
▁hadisəni	-11262
▁bunuTrend	-11263
▁həqiqətləri	-11264
▁qabiliyyətinin	-11265
▁əyal	-11266
onik	-11267
Əgər	-11268
ger	-11269
▁ocağı	-11270
▁nəyi	-11271
▁İrana	-11272
▁inşaat	-11273
▁illərindən	-11274
eyhan	-11275
▁hədis	-11276
▁sarsı	-11277
ora	-11278
uslar	-11279
▁TÜRK	-11280
ularaq	-11281
▁xörək	-11282
▁kəndinə	-11283
ket	-11284
ekvat	-11285
▁gəmi	-11286
nəqliyyat	-11287
▁yaratmış	-11288
▁tədqiqatların	-11289
▁nazirin	-11290
▁məqaləsində	-11291
▁avtomobilin	-11292
Gün	-11293
▁kəndindən	-11294
▁Dəy	-11295
▁referend	-11296
aması	-11297
▁dramaturg	-11298
▁vəzifəyə	-11299
▁ortalarında	-11300
gahı	-11301
təsi	-11302
▁texnikası	-11303
▁etmişdilər	-11304
▁müharibədən	-11305
▁aşiq	-11306
▁kubmetr	-11307
▁Adət	-11308
▁hotel	-11309
▁üzvüdür	-11310
▁müsabiqəsinin	-11311
▁quruluşçu	-11312
▁Xüsusən	-11313
▁ayrılır	-11314
▁jurnalistika	-11315
biz	-11316
ılmamış	-11317
Əsrin	-11318
▁mütali	-11319
▁sürgün	-11320
▁Konf	-11321
İnsan	-11322
▁So	-11323
▁elmə	-11324
▁Məlumdur	-11325
▁sifarişi	-11326
▁transfer	-11327
edmet	-11328
▁Prot	-11329
çulu	-11330
▁Şurasına	-11331
▁kölg	-11332
▁azalması	-11333
istanda	-11334
▁Zülf	-11335
▁çimər	-11336
▁seçimi	-11337
▁qaldığı	-11338
aliləri	-11339
▁almışdı	-11340
▁nüfuzu	-11341
▁Ramil	-11342
▁məskən	-11343
▁Məqsəd	-11344
▁Dəstəyi	-11345
▁sars	-11346
▁köməy	-11347
▁törədilən	-11348
▁nəsli	-11349
▁Layihənin	-11350
▁did	-11351
▁zülm	-11352
▁mütəşəkkil	-11353
▁baxanda	-11354
▁Məni	-11355
▁Ərz	-11356
elli	-11357
▁tamaşaçılar	-11358
berq	-11359
▁kadrlar	-11360
▁muzeyin	-11361
▁qurğ	-11362
▁Cəmil	-11363
azi	-11364
rus	-11365
TV	-11366
▁Qüvvələrin	-11367
▁laq	-11368
▁verdilər	-11369
eber	-11370
▁artımı	-11371
▁Pros	-11372
▁humanist	-11373
▁birinc	-11374
ARI	-11375
▁etiq	-11376
▁Gələcək	-11377
əngiz	-11378
▁gücünə	-11379
▁çıxarılıb	-11380
▁təmizləmə	-11381
▁rüşvət	-11382
oma	-11383
▁Radio	-11384
▁hərəkətlər	-11385
▁vurur	-11386
▁başlanğıcı	-11387
▁Zirvə	-11388
▁məzmunlu	-11389
▁Ül	-11390
mamışdı	-11391
▁gəlişi	-11392
▁olma	-11393
▁qarac	-11394
ms	-11395
vili	-11396
▁qoyulur	-11397
▁Əsgərov	-11398
▁Noyabrın	-11399
▁başlanıb	-11400
Öz	-11401
aqram	-11402
▁içinə	-11403
▁çatdıran	-11404
▁Anton	-11405
kommunikasiya	-11406
▁çatdırır	-11407
▁çəki	-11408
▁öp	-11409
▁əlaqədə	-11410
▁həkimlər	-11411
day	-11412
▁Hüseynova	-11413
▁göstərərək	-11414
▁şou	-11415
▁üstündən	-11416
▁Zati	-11417
pressiy	-11418
▁bədbəxt	-11419
falt	-11420
▁Şükür	-11421
irli	-11422
▁şamil	-11423
▁mənalı	-11424
malarına	-11425
▁vəzifələrdən	-11426
çiyə	-11427
raj	-11428
▁SO	-11429
lardakı	-11430
▁yolundan	-11431
▁bəstəl	-11432
▁yolların	-11433
eviç	-11434
▁təşəkkül	-11435
▁bioloji	-11436
▁gəlmir	-11437
▁vəsiqə	-11438
Xocalı	-11439
▁Mod	-11440
▁studiy	-11441
▁daşınmaz	-11442
▁göndərilən	-11443
▁Vilayət	-11444
▁vil	-11445
▁istədiyini	-11446
ept	-11447
▁edirsiniz	-11448
▁Səs	-11449
▁predmet	-11450
▁tanışlıq	-11451
aqdan	-11452
▁Cavidin	-11453
▁məbləğdə	-11454
▁şeirlərini	-11455
▁Öndərin	-11456
ağım	-11457
▁rez	-11458
▁dövriyyəsi	-11459
▁müəllimləri	-11460
ssar	-11461
▁Gözəl	-11462
▁Konsert	-11463
▁minməsi	-11464
▁sayında	-11465
seçkil	-11466
▁ordunun	-11467
▁Ağam	-11468
bəşəri	-11469
ğına	-11470
▁Geor	-11471
▁Fərid	-11472
▁həmiş	-11473
▁gözəlliyi	-11474
uel	-11475
▁səhifələrində	-11476
▁hərbçilər	-11477
▁şəhərləri	-11478
▁jurnalında	-11479
▁nəticələrə	-11480
▁Ukraynada	-11481
arıstanın	-11482
▁ölkələrinə	-11483
▁söyləyən	-11484
▁Od	-11485
▁müqabilində	-11486
▁əsərini	-11487
▁qızdır	-11488
AB	-11489
▁xoşməramlı	-11490
▁harmon	-11491
▁müddətli	-11492
risi	-11493
▁Qış	-11494
▁mühitə	-11495
ünd	-11496
vard	-11497
▁aspirant	-11498
▁hərəkətə	-11499
▁piy	-11500
▁qadınlara	-11501
▁Maraqlıdır	-11502
▁bölüşüb	-11503
▁təşkilinə	-11504
ƏM	-11505
irəs	-11506
▁torpaqlarımızı	-11507
ilov	-11508
▁Balak	-11509
▁Mahnı	-11510
▁kitabını	-11511
▁həddən	-11512
▁Mari	-11513
▁Mayın	-11514
▁əlamətləri	-11515
▁seçilmişdir	-11516
▁Ac	-11517
▁Şöbəsinin	-11518
▁oyunda	-11519
▁hazırlanmışdır	-11520
▁Vurğun	-11521
▁heyətində	-11522
▁market	-11523
aşı	-11524
▁zərərsiz	-11525
lərdəki	-11526
lərimizdən	-11527
▁repertuar	-11528
ulan	-11529
▁Sözü	-11530
▁utan	-11531
▁metodik	-11532
▁mahnılar	-11533
oj	-11534
verdi	-11535
▁mənims	-11536
▁Putin	-11537
▁əhəmiyyətlidir	-11538
ronun	-11539
abul	-11540
▁valideynlər	-11541
▁sərgidə	-11542
▁filmləri	-11543
___	-11544
umda	-11545
▁biç	-11546
▁məsafədə	-11547
uan	-11548
yət	-11549
▁tanıyır	-11550
▁zəlzəl	-11551
▁yubileyinə	-11552
▁səlahiyyətləri	-11553
agəl	-11554
▁əmlakın	-11555
ational	-11556
▁Kiş	-11557
▁dev	-11558
▁çıxardı	-11559
▁görüşləri	-11560
▁Qırğızıstan	-11561
▁şəbəkəsinin	-11562
▁festivalı	-11563
ld	-11564
▁mənafey	-11565
▁sənədi	-11566
▁Hacıbəylinin	-11567
▁Şar	-11568
▁doğulub	-11569
▁başlaması	-11570
eta	-11571
▁əcnəb	-11572
ızın	-11573
orit	-11574
eatra	-11575
▁fakültəsində	-11576
▁kursu	-11577
▁tərəfdarı	-11578
▁əməkdaşlığ	-11579
▁havanın	-11580
▁Məcəl	-11581
▁Filmin	-11582
▁getdiyi	-11583
▁yaradıcısı	-11584
▁maarifləndirmə	-11585
qo	-11586
usundan	-11587
▁yüksəldil	-11588
▁mina	-11589
▁yönəlt	-11590
▁külli	-11591
▁rayonuna	-11592
▁xüsusiyyəti	-11593
▁Tat	-11594
hum	-11595
▁Ömr	-11596
▁soyqırımının	-11597
▁üzr	-11598
▁dünyasına	-11599
▁gücləndirmək	-11600
▁həddi	-11601
▁bacaran	-11602
▁sövq	-11603
namənin	-11604
▁Sığ	-11605
▁əsn	-11606
▁tele	-11607
▁qələbəsi	-11608
▁sı	-11609
ne	-11610
▁Aqil	-11611
çisinin	-11612
▁probleminin	-11613
▁növlərinin	-11614
▁yaddaq	-11615
▁imperator	-11616
üklü	-11617
▁azarkeş	-11618
larındakı	-11619
▁yumurt	-11620
▁Musiqili	-11621
▁tərənnüm	-11622
▁keyfiyyətləri	-11623
▁Rəyasət	-11624
▁saldı	-11625
▁dövlətimiz	-11626
▁meyit	-11627
▁Xuda	-11628
▁verdim	-11629
▁nəcib	-11630
▁geridə	-11631
▁şəhidi	-11632
▁İkin	-11633
▁Camal	-11634
▁Qardaş	-11635
▁gedəndə	-11636
▁nailiyyətləri	-11637
▁qətiyyən	-11638
▁nəzəriyyəsi	-11639
idan	-11640
▁simvol	-11641
▁İçərişəhər	-11642
ənf	-11643
▁makro	-11644
lanırdı	-11645
▁hadisədir	-11646
▁göstərməsi	-11647
▁məl	-11648
▁insanlardan	-11649
▁arı	-11650
▁nəticələrinin	-11651
imlə	-11652
▁deyəndə	-11653
▁məşğulluq	-11654
▁münasibətini	-11655
▁Güney	-11656
lərindəndir	-11657
▁Şəf	-11658
rli	-11659
▁güvən	-11660
▁hərəkatı	-11661
▁kolleksiy	-11662
əxminən	-11663
▁əbədiləş	-11664
▁fərqlənən	-11665
▁Sülh	-11666
▁jurnalistlərə	-11667
▁konv	-11668
▁qərəzli	-11669
▁çalışdığı	-11670
▁halına	-11671
▁Türkiyədən	-11672
əsuvar	-11673
▁norma	-11674
▁ləq	-11675
eytun	-11676
▁artaraq	-11677
▁əminəm	-11678
▁Miq	-11679
aşırı	-11680
▁xəbərlər	-11681
▁çoxları	-11682
atıcı	-11683
▁rekord	-11684
cin	-11685
rəng	-11686
▁icbari	-11687
▁törətdikləri	-11688
ağıl	-11689
▁jpg	-11690
▁qurur	-11691
düş	-11692
çika	-11693
▁Pap	-11694
▁Səfəvi	-11695
onda	-11696
▁Liqasında	-11697
▁ard	-11698
▁Polad	-11699
ilərindən	-11700
▁verdiyimiz	-11701
ilərlə	-11702
▁kasıb	-11703
▁buradan	-11704
▁təqdirəlayiq	-11705
▁qonaqları	-11706
▁zorla	-11707
▁Sosialist	-11708
▁cənn	-11709
▁Rəhimov	-11710
▁gər	-11711
▁tərəfinin	-11712
ER	-11713
▁hazırlayır	-11714
▁Qurult	-11715
▁Xos	-11716
arselona	-11717
▁qəm	-11718
▁vəzifələrini	-11719
▁dəyişikliklərin	-11720
▁Mehman	-11721
▁platfor	-11722
əmlək	-11723
Həsən	-11724
▁Ye	-11725
▁körpə	-11726
▁uzaqlaşdır	-11727
▁kontekstində	-11728
oçu	-11729
▁etdirməyə	-11730
▁qızlar	-11731
▁cərəy	-11732
▁tütün	-11733
▁çirkin	-11734
atr	-11735
▁publik	-11736
▁infrastrukturu	-11737
dal	-11738
▁ayaqqab	-11739
▁Dev	-11740
▁yerlər	-11741
Tur	-11742
▁zəb	-11743
▁Şuşaya	-11744
▁Maks	-11745
▁müharibəsindən	-11746
▁Xətalar	-11747
▁öyrənir	-11748
qızı	-11749
uşa	-11750
quliyev	-11751
▁əxlaqi	-11752
old	-11753
▁hamımız	-11754
▁qül	-11755
▁doktorluq	-11756
▁proqramına	-11757
ress	-11758
▁Sib	-11759
▁alınmasına	-11760
▁problemlərini	-11761
▁Arzu	-11762
▁təhrif	-11763
▁ayrılması	-11764
▁yapış	-11765
▁Tbilisi	-11766
▁xətləri	-11767
kredit	-11768
▁ümumən	-11769
▁xatırladır	-11770
Molla	-11771
▁İndon	-11772
Hac	-11773
▁coş	-11774
əttar	-11775
▁Akademiyasında	-11776
urdular	-11777
▁faşist	-11778
▁sərişt	-11779
▁əsrdən	-11780
▁Qadınlar	-11781
▁təşkilatlarda	-11782
hi	-11783
çunun	-11784
▁fəlakət	-11785
▁Qobustan	-11786
▁yaranmışdır	-11787
▁Do	-11788
▁yetirib	-11789
▁qarşıdakı	-11790
▁bakal	-11791
▁ömrünü	-11792
▁dayanıb	-11793
▁Rusiyadan	-11794
əliyə	-11795
▁Səbail	-11796
▁Şəhidlər	-11797
▁dünyadan	-11798
▁Dmit	-11799
▁əsaslanaraq	-11800
▁məd	-11801
▁boya	-11802
▁Korey	-11803
Xəzər	-11804
▁ödəyic	-11805
▁Res	-11806
▁spirt	-11807
▁həzm	-11808
▁Məmmədə	-11809
▁tor	-11810
▁Müsahib	-11811
ituriyent	-11812
▁söyləmək	-11813
▁dəftər	-11814
▁Rejissor	-11815
▁ünvanı	-11816
▁yaşayırlar	-11817
▁verilməsini	-11818
▁neç	-11819
pressiya	-11820
▁Muzeyində	-11821
▁ideologiy	-11822
▁Bütöv	-11823
▁amili	-11824
▁etməz	-11825
▁çıxara	-11826
▁yumurta	-11827
▁Sədr	-11828
▁depar	-11829
▁magistr	-11830
▁əzbər	-11831
ləşdirən	-11832
▁olmaqdan	-11833
▁Argent	-11834
▁istədi	-11835
inində	-11836
▁karboh	-11837
▁cavabdeh	-11838
▁Lid	-11839
▁məsafə	-11840
ƏD	-11841
▁vilayətində	-11842
▁hesablam	-11843
▁Nazirliyin	-11844
▁möhür	-11845
▁Sabirabad	-11846
▁illərinin	-11847
təs	-11848
azil	-11849
▁edirdim	-11850
▁nöqteyi	-11851
eqraf	-11852
▁Mariya	-11853
▁məfkur	-11854
▁baxan	-11855
▁bahalı	-11856
▁Azadlıq	-11857
▁sərh	-11858
▁Danimark	-11859
▁komandanın	-11860
▁yeniliklər	-11861
▁asfalt	-11862
▁oxumağa	-11863
aqa	-11864
▁zirvəsinə	-11865
▁aktı	-11866
▁düşməni	-11867
▁vurğulayır	-11868
▁ağsaqqal	-11869
▁solist	-11870
▁toxunan	-11871
▁mənimsən	-11872
▁Köç	-11873
▁layihəsini	-11874
▁Rumıniya	-11875
▁həcmində	-11876
▁ümumxalq	-11877
əyiniz	-11878
əyindən	-11879
▁yüzil	-11880
▁didərgin	-11881
▁qəfil	-11882
▁Serbiya	-11883
▁faizə	-11884
▁Allahdan	-11885
▁gözlərini	-11886
▁rayonlarının	-11887
▁oğluna	-11888
Baş	-11889
aza	-11890
▁ind	-11891
▁etdirərək	-11892
▁varis	-11893
▁nüfuzunun	-11894
ılı	-11895
▁hakimiyyətin	-11896
▁insani	-11897
▁yaradılmasını	-11898
bəl	-11899
▁polit	-11900
▁uzat	-11901
▁sürüş	-11902
▁peyk	-11903
▁Aleks	-11904
▁Fəaliyyət	-11905
elen	-11906
▁atmosfer	-11907
▁Afrik	-11908
▁yeniyetmə	-11909
____________	-11910
▁bün	-11911
iqat	-11912
əqət	-11913
▁Komissiyanın	-11914
imov	-11915
▁birləşdirir	-11916
▁xadimlərinin	-11917
els	-11918
iyan	-11919
▁Təz	-11920
▁Xanım	-11921
▁görünt	-11922
arkis	-11923
▁şeyə	-11924
▁sayına	-11925
▁ağrısı	-11926
▁Kitabda	-11927
▁günahsız	-11928
oban	-11929
▁ərazinin	-11930
▁komissiya	-11931
▁Sevinc	-11932
▁tərəfdə	-11933
▁söylədiyi	-11934
avuş	-11935
▁üzvlərinə	-11936
ıncaq	-11937
▁borcunu	-11938
▁qapısı	-11939
▁Amerikada	-11940
▁quraşdırılıb	-11941
tiq	-11942
▁Tacik	-11943
▁soydaşlarımızın	-11944
▁yanaşır	-11945
▁Bunların	-11946
▁proseslərə	-11947
▁Bos	-11948
▁göndərir	-11949
▁Atam	-11950
▁nazirlik	-11951
▁irsin	-11952
▁fabrik	-11953
▁Of	-11954
▁İclas	-11955
▁mənzərə	-11956
▁Krım	-11957
▁xitam	-11958
▁səciyyəvi	-11959
▁rolunun	-11960
ehli	-11961
▁gülüş	-11962
▁paylaşıb	-11963
▁sehr	-11964
▁boşluq	-11965
▁aktları	-11966
diklərinə	-11967
▁sükut	-11968
▁bilməsi	-11969
▁təcəssüm	-11970
aşov	-11971
▁Müəyyən	-11972
▁işləmişdir	-11973
▁ruhuna	-11974
Uşaq	-11975
erler	-11976
▁görüləcək	-11977
▁Bəhr	-11978
lüyünə	-11979
▁departament	-11980
▁Biznes	-11981
▁yerlik	-11982
alam	-11983
▁XVI	-11984
▁boz	-11985
▁bilmədiyi	-11986
▁əzəl	-11987
▁tutacaq	-11988
▁Yuxarıda	-11989
▁vitamini	-11990
▁ekspertlər	-11991
▁qiymətləndirmə	-11992
▁alma	-11993
▁surs	-11994
staqram	-11995
▁götürülmüş	-11996
oman	-11997
agəlməz	-11998
əbbəti	-11999
nu	-12000
minə	-12001
▁xəbərsiz	-12002
▁Məcid	-12003
▁həmvətən	-12004
əkli	-12005
▁qoca	-12006
▁ölməz	-12007
▁dolayı	-12008
ibəy	-12009
▁Corc	-12010
▁Filarmon	-12011
▁yararsız	-12012
▁artilleriya	-12013
▁cüml	-12014
▁tənəzz	-12015
▁Gəncəvinin	-12016
▁tanrı	-12017
▁Rayonun	-12018
▁bəstəkarın	-12019
▁ağlı	-12020
▁bölməsi	-12021
▁nəticəyə	-12022
təpə	-12023
▁Qüd	-12024
▁Bədə	-12025
▁Dövlətin	-12026
▁rayonları	-12027
AY	-12028
umuzu	-12029
▁çağırır	-12030
oper	-12031
dəbi	-12032
▁söyləmiş	-12033
orun	-12034
▁yaddaqalan	-12035
SOY	-12036
▁ünvanına	-12037
▁Sağlam	-12038
▁deyərək	-12039
▁yüksəkdir	-12040
▁baxdı	-12041
▁Şəhriyar	-12042
əffüs	-12043
▁savad	-12044
▁başdan	-12045
▁köməklik	-12046
ate	-12047
▁abidələrinin	-12048
maddi	-12049
təraş	-12050
▁yumşaq	-12051
▁dez	-12052
▁təhsilinin	-12053
Əmək	-12054
▁zamanında	-12055
▁aşkarlanıb	-12056
İr	-12057
▁daima	-12058
▁razılığa	-12059
▁sözlərindən	-12060
▁sakinlərin	-12061
undakı	-12062
▁Güm	-12063
▁sap	-12064
▁işlədil	-12065
▁ölkədəki	-12066
▁diy	-12067
▁kosm	-12068
umental	-12069
▁qatılan	-12070
▁yaşad	-12071
▁göndərdiyi	-12072
▁Artur	-12073
salma	-12074
▁potensialını	-12075
Sev	-12076
▁xarab	-12077
▁olmasaydı	-12078
▁yoluxanların	-12079
▁Sonrakı	-12080
zət	-12081
publis	-12082
▁mill	-12083
▁şeyin	-12084
▁Eht	-12085
▁obrazlar	-12086
▁məxsusdur	-12087
▁Van	-12088
.”	-12089
▁ayın	-12090
▁məqalələri	-12091
▁teatrda	-12092
▁zəbt	-12093
▁aləmi	-12094
▁görürəm	-12095
▁taleyini	-12096
▁Cəmiyyətin	-12097
▁Cəbh	-12098
▁ümumbəşəri	-12099
▁özümə	-12100
▁professional	-12101
▁ta	-12102
▁Başq	-12103
▁yoldan	-12104
▁italyan	-12105
▁aparılmasına	-12106
▁arası	-12107
▁etmələri	-12108
▁müzakirəsi	-12109
▁QƏR	-12110
▁sübuta	-12111
▁liberal	-12112
▁göndərilir	-12113
▁Məqal	-12114
oyunlu	-12115
▁halal	-12116
▁Astara	-12117
▁içki	-12118
▁vasitələrdən	-12119
▁gözdən	-12120
▁sahələrinə	-12121
▁oynadı	-12122
sovet	-12123
tarix	-12124
antı	-12125
▁ezam	-12126
▁vaxtından	-12127
▁şirkətlərin	-12128
▁götürül	-12129
▁bilmədiy	-12130
Qəb	-12131
iliyinə	-12132
▁müddətdən	-12133
▁Turan	-12134
▁Qriq	-12135
▁vir	-12136
▁zəman	-12137
▁basdır	-12138
▁ustalıqla	-12139
▁sov	-12140
▁fakültəsinə	-12141
▁Hüseynovun	-12142
▁Dağıstan	-12143
▁çıxarılan	-12144
▁Tədbirin	-12145
▁etməm	-12146
▁dua	-12147
▁oxuduğu	-12148
▁düç	-12149
▁Aprelin	-12150
▁yazmağa	-12151
▁Haq	-12152
▁simpoz	-12153
ultikulturalizm	-12154
▁Qədir	-12155
▁yarana	-12156
▁binada	-12157
▁aqres	-12158
▁yaşlarından	-12159
▁stansiyası	-12160
COVID	-12161
▁Qoru	-12162
mələrinə	-12163
iversal	-12164
▁rəsmiləri	-12165
▁Festivalı	-12166
▁artmışdır	-12167
alma	-12168
▁Brüssel	-12169
▁başlayacaq	-12170
▁(“	-12171
▁qırx	-12172
▁tutulmuşdur	-12173
əkimi	-12174
▁görməyə	-12175
▁Hen	-12176
▁məhəbbəti	-12177
▁Koronavirus	-12178
cadan	-12179
▁pandemiyası	-12180
▁mühitdə	-12181
ərgiz	-12182
▁Nazirliyində	-12183
▁İpək	-12184
▁xəstələrin	-12185
▁adekvat	-12186
▁başçılarının	-12187
▁itirib	-12188
▁söyləyir	-12189
▁Ger	-12190
açıb	-12191
▁latın	-12192
▁olduqdan	-12193
▁Həqiqətən	-12194
▁pozulmasına	-12195
▁Əfqanı	-12196
naməsinin	-12197
▁qazanılan	-12198
▁yerləşdirilməsi	-12199
İran	-12200
▁olsaydı	-12201
▁qaydasında	-12202
bəylinin	-12203
▁hid	-12204
▁xatırlayır	-12205
▁diqqətli	-12206
▁etdiyinə	-12207
▁yaşaması	-12208
▁köçürülməsi	-12209
▁suda	-12210
▁qərarların	-12211
fur	-12212
▁arayış	-12213
▁Tr	-12214
Naxçıvan	-12215
▁aktyoru	-12216
▁Quliyevin	-12217
▁Diplom	-12218
▁sözlərin	-12219
▁müəssisələr	-12220
▁Nəzarət	-12221
▁Onda	-12222
▁parlamentin	-12223
amin	-12224
▁rifahının	-12225
▁Bək	-12226
▁xatirələri	-12227
▁minik	-12228
▁proqramların	-12229
dərə	-12230
isiniz	-12231
▁qurbanı	-12232
▁səfərləri	-12233
▁mütəfəkkir	-12234
▁cəbhədə	-12235
▁irəliləyiş	-12236
allah	-12237
▁Cari	-12238
▁mənbə	-12239
▁Biləsuvar	-12240
▁Yaponiyanın	-12241
▁Adətən	-12242
▁tapan	-12243
▁yaşadan	-12244
▁gətirilməsi	-12245
▁irad	-12246
▁Vüsal	-12247
▁Diaspor	-12248
▁münsif	-12249
▁festivalın	-12250
ecər	-12251
Dağ	-12252
▁Arxe	-12253
▁dür	-12254
▁axının	-12255
▁sürdüyü	-12256
▁müstəmlək	-12257
əsih	-12258
▁kinost	-12259
▁Zeynalov	-12260
▁Yunus	-12261
Qərb	-12262
ella	-12263
▁səliq	-12264
▁qonaqpərvər	-12265
linə	-12266
▁yazmışdır	-12267
irəsalınmaz	-12268
▁yarp	-12269
▁dilləri	-12270
▁fenomen	-12271
▁qərarın	-12272
▁Valideyn	-12273
▁ve	-12274
▁addımları	-12275
▁mənbələri	-12276
▁lentə	-12277
▁İlahi	-12278
▁keçmişdir	-12279
▁şərtlər	-12280
▁İkincisi	-12281
▁məqsədəuyğun	-12282
▁epizod	-12283
▁yaşayırdı	-12284
DM	-12285
Təhsil	-12286
▁xeyrinə	-12287
▁Nəsib	-12288
▁azyaşlı	-12289
▁kommunist	-12290
▁konfransın	-12291
▁parlamentinin	-12292
▁keçə	-12293
▁aksiy	-12294
▁etdiklərini	-12295
▁sahibkarların	-12296
▁çin	-12297
▁önəmlidir	-12298
mələrini	-12299
▁plen	-12300
▁çatmış	-12301
▁ərazilərə	-12302
umuza	-12303
▁Vaxtilə	-12304
▁dirijor	-12305
▁Elektrik	-12306
▁yaradılmasında	-12307
eksiyası	-12308
▁Kitabın	-12309
SC	-12310
▁daşınması	-12311
▁istiqamətlər	-12312
▁münasibətlərini	-12313
▁başladım	-12314
▁əmanət	-12315
▁əyləncə	-12316
▁varlığı	-12317
▁kifayətdir	-12318
lic	-12319
▁Rüstəmov	-12320
▁planları	-12321
▁bunlardan	-12322
▁tanıdılması	-12323
▁muzeyi	-12324
▁şöbəsində	-12325
▁getməyə	-12326
▁olunsun	-12327
▁oynamaq	-12328
▁yayılmışdır	-12329
▁Şamil	-12330
▁hüdudlarından	-12331
nyaz	-12332
▁hamil	-12333
polkovnik	-12334
madağın	-12335
▁müəllimə	-12336
▁şeylər	-12337
▁şairlər	-12338
▁yaralanıb	-12339
dirə	-12340
▁IS	-12341
▁Bildirilir	-12342
▁düçar	-12343
▁Behbud	-12344
▁hadisələrdən	-12345
▁pir	-12346
▁müqəd	-12347
▁bildirərək	-12348
▁Müstəqillik	-12349
▁kəndə	-12350
▁çatmışdır	-12351
▁verilməsinə	-12352
lant	-12353
▁tikilən	-12354
▁Say	-12355
▁tribun	-12356
▁incəsənəti	-12357
urovision	-12358
duqca	-12359
▁binaları	-12360
▁tamaşaçıların	-12361
▁söykənən	-12362
▁Sh	-12363
▁arada	-12364
ahidi	-12365
lanmasına	-12366
müdafiə	-12367
▁qazana	-12368
▁Madr	-12369
▁niyyəti	-12370
▁dinləyic	-12371
▁kas	-12372
▁payına	-12373
▁yazılır	-12374
▁Moskvanın	-12375
▁səfirliyi	-12376
rüb	-12377
idarə	-12378
▁cazib	-12379
▁Kürdəmir	-12380
BC	-12381
▁bələdiyyəsi	-12382
isən	-12383
▁ənənə	-12384
larımın	-12385
▁müddətdir	-12386
▁həyati	-12387
▁Şairin	-12388
▁möhkəmlənməsinə	-12389
▁Niderland	-12390
▁hesabla	-12391
▁ədalətsiz	-12392
▁İyunun	-12393
▁qanunları	-12394
▁Ust	-12395
▁buradakı	-12396
▁torpaqlarda	-12397
▁Respublikanın	-12398
▁üfüq	-12399
▁toplayıb	-12400
▁yaşından	-12401
▁aparılacaq	-12402
▁parametr	-12403
Üm	-12404
öhrət	-12405
▁imzası	-12406
▁Mo	-12407
▁genişlənməsi	-12408
aksi	-12409
▁gözə	-12410
▁Maqom	-12411
▁azald	-12412
▁elektro	-12413
peş	-12414
avər	-12415
ddin	-12416
▁itirmiş	-12417
▁heyətinə	-12418
▁mavi	-12419
▁turistlər	-12420
▁yadig	-12421
▁kənarında	-12422
▁vəzifələrə	-12423
məməlidir	-12424
▁Ayrı	-12425
▁arıq	-12426
▁qurulmasına	-12427
asiyadan	-12428
▁köçürül	-12429
▁tikilməsi	-12430
▁edilməli	-12431
▁xoşagəlməz	-12432
▁yüksəlib	-12433
▁gülüm	-12434
▁məhkəmənin	-12435
▁materialların	-12436
şəhər	-12437
ümüzün	-12438
malara	-12439
lərimizdə	-12440
▁universitetdə	-12441
▁Bit	-12442
▁halların	-12443
▁ölənlərin	-12444
▁darmadağın	-12445
dılıb	-12446
▁Nəsiminin	-12447
ii	-12448
▁edam	-12449
▁hücumu	-12450
▁çevirmək	-12451
▁metro	-12452
▁sındır	-12453
▁Xur	-12454
▁şahmat	-12455
▁Amerikanın	-12456
▁dəyişməsi	-12457
▁qaytarılması	-12458
ayırma	-12459
▁Sazişin	-12460
▁hündürlüyü	-12461
əydi	-12462
▁münbit	-12463
cina	-12464
ığır	-12465
▁Qarabağı	-12466
mədilər	-12467
▁fürsət	-12468
▁gur	-12469
Neftçi	-12470
▁XİN	-12471
▁verməlidir	-12472
▁qanunvericiliyə	-12473
▁İbn	-12474
▁İsveçr	-12475
▁qalıqları	-12476
▁qarşısındakı	-12477
▁faydalıdır	-12478
▁Müqavil	-12479
▁qayıtmaq	-12480
▁məzh	-12481
▁mövzular	-12482
▁şəkli	-12483
▁bölgəsinin	-12484
qon	-12485
▁tərəfinə	-12486
▁qısqan	-12487
▁sahibkarlar	-12488
▁əldən	-12489
▁əsaslarını	-12490
enti	-12491
▁yaxınlığındakı	-12492
▁işlərdə	-12493
▁Tədris	-12494
▁görmür	-12495
▁qaydalarının	-12496
xüsus	-12497
lasa	-12498
▁Super	-12499
▁gecəsi	-12500
▁Tamaşaçılar	-12501
▁dağıntı	-12502
talm	-12503
Məmmədov	-12504
▁deyiləm	-12505
▁Den	-12506
▁həkimi	-12507
▁Eş	-12508
ota	-12509
▁super	-12510
▁etiqad	-12511
▁Qusar	-12512
▁hissənin	-12513
▁varlıq	-12514
sənin	-12515
▁birləşdiril	-12516
AK	-12517
fəl	-12518
▁Bas	-12519
dirmə	-12520
▁türkc	-12521
▁ekspedi	-12522
atür	-12523
▁qaçıb	-12524
▁şüca	-12525
isin	-12526
▁tətbiqini	-12527
eşik	-12528
▁laqeyd	-12529
▁medicina	-12530
▁toxunulmaz	-12531
▁gəliblər	-12532
▁mərkəzin	-12533
DN	-12534
▁qruplar	-12535
masa	-12536
▁köy	-12537
▁heyvanların	-12538
İL	-12539
ağz	-12540
ovul	-12541
duğum	-12542
▁yollarla	-12543
esin	-12544
▁ucqar	-12545
əşfiyyat	-12546
mey	-12547
▁Dekabrın	-12548
▁fiqur	-12549
▁səfərə	-12550
Ədəbiyyat	-12551
▁danılmaz	-12552
əməz	-12553
▁övladlarının	-12554
▁səciyyələndir	-12555
▁şəhərlərdə	-12556
▁ənənələrini	-12557
iqam	-12558
pen	-12559
▁Fələst	-12560
aqan	-12561
▁tünd	-12562
ukla	-12563
▁Ağst	-12564
▁Sərg	-12565
▁Şabr	-12566
▁aktyorlar	-12567
ləridir	-12568
▁yoldaşları	-12569
▁Araşdırma	-12570
▁gözlənilməz	-12571
▁mövqelərini	-12572
▁yeməyi	-12573
▁tarixçi	-12574
▁tutması	-12575
▁yetirilir	-12576
▁Miş	-12577
▁Ork	-12578
▁Media	-12579
▁imzalanan	-12580
▁bö	-12581
üfəng	-12582
▁ailələrinə	-12583
▁fe	-12584
▁Sözügedən	-12585
İslam	-12586
▁nümunələrinin	-12587
▁hamilə	-12588
▁dekabrında	-12589
▁tac	-12590
▁kitaba	-12591
▁simfonik	-12592
▁Lerik	-12593
▁adası	-12594
▁IX	-12595
▁üslubu	-12596
▁fikrinə	-12597
▁dövründən	-12598
▁tamaşanın	-12599
▁Abdullah	-12600
▁atdı	-12601
▁həcmdə	-12602
evin	-12603
▁TÜRKSOY	-12604
▁Strateji	-12605
▁aviasiya	-12606
▁məqalədə	-12607
▁bəzəd	-12608
▁məcmu	-12609
▁tarif	-12610
▁qalmır	-12611
▁Ordubad	-12612
▁hədsiz	-12613
px	-12614
▁qrupa	-12615
▁yarışlarda	-12616
ellyasiya	-12617
▁İdarəetmə	-12618
▁Həmişə	-12619
▁missiyası	-12620
oter	-12621
▁yüksələn	-12622
▁sirr	-12623
▁sosi	-12624
▁oğlunu	-12625
▁Qərib	-12626
▁leytenant	-12627
ita	-12628
▁ispan	-12629
▁İnsanın	-12630
agram	-12631
▁Vide	-12632
▁istərdik	-12633
▁fakültəsini	-12634
▁Məktəbi	-12635
▁peşəkarlıq	-12636
xeber	-12637
▁teatra	-12638
▁qut	-12639
▁Vurğul	-12640
oteka	-12641
▁Əksinə	-12642
inizdə	-12643
▁Bölg	-12644
mişli	-12645
▁işğalçılıq	-12646
▁doy	-12647
▁azalt	-12648
▁gəldim	-12649
▁Poli	-12650
▁sürəti	-12651
süm	-12652
▁staj	-12653
Avropa	-12654
po	-12655
aliforn	-12656
▁spes	-12657
▁qalxan	-12658
övş	-12659
▁sonun	-12660
▁işğalından	-12661
▁Vəkil	-12662
▁mətbuatı	-12663
▁tuş	-12664
nəzəri	-12665
▁axını	-12666
▁İsrailin	-12667
▁olmamalıdır	-12668
▁qızının	-12669
▁oktyabrında	-12670
orld	-12671
alına	-12672
▁hərbçi	-12673
▁qadına	-12674
işünas	-12675
▁yerinin	-12676
▁təşkilatlarla	-12677
▁cütlük	-12678
▁mətlə	-12679
▁Beləcə	-12680
▁şim	-12681
▁qətnamə	-12682
▁Pa	-12683
canlı	-12684
▁bildirdilər	-12685
inist	-12686
amanlıq	-12687
▁Vida	-12688
▁göndərib	-12689
▁həvəskar	-12690
▁Musayev	-12691
ube	-12692
əxsi	-12693
▁Azer	-12694
▁Müəssis	-12695
lif	-12696
tərb	-12697
▁Sahibkar	-12698
med	-12699
ikul	-12700
▁təcavüzü	-12701
sinizsə	-12702
stagram	-12703
ksi	-12704
▁üzvi	-12705
▁Çində	-12706
alıyıq	-12707
▁addımı	-12708
asındakı	-12709
▁adama	-12710
əhriz	-12711
▁qoşulub	-12712
▁azərbaycanlının	-12713
lip	-12714
ılmayıb	-12715
▁icar	-12716
▁diabet	-12717
▁olimpiada	-12718
▁gələcəyini	-12719
dükdən	-12720
ikinti	-12721
çub	-12722
▁qopar	-12723
▁döyüşdə	-12724
▁investisiyalar	-12725
▁fəaliyyətlə	-12726
▁ekspozis	-12727
▁müəssisənin	-12728
ləqan	-12729
▁bölgüsü	-12730
▁Avstraliya	-12731
ƏS	-12732
▁yel	-12733
▁sınaqdan	-12734
▁xatırladan	-12735
▁məqamları	-12736
akeş	-12737
▁İSES	-12738
▁yamac	-12739
no	-12740
lindən	-12741
▁proqnozlaşdır	-12742
aban	-12743
▁açıldı	-12744
▁cəl	-12745
▁parad	-12746
▁inteqrasiyası	-12747
Frans	-12748
▁turşu	-12749
▁mühasib	-12750
▁reabilit	-12751
▁sevgilisi	-12752
▁öyrənməyə	-12753
olor	-12754
lavyan	-12755
▁bey	-12756
lanacaq	-12757
▁bildiriş	-12758
▁günahkar	-12759
kat	-12760
bucaq	-12761
yavaş	-12762
▁Zav	-12763
▁Şəxs	-12764
iyyatı	-12765
▁müsabiqədə	-12766
Mər	-12767
damar	-12768
▁Nəsir	-12769
▁altındakı	-12770
ƏNC	-12771
▁dodaq	-12772
▁sahələrini	-12773
▁ney	-12774
▁Ağdaş	-12775
▁Sanki	-12776
▁riskini	-12777
▁Qala	-12778
▁nikbin	-12779
▁açıqlanıb	-12780
▁komandanı	-12781
▁qabiliyyətinə	-12782
səniz	-12783
▁aparıcısı	-12784
qı	-12785
▁qatılıb	-12786
Real	-12787
▁Yarış	-12788
▁alban	-12789
▁mələk	-12790
▁otağı	-12791
▁sammit	-12792
▁təkamül	-12793
▁Suraxanı	-12794
▁başlayanda	-12795
▁sayıla	-12796
▁vəzifədən	-12797
▁donan	-12798
▁durumu	-12799
lıların	-12800
▁yüksəklik	-12801
▁briq	-12802
▁reyestr	-12803
cası	-12804
evan	-12805
▁Göyçay	-12806
▁qismət	-12807
▁Görünür	-12808
▁axın	-12809
▁medianın	-12810
▁gətirilib	-12811
▁təşviqi	-12812
▁İmtahan	-12813
▁verməyib	-12814
▁dəstəsinin	-12815
▁konsepsiy	-12816
▁ədəbiyyatda	-12817
madığ	-12818
▁ixtir	-12819
▁əzəmətli	-12820
▁Braziliya	-12821
▁çempionatının	-12822
▁Büny	-12823
▁özbək	-12824
▁Nikolay	-12825
▁bölünür	-12826
▁pozitiv	-12827
▁varisi	-12828
▁təmizlənməsi	-12829
▁oxuyanda	-12830
iyyətindən	-12831
▁ədəbiyyatına	-12832
məh	-12833
▁riski	-12834
▁formalaşmış	-12835
▁çalışmaq	-12836
▁vəziyyətlə	-12837
▁əsgərləri	-12838
Eurovision	-12839
▁Rəf	-12840
▁sakinlər	-12841
▁dəstəkləyən	-12842
▁məsləhətləş	-12843
▁onillik	-12844
▁simvolu	-12845
▁yaranma	-12846
Mədəniyyət	-12847
Əhməd	-12848
▁Real	-12849
▁Bilirsiniz	-12850
▁mərkəzlərindən	-12851
▁Əmr	-12852
▁ipək	-12853
▁uzunluğunda	-12854
▁doğrult	-12855
▁vaxtaşırı	-12856
▁xəttində	-12857
▁Cam	-12858
▁dial	-12859
▁Balet	-12860
▁Moldova	-12861
▁Nizaminin	-12862
▁İç	-12863
▁uğram	-12864
▁deport	-12865
▁faizdən	-12866
▁anlaşma	-12867
▁namizədlik	-12868
mod	-12869
yetnam	-12870
▁Maarif	-12871
▁qanunlar	-12872
ets	-12873
▁qucaq	-12874
▁Ada	-12875
▁ilinin	-12876
▁Vətənin	-12877
▁proqramın	-12878
▁əlaqədardır	-12879
SK	-12880
▁qalxıb	-12881
▁Fevralın	-12882
ğuna	-12883
▁Gec	-12884
▁zəncir	-12885
tac	-12886
tion	-12887
▁Hüseynzadə	-12888
ızda	-12889
lüyün	-12890
▁bulaq	-12891
▁dərsləri	-12892
▁Eyn	-12893
layim	-12894
tərək	-12895
▁Belçika	-12896
▁ti	-12897
idənin	-12898
▁arabir	-12899
▁bildirirlər	-12900
▁SƏR	-12901
▁tələbələrə	-12902
▁abituriyent	-12903
qəs	-12904
ininin	-12905
▁Maked	-12906
▁Venes	-12907
▁qurult	-12908
▁keçirildiyini	-12909
▁bəstək	-12910
▁cəsarətli	-12911
açının	-12912
▁Qanuna	-12913
▁parçası	-12914
pe	-12915
xi	-12916
əddü	-12917
▁dilimizin	-12918
▁bitirmişdir	-12919
▁Federal	-12920
▁qalaraq	-12921
▁aparıldı	-12922
▁tutulması	-12923
▁qarın	-12924
▁zərurət	-12925
▁hüququnun	-12926
▁ixra	-12927
▁mexanizmi	-12928
▁musiqiçi	-12929
▁sağlamlığının	-12930
▁imic	-12931
Şahdəniz	-12932
▁İq	-12933
▁evlərin	-12934
▁prospekti	-12935
yarov	-12936
▁XVII	-12937
Sumqayıt	-12938
▁dalğalan	-12939
▁qadınları	-12940
ott	-12941
əxana	-12942
▁alırlar	-12943
▁Qazaxıstanın	-12944
▁edilməsindən	-12945
ezer	-12946
rap	-12947
▁Əliyevlə	-12948
▁mövzularda	-12949
▁stabil	-12950
▁ziyalılar	-12951
ink	-12952
▁torpaqlarında	-12953
üfət	-12954
▁tərzdə	-12955
ülərək	-12956
▁etsək	-12957
▁rəngi	-12958
▁ölümünə	-12959
ərsə	-12960
erməni	-12961
▁addımların	-12962
▁səda	-12963
▁firavan	-12964
▁etdirilən	-12965
▁Səttar	-12966
▁hədəfi	-12967
▁satışa	-12968
tsiz	-12969
▁məhbus	-12970
eliorasiya	-12971
▁resursları	-12972
▁problemlərə	-12973
▁Zərdab	-12974
▁xərclərinin	-12975
▁Mübarizə	-12976
Rəs	-12977
▁yaddaşında	-12978
▁pak	-12979
▁Qarayevin	-12980
▁təzahürüdür	-12981
ümüzə	-12982
▁Asif	-12983
məmişəm	-12984
▁Hüquqi	-12985
▁versiy	-12986
▁şeirin	-12987
ırt	-12988
Bəl	-12989
▁fant	-12990
▁oynamış	-12991
▁Kredit	-12992
▁zorakılıq	-12993
▁obyekti	-12994
▁Olimpiada	-12995
qas	-12996
▁Madrid	-12997
▁düşdüyü	-12998
▁Nem	-12999
▁Se	-13000
▁Güln	-13001
▁tədbirə	-13002
▁vasitələr	-13003
▁tərcüməçi	-13004
▁mədəniyyətə	-13005
▁vida	-13006
əcə	-13007
▁darıx	-13008
▁Hörmətli	-13009
▁zəminində	-13010
ley	-13011
▁ölən	-13012
▁arasından	-13013
▁qrant	-13014
▁Məşədi	-13015
▁ordumuzun	-13016
üstan	-13017
▁assosi	-13018
▁Vergilər	-13019
▁cəlbedici	-13020
▁məhəll	-13021
▁təsirindən	-13022
əxav	-13023
Qızıl	-13024
lövh	-13025
witter	-13026
ats	-13027
usuz	-13028
lum	-13029
▁bölüşdür	-13030
▁dedilər	-13031
▁dəyişdi	-13032
▁kəmərinin	-13033
▁Deputat	-13034
▁Bazar	-13035
▁vilayəti	-13036
▁formaları	-13037
▁kampaniyası	-13038
▁Konfeder	-13039
▁qaldırıb	-13040
Tİ	-13041
▁Ermənistandan	-13042
▁qabiliyyətini	-13043
▁ölkəmizdəki	-13044
ladıqları	-13045
▁avtomatik	-13046
▁həyatından	-13047
öhn	-13048
▁Mes	-13049
▁tic	-13050
▁göründüyü	-13051
▁yaradılacaq	-13052
adılar	-13053
▁ha	-13054
▁hüququnu	-13055
▁keçirirlər	-13056
▁Kaliforn	-13057
▁Eyvaz	-13058
▁Stans	-13059
▁Fransız	-13060
▁tədqiqatçılar	-13061
▁Mədəniyyəti	-13062
gözəl	-13063
asınca	-13064
▁strukturu	-13065
▁missiyasını	-13066
enit	-13067
▁Baba	-13068
▁mümkünsüz	-13069
▁başladıq	-13070
▁imperiyası	-13071
film	-13072
psixoloji	-13073
▁olmadıqda	-13074
▁Baxmayaraq	-13075
▁Sir	-13076
▁sonunadək	-13077
illər	-13078
▁tənəffüs	-13079
▁Katib	-13080
▁biləcəklər	-13081
▁ənənələrinin	-13082
▁Kipr	-13083
▁bazasında	-13084
▁Xəzərin	-13085
▁nəsib	-13086
▁Kollec	-13087
▁sentyabrında	-13088
bəz	-13089
çəkil	-13090
▁Aygün	-13091
▁Əbdür	-13092
cam	-13093
▁komissiyanın	-13094
iyinə	-13095
▁qaldırır	-13096
▁eksk	-13097
▁dairəsinin	-13098
▁Qurani	-13099
▁zin	-13100
▁vətəni	-13101
▁bilmişdir	-13102
▁səylərini	-13103
ərəf	-13104
▁mövsümündə	-13105
▁məzarı	-13106
▁koronavirusdan	-13107
▁kiminsə	-13108
▁ağc	-13109
▁miqrasiya	-13110
▁transform	-13111
▁qaldığını	-13112
▁elementləri	-13113
şid	-13114
orte	-13115
▁Dol	-13116
▁yerlərdən	-13117
▁danışıqların	-13118
▁ağrılı	-13119
▁Sumqayıtda	-13120
▁Məktəbinin	-13121
▁Ant	-13122
▁Sənin	-13123
▁alıcı	-13124
küy	-13125
səl	-13126
çün	-13127
Kitabi	-13128
baç	-13129
▁köməkçi	-13130
▁çör	-13131
▁müayin	-13132
çiliyə	-13133
▁genişləndirmək	-13134
▁bilmərəm	-13135
▁yaşa	-13136
▁konqres	-13137
▁səslənən	-13138
▁Noli	-13139
▁diləy	-13140
malarını	-13141
▁gözləyən	-13142
▁erməniləri	-13143
əfərrü	-13144
▁Bildirib	-13145
▁Şeir	-13146
▁diviz	-13147
▁Tələbə	-13148
▁xroniki	-13149
▁məktəbəqədər	-13150
mümkün	-13151
▁kəsil	-13152
▁Enerji	-13153
▁sarayında	-13154
oog	-13155
▁vadar	-13156
▁göv	-13157
▁gedərək	-13158
▁görərik	-13159
▁kvadratmetr	-13160
Qəbələ	-13161
▁istirah	-13162
OVİD	-13163
▁rektor	-13164
▁haqları	-13165
▁komediy	-13166
▁müraciətlər	-13167
▁Day	-13168
▁şəxslərdən	-13169
▁aqro	-13170
▁təxirəsalınmaz	-13171
▁Kuboku	-13172
▁Latviya	-13173
▁qiymətə	-13174
▁gedəcək	-13175
acam	-13176
▁Lət	-13177
▁heyvandarlıq	-13178
əssümü	-13179
▁təmay	-13180
▁Donald	-13181
▁Universitetin	-13182
▁gününə	-13183
▁Ağsu	-13184
▁günədək	-13185
▁dəqiqəlik	-13186
▁səviyyədədir	-13187
▁dolan	-13188
▁Sarkis	-13189
▁nöqtəsi	-13190
▁prosess	-13191
▁aşağıda	-13192
iver	-13193
▁dondur	-13194
▁konserti	-13195
▁hamıya	-13196
▁bildiyi	-13197
▁şəhərc	-13198
▁hara	-13199
▁Arxiv	-13200
▁məşğuldur	-13201
▁cəsəd	-13202
▁həddə	-13203
▁kinot	-13204
umlu	-13205
▁qiymətləri	-13206
rəngli	-13207
▁Hacıq	-13208
▁Naxçıvana	-13209
▁Ukraynaya	-13210
mbud	-13211
▁Tural	-13212
▁psixi	-13213
▁Dmitri	-13214
▁mövzusuna	-13215
▁harda	-13216
▁Ölkəmiz	-13217
▁hür	-13218
▁sız	-13219
▁Bələdiyyənin	-13220
▁ünsür	-13221
▁Məns	-13222
ƏNCAM	-13223
▁onsuz	-13224
▁sindrom	-13225
▁İlin	-13226
▁gücündə	-13227
iyevin	-13228
▁buğda	-13229
▁əhalini	-13230
▁SƏRƏNCAM	-13231
▁aparmağa	-13232
▁Liqa	-13233
canın	-13234
▁anlamaq	-13235
masib	-13236
▁prosesə	-13237
▁korrupsiya	-13238
▁müqaviləsinin	-13239
▁gündəm	-13240
sat	-13241
▁yaşaya	-13242
▁ürəyin	-13243
▁örtü	-13244
lerg	-13245
Yaş	-13246
▁nəyin	-13247
▁keçirə	-13248
▁çəkmiş	-13249
▁verilmir	-13250
▁iclasının	-13251
jpg	-13252
▁sex	-13253
▁tamaşası	-13254
ropolit	-13255
▁toponim	-13256
▁irimi	-13257
▁nümayişi	-13258
▁evlərinə	-13259
▁əlilliyi	-13260
▁qonaqların	-13261
▁Nərgiz	-13262
dınız	-13263
▁heyətin	-13264
▁dostum	-13265
▁çalışmış	-13266
▁Səfəv	-13267
▁seçildi	-13268
▁hadisədən	-13269
Qafqaz	-13270
▁bazarının	-13271
▁kövrək	-13272
▁Pav	-13273
ədiyini	-13274
▁hökmdarı	-13275
yik	-13276
şar	-13277
buri	-13278
▁Beyləqan	-13279
▁üstəl	-13280
▁Ermənilərin	-13281
▁Məmmədli	-13282
▁diasporunun	-13283
▁irimiqyaslı	-13284
▁antik	-13285
▁şeirində	-13286
▁mübarizəsi	-13287
▁fan	-13288
▁sərhədi	-13289
▁mövzuya	-13290
▁nəvəsi	-13291
▁Fərmanının	-13292
▁lisey	-13293
akov	-13294
▁PA	-13295
iyəli	-13296
▁varlı	-13297
▁yararlı	-13298
▁Fazil	-13299
▁AŞ	-13300
▁Kimya	-13301
▁çıxacaq	-13302
▁Komissiyasına	-13303
▁ilah	-13304
▁detal	-13305
▁təəssüb	-13306
▁nəticələnən	-13307
▁çatdırmışdır	-13308
▁Dərb	-13309
▁gəncin	-13310
▁körf	-13311
▁sinə	-13312
▁vəhşi	-13313
▁görüntüləri	-13314
▁zavodu	-13315
abəy	-13316
unə	-13317
▁Neftç	-13318
estetik	-13319
luğundan	-13320
entin	-13321
▁prinsiplərini	-13322
▁bazarına	-13323
▁xəstəxanada	-13324
bala	-13325
▁Martın	-13326
▁yetirdiyi	-13327
▁Komitə	-13328
▁Hesabat	-13329
▁Sistem	-13330
▁xatirələrini	-13331
▁Plat	-13332
▁spesifik	-13333
▁Palatasının	-13334
▁sənətkarlıq	-13335
romet	-13336
▁İyulun	-13337
▁nağd	-13338
ple	-13339
▁kompens	-13340
..."	-13341
lislam	-13342
▁rejimin	-13343
▁türklərin	-13344
▁Yarım	-13345
▁pərəst	-13346
▁ştatının	-13347
▁İnvest	-13348
co	-13349
amüddətli	-13350
idrogen	-13351
▁dəstəyə	-13352
▁heykəltəraş	-13353
▁oxucuların	-13354
▁Sakit	-13355
▁dük	-13356
▁demiş	-13357
▁Leon	-13358
ğundan	-13359
▁açar	-13360
▁azalır	-13361
▁ölü	-13362
▁qolu	-13363
▁rifahı	-13364
▁bürc	-13365
▁Ələkbərov	-13366
oogle	-13367
▁xaos	-13368
şu	-13369
▁çö	-13370
▁zalı	-13371
▁məntəqəsində	-13372
▁Elmira	-13373
▁verəcəkdir	-13374
▁Qurum	-13375
▁günahlandır	-13376
▁qərib	-13377
▁iştirakçılar	-13378
▁Nəzərə	-13379
▁qoruyan	-13380
▁Elman	-13381
▁örtük	-13382
▁cəhdləri	-13383
▁qayğıya	-13384
▁boşal	-13385
odik	-13386
▁təriq	-13387
ere	-13388
Nərim	-13389
qoy	-13390
▁eni	-13391
▁vətəndaşlığı	-13392
ərlər	-13393
▁düzəlt	-13394
▁birincisi	-13395
iyat	-13396
▁Yel	-13397
▁görürlər	-13398
niya	-13399
duqda	-13400
▁azadlığa	-13401
▁birliyin	-13402
itekt	-13403
▁Tehr	-13404
▁Aralıq	-13405
▁türklər	-13406
▁Məd	-13407
larınızı	-13408
elyef	-13409
osip	-13410
▁vasitələrlə	-13411
▁ur	-13412
▁yayılmasının	-13413
xoş	-13414
▁yoxdu	-13415
ilərkən	-13416
▁vəzifələrində	-13417
▁Şərqin	-13418
▁hərarət	-13419
azö	-13420
▁çempionatında	-13421
▁həmyer	-13422
▁məqsədli	-13423
▁makroiqtisadi	-13424
mıram	-13425
▁əzəli	-13426
▁qidalan	-13427
▁lobb	-13428
▁çoxluğu	-13429
▁əlaqələrini	-13430
▁məsələlərinin	-13431
▁göndərdi	-13432
▁prinsiplər	-13433
▁mətni	-13434
▁tendensiy	-13435
▁tapılıb	-13436
▁aləminin	-13437
▁sənayenin	-13438
▁götürərək	-13439
▁üzləşdiyi	-13440
▁seçkilərin	-13441
▁Tap	-13442
▁nəy	-13443
yönümlü	-13444
▁döyüşə	-13445
▁Xəlilov	-13446
▁bük	-13447
▁Müşahidə	-13448
ray	-13449
çılara	-13450
▁restoran	-13451
pic	-13452
anna	-13453
▁kommunal	-13454
▁ləyaqətlə	-13455
məzdən	-13456
▁Məhkəməsində	-13457
sid	-13458
luqla	-13459
▁orbit	-13460
aqlıq	-13461
eon	-13462
▁kartof	-13463
▁vahidi	-13464
diyinin	-13465
▁bənzəyir	-13466
▁günlərin	-13467
▁imkanlardan	-13468
▁təfərrü	-13469
▁İmişli	-13470
▁azaltmaq	-13471
şağı	-13472
▁başlanması	-13473
▁olacaqlar	-13474
▁müsabiqəsi	-13475
▁kralı	-13476
▁keyfiyyətcə	-13477
▁əşyalar	-13478
▁Me	-13479
əssiz	-13480
▁israr	-13481
▁Avi	-13482
▁uzanan	-13483
▁iddiaları	-13484
▁verildiyi	-13485
yarat	-13486
▁xaricə	-13487
▁tapşırıqların	-13488
▁mənasız	-13489
▁ondadır	-13490
ülislam	-13491
▁ediləcəkdir	-13492
all	-13493
▁Hüm	-13494
▁məlumatda	-13495
▁Anna	-13496
▁Körp	-13497
▁filmlərin	-13498
▁torpaqlar	-13499
▁Krist	-13500
▁sütun	-13501
▁olunmaq	-13502
▁Qoy	-13503
▁bacarıqlı	-13504
▁düşmək	-13505
▁ovq	-13506
idlər	-13507
▁Nəşr	-13508
liyindəki	-13509
▁diaqnost	-13510
▁limanı	-13511
▁hisslər	-13512
▁noyabrında	-13513
▁Ah	-13514
▁məndə	-13515
▁ideyalarının	-13516
▁qaydalar	-13517
▁məntəqələrinin	-13518
aram	-13519
▁əqli	-13520
▁mərasimdə	-13521
dant	-13522
▁arxasınca	-13523
▁Zaqafqaziya	-13524
▁trav	-13525
▁mütəx	-13526
▁Sof	-13527
esk	-13528
▁fəlsəfəsi	-13529
▁məsələlərini	-13530
▁təşkilində	-13531
▁Sel	-13532
▁varmı	-13533
▁yaşanan	-13534
▁Müharibəsi	-13535
hav	-13536
▁Meydan	-13537
▁olursa	-13538
▁Möhtərəm	-13539
eksual	-13540
▁Rəssamlıq	-13541
▁xidmətlərini	-13542
ifikasiya	-13543
▁İsraf	-13544
▁təmkin	-13545
▁layihəyə	-13546
▁hədəfə	-13547
▁həmkarlar	-13548
▁torpaqlarına	-13549
XV	-13550
▁atmaq	-13551
▁İqtisad	-13552
ine	-13553
▁Açı	-13554
▁SOCAR	-13555
▁hazırlanmasına	-13556
▁ud	-13557
niyyat	-13558
▁bölmə	-13559
▁Ruslan	-13560
▁saysız	-13561
▁tamaşalar	-13562
▁cinayətlər	-13563
▁Mahmudov	-13564
▁Mərasimdə	-13565
▁xalçaçılıq	-13566
tirak	-13567
alizmin	-13568
▁əsaslan	-13569
atika	-13570
▁aprelində	-13571
▁qərarları	-13572
iza	-13573
▁ekr	-13574
▁normaları	-13575
▁qəhrəmanları	-13576
▁yaşda	-13577
▁Göygöl	-13578
▁izləyir	-13579
▁etməsindən	-13580
▁Haqq	-13581
▁Kino	-13582
▁işığı	-13583
▁saytı	-13584
▁Rəhman	-13585
▁şad	-13586
liklərin	-13587
▁gəlirləri	-13588
▁bütünlüklə	-13589
▁Kolleg	-13590
▁gimnast	-13591
▁sevgisini	-13592
inti	-13593
▁sürür	-13594
▁zalında	-13595
▁ulduzu	-13596
yans	-13597
▁sülhə	-13598
▁qənaətə	-13599
▁uğurların	-13600
▁Hay	-13601
▁xammal	-13602
▁diplomu	-13603
▁eyniadlı	-13604
▁psixoloq	-13605
▁Bədən	-13606
▁sevinci	-13607
▁təməlini	-13608
▁səfərlər	-13609
▁kinostudiy	-13610
▁Fakt	-13611
idayət	-13612
▁olmazdı	-13613
▁etdirilmişdir	-13614
boyu	-13615
▁əmtə	-13616
▁parça	-13617
▁Kərimli	-13618
▁kilsəsi	-13619
istlər	-13620
imasiya	-13621
▁vurğulanır	-13622
▁es	-13623
▁götürmək	-13624
▁İra	-13625
▁UN	-13626
Hacıbəy	-13627
bax	-13628
emarlıq	-13629
▁padşah	-13630
▁problemlərinə	-13631
▁sərginin	-13632
▁yaşdan	-13633
▁işlərindən	-13634
▁altından	-13635
▁Hərəkatının	-13636
▁Sahil	-13637
▁şəf	-13638
▁sədrlik	-13639
lakı	-13640
omet	-13641
Elektron	-13642
▁Kül	-13643
▁bazarı	-13644
▁konsept	-13645
masıdır	-13646
▁uzaqda	-13647
▁dəyişiklikləri	-13648
izadə	-13649
▁Onları	-13650
▁görüşə	-13651
▁Şirvanşah	-13652
▁Səfərov	-13653
▁sahibkarlara	-13654
tt	-13655
▁öyrə	-13656
ınızda	-13657
▁informasiyanın	-13658
ttifaq	-13659
▁irq	-13660
▁İndiki	-13661
▁suallara	-13662
uba	-13663
▁qazanc	-13664
▁olunmaqla	-13665
▁dəyişdiril	-13666
BN	-13667
ematoqraf	-13668
▁verilməlidir	-13669
▁Ata	-13670
▁Məl	-13671
▁uğuru	-13672
▁sək	-13673
▁uşaqlarda	-13674
▁dəhlizinin	-13675
Cav	-13676
▁problemlərdən	-13677
▁Ərdə	-13678
▁çevirib	-13679
▁şəhərini	-13680
▁divarları	-13681
do	-13682
▁özümüzü	-13683
news	-13684
▁Dahi	-13685
▁sözə	-13686
▁əminliklə	-13687
▁binalarının	-13688
▁mərkəzindədir	-13689
▁Müraci	-13690
▁şiddət	-13691
▁Konstan	-13692
▁saxlamağa	-13693
▁müdafiəsinə	-13694
bek	-13695
▁Qu	-13696
▁qapıs	-13697
▁ixracı	-13698
▁rəftar	-13699
▁kəndlərdə	-13700
▁Alı	-13701
▁-----	-13702
qafqazinfo	-13703
▁məsuliyyətə	-13704
▁Doğrudur	-13705
▁qonaqlara	-13706
liv	-13707
▁Zam	-13708
▁qoyaraq	-13709
vəli	-13710
ight	-13711
▁Pan	-13712
▁qayğıkeş	-13713
mırlar	-13714
▁modul	-13715
▁ərazini	-13716
▁nov	-13717
▁təmayül	-13718
▁Məcəllənin	-13719
▁yönələn	-13720
▁sağlamlığına	-13721
▁Salah	-13722
▁tüfəng	-13723
▁Çexiya	-13724
▁hazırlam	-13725
▁qanunauyğun	-13726
▁dayandırılması	-13727
üdü	-13728
otip	-13729
▁Qəbəl	-13730
▁dərdi	-13731
▁tədrisi	-13732
▁Sona	-13733
▁bəstəkarı	-13734
▁qav	-13735
ejissor	-13736
sanız	-13737
▁bəzək	-13738
▁çılpaq	-13739
▁yazısı	-13740
▁Operativ	-13741
▁azadlığının	-13742
eqal	-13743
▁naq	-13744
çar	-13745
▁Pek	-13746
▁mel	-13747
▁mağar	-13748
▁konstruktiv	-13749
▁redaksiyada	-13750
▁Pet	-13751
▁Sv	-13752
▁siyasətə	-13753
▁qrupların	-13754
▁əməliyyatların	-13755
▁münasibətlə	-13756
▁fondu	-13757
▁maneə	-13758
▁vəsaitləri	-13759
▁haqsız	-13760
▁yığıncaq	-13761
▁yoxlama	-13762
▁TAN	-13763
▁soyadı	-13764
▁müzakirəyə	-13765
▁Rafa	-13766
▁atılıb	-13767
▁qalerey	-13768
go	-13769
▁Onlara	-13770
▁nəzəriyyə	-13771
▁bildirmişlər	-13772
▁müsabiqəsində	-13773
▁həcminin	-13774
▁Yunanı	-13775
tarı	-13776
▁tərəddü	-13777
tel	-13778
emiya	-13779
▁Elşad	-13780
▁sədaqət	-13781
Qars	-13782
▁Peş	-13783
▁üsulları	-13784
layırdı	-13785
▁digəri	-13786
▁qiymətləndirib	-13787
lararası	-13788
▁danışmağa	-13789
▁söhbətlər	-13790
▁Tanr	-13791
▁ruhunun	-13792
larımızla	-13793
▁birləşmələri	-13794
ument	-13795
▁Polit	-13796
▁burun	-13797
▁memarı	-13798
▁halının	-13799
▁Aqrar	-13800
▁Birgə	-13801
▁qayğının	-13802
▁Miqrasiya	-13803
▁Tor	-13804
▁çıxaran	-13805
ortepi	-13806
▁Hers	-13807
▁Kütləvi	-13808
▁hərdən	-13809
▁olunmayan	-13810
▁pərəstiş	-13811
▁Ölüm	-13812
▁yanvarında	-13813
▁daşıyıcısı	-13814
▁yarımf	-13815
▁soyad	-13816
▁doğulduğu	-13817
▁inanır	-13818
▁eksperim	-13819
Hacı	-13820
▁Mərdan	-13821
▁Li	-13822
Manç	-13823
▁ziya	-13824
ləyərək	-13825
▁koronavirusun	-13826
▁səhifə	-13827
▁təyinatı	-13828
▁Qiymət	-13829
▁institutun	-13830
▁şüşə	-13831
▁dövrdən	-13832
▁MR	-13833
▁əti	-13834
▁bahasına	-13835
▁sualları	-13836
▁faciəsinin	-13837
▁millətlərin	-13838
▁poeziyasının	-13839
ziz	-13840
▁Strateg	-13841
▁əsnasında	-13842
▁məktəbinə	-13843
▁şərik	-13844
▁br	-13845
▁Aparılan	-13846
▁sxem	-13847
fət	-13848
cild	-13849
▁maska	-13850
▁Komanda	-13851
▁verilişində	-13852
şan	-13853
baya	-13854
▁cəhənn	-13855
▁tənzimlən	-13856
insan	-13857
asional	-13858
▁gənclərinin	-13859
▁çalışın	-13860
▁Londonda	-13861
▁Tiflisdə	-13862
▁musiqili	-13863
şin	-13864
▁dönə	-13865
▁idarəsi	-13866
▁separat	-13867
▁qardaşım	-13868
eyə	-13869
sünüz	-13870
▁intib	-13871
ovuş	-13872
▁Hor	-13873
kəndər	-13874
▁brend	-13875
▁çəkilmişdir	-13876
▁avrop	-13877
▁Du	-13878
▁əsaslarla	-13879
▁uşağa	-13880
▁Qaraq	-13881
▁çatdıqdan	-13882
▁yağın	-13883
▁göndərilməsi	-13884
▁xanı	-13885
▁Siyahı	-13886
▁vəzifələrdə	-13887
▁təşkilatlara	-13888
▁Gü	-13889
▁bölüm	-13890
▁geriyə	-13891
Mançester	-13892
▁çatdırılmışdır	-13893
▁məzənn	-13894
▁İstifadə	-13895
▁Vyetnam	-13896
təmin	-13897
▁Dialoq	-13898
▁Təqdim	-13899
▁bağlam	-13900
▁Anlaşma	-13901
▁Alimlər	-13902
▁nüfuzunu	-13903
▁hakimiyyətdə	-13904
▁polisə	-13905
▁dialekt	-13906
▁sorğ	-13907
▁düşəndə	-13908
▁soruşdu	-13909
▁münasibətlərə	-13910
▁ideyalar	-13911
▁təsdiqini	-13912
baij	-13913
▁Məcəlləsinə	-13914
ABŞ	-13915
▁atrib	-13916
▁zərərçəkmiş	-13917
▁vəsaitlərinin	-13918
▁Men	-13919
▁qruplaş	-13920
▁köçkünlər	-13921
▁mövqeyinin	-13922
▁th	-13923
▁evlər	-13924
▁Bildiyiniz	-13925
▁mərhələnin	-13926
sosial	-13927
▁bünövr	-13928
▁idarəçiliy	-13929
▁Mütəxəssislər	-13930
əcəm	-13931
ilki	-13932
ınacaq	-13933
ilərində	-13934
▁şərtləndirən	-13935
▁Bədii	-13936
▁qurbanlarının	-13937
Sab	-13938
▁çıxışlar	-13939
aydın	-13940
▁stadion	-13941
▁İclasda	-13942
▁orqanizmin	-13943
▁qurğuların	-13944
▁görüşün	-13945
▁verirəm	-13946
▁işlənməsi	-13947
urun	-13948
▁Yüz	-13949
▁göstərişi	-13950
Ey	-13951
kəsən	-13952
məzdi	-13953
OS	-13954
udin	-13955
ülüy	-13956
şrəf	-13957
▁fəz	-13958
ınızdakı	-13959
▁rezident	-13960
▁prezidentinin	-13961
▁Xalqın	-13962
▁başlanmışdır	-13963
▁esk	-13964
▁İsf	-13965
əkdən	-13966
▁əmisi	-13967
▁qurmağa	-13968
▁itki	-13969
ılmaqla	-13970
▁eşidir	-13971
▁dəyərində	-13972
▁Əvvəlki	-13973
▁Cabbarlı	-13974
▁ürəyində	-13975
▁Cümhuriyyət	-13976
▁Eh	-13977
▁Sevin	-13978
▁Rəsulzadə	-13979
▁dairəsində	-13980
▁dəyişikliklərə	-13981
▁kimidir	-13982
▁qanunu	-13983
▁Ayn	-13984
▁edirsə	-13985
▁David	-13986
▁kanalı	-13987
▁sualına	-13988
▁Xocalıda	-13989
▁xələl	-13990
otu	-13991
skür	-13992
▁ita	-13993
▁qışqır	-13994
▁Tikinti	-13995
▁çıxdığı	-13996
▁rüt	-13997
▁Ulduz	-13998
▁göyər	-13999
▁Güc	-14000
▁sen	-14001
▁kütl	-14002
Quliyev	-14003
fik	-14004
▁bəndinin	-14005
▁SƏRƏNCAMI	-14006
▁ailələrin	-14007
▁üsulla	-14008
▁fotoqraf	-14009
▁rahatlıq	-14010
çular	-14011
▁kontin	-14012
▁ixtisaslaşmış	-14013
▁zərurəti	-14014
▁zonasında	-14015
)”	-14016
▁funksiyasını	-14017
▁konsepsiyası	-14018
▁Dr	-14019
ayl	-14020
Dünya	-14021
▁qarn	-14022
▁sərgil	-14023
▁ştat	-14024
▁emalat	-14025
iyini	-14026
▁abidənin	-14027
▁başlıcası	-14028
▁yükü	-14029
▁Kolumb	-14030
▁Əsasən	-14031
▁keçirmişdir	-14032
▁İtaliyada	-14033
▁birləşməsi	-14034
▁Əj	-14035
▁Xalqımızın	-14036
▁nəşriyyatı	-14037
dəm	-14038
▁karv	-14039
▁fəallıq	-14040
▁sabitliyi	-14041
▁örtüyü	-14042
▁aktyorun	-14043
krayn	-14044
▁icrasının	-14045
▁məktəbini	-14046
səfi	-14047
▁gələcəyinə	-14048
zil	-14049
▁layihələrə	-14050
▁Andrey	-14051
▁sütunun	-14052
Paş	-14053
▁Elşən	-14054
▁becər	-14055
▁ştatında	-14056
▁şəxsiyyətlər	-14057
▁çıxmışdır	-14058
Di	-14059
▁olunurlar	-14060
▁Sara	-14061
ıxanov	-14062
kök	-14063
▁xəttini	-14064
▁sessiyasında	-14065
▁yaranmasının	-14066
▁Hab	-14067
▁əvvəlindən	-14068
ami	-14069
yat	-14070
▁Sevda	-14071
▁Düşmən	-14072
▁minnətdarlığımı	-14073
▁inkişafından	-14074
▁qop	-14075
elikop	-14076
▁vəzifədə	-14077
▁tutmuşdur	-14078
▁əksəriyyətinin	-14079
lardandır	-14080
▁Los	-14081
beh	-14082
▁Lüt	-14083
▁insanlıq	-14084
▁universal	-14085
▁mənbələrdə	-14086
▁almaqla	-14087
Barselona	-14088
▁mənbələr	-14089
▁dırn	-14090
▁premyer	-14091
▁çevrilmişdi	-14092
aran	-14093
maqdır	-14094
▁qane	-14095
▁ikiqat	-14096
▁kabel	-14097
▁bakalavr	-14098
▁dinlərin	-14099
▁Türkdilli	-14100
hen	-14101
▁oksi	-14102
▁səslə	-14103
▁aciz	-14104
▁neyt	-14105
▁budaq	-14106
▁bölgəsi	-14107
Facebook	-14108
▁mülayim	-14109
▁Gər	-14110
Ceyhan	-14111
▁komissiyası	-14112
▁izlən	-14113
▁VIII	-14114
▁öldürül	-14115
▁Əbdürrəh	-14116
▁tərəflərin	-14117
mədəniyyət	-14118
▁Sonuncu	-14119
▁çəkməyə	-14120
▁tikilir	-14121
▁bazarlarına	-14122
▁möhkəmlənməsi	-14123
▁arxalan	-14124
▁mayında	-14125
▁investor	-14126
▁redaksiy	-14127
▁doğulan	-14128
▁kommunik	-14129
▁maddədə	-14130
sərhəd	-14131
▁gəlməyə	-14132
▁səslənir	-14133
▁atamın	-14134
▁verməyi	-14135
▁Birincisi	-14136
▁tərəqqisi	-14137
▁şairlərin	-14138
▁təcrübəyə	-14139
▁iti	-14140
mirlər	-14141
▁təkzib	-14142
▁yaxınlıq	-14143
▁şi	-14144
▁simpozium	-14145
▁tədbirlərdən	-14146
▁tərkibli	-14147
edes	-14148
▁böhranı	-14149
iləcək	-14150
▁filial	-14151
▁Həmkarlar	-14152
▁Parlamentinin	-14153
▁həmrəyliyi	-14154
ght	-14155
▁fikrində	-14156
▁məkana	-14157
▁müstəqilliyin	-14158
▁yazmış	-14159
▁bəndinə	-14160
▁olunmağa	-14161
▁sərgilən	-14162
▁Konfransı	-14163
▁çalışıram	-14164
ross	-14165
▁Rayonda	-14166
▁dəyərlərini	-14167
HN	-14168
▁Yanvarın	-14169
▁Bütövlükdə	-14170
▁sahiblərinin	-14171
▁duyğ	-14172
sindən	-14173
▁çapdan	-14174
▁Com	-14175
▁tun	-14176
▁rayonların	-14177
▁problemlərlə	-14178
▁yurdu	-14179
LI	-14180
▁tatar	-14181
▁peşman	-14182
▁Fərq	-14183
▁apara	-14184
▁yazdı	-14185
▁yaşayacaq	-14186
ərə	-14187
▁Siyas	-14188
▁formatda	-14189
▁suala	-14190
▁Dəf	-14191
lizm	-14192
▁dekorativ	-14193
▁ARDN	-14194
Nizam	-14195
elosip	-14196
▁avtomobillərin	-14197
▁Məryəm	-14198
dun	-14199
▁TANAP	-14200
▁arzusunda	-14201
▁suverenliyi	-14202
iminal	-14203
▁veb	-14204
▁Mühafizə	-14205
dol	-14206
▁Sovetlər	-14207
▁Əksər	-14208
tixar	-14209
▁Es	-14210
▁məqaləsi	-14211
▁pax	-14212
▁sik	-14213
üsünün	-14214
▁hesabatı	-14215
▁zərbələr	-14216
▁hüquqşünas	-14217
▁ənənələrinə	-14218
▁Cəmi	-14219
▁qəzası	-14220
▁Yenidən	-14221
▁vermədi	-14222
▁qoruyucu	-14223
▁oğurluq	-14224
▁inqilabi	-14225
▁ocağının	-14226
▁xidmətdə	-14227
▁oyunlar	-14228
▁sahədəki	-14229
▁intern	-14230
▁Ola	-14231
liklərində	-14232
▁Ne	-14233
▁obyektlər	-14234
▁İnsanların	-14235
▁cəng	-14236
ker	-14237
▁briqada	-14238
ry	-14239
dalı	-14240
▁sarayı	-14241
rometeor	-14242
▁sənətkarlar	-14243
▁dəyişmək	-14244
▁dərsi	-14245
▁mövqeyindən	-14246
▁regionlarının	-14247
▁Qəzet	-14248
▁azalıb	-14249
▁İngiltərənin	-14250
▁fondun	-14251
▁sahibinin	-14252
▁deyək	-14253
▁bahalaş	-14254
▁mətbuatında	-14255
▁Həbibbəyli	-14256
▁künc	-14257
▁zənn	-14258
▁üstü	-14259
▁çıxmağa	-14260
▁qoyuluşu	-14261
▁qanunvericiliyi	-14262
öhr	-14263
ayacaq	-14264
▁keçməsinə	-14265
▁ül	-14266
▁bədənin	-14267
▁güllələn	-14268
its	-14269
Sp	-14270
▁otağında	-14271
caz	-14272
▁Boy	-14273
▁çalışdı	-14274
▁lisenziya	-14275
ormula	-14276
▁Assosiasiyası	-14277
▁titul	-14278
▁Şirkəti	-14279
▁tariximizdə	-14280
▁quraşdırılması	-14281
DA	-14282
▁Gündə	-14283
▁gücləndirir	-14284
▁Gecə	-14285
▁artacaq	-14286
▁Ərəbistanı	-14287
▁çıxışlarında	-14288
▁gedişi	-14289
▁türkiyəli	-14290
In	-14291
▁Mət	-14292
▁avadanlıqlarla	-14293
oto	-14294
▁funksional	-14295
▁Zahid	-14296
ictimai	-14297
▁nişanlı	-14298
▁Təhmasib	-14299
▁vətəndaşının	-14300
▁Xiyab	-14301
▁resurslarının	-14302
▁qüdrəti	-14303
▁bildirmişdi	-14304
▁atılır	-14305
ortaj	-14306
▁cavabını	-14307
▁qarşılanır	-14308
▁döyüşlər	-14309
▁istehsalına	-14310
ronom	-14311
istəməz	-14312
▁şücaəti	-14313
▁atom	-14314
▁kollec	-14315
▁şiddətli	-14316
▁İllər	-14317
▁notari	-14318
▁Xorvatiya	-14319
İş	-14320
ləşdi	-14321
mrə	-14322
yum	-14323
▁rəyi	-14324
ezerxeber	-14325
▁tənqidçi	-14326
tur	-14327
linq	-14328
▁miniatür	-14329
▁tuturdu	-14330
▁istifadənin	-14331
▁Gəm	-14332
▁adlar	-14333
▁Fəxrəddin	-14334
lüyə	-14335
▁poeziyası	-14336
▁olmamışdır	-14337
▁Roman	-14338
▁rəğbətlə	-14339
▁qaçılmaz	-14340
▁yarımstans	-14341
tah	-14342
▁Kul	-14343
▁Qələbə	-14344
▁əməyin	-14345
▁türklərinin	-14346
▁içkilər	-14347
▁münasibətin	-14348
▁kürs	-14349
məişət	-14350
▁Mahir	-14351
▁ifadəsini	-14352
▁Xanlar	-14353
▁kolxoz	-14354
▁Nağıyev	-14355
▁istəyənlər	-14356
▁müsəlmanlar	-14357
▁İcraiyyə	-14358
▁Konsep	-14359
▁partiyasının	-14360
erc	-14361
oqol	-14362
iyeva	-14363
▁göstərilmişdir	-14364
KK	-14365
üks	-14366
▁hissəyə	-14367
Tarix	-14368
▁cəhdi	-14369
▁kursunun	-14370
▁nəqliyyatı	-14371
▁qardaşları	-14372
▁aşır	-14373
▁Qonaq	-14374
çəkilən	-14375
▁məzhəb	-14376
▁sıralarında	-14377
▁boğul	-14378
▁İnnov	-14379
▁beləcə	-14380
▁mühitində	-14381
▁Hid	-14382
▁yaşlarında	-14383
▁üzvlərindən	-14384
▁tədqiqatları	-14385
▁təsdiqi	-14386
▁etdirə	-14387
▁Ağstafa	-14388
[...]
