<unk>	0
<s>	0
</s>	0
<0x00>	0
<0x01>	0
<0x02>	0
<0x03>	0
<0x04>	0
<0x05>	0
<0x06>	0
<0x07>	0
<0x08>	0
<0x09>	0
<0x0A>	0
<0x0B>	0
<0x0C>	0
<0x0D>	0
<0x0E>	0
<0x0F>	0
<0x10>	0
<0x11>	0
<0x12>	0
<0x13>	0
<0x14>	0
<0x15>	0
<0x16>	0
<0x17>	0
<0x18>	0
<0x19>	0
<0x1A>	0
<0x1B>	0
<0x1C>	0
<0x1D>	0
<0x1E>	0
<0x1F>	0
<0x20>	0
<0x21>	0
<0x22>	0
<0x23>	0
<0x24>	0
<0x25>	0
<0x26>	0
<0x27>	0
<0x28>	0
<0x29>	0
<0x2A>	0
<0x2B>	0
<0x2C>	0
<0x2D>	0
<0x2E>	0
<0x2F>	0
<0x30>	0
<0x31>	0
<0x32>	0
<0x33>	0
<0x34>	0
<0x35>	0
<0x36>	0
<0x37>	0
<0x38>	0
<0x39>	0
<0x3A>	0
<0x3B>	0
<0x3C>	0
<0x3D>	0
<0x3E>	0
<0x3F>	0
<0x40>	0
<0x41>	0
<0x42>	0
<0x43>	0
<0x44>	0
<0x45>	0
<0x46>	0
<0x47>	0
<0x48>	0
<0x49>	0
<0x4A>	0
<0x4B>	0
<0x4C>	0
<0x4D>	0
<0x4E>	0
<0x4F>	0
<0x50>	0
<0x51>	0
<0x52>	0
<0x53>	0
<0x54>	0
<0x55>	0
<0x56>	0
<0x57>	0
<0x58>	0
<0x59>	0
<0x5A>	0
<0x5B>	0
<0x5C>	0
<0x5D>	0
<0x5E>	0
<0x5F>	0
<0x60>	0
<0x61>	0
<0x62>	0
<0x63>	0
<0x64>	0
<0x65>	0
<0x66>	0
<0x67>	0
<0x68>	0
<0x69>	0
<0x6A>	0
<0x6B>	0
<0x6C>	0
<0x6D>	0
<0x6E>	0
<0x6F>	0
<0x70>	0
<0x71>	0
<0x72>	0
<0x73>	0
<0x74>	0
<0x75>	0
<0x76>	0
<0x77>	0
<0x78>	0
<0x79>	0
<0x7A>	0
<0x7B>	0
<0x7C>	0
<0x7D>	0
<0x7E>	0
<0x7F>	0
<0x80>	0
<0x81>	0
<0x82>	0
<0x83>	0
<0x84>	0
<0x85>	0
<0x86>	0
<0x87>	0
<0x88>	0
<0x89>	0
<0x8A>	0
<0x8B>	0
<0x8C>	0
<0x8D>	0
<0x8E>	0
<0x8F>	0
<0x90>	0
<0x91>	0
<0x92>	0
<0x93>	0
<0x94>	0
<0x95>	0
<0x96>	0
<0x97>	0
<0x98>	0
<0x99>	0
<0x9A>	0
<0x9B>	0
<0x9C>	0
<0x9D>	0
<0x9E>	0
<0x9F>	0
<0xA0>	0
<0xA1>	0
<0xA2>	0
<0xA3>	0
<0xA4>	0
<0xA5>	0
<0xA6>	0
<0xA7>	0
<0xA8>	0
<0xA9>	0
<0xAA>	0
<0xAB>	0
<0xAC>	0
<0xAD>	0
<0xAE>	0
<0xAF>	0
<0xB0>	0
<0xB1>	0
<0xB2>	0
<0xB3>	0
<0xB4>	0
<0xB5>	0
<0xB6>	0
<0xB7>	0
<0xB8>	0
<0xB9>	0
<0xBA>	0
<0xBB>	0
<0xBC>	0
<0xBD>	0
<0xBE>	0
<0xBF>	0
<0xC0>	0
<0xC1>	0
<0xC2>	0
<0xC3>	0
<0xC4>	0
<0xC5>	0
<0xC6>	0
<0xC7>	0
<0xC8>	0
<0xC9>	0
<0xCA>	0
<0xCB>	0
<0xCC>	0
<0xCD>	0
<0xCE>	0
<0xCF>	0
<0xD0>	0
<0xD1>	0
<0xD2>	0
<0xD3>	0
<0xD4>	0
<0xD5>	0
<0xD6>	0
<0xD7>	0
<0xD8>	0
<0xD9>	0
<0xDA>	0
<0xDB>	0
<0xDC>	0
<0xDD>	0
<0xDE>	0
<0xDF>	0
<0xE0>	0
<0xE1>	0
<0xE2>	0
<0xE3>	0
<0xE4>	0
<0xE5>	0
<0xE6>	0
<0xE7>	0
<0xE8>	0
<0xE9>	0
<0xEA>	0
<0xEB>	0
<0xEC>	0
<0xED>	0
<0xEE>	0
<0xEF>	0
<0xF0>	0
<0xF1>	0
<0xF2>	0
<0xF3>	0
<0xF4>	0
<0xF5>	0
<0xF6>	0
<0xF7>	0
<0xF8>	0
<0xF9>	0
<0xFA>	0
<0xFB>	0
<0xFC>	0
<0xFD>	0
<0xFE>	0
<0xFF>	0
in	-0
ər	-1
ar	-2
an	-3
də	-4
ın	-5
il	-6
ir	-7
▁b	-8
▁m	-9
da	-10
iy	-11
lər	-12
ən	-13
al	-14
ət	-15
▁s	-16
▁v	-17
▁t	-18
əs	-19
ay	-20
lar	-21
▁o	-22
as	-23
▁k	-24
un	-25
▁e	-26
əl	-27
▁q	-28
▁y	-29
▁h	-30
▁i	-31
at	-32
▁d	-33
▁və	-34
▁g	-35
ün	-36
ək	-37
er	-38
▁A	-39
li	-40
ır	-41
am	-42
əm	-43
di	-44
st	-45
aq	-46
▁ol	-47
ində	-48
dir	-49
ur	-50
az	-51
lı	-52
▁il	-53
aş	-54
ey	-55
mi	-56
on	-57
▁n	-58
▁B	-59
▁mü	-60
inin	-61
▁ki	-62
əy	-63
ad	-64
ib	-65
əh	-66
iyy	-67
▁M	-68
▁ç	-69
dən	-70
zər	-71
lə	-72
iz	-73
▁da	-74
en	-75
ik	-76
or	-77
əb	-78
ların	-79
▁p	-80
▁ü	-81
▁ö	-82
▁x	-83
ağ	-84
asın	-85
▁də	-86
▁gö	-87
▁r	-88
can	-89
ak	-90
▁ş	-91
is	-92
▁bir	-93
bay	-94
əd	-95
ələr	-96
baycan	-97
ab	-98
▁f	-99
ul	-100
dan	-101
zərbaycan	-102
inə	-103
ah	-104
ini	-105
ası	-106
ış	-107
im	-108
▁Azərbaycan	-109
▁İ	-110
dır	-111
öv	-112
ax	-113
iyyət	-114
ıl	-115
▁et	-116
eç	-117
ür	-118
əsi	-119
ol	-120
ub	-121
▁ilə	-122
▁S	-123
um	-124
id	-125
▁bu	-126
iş	-127
▁a	-128
us	-129
it	-130
iq	-131
▁Q	-132
ləri	-133
▁T	-134
▁ver	-135
əf	-136
▁R	-137
liy	-138
▁in	-139
ları	-140
iya	-141
ev	-142
es	-143
lik	-144
dı	-145
ov	-146
anın	-147
▁“	-148
ci	-149
▁H	-150
əz	-151
▁Ə	-152
et	-153
dil	-154
▁bil	-155
▁iş	-156
▁gör	-157
ra	-158
ədə	-159
əc	-160
ük	-161
la	-162
▁ist	-163
▁c	-164
▁ar	-165
əq	-166
if	-167
▁K	-168
▁on	-169
▁baş	-170
▁D	-171
indən	-172
əş	-173
ında	-174
ıb	-175
▁P	-176
ro	-177
▁üç	-178
lan	-179
▁edil	-180
du	-181
▁N	-182
miş	-183
ox	-184
▁keç	-185
▁al	-186
mək	-187
ac	-188
ız	-189
▁üçün	-190
av	-191
▁z	-192
lət	-193
▁O	-194
▁olun	-195
çı	-196
ent	-197
üş	-198
ım	-199
ki	-200
ının	-201
▁öl	-202
af	-203
üm	-204
sə	-205
▁əs	-206
alar	-207
lıq	-208
ması	-209
▁yar	-210
▁"	-211
ek	-212
əti	-213
ist	-214
▁u	-215
diy	-216
▁son	-217
▁E	-218
əsində	-219
lərin	-220
övlət	-221
ut	-222
▁tər	-223
məsi	-224
▁əl	-225
▁olan	-226
ilər	-227
şı	-228
om	-229
əv	-230
unun	-231
em	-232
lən	-233
ına	-234
əx	-235
▁öz	-236
▁hər	-237
ari	-238
asının	-239
asında	-240
▁keçir	-241
▁olm	-242
▁(	-243
▁ölk	-244
si	-245
re	-246
öy	-247
lay	-248
alı	-249
▁Bu	-250
▁çox	-251
▁yer	-252
▁qar	-253
▁F	-254
▁həm	-255
uş	-256
ını	-257
▁dey	-258
eyd	-259
lu	-260
mən	-261
▁Ş	-262
▁X	-263
▁üz	-264
▁Y	-265
ğı	-266
cə	-267
▁gün	-268
▁edir	-269
ül	-270
ada	-271
iv	-272
alq	-273
▁görə	-274
▁kimi	-275
ıq	-276
adə	-277
üs	-278
mış	-279
əli	-280
üt	-281
ıx	-282
▁gəl	-283
əyə	-284
▁mən	-285
anı	-286
▁pro	-287
ləş	-288
▁-	-289
oy	-290
▁əm	-291
▁bağ	-292
unu	-293
el	-294
▁tərəf	-295
daş	-296
▁C	-297
▁ər	-298
▁oldu	-299
dib	-300
▁G	-301
adi	-302
ublik	-303
ma	-304
diril	-305
esp	-306
maq	-307
espublik	-308
ident	-309
▁dövlət	-310
▁isə	-311
zident	-312
▁çıx	-313
eni	-314
lam	-315
mət	-316
rezident	-317
əlum	-318
əsinin	-319
▁V	-320
▁ad	-321
miz	-322
▁sonra	-323
diyi	-324
azir	-325
illi	-326
▁edib	-327
rmən	-328
larının	-329
▁az	-330
ans	-331
ənin	-332
stər	-333
kil	-334
dar	-335
▁keçiril	-336
iyyat	-337
par	-338
dur	-339
ha	-340
gər	-341
▁yaş	-342
▁göstər	-343
▁sah	-344
▁L	-345
▁məs	-346
▁təş	-347
▁zam	-348
ekt	-349
uz	-350
▁olar	-351
araq	-352
ədən	-353
üny	-354
▁daha	-355
▁ay	-356
liyev	-357
▁Respublik	-358
▁yol	-359
▁həy	-360
ilə	-361
▁bağlı	-362
▁təh	-363
eyn	-364
laş	-365
▁art	-366
▁məlum	-367
ələri	-368
▁Əliyev	-369
▁qal	-370
acaq	-371
azır	-372
▁bildir	-373
əhər	-374
lərinin	-375
ürk	-376
▁həyat	-377
▁qarşı	-378
▁or	-379
▁məh	-380
▁yax	-381
adı	-382
san	-383
▁nə	-384
axt	-385
arix	-386
əcək	-387
▁təm	-388
öyük	-389
▁təs	-390
dim	-391
▁re	-392
rə	-393
anda	-394
▁sö	-395
▁ic	-396
üz	-397
ap	-398
ri	-399
akı	-400
üb	-401
man	-402
▁əsas	-403
aya	-404
lara	-405
▁məlumat	-406
▁yeni	-407
elə	-408
▁qur	-409
▁di	-410
▁fə	-411
ütün	-412
əsinə	-413
▁im	-414
lığ	-415
bir	-416
cü	-417
iyas	-418
liyi	-419
asına	-420
uq	-421
▁apar	-422
ayon	-423
▁tarix	-424
▁mər	-425
▁bar	-426
▁edə	-427
cı	-428
▁fəal	-429
kiş	-430
▁olduğ	-431
..	-432
kişaf	-433
▁təd	-434
ru	-435
▁U	-436
▁ildə	-437
kı	-438
▁ən	-439
əfər	-440
tir	-441
tis	-442
▁təşkil	-443
▁haq	-444
akt	-445
▁müh	-446
▁düny	-447
▁var	-448
▁onun	-449
▁tərəfindən	-450
unda	-451
▁veril	-452
▁böyük	-453
əxs	-454
▁biz	-455
▁düş	-456
▁üzrə	-457
▁inkişaf	-458
adan	-459
orm	-460
▁dəy	-461
▁edən	-462
sil	-463
▁an	-464
iyyəti	-465
▁dər	-466
bi	-467
▁say	-468
dər	-469
▁söz	-470
ağı	-471
▁olaraq	-472
▁Prezident	-473
ədər	-474
bər	-475
▁Rus	-476
mə	-477
▁şəhər	-478
▁bütün	-479
ətən	-480
▁vəz	-481
▁etmək	-482
lərinə	-483
ılması	-484
▁rayon	-485
▁hazır	-486
▁siyas	-487
cu	-488
oğ	-489
▁On	-490
lərə	-491
▁təl	-492
ənc	-493
lərdə	-494
əbər	-495
lərini	-496
isi	-497
siy	-498
▁əraz	-499
▁möv	-500
art	-501
dik	-502
▁l	-503
▁el	-504
▁hü	-505
sa	-506
▁qeyd	-507
▁yan	-508
ör	-509
ram	-510
una	-511
▁mün	-512
▁tut	-513
ot	-514
▁qədər	-515
▁sən	-516
▁Ç	-517
▁nəti	-518
▁sər	-519
ından	-520
▁məsəl	-521
▁Ermən	-522
▁de	-523
▁qay	-524
arət	-525
▁İn	-526
▁verir	-527
▁Türk	-528
olo	-529
▁məq	-530
▁xəbər	-531
ənd	-532
▁barədə	-533
lük	-534
▁arasında	-535
▁haqq	-536
eh	-537
lü	-538
▁insan	-539
▁olub	-540
▁Bakı	-541
▁etm	-542
kar	-543
ih	-544
▁Azərbaycanın	-545
os	-546
▁əh	-547
▁yaz	-548
xalq	-549
▁deyil	-550
▁İl	-551
iyə	-552
▁at	-553
▁yük	-554
▁şəxs	-555
əyi	-556
▁nüm	-557
kəz	-558
▁əv	-559
iss	-560
sı	-561
▁nətic	-562
▁bax	-563
eynəl	-564
əss	-565
yn	-566
▁iştir	-567
esab	-568
ayət	-569
▁dav	-570
eynəlxalq	-571
anış	-572
▁Ermənist	-573
kəm	-574
▁Nazir	-575
əkil	-576
üsus	-577
muş	-578
▁Av	-579
▁digər	-580
▁st	-581
sin	-582
xil	-583
fi	-584
▁xalq	-585
ob	-586
larını	-587
▁ge	-588
əyy	-589
eri	-590
▁təq	-591
ağa	-592
▁əmək	-593
▁idi	-594
yan	-595
▁Qar	-596
məd	-597
ok	-598
ılm	-599
ta	-600
idmət	-601
▁bilər	-602
▁şər	-603
▁fəaliyyət	-604
quq	-605
abr	-606
▁Z	-607
▁Dövlət	-608
ifadə	-609
asiya	-610
təl	-611
▁tədbir	-612
▁rəh	-613
▁qəb	-614
▁po	-615
ılı	-616
▁göz	-617
vəl	-618
▁tək	-619
▁te	-620
mişdir	-621
ələrin	-622
▁haqqında	-623
əsini	-624
əlli	-625
▁lay	-626
asını	-627
▁daxil	-628
▁rəhbər	-629
▁seç	-630
atı	-631
▁kö	-632
ətb	-633
▁istifadə	-634
▁çat	-635
▁mək	-636
may	-637
dət	-638
övr	-639
▁ilk	-640
▁hesab	-641
rop	-642
▁av	-643
larda	-644
▁davam	-645
ion	-646
▁Respublikasının	-647
▁iştirak	-648
▁həyata	-649
▁xüsus	-650
undan	-651
▁əlaq	-652
▁vaxt	-653
▁yüks	-654
__	-655
ji	-656
▁qər	-657
▁bildirib	-658
öl	-659
ılan	-660
▁id	-661
▁belə	-662
qtis	-663
inci	-664
▁vur	-665
asib	-666
larına	-667
▁kom	-668
▁dövr	-669
ya	-670
▁Milli	-671
▁qan	-672
ef	-673
sial	-674
op	-675
▁qəbul	-676
▁qaz	-677
əndə	-678
”.	-679
▁tələb	-680
iyyə	-681
▁Bir	-682
▁mil	-683
iyanın	-684
▁nəzər	-685
▁dəf	-686
▁ya	-687
▁hüquq	-688
▁uğ	-689
▁su	-690
ham	-691
▁tam	-692
▁münasib	-693
▁müx	-694
▁qoy	-695
▁hiss	-696
ran	-697
▁təmin	-698
oru	-699
öh	-700
▁əvvəl	-701
oş	-702
əng	-703
lərində	-704
▁gü	-705
▁iki	-706
dım	-707
ləy	-708
dür	-709
▁heç	-710
tim	-711
▁həl	-712
▁xidmət	-713
▁İs	-714
▁nümay	-715
▁nazir	-716
▁yox	-717
əyyən	-718
təb	-719
arı	-720
izə	-721
dığı	-722
▁gen	-723
eş	-724
▁həmin	-725
əni	-726
▁açı	-727
mir	-728
ğul	-729
aşdır	-730
▁yarad	-731
▁Avrop	-732
▁vətən	-733
akim	-734
▁Rusiya	-735
▁mal	-736
ımız	-737
▁səb	-738
ök	-739
▁müd	-740
▁kon	-741
▁min	-742
▁İlham	-743
lardan	-744
ers	-745
əmiyyət	-746
▁özün	-747
▁müəyyən	-748
amət	-749
lığı	-750
▁hal	-751
kt	-752
ic	-753
▁münasibət	-754
▁Al	-755
▁ağ	-756
abağ	-757
laşdır	-758
▁təhsil	-759
üv	-760
ilm	-761
▁dəst	-762
ılıb	-763
liyinin	-764
▁beynəlxalq	-765
ələrinin	-766
▁əməkdaş	-767
rans	-768
imiz	-769
▁An	-770
▁dəyiş	-771
osial	-772
▁növ	-773
▁böl	-774
ğun	-775
▁yay	-776
raf	-777
▁danış	-778
▁Ö	-779
▁səbəb	-780
▁ilin	-781
larında	-782
▁ev	-783
rup	-784
akin	-785
▁layih	-786
▁yaxın	-787
▁mad	-788
bət	-789
▁iqtis	-790
idə	-791
▁ir	-792
▁istiq	-793
bl	-794
▁biri	-795
▁yüksək	-796
ark	-797
omi	-798
səd	-799
stan	-800
▁ön	-801
ğu	-802
▁aş	-803
▁mədən	-804
ait	-805
▁pros	-806
lis	-807
▁Mü	-808
▁çal	-809
▁qiy	-810
▁bur	-811
arici	-812
ilik	-813
▁təb	-814
▁görüş	-815
larla	-816
ətin	-817
lərdən	-818
per	-819
▁Azərbaycanda	-820
▁Ermənistan	-821
asiy	-822
çi	-823
ərq	-824
ina	-825
▁təqdim	-826
▁edilib	-827
▁elə	-828
▁məş	-829
▁fik	-830
əsiz	-831
▁müddət	-832
▁dil	-833
▁milli	-834
mum	-835
təlif	-836
▁uz	-837
aları	-838
▁sax	-839
▁çək	-840
▁ermən	-841
asit	-842
üf	-843
dü	-844
▁kənd	-845
eydər	-846
xan	-847
iqq	-848
çilər	-849
▁üzv	-850
▁güc	-851
ləndir	-852
BŞ	-853
▁sür	-854
ərək	-855
▁istiqamət	-856
▁Mər	-857
əst	-858
ətir	-859
▁çıxış	-860
▁hərbi	-861
▁edilməsi	-862
▁olduğunu	-863
▁etdiyi	-864
▁zamanı	-865
ılmış	-866
alan	-867
▁hadi	-868
▁oğ	-869
▁azad	-870
ön	-871
▁nəfər	-872
məy	-873
▁tap	-874
▁çalış	-875
lərlə	-876
▁El	-877
dam	-878
▁zaman	-879
luq	-880
▁artıq	-881
▁başq	-882
▁yaşay	-883
▁diqq	-884
▁dəfə	-885
tima	-886
▁müxtəlif	-887
▁Heydər	-888
şaq	-889
▁yet	-890
▁onların	-891
▁geniş	-892
▁yerləş	-893
▁ABŞ	-894
▁açıq	-895
evr	-896
çinin	-897
▁Qeyd	-898
mız	-899
▁müəlli	-900
▁alın	-901
əmməd	-902
▁Ü	-903
▁şəkil	-904
▁əməl	-905
▁qərar	-906
▁Həm	-907
rat	-908
▁if	-909
▁uğur	-910
▁Ar	-911
yni	-912
...	-913
▁məktəb	-914
dafi	-915
▁müs	-916
▁təşkilat	-917
ca	-918
▁hakim	-919
est	-920
izm	-921
üvv	-922
▁gətir	-923
lərindən	-924
▁vasit	-925
▁imk	-926
arib	-927
qan	-928
▁olduğu	-929
▁Am	-930
ud	-931
▁maraq	-932
▁Avropa	-933
qiq	-934
▁bər	-935
ovun	-936
▁ək	-937
▁Qarabağ	-938
aç	-939
caq	-940
van	-941
ort	-942
▁vəzif	-943
der	-944
▁səd	-945
▁olunub	-946
▁Respublikası	-947
ığ	-948
▁sosial	-949
irk	-950
▁probl	-951
sul	-952
▁etdir	-953
▁müb	-954
▁proses	-955
xn	-956
▁qiymət	-957
▁eh	-958
▁olunan	-959
▁doğ	-960
anat	-961
əssis	-962
▁siyasi	-963
ündə	-964
ansı	-965
kr	-966
ılır	-967
kən	-968
ilən	-969
tt	-970
orp	-971
itet	-972
▁təhlük	-973
nin	-974
".	-975
▁səh	-976
▁xüsusi	-977
▁Əliyevin	-978
▁gənc	-979
dilər	-980
dakı	-981
eft	-982
▁qanun	-983
▁təc	-984
tab	-985
▁səv	-986
rin	-987
▁uy	-988
▁prezident	-989
əyin	-990
▁mily	-991
▁ədə	-992
Azərbaycan	-993
▁maddə	-994
ələrdə	-995
əmiz	-996
oq	-997
▁deyib	-998
iki	-999
▁qrup	-1000
▁olunur	-1001
▁onu	-1002
▁səviyy	-1003
▁li	-1004
▁hey	-1005
▁müv	-1006
▁diqqət	-1007
▁şəkildə	-1008
▁olunmuş	-1009
▁akt	-1010
ova	-1011
irlər	-1012
mağa	-1013
▁kitab	-1014
ili	-1015
▁ox	-1016
dirilməsi	-1017
rı	-1018
▁alt	-1019
lah	-1020
▁form	-1021
məyə	-1022
▁edək	-1023
▁zər	-1024
▁edəc	-1025
▁ərz	-1026
▁Baş	-1027
▁–	-1028
urn	-1029
▁yanaş	-1030
▁sist	-1031
▁istəy	-1032
▁aç	-1033
ləm	-1034
kün	-1035
▁Mərkəz	-1036
ux	-1037
ank	-1038
▁məqsəd	-1039
olog	-1040
dığ	-1041
▁sal	-1042
▁olmuş	-1043
ilah	-1044
▁olur	-1045
▁vətəndaş	-1046
▁nümayəndə	-1047
mr	-1048
▁müq	-1049
tür	-1050
▁fa	-1051
▁sır	-1052
▁müharib	-1053
▁problem	-1054
▁çıxar	-1055
ika	-1056
iqi	-1057
inayət	-1058
usu	-1059
▁am	-1060
”,	-1061
▁keçirilən	-1062
▁əks	-1063
▁uyğun	-1064
min	-1065
▁hansı	-1066
▁mərkəz	-1067
▁Ağ	-1068
▁ictima	-1069
ost	-1070
▁bəy	-1071
▁üzər	-1072
ələn	-1073
siz	-1074
üd	-1075
▁dol	-1076
alıdır	-1077
▁kəs	-1078
▁başqa	-1079
▁edər	-1080
ərç	-1081
▁nəticəsində	-1082
▁verib	-1083
Az	-1084
▁qey	-1085
▁en	-1086
larından	-1087
▁olmaq	-1088
gion	-1089
▁hök	-1090
əsən	-1091
ti	-1092
çu	-1093
landır	-1094
ayn	-1095
irə	-1096
▁bəz	-1097
▁inf	-1098
məsinə	-1099
▁xarici	-1100
▁edilmiş	-1101
▁əsər	-1102
▁rəs	-1103
▁avt	-1104
▁başlay	-1105
▁oy	-1106
▁ölkə	-1107
▁qız	-1108
▁yaxşı	-1109
▁sev	-1110
▁imkan	-1111
▁uşaq	-1112
▁müst	-1113
▁me	-1114
qram	-1115
▁Məh	-1116
eçə	-1117
ivers	-1118
dıq	-1119
əvi	-1120
ğal	-1121
əlidir	-1122
▁əlav	-1123
▁əsasən	-1124
ayıb	-1125
▁dünya	-1126
əsindən	-1127
▁par	-1128
siya	-1129
diyini	-1130
▁Türkiyə	-1131
▁sahib	-1132
▁qazan	-1133
masına	-1134
▁tarixi	-1135
lub	-1136
ast	-1137
▁vəziyyət	-1138
tər	-1139
larımız	-1140
ünü	-1141
▁başçı	-1142
▁dair	-1143
▁I	-1144
▁qəz	-1145
aat	-1146
▁ərzində	-1147
yabr	-1148
▁Məc	-1149
▁ik	-1150
var	-1151
▁yaran	-1152
adın	-1153
dafiə	-1154
▁torp	-1155
▁pay	-1156
tar	-1157
▁əldə	-1158
▁xan	-1159
afiq	-1160
▁Ab	-1161
▁dəyər	-1162
▁qarşıs	-1163
▁idar	-1164
▁ona	-1165
azı	-1166
iversitet	-1167
▁hərək	-1168
ünki	-1169
od	-1170
▁döy	-1171
ətinin	-1172
▁cav	-1173
ətbu	-1174
iyev	-1175
▁növb	-1176
iri	-1177
▁qüvv	-1178
▁Onun	-1179
▁işğal	-1180
▁Prezidenti	-1181
▁neçə	-1182
iyası	-1183
▁əlavə	-1184
▁qor	-1185
▁mey	-1186
ant	-1187
diq	-1188
asir	-1189
▁tutul	-1190
▁ölkəmiz	-1191
▁səs	-1192
▁Biz	-1193
▁adam	-1194
▁j	-1195
▁çatdır	-1196
tən	-1197
▁iqtisadi	-1198
▁Türkiy	-1199
▁tik	-1200
rik	-1201
ələrində	-1202
din	-1203
əlb	-1204
pl	-1205
▁ət	-1206
stit	-1207
əqil	-1208
ədi	-1209
oz	-1210
▁zamanda	-1211
azım	-1212
▁vurğul	-1213
▁səfər	-1214
▁imz	-1215
▁şərait	-1216
▁int	-1217
▁Mən	-1218
▁təsdiq	-1219
▁baz	-1220
▁yetir	-1221
▁isteh	-1222
▁top	-1223
____	-1224
sal	-1225
▁bizim	-1226
▁şa	-1227
▁Komi	-1228
▁edilir	-1229
▁olacaq	-1230
▁İr	-1231
▁ib	-1232
ks	-1233
iyasının	-1234
▁artır	-1235
▁şirk	-1236
isində	-1237
krayn	-1238
▁texn	-1239
▁orqan	-1240
▁rol	-1241
▁cavab	-1242
▁edilən	-1243
ətbuat	-1244
▁müz	-1245
raci	-1246
aların	-1247
▁müş	-1248
amı	-1249
▁yaradı	-1250
▁eyni	-1251
▁verən	-1252
▁müraci	-1253
▁mərh	-1254
▁region	-1255
▁etmiş	-1256
▁sistem	-1257
urnal	-1258
əlik	-1259
▁Belə	-1260
▁üst	-1261
▁tətb	-1262
gə	-1263
▁müzak	-1264
ndər	-1265
▁Ax	-1266
▁qayda	-1267
aln	-1268
imi	-1269
▁müvafiq	-1270
▁etdi	-1271
▁eht	-1272
▁tur	-1273
▁Son	-1274
▁mədəniyyət	-1275
▁Kon	-1276
ırdı	-1277
▁nəzərdə	-1278
ünün	-1279
ələrə	-1280
ləşdir	-1281
▁iy	-1282
▁silah	-1283
dirilib	-1284
ilir	-1285
▁əhal	-1286
ail	-1287
ayev	-1288
obil	-1289
▁hadis	-1290
atır	-1291
emi	-1292
▁iç	-1293
▁milyon	-1294
▁düşün	-1295
▁götür	-1296
▁manat	-1297
▁nö	-1298
ərçiv	-1299
▁Məmməd	-1300
tə	-1301
▁sədri	-1302
▁əməliyyat	-1303
alnız	-1304
▁dəstək	-1305
cud	-1306
inadən	-1307
▁edəcək	-1308
▁ə	-1309
▁istinadən	-1310
iddi	-1311
▁həmçinin	-1312
inq	-1313
▁çərçiv	-1314
▁naziri	-1315
▁döyüş	-1316
ed	-1317
▁mübar	-1318
uy	-1319
▁erməni	-1320
▁müraciət	-1321
▁bölg	-1322
▁müm	-1323
▁yarat	-1324
asından	-1325
▁part	-1326
▁fikir	-1327
▁gələn	-1328
▁müəssis	-1329
▁mümkün	-1330
ladı	-1331
▁avtom	-1332
▁get	-1333
▁din	-1334
▁qurul	-1335
▁Şur	-1336
▁yenidən	-1337
▁Ukrayn	-1338
▁müstəqil	-1339
iliy	-1340
oloji	-1341
lərimiz	-1342
▁ciddi	-1343
tı	-1344
ver	-1345
▁Amma	-1346
▁oğlu	-1347
ərbaycan	-1348
▁ətraf	-1349
▁əhəmiyyət	-1350
▁bit	-1351
▁nəz	-1352
▁icra	-1353
▁proqram	-1354
ayan	-1355
▁çevr	-1356
bol	-1357
▁sənəd	-1358
▁lazım	-1359
▁mövq	-1360
məz	-1361
▁torpaq	-1362
▁faiz	-1363
ond	-1364
▁bunu	-1365
▁müt	-1366
▁işlər	-1367
ünə	-1368
irdi	-1369
▁edərək	-1370
atr	-1371
▁Hər	-1372
▁tel	-1373
▁məhsul	-1374
▁saat	-1375
▁dayan	-1376
▁mövcud	-1377
▁mərhəl	-1378
müş	-1379
▁təsir	-1380
▁fərq	-1381
▁azərbaycan	-1382
ez	-1383
▁türk	-1384
ilərin	-1385
▁elmi	-1386
ağır	-1387
▁ümum	-1388
▁təhlükəsiz	-1389
▁həll	-1390
▁cüm	-1391
mışdır	-1392
▁idarə	-1393
▁mühüm	-1394
▁cinayət	-1395
▁xəs	-1396
▁malik	-1397
bur	-1398
ep	-1399
əhr	-1400
▁təkli	-1401
▁bunun	-1402
ıcı	-1403
▁sahəsində	-1404
▁ix	-1405
▁ab	-1406
▁qon	-1407
▁Un	-1408
▁çərçivəsində	-1409
▁müasir	-1410
əql	-1411
acağ	-1412
mu	-1413
▁plan	-1414
anında	-1415
▁siyasət	-1416
▁dərəc	-1417
▁iz	-1418
▁İş	-1419
suz	-1420
▁mus	-1421
▁ölkənin	-1422
▁ob	-1423
▁aid	-1424
▁qurum	-1425
▁hökum	-1426
ust	-1427
biyyat	-1428
ulu	-1429
▁nam	-1430
▁yalnız	-1431
▁illərdə	-1432
iləri	-1433
nam	-1434
▁göndər	-1435
mam	-1436
nın	-1437
ron	-1438
▁is	-1439
▁başa	-1440
▁saxlan	-1441
",	-1442
▁jurnal	-1443
liyin	-1444
▁oyn	-1445
▁tərk	-1446
▁hazırlan	-1447
ii	-1448
sız	-1449
dın	-1450
▁qadın	-1451
▁rəsmi	-1452
▁araşdır	-1453
▁qət	-1454
yü	-1455
aşa	-1456
▁Qər	-1457
▁düz	-1458
▁Or	-1459
▁Təh	-1460
▁tən	-1461
ırlar	-1462
▁təyin	-1463
▁uzun	-1464
cum	-1465
kin	-1466
▁addım	-1467
▁Lakin	-1468
▁mətbuat	-1469
ələrini	-1470
▁göstərir	-1471
ilib	-1472
),	-1473
▁yoxdur	-1474
lığın	-1475
▁möh	-1476
ətta	-1477
▁poz	-1478
əkk	-1479
▁qeyri	-1480
▁real	-1481
▁ail	-1482
▁Çünki	-1483
lin	-1484
▁yazı	-1485
ənub	-1486
üseyn	-1487
▁mövz	-1488
▁ibarət	-1489
ələrinə	-1490
hur	-1491
▁rəq	-1492
maz	-1493
rib	-1494
daq	-1495
ədar	-1496
▁xanım	-1497
▁şəhərində	-1498
iç	-1499
▁yanaşı	-1500
▁söy	-1501
▁kən	-1502
utbol	-1503
avat	-1504
▁ifadə	-1505
▁təklif	-1506
▁müav	-1507
daşı	-1508
həd	-1509
▁yerinə	-1510
▁yen	-1511
əcəy	-1512
▁yaradıcı	-1513
ern	-1514
▁deyə	-1515
iyada	-1516
ecə	-1517
▁altında	-1518
gi	-1519
▁məc	-1520
məm	-1521
əqliyyat	-1522
dirilir	-1523
▁görün	-1524
▁təx	-1525
▁aşağı	-1526
çisi	-1527
▁dəyişik	-1528
atının	-1529
▁sənət	-1530
gent	-1531
adiyyat	-1532
▁məhkəm	-1533
▁bay	-1534
▁ildən	-1535
ülh	-1536
öb	-1537
▁neft	-1538
▁cümlə	-1539
▁ictimai	-1540
▁sat	-1541
▁qab	-1542
irəm	-1543
▁qəl	-1544
▁dem	-1545
rət	-1546
▁onlar	-1547
ektor	-1548
▁Universitet	-1549
ativ	-1550
gün	-1551
▁soy	-1552
▁pul	-1553
ilməsi	-1554
▁bin	-1555
▁Nazirliyinin	-1556
▁dir	-1557
ektiv	-1558
▁azərbaycanlı	-1559
▁Əs	-1560
ıs	-1561
▁hərəkət	-1562
▁sözlərinə	-1563
▁şey	-1564
▁bəzi	-1565
▁tanın	-1566
eq	-1567
▁hələ	-1568
▁çəkil	-1569
lad	-1570
▁olması	-1571
abit	-1572
qaz	-1573
ürcü	-1574
▁İdar	-1575
▁çətin	-1576
▁sağ	-1577
▁kim	-1578
▁tətbiq	-1579
▁yolu	-1580
ərim	-1581
mumi	-1582
▁ter	-1583
dığını	-1584
ərr	-1585
▁Pro	-1586
▁ener	-1587
▁ax	-1588
şıl	-1589
▁xət	-1590
▁cəh	-1591
▁üzərində	-1592
▁met	-1593
ara	-1594
▁bərp	-1595
▁birinci	-1596
▁fakt	-1597
▁Əl	-1598
▁adı	-1599
▁cəmiyyət	-1600
▁dost	-1601
▁baxım	-1602
▁öy	-1603
▁istiqamətində	-1604
▁ot	-1605
▁hav	-1606
▁əsasında	-1607
▁cəlb	-1608
▁hakimiyyət	-1609
malar	-1610
rukt	-1611
ult	-1612
yə	-1613
▁indi	-1614
▁—	-1615
▁Əli	-1616
▁İran	-1617
▁əlaqədar	-1618
lament	-1619
ləğ	-1620
▁başlan	-1621
▁can	-1622
▁Bunun	-1623
▁Ər	-1624
▁tədbirlər	-1625
ror	-1626
izam	-1627
▁qəzet	-1628
▁ədəbiyyat	-1629
▁demək	-1630
▁bəl	-1631
▁Beynəlxalq	-1632
▁Nazirliyi	-1633
aqiş	-1634
▁ərazisində	-1635
▁cümlədən	-1636
asp	-1637
məlidir	-1638
▁qaldır	-1639
▁müəllim	-1640
▁gəlir	-1641
ırıq	-1642
▁nail	-1643
ovet	-1644
ələrlə	-1645
lığa	-1646
▁illər	-1647
▁komanda	-1648
▁vəs	-1649
▁ak	-1650
andan	-1651
▁İc	-1652
▁ikinci	-1653
▁olunması	-1654
▁səm	-1655
▁gələcək	-1656
ert	-1657
▁hücum	-1658
▁avtomobil	-1659
▁qoyul	-1660
▁Bakıda	-1661
▁Frans	-1662
▁zəng	-1663
▁adlı	-1664
▁müqav	-1665
ess	-1666
▁Azərbaycana	-1667
kv	-1668
acib	-1669
eg	-1670
ormasiya	-1671
▁həb	-1672
▁sıra	-1673
▁Sər	-1674
▁elekt	-1675
▁inkişafı	-1676
▁təmsil	-1677
▁birgə	-1678
▁mənim	-1679
abiq	-1680
emp	-1681
▁ölkədə	-1682
▁nümayiş	-1683
▁Ak	-1684
▁ola	-1685
ifaq	-1686
▁təcr	-1687
▁ağır	-1688
likdə	-1689
▁Qan	-1690
▁məz	-1691
▁imt	-1692
▁etməyə	-1693
▁Axar	-1694
▁daş	-1695
▁gözəl	-1696
▁film	-1697
▁rej	-1698
ban	-1699
zadə	-1700
▁tör	-1701
▁arx	-1702
▁boy	-1703
lim	-1704
▁Hüseyn	-1705
▁Həmin	-1706
▁Mərkəzi	-1707
▁sülh	-1708
▁necə	-1709
oc	-1710
ayı	-1711
▁futbol	-1712
▁münaqiş	-1713
▁çağır	-1714
əsr	-1715
▁müdafiə	-1716
▁oyun	-1717
ttifaq	-1718
▁yerləşən	-1719
▁köç	-1720
ahat	-1721
məti	-1722
urs	-1723
alın	-1724
vət	-1725
▁St	-1726
▁vacib	-1727
▁ord	-1728
mişdi	-1729
ələrdən	-1730
nun	-1731
öz	-1732
▁yerli	-1733
stitut	-1734
▁əz	-1735
liyini	-1736
qiqat	-1737
liyinə	-1738
ənn	-1739
sk	-1740
▁ərazilər	-1741
▁dəyişiklik	-1742
int	-1743
sın	-1744
▁formal	-1745
dia	-1746
ali	-1747
layıb	-1748
▁dur	-1749
▁Düny	-1750
▁istehsal	-1751
▁Bundan	-1752
▁Mus	-1753
▁özünü	-1754
▁məşğul	-1755
▁dəqiq	-1756
ruktur	-1757
▁rəhbəri	-1758
üç	-1759
▁mat	-1760
▁qayı	-1761
▁respublik	-1762
▁kat	-1763
afqaz	-1764
▁müavini	-1765
▁olduq	-1766
▁xey	-1767
▁burada	-1768
▁ziy	-1769
▁yaşlı	-1770
▁Komit	-1771
▁öyr	-1772
▁bundan	-1773
▁nəzarət	-1774
▁un	-1775
▁halda	-1776
▁prezidenti	-1777
▁nömr	-1778
▁bac	-1779
▁norm	-1780
na	-1781
gil	-1782
uh	-1783
▁Bil	-1784
▁orta	-1785
▁keçmiş	-1786
▁Əh	-1787
▁yardım	-1788
▁açıqlam	-1789
▁ümumi	-1790
▁mah	-1791
duğu	-1792
▁xəst	-1793
▁idman	-1794
▁elm	-1795
məsini	-1796
iyyətlə	-1797
▁növbəti	-1798
▁Ermənistanın	-1799
▁həbs	-1800
ektoru	-1801
▁Xalq	-1802
okrat	-1803
▁qoş	-1804
▁verilən	-1805
▁fəaliyyəti	-1806
▁bun	-1807
əbək	-1808
▁ap	-1809
▁Meh	-1810
ator	-1811
▁miq	-1812
axçı	-1813
▁kor	-1814
▁burax	-1815
iyalar	-1816
ard	-1817
▁nümun	-1818
▁Vətən	-1819
lk	-1820
▁məhz	-1821
eks	-1822
▁ort	-1823
taxt	-1824
ibar	-1825
frans	-1826
▁tarixli	-1827
imizin	-1828
əkar	-1829
▁Mos	-1830
▁keçirilib	-1831
izin	-1832
ris	-1833
▁dünyanın	-1834
▁qat	-1835
▁işləri	-1836
▁cür	-1837
▁verdiyi	-1838
▁jurnalist	-1839
▁Ancaq	-1840
end	-1841
▁Gənc	-1842
▁sərhəd	-1843
adığı	-1844
irus	-1845
▁kömək	-1846
▁daşı	-1847
▁iqtisadiyyat	-1848
▁nəzərə	-1849
▁klub	-1850
▁hadisə	-1851
▁Rusiyanın	-1852
▁səf	-1853
luğ	-1854
ərrüf	-1855
▁ediblər	-1856
ala	-1857
▁təcrüb	-1858
ləyir	-1859
▁Ümum	-1860
▁ötən	-1861
▁vəsait	-1862
sun	-1863
ləndiril	-1864
▁eləcə	-1865
kilər	-1866
▁Br	-1867
ahib	-1868
▁görül	-1869
▁edirlər	-1870
▁tez	-1871
▁məqsədilə	-1872
ərg	-1873
▁əməkdaşlıq	-1874
▁şöb	-1875
veri	-1876
las	-1877
ibi	-1878
▁ün	-1879
▁eks	-1880
▁rus	-1881
ologiya	-1882
▁dən	-1883
▁may	-1884
▁komi	-1885
empion	-1886
▁Hac	-1887
▁qaç	-1888
▁Gürcü	-1889
lində	-1890
▁hüquqi	-1891
əfli	-1892
▁lider	-1893
▁sayı	-1894
mun	-1895
▁mənt	-1896
ahidə	-1897
əzər	-1898
▁Mir	-1899
▁bildirir	-1900
▁meydan	-1901
▁alıb	-1902
isinin	-1903
▁həq	-1904
▁dağ	-1905
dikləri	-1906
siniz	-1907
azırda	-1908
əhid	-1909
dəki	-1910
▁hazırda	-1911
▁şəbək	-1912
ip	-1913
ütöv	-1914
▁başçısı	-1915
adığ	-1916
▁Dağ	-1917
of	-1918
▁dünyada	-1919
entyabr	-1920
▁üzvü	-1921
▁təz	-1922
▁öyrən	-1923
▁ərazi	-1924
▁iştirakçı	-1925
▁Moskv	-1926
▁Qur	-1927
▁irəli	-1928
▁nar	-1929
▁olmaqla	-1930
▁keçirilməsi	-1931
▁qarşısında	-1932
▁xar	-1933
oll	-1934
▁fər	-1935
▁şe	-1936
▁şirkət	-1937
▁yığ	-1938
dit	-1939
▁Müs	-1940
mışdı	-1941
▁tamam	-1942
▁edirəm	-1943
oyabr	-1944
▁peş	-1945
▁dek	-1946
▁yön	-1947
əxsus	-1948
▁verilib	-1949
əbb	-1950
▁lazımdır	-1951
əcəyi	-1952
▁azal	-1953
▁yaşayan	-1954
əhrəm	-1955
▁xoş	-1956
▁əvəz	-1957
▁Naxçı	-1958
▁xər	-1959
▁bazar	-1960
▁Te	-1961
▁nəş	-1962
pert	-1963
▁müzakirə	-1964
▁Mədən	-1965
▁xəstəl	-1966
▁millət	-1967
▁dep	-1968
▁qəs	-1969
mayaraq	-1970
ahid	-1971
ələ	-1972
▁məcbur	-1973
sip	-1974
▁buna	-1975
▁məsul	-1976
▁qul	-1977
ida	-1978
▁ödən	-1979
▁maraqlı	-1980
▁güclü	-1981
ual	-1982
▁terror	-1983
▁Ay	-1984
ktyabr	-1985
yekt	-1986
▁etir	-1987
▁adına	-1988
▁olmuşdur	-1989
əsilə	-1990
▁ayrı	-1991
istan	-1992
▁elan	-1993
▁etibar	-1994
▁məlumatına	-1995
üsü	-1996
▁amma	-1997
kur	-1998
▁sürət	-1999
▁Məs	-2000
▁arz	-2001
▁olunm	-2002
ılmasına	-2003
uc	-2004
vi	-2005
ədim	-2006
▁yad	-2007
II	-2008
plom	-2009
pan	-2010
lanan	-2011
:"	-2012
▁yarım	-2013
maqla	-2014
ıram	-2015
▁ayr	-2016
▁məlumata	-2017
▁şəx	-2018
eyf	-2019
▁Part	-2020
axtar	-2021
yev	-2022
izi	-2023
işə	-2024
▁sayt	-2025
məsinin	-2026
iyaya	-2027
aha	-2028
▁aşkar	-2029
▁rayonunun	-2030
▁olmayan	-2031
▁Ali	-2032
▁gəlib	-2033
▁bal	-2034
▁nəqliyyat	-2035
▁qorun	-2036
▁işi	-2037
üst	-2038
▁bütöv	-2039
▁Po	-2040
ayda	-2041
dək	-2042
liyə	-2043
▁İttifaq	-2044
irin	-2045
▁Öz	-2046
▁paytaxt	-2047
▁Yeni	-2048
çılar	-2049
▁Məhkəm	-2050
▁möhkəm	-2051
sədi	-2052
▁hətta	-2053
atlar	-2054
ağın	-2055
rada	-2056
MT	-2057
▁Qaz	-2058
acağı	-2059
ati	-2060
▁rə	-2061
▁sahədə	-2062
▁As	-2063
tal	-2064
ləyib	-2065
▁Ona	-2066
▁as	-2067
ssiy	-2068
▁prof	-2069
dul	-2070
▁etmişdir	-2071
sən	-2072
▁həsr	-2073
▁danışıq	-2074
ıblar	-2075
▁Türkiyənin	-2076
iyasi	-2077
mü	-2078
▁əsr	-2079
manın	-2080
▁ölüm	-2081
▁Həsən	-2082
▁müşahidə	-2083
uzey	-2084
▁Dağlıq	-2085
ündən	-2086
▁Alman	-2087
▁gir	-2088
▁mübarizə	-2089
▁söh	-2090
▁gündə	-2091
ana	-2092
▁Kom	-2093
▁Bur	-2094
▁Kr	-2095
▁tanış	-2096
▁maliyyə	-2097
sının	-2098
com	-2099
▁deyir	-2100
▁layiq	-2101
▁tib	-2102
zib	-2103
malı	-2104
umuz	-2105
▁səl	-2106
abin	-2107
▁bərpa	-2108
▁Rayon	-2109
▁vasitəsilə	-2110
▁sözləri	-2111
▁ali	-2112
▁nəs	-2113
ımızın	-2114
▁onlara	-2115
▁məqsədi	-2116
▁musiqi	-2117
rinsip	-2118
▁birlikdə	-2119
▁Qafqaz	-2120
▁özü	-2121
▁küç	-2122
▁dövründə	-2123
▁xarakt	-2124
ımı	-2125
▁baxmayaraq	-2126
ata	-2127
məsində	-2128
▁ehtiya	-2129
and	-2130
▁informasiya	-2131
məyib	-2132
▁Fər	-2133
lamaq	-2134
nə	-2135
mər	-2136
yun	-2137
Bu	-2138
▁ası	-2139
▁düşmən	-2140
▁insanların	-2141
▁yaşayış	-2142
▁Böyük	-2143
▁yanvar	-2144
▁məras	-2145
qar	-2146
▁sonr	-2147
▁prinsip	-2148
▁zəngin	-2149
▁məsələ	-2150
▁təsərrüf	-2151
▁qap	-2152
übh	-2153
çilik	-2154
▁kar	-2155
▁val	-2156
▁məb	-2157
▁tə	-2158
▁ür	-2159
▁ənən	-2160
abinet	-2161
▁parlament	-2162
dud	-2163
▁Təd	-2164
erial	-2165
veric	-2166
▁sentyabr	-2167
əlil	-2168
▁qı	-2169
ələrindən	-2170
▁strat	-2171
▁rəhbərliyi	-2172
▁uzaq	-2173
▁pl	-2174
▁əy	-2175
▁Gör	-2176
▁ins	-2177
▁təşəbb	-2178
▁təbii	-2179
▁Mədəniyyət	-2180
kaf	-2181
▁tərkib	-2182
▁mis	-2183
ləndirilməsi	-2184
▁vurğulayıb	-2185
luğu	-2186
▁ma	-2187
▁keçiriləcək	-2188
▁göstərən	-2189
▁itir	-2190
▁sual	-2191
alarının	-2192
▁təlim	-2193
▁keyf	-2194
________	-2195
▁tapş	-2196
▁apre	-2197
▁noyabr	-2198
▁uğr	-2199
gir	-2200
▁kons	-2201
▁həd	-2202
▁almaq	-2203
▁İslam	-2204
▁Di	-2205
▁Bütün	-2206
▁Par	-2207
▁diplom	-2208
str	-2209
▁Şərq	-2210
▁insanlar	-2211
▁məm	-2212
▁bələd	-2213
▁Fond	-2214
lıqlı	-2215
▁Nazirlər	-2216
lığını	-2217
▁ruh	-2218
▁Akad	-2219
▁sak	-2220
lığında	-2221
▁daxili	-2222
▁Hazırda	-2223
▁mədəni	-2224
▁sadə	-2225
ahı	-2226
▁nömrəli	-2227
ilmiş	-2228
▁illik	-2229
▁məşhur	-2230
▁oktyabr	-2231
indəki	-2232
əncam	-2233
br	-2234
çik	-2235
mayıl	-2236
▁hamı	-2237
▁istər	-2238
ənab	-2239
məklə	-2240
▁dön	-2241
▁Təb	-2242
▁qardaş	-2243
▁dekabr	-2244
▁ixtis	-2245
▁mükaf	-2246
eder	-2247
▁zərur	-2248
▁Eyni	-2249
əll	-2250
▁Cənub	-2251
▁mart	-2252
▁oxu	-2253
▁enerji	-2254
əxan	-2255
▁şəhid	-2256
▁gözlən	-2257
▁Məlum	-2258
lığının	-2259
▁şəxsi	-2260
▁Sur	-2261
▁tikin	-2262
▁kənar	-2263
▁səviyyədə	-2264
▁Onlar	-2265
asiyası	-2266
qır	-2267
▁Allah	-2268
ışdır	-2269
▁polis	-2270
əqq	-2271
▁söhbət	-2272
▁Ukrayna	-2273
▁Az	-2274
▁islah	-2275
masının	-2276
ell	-2277
▁alim	-2278
iyyətinin	-2279
iniz	-2280
▁hədə	-2281
rar	-2282
▁yanında	-2283
alıq	-2284
▁Şuş	-2285
edi	-2286
▁bilmir	-2287
▁hissəsi	-2288
izəd	-2289
▁dərin	-2290
övq	-2291
▁asılı	-2292
▁ölkəmizin	-2293
ğın	-2294
▁edilmişdir	-2295
▁mövqey	-2296
▁geri	-2297
▁teatr	-2298
▁sədr	-2299
▁sığ	-2300
▁şəxslər	-2301
▁İnstitut	-2302
▁əhat	-2303
▁deput	-2304
▁qır	-2305
çək	-2306
▁Təş	-2307
▁mə	-2308
icarət	-2309
▁atəş	-2310
▁nəşr	-2311
▁xatır	-2312
▁Bununla	-2313
mil	-2314
▁mənb	-2315
▁xarakter	-2316
▁kil	-2317
liğ	-2318
nik	-2319
▁qələb	-2320
məyi	-2321
▁günü	-2322
lak	-2323
▁yaradılması	-2324
diri	-2325
▁yaşam	-2326
▁Bay	-2327
▁öldür	-2328
▁Tur	-2329
lıb	-2330
▁məruz	-2331
atik	-2332
oğlu	-2333
iyyətli	-2334
▁dini	-2335
za	-2336
▁hava	-2337
əxəssis	-2338
▁xat	-2339
iyi	-2340
ttih	-2341
▁inkişafına	-2342
▁direktoru	-2343
▁Xarici	-2344
etr	-2345
nı	-2346
▁cəm	-2347
işi	-2348
atın	-2349
▁konfrans	-2350
▁çempion	-2351
▁Əmək	-2352
▁İşlər	-2353
▁mövqe	-2354
SR	-2355
alif	-2356
▁məntəq	-2357
▁raz	-2358
ülən	-2359
məli	-2360
▁məşq	-2361
▁axtar	-2362
▁cəz	-2363
ide	-2364
▁BMT	-2365
▁onları	-2366
▁sənay	-2367
▁yarış	-2368
▁inan	-2369
lüy	-2370
kuror	-2371
dənin	-2372
▁öncə	-2373
onun	-2374
▁şərt	-2375
yer	-2376
şa	-2377
milli	-2378
qust	-2379
sinin	-2380
▁rayonu	-2381
▁alan	-2382
▁küt	-2383
▁bank	-2384
dikdən	-2385
▁həqiq	-2386
ılacaq	-2387
▁gedir	-2388
▁fevr	-2389
▁tox	-2390
irik	-2391
▁tədqiqat	-2392
▁Tər	-2393
▁Dünya	-2394
düyü	-2395
▁yek	-2396
▁qəsəb	-2397
▁təbliğ	-2398
▁turizm	-2399
▁Şurasının	-2400
▁Naxçıvan	-2401
qt	-2402
xu	-2403
▁edirik	-2404
▁müzakir	-2405
ıldı	-2406
▁Məmmədov	-2407
▁sakin	-2408
zibati	-2409
▁siy	-2410
▁üstün	-2411
▁namizəd	-2412
▁Əgər	-2413
▁büd	-2414
dalət	-2415
atları	-2416
ahan	-2417
onav	-2418
ləyən	-2419
əkim	-2420
abər	-2421
▁mənə	-2422
▁Kabinet	-2423
mid	-2424
liklə	-2425
▁yux	-2426
▁məxsus	-2427
bas	-2428
▁Əhməd	-2429
▁Paş	-2430
▁önəm	-2431
▁Təşkil	-2432
▁müqavil	-2433
redit	-2434
örd	-2435
eyh	-2436
▁fərqli	-2437
▁qarşıl	-2438
▁aparılan	-2439
▁Şah	-2440
eral	-2441
üfuz	-2442
▁doğru	-2443
res	-2444
▁bilməz	-2445
▁İsmayıl	-2446
▁rayonunda	-2447
mür	-2448
çısı	-2449
▁abidə	-2450
inal	-2451
▁keçən	-2452
idməti	-2453
ılmışdır	-2454
▁lakin	-2455
ahim	-2456
▁kiş	-2457
▁əsgər	-2458
▁kam	-2459
▁gedən	-2460
▁dövrdə	-2461
ədii	-2462
uman	-2463
əhrəman	-2464
▁ek	-2465
yor	-2466
▁əhəmiyyətli	-2467
▁yüksəl	-2468
▁şeir	-2469
▁sağlam	-2470
▁olundu	-2471
▁aydın	-2472
çiləri	-2473
▁İst	-2474
▁hakimiyyəti	-2475
▁yerdə	-2476
▁imzalan	-2477
▁səlah	-2478
▁nüfuz	-2479
itan	-2480
lob	-2481
amız	-2482
vest	-2483
▁dollar	-2484
▁qarşılıqlı	-2485
eyt	-2486
usunun	-2487
uliyev	-2488
çılıq	-2489
▁inc	-2490
▁qədim	-2491
intaq	-2492
▁gül	-2493
▁qis	-2494
▁Bak	-2495
bəy	-2496
▁başladı	-2497
▁obyekt	-2498
▁olsa	-2499
▁mühit	-2500
▁demokrat	-2501
oloq	-2502
axı	-2503
▁SSR	-2504
▁ittih	-2505
▁edirdi	-2506
▁şübh	-2507
▁Amer	-2508
▁kiçik	-2509
▁yağ	-2510
liz	-2511
▁Xidmət	-2512
▁kif	-2513
▁bayram	-2514
▁stat	-2515
itar	-2516
▁fəl	-2517
▁adlandır	-2518
əlman	-2519
əff	-2520
▁məbləğ	-2521
mizin	-2522
▁hökumət	-2523
▁ayında	-2524
▁aradan	-2525
▁dərs	-2526
etmə	-2527
▁sektor	-2528
▁verilməsi	-2529
▁keçirilir	-2530
onavirus	-2531
▁ehtiy	-2532
▁olsun	-2533
stitus	-2534
▁həmişə	-2535
▁man	-2536
▁icl	-2537
▁bərabər	-2538
▁mübariz	-2539
ümüz	-2540
▁kifayət	-2541
duz	-2542
örmət	-2543
estiv	-2544
bul	-2545
▁Daha	-2546
▁müsbət	-2547
▁səmər	-2548
laq	-2549
▁birləş	-2550
▁dəniz	-2551
▁uc	-2552
▁uğrunda	-2553
▁ailə	-2554
▁imzal	-2555
▁maş	-2556
▁iyul	-2557
abelə	-2558
▁sim	-2559
▁etməsi	-2560
işin	-2561
▁həf	-2562
▁Prezidentinin	-2563
və	-2564
malıdır	-2565
oten	-2566
▁istis	-2567
isti	-2568
▁Sən	-2569
▁uç	-2570
oqraf	-2571
▁Agent	-2572
masını	-2573
▁ölkəmizdə	-2574
▁Bel	-2575
Qar	-2576
▁şəhəri	-2577
eviz	-2578
▁rəng	-2579
imal	-2580
▁bizə	-2581
arası	-2582
iyalı	-2583
ec	-2584
▁Ap	-2585
ter	-2586
▁bununla	-2587
▁daim	-2588
PA	-2589
▁tanı	-2590
lobal	-2591
▁Qərb	-2592
say	-2593
nes	-2594
▁Xoc	-2595
▁sıx	-2596
▁it	-2597
anal	-2598
lənməsi	-2599
lükəsiz	-2600
▁mar	-2601
lıqla	-2602
essor	-2603
uk	-2604
▁qol	-2605
▁xərc	-2606
▁ancaq	-2607
ünas	-2608
▁məhdud	-2609
▁əhatə	-2610
▁meda	-2611
▁kin	-2612
anə	-2613
▁məqam	-2614
ilikdə	-2615
▁uğurla	-2616
▁başlayıb	-2617
▁silahlı	-2618
▁sor	-2619
ərgin	-2620
).	-2621
▁ehtiyac	-2622
▁əksər	-2623
▁poten	-2624
▁Nizam	-2625
əyyar	-2626
▁razıl	-2627
dikdə	-2628
masında	-2629
▁səy	-2630
inc	-2631
atur	-2632
iblər	-2633
▁uğurlu	-2634
adr	-2635
▁şəxslərin	-2636
məyən	-2637
▁habelə	-2638
▁orada	-2639
adağ	-2640
▁təkcə	-2641
▁mövzu	-2642
▁Həmçinin	-2643
▁şah	-2644
▁eş	-2645
▁gecə	-2646
▁qiymətləndir	-2647
lış	-2648
stanın	-2649
▁istəm	-2650
umu	-2651
▁mütəxəssis	-2652
ge	-2653
▁Qüvv	-2654
▁bor	-2655
▁rejim	-2656
▁ittiham	-2657
▁İqtis	-2658
brahim	-2659
▁icr	-2660
▁sözü	-2661
▁Sovet	-2662
▁bacar	-2663
▁əhalinin	-2664
▁ondan	-2665
▁İndi	-2666
▁idey	-2667
mədən	-2668
▁səhif	-2669
▁Buna	-2670
▁qalan	-2671
məkdə	-2672
lanıb	-2673
siyalar	-2674
▁görür	-2675
afizə	-2676
▁bəyan	-2677
▁qanunveric	-2678
▁formalaş	-2679
▁qayğı	-2680
übut	-2681
▁salın	-2682
▁mərkəzi	-2683
▁töh	-2684
▁Məcli	-2685
▁yaxud	-2686
▁vəkil	-2687
▁müsabiq	-2688
▁Ram	-2689
əxt	-2690
anına	-2691
▁təmiz	-2692
▁mənz	-2693
▁bildirdi	-2694
uli	-2695
▁sahibkar	-2696
▁tarixində	-2697
▁şair	-2698
▁giz	-2699
▁işə	-2700
▁xadi	-2701
▁baxımından	-2702
▁xüsusilə	-2703
▁san	-2704
idi	-2705
aj	-2706
six	-2707
məl	-2708
▁seçki	-2709
▁müsahib	-2710
▁bilir	-2711
▁Müdafiə	-2712
▁At	-2713
bə	-2714
▁olmay	-2715
▁Təhlükəsiz	-2716
▁özünün	-2717
▁xal	-2718
▁Məcəll	-2719
▁məhkəmə	-2720
▁qeydə	-2721
limp	-2722
lit	-2723
əri	-2724
▁dövlətin	-2725
əsidir	-2726
▁Cinayət	-2727
adığını	-2728
▁sübut	-2729
▁Min	-2730
▁qeydiyyat	-2731
okt	-2732
▁razı	-2733
▁milyard	-2734
əncə	-2735
▁ermənilər	-2736
▁etiraz	-2737
eji	-2738
tub	-2739
bar	-2740
orta	-2741
▁beş	-2742
▁narahat	-2743
▁ticarət	-2744
siyası	-2745
üy	-2746
▁yönəl	-2747
▁yeri	-2748
layır	-2749
gird	-2750
▁ətrafında	-2751
▁Cənubi	-2752
▁avqust	-2753
▁səfir	-2754
▁öndər	-2755
ləşdiril	-2756
raz	-2757
▁baxış	-2758
▁daşıy	-2759
▁Art	-2760
▁qonaq	-2761
ləmək	-2762
▁Əf	-2763
əcəyini	-2764
adıq	-2765
vər	-2766
▁seçkilər	-2767
▁Təhsil	-2768
ılmasını	-2769
▁Akadem	-2770
▁qısa	-2771
▁koll	-2772
▁yazır	-2773
ləvi	-2774
fer	-2775
▁xatir	-2776
hal	-2777
▁töhf	-2778
▁öv	-2779
▁dedi	-2780
itab	-2781
mur	-2782
▁yat	-2783
rac	-2784
anlar	-2785
▁nümayəndələri	-2786
▁mərasim	-2787
▁Abdul	-2788
▁olunacaq	-2789
▁ifa	-2790
▁əməkdaşları	-2791
▁ödə	-2792
▁vide	-2793
▁əsrin	-2794
▁koronavirus	-2795
rast	-2796
▁fil	-2797
▁mənəvi	-2798
▁ger	-2799
▁Gürcüstan	-2800
▁elektron	-2801
▁dəh	-2802
▁Feder	-2803
yas	-2804
▁xeyli	-2805
▁başlam	-2806
ınız	-2807
uğ	-2808
mayıb	-2809
ƏR	-2810
riban	-2811
andar	-2812
emik	-2813
eda	-2814
▁siyasəti	-2815
iqtis	-2816
▁iştirakı	-2817
▁işıq	-2818
larımızın	-2819
▁tədbirləri	-2820
pər	-2821
▁haqda	-2822
▁ölkələri	-2823
▁çevril	-2824
ni	-2825
▁Çin	-2826
asiyasının	-2827
dılar	-2828
▁Ord	-2829
▁sar	-2830
▁Şəhər	-2831
ernet	-2832
▁universitet	-2833
evir	-2834
▁Universitetinin	-2835
ətə	-2836
İN	-2837
atında	-2838
▁rəhbərlik	-2839
sinə	-2840
▁mon	-2841
▁kompl	-2842
▁bədii	-2843
▁dörd	-2844
▁bəh	-2845
▁dünyaya	-2846
▁dayandır	-2847
▁tanınmış	-2848
▁ixtisas	-2849
mar	-2850
▁komp	-2851
▁məqal	-2852
iqtisadi	-2853
▁Yar	-2854
▁Polis	-2855
ayis	-2856
▁həc	-2857
▁yüz	-2858
AT	-2859
əssam	-2860
▁Liq	-2861
▁Kor	-2862
▁düzgün	-2863
ləşdirilməsi	-2864
kəmli	-2865
▁müxalif	-2866
ilas	-2867
▁ekspert	-2868
▁saylı	-2869
▁Tədbir	-2870
▁məni	-2871
▁müharibə	-2872
▁İbrahim	-2873
ani	-2874
▁Mirz	-2875
▁Burada	-2876
ill	-2877
mır	-2878
▁Fransa	-2879
şünas	-2880
▁İsra	-2881
▁texnolog	-2882
ski	-2883
ka	-2884
▁istəyir	-2885
arif	-2886
▁cəhd	-2887
▁reda	-2888
▁aşağıdakı	-2889
məmiş	-2890
▁şik	-2891
üquq	-2892
acağını	-2893
yar	-2894
anının	-2895
bəttə	-2896
▁toplan	-2897
▁pis	-2898
ayır	-2899
ümü	-2900
▁material	-2901
▁fot	-2902
SC	-2903
usunda	-2904
olk	-2905
▁baxımdan	-2906
adır	-2907
▁yekun	-2908
▁Hacı	-2909
maqda	-2910
▁mark	-2911
efon	-2912
▁məsələləri	-2913
aket	-2914
asa	-2915
▁bəyanat	-2916
▁hörmət	-2917
▁Qanunun	-2918
əkkür	-2919
▁məsələlər	-2920
▁Cav	-2921
▁invest	-2922
▁gey	-2923
uxtar	-2924
mağı	-2925
▁Ser	-2926
▁cənab	-2927
▁dəvət	-2928
rastruktur	-2929
▁gərgin	-2930
▁Ölk	-2931
▁qalib	-2932
əsənət	-2933
▁aləm	-2934
▁qoru	-2935
▁üzvləri	-2936
minən	-2937
▁fiz	-2938
▁sabit	-2939
▁həkim	-2940
▁xətt	-2941
▁Komitəsinin	-2942
▁edilsin	-2943
▁keçirdiyi	-2944
▁təv	-2945
▁No	-2946
mrük	-2947
▁olmalıdır	-2948
zim	-2949
▁əmin	-2950
etik	-2951
▁kredit	-2952
ədək	-2953
▁Əb	-2954
▁edildi	-2955
▁Oyun	-2956
▁xalqın	-2957
linin	-2958
▁üzərinə	-2959
kə	-2960
▁çap	-2961
▁Kam	-2962
▁ədalət	-2963
▁xəstəxan	-2964
örp	-2965
▁ölkələrin	-2966
▁qanunsuz	-2967
isinə	-2968
▁Nov	-2969
▁Gün	-2970
▁alınıb	-2971
se	-2972
▁çay	-2973
əliklə	-2974
lil	-2975
▁icaz	-2976
▁müqayis	-2977
▁məktub	-2978
lığına	-2979
▁inzibati	-2980
▁etməklə	-2981
▁göstəric	-2982
▁təhlükəsizlik	-2983
▁maddi	-2984
▁şagird	-2985
▁xari	-2986
▁cin	-2987
▁aparıcı	-2988
ladaq	-2989
▁İtal	-2990
▁vermək	-2991
▁duy	-2992
ümə	-2993
▁Xatır	-2994
diyev	-2995
ətli	-2996
səf	-2997
▁vəziyyəti	-2998
başa	-2999
▁zərər	-3000
oh	-3001
▁infrastruktur	-3002
eb	-3003
TA	-3004
▁təbrik	-3005
▁Yəni	-3006
əbh	-3007
▁Britan	-3008
▁tədris	-3009
▁qəhrəman	-3010
hiz	-3011
▁gec	-3012
layev	-3013
▁qərarı	-3014
▁verdi	-3015
kər	-3016
▁xəstəlik	-3017
▁professor	-3018
▁Xəzər	-3019
▁təsv	-3020
ton	-3021
▁azadlıq	-3022
▁dokt	-3023
cıl	-3024
▁şəxsiyyət	-3025
umq	-3026
▁tərəfdən	-3027
land	-3028
▁soyqır	-3029
he	-3030
sman	-3031
▁fayda	-3032
▁tal	-3033
▁ictimaiyyət	-3034
▁Elə	-3035
▁xalqının	-3036
▁iddi	-3037
▁sakini	-3038
▁Sal	-3039
▁biləcək	-3040
▁mod	-3041
▁zəruri	-3042
:“	-3043
▁məsuliyyət	-3044
▁,	-3045
▁Müh	-3046
▁hədəf	-3047
▁məhv	-3048
▁ədəbi	-3049
▁Silah	-3050
▁büdc	-3051
umqayı	-3052
▁ləğ	-3053
▁mənzil	-3054
dəs	-3055
alarında	-3056
anlı	-3057
İn	-3058
▁Yan	-3059
▁qaytar	-3060
▁təyyar	-3061
▁for	-3062
▁barəsində	-3063
▁istiqamətdə	-3064
▁heyət	-3065
əmin	-3066
laşdırılması	-3067
▁sürü	-3068
onal	-3069
▁Ən	-3070
ig	-3071
▁Məhəmməd	-3072
▁şək	-3073
▁etdiyini	-3074
▁vermiş	-3075
▁qızı	-3076
▁tənq	-3077
▁müəllif	-3078
siyasi	-3079
▁SSRİ	-3080
ülüb	-3081
qın	-3082
▁potensial	-3083
▁Hakim	-3084
▁yaxşıl	-3085
isk	-3086
▁İnsan	-3087
▁təzy	-3088
ləh	-3089
▁bənd	-3090
asil	-3091
AN	-3092
umqayıt	-3093
▁İcra	-3094
aloq	-3095
▁telefon	-3096
▁Səh	-3097
▁məğ	-3098
lanır	-3099
▁oper	-3100
▁vit	-3101
▁İsrail	-3102
▁tamamilə	-3103
▁radi	-3104
▁Fondunun	-3105
ça	-3106
▁sın	-3107
▁musiq	-3108
adir	-3109
▁yenə	-3110
yu	-3111
ideyn	-3112
veç	-3113
▁amil	-3114
▁Mal	-3115
ƏT	-3116
▁mövs	-3117
▁pozul	-3118
▁səhn	-3119
▁Bank	-3120
ışı	-3121
▁aparılır	-3122
gah	-3123
▁katibi	-3124
AP	-3125
ətdən	-3126
▁Quliyev	-3127
▁xilas	-3128
▁Müsavat	-3129
tərəfli	-3130
▁sərg	-3131
rend	-3132
iliyi	-3133
▁yayıb	-3134
rt	-3135
▁ədəd	-3136
▁Kərim	-3137
▁təchiz	-3138
▁töv	-3139
▁hansısa	-3140
▁faci	-3141
andart	-3142
▁ibarətdir	-3143
ğunu	-3144
▁qonş	-3145
lüd	-3146
▁müsəlman	-3147
saq	-3148
▁hərb	-3149
▁struktur	-3150
▁səmərəli	-3151
▁ehtiyat	-3152
iley	-3153
▁müdiri	-3154
asport	-3155
▁pers	-3156
▁kütləvi	-3157
▁törət	-3158
▁tamaş	-3159
▁Silahlı	-3160
▁hesabına	-3161
▁qoşul	-3162
▁ortaya	-3163
▁Xatırladaq	-3164
▁yaradır	-3165
▁təvəl	-3166
▁his	-3167
liyində	-3168
▁rejiss	-3169
▁ef	-3170
▁Bəl	-3171
▁planlaşdır	-3172
▁Oxu	-3173
ahət	-3174
▁sistemi	-3175
▁tamaşa	-3176
▁pr	-3177
▁təvəllüd	-3178
▁Bəz	-3179
▁elektrik	-3180
▁bitir	-3181
▁istintaq	-3182
▁Məclisin	-3183
▁strateji	-3184
▁Re	-3185
▁keçid	-3186
lüyü	-3187
▁öh	-3188
dıqdan	-3189
▁tibbi	-3190
▁qadağ	-3191
▁boş	-3192
enin	-3193
▁sav	-3194
▁Xocalı	-3195
▁Onların	-3196
▁qaydada	-3197
▁Yol	-3198
▁Musavat	-3199
▁yuxarı	-3200
▁tab	-3201
▁aktyor	-3202
▁qov	-3203
▁iddia	-3204
ədir	-3205
▁toxun	-3206
▁Konstitus	-3207
▁Abbas	-3208
▁Sosial	-3209
arkən	-3210
isiya	-3211
▁sayəsində	-3212
atına	-3213
▁Put	-3214
▁Ulu	-3215
▁qlobal	-3216
▁Mar	-3217
▁bür	-3218
▁ham	-3219
iyadan	-3220
▁layihəsi	-3221
diş	-3222
▁yub	-3223
▁Sab	-3224
▁peşəkar	-3225
▁təəss	-3226
▁etsin	-3227
▁yəni	-3228
▁tərəfdaş	-3229
▁gətirib	-3230
▁Dax	-3231
▁Mah	-3232
▁xəsarət	-3233
▁olmam	-3234
əşf	-3235
mələri	-3236
▁görkəmli	-3237
▁aktiv	-3238
▁özünə	-3239
▁Gəncə	-3240
▁davamlı	-3241
▁əvvəlki	-3242
▁futbolçu	-3243
▁təvəllüdlü	-3244
og	-3245
▁texniki	-3246
epar	-3247
▁psix	-3248
▁həlli	-3249
▁Sonra	-3250
▁insanın	-3251
▁Yax	-3252
▁münasibətilə	-3253
▁pey	-3254
▁dili	-3255
▁sin	-3256
▁Komissiy	-3257
mini	-3258
▁sərəncam	-3259
▁bildirilib	-3260
ləhət	-3261
yanın	-3262
▁dərəcədə	-3263
ğənn	-3264
▁Hal	-3265
▁böh	-3266
ayrı	-3267
AS	-3268
rasiya	-3269
mal	-3270
▁mahnı	-3271
iyar	-3272
▁alınması	-3273
əliyev	-3274
atların	-3275
▁mübad	-3276
▁Məsələn	-3277
▁təxminən	-3278
▁xaric	-3279
▁qida	-3280
▁Təbii	-3281
▁biridir	-3282
▁Neft	-3283
diyim	-3284
▁biznes	-3285
▁tutur	-3286
▁televiz	-3287
▁hallarda	-3288
▁Teatr	-3289
▁div	-3290
abil	-3291
laraq	-3292
▁məğlub	-3293
▁Türkiyədə	-3294
▁körp	-3295
▁bəhs	-3296
tib	-3297
ləq	-3298
▁köçür	-3299
ayıl	-3300
mit	-3301
▁qızıl	-3302
▁Mehriban	-3303
lənir	-3304
▁birbaşa	-3305
▁Kitab	-3306
▁məlumatlar	-3307
:""	-3308
▁İrəv	-3309
▁kül	-3310
▁qayıt	-3311
▁verilir	-3312
ənilən	-3313
▁ehtim	-3314
▁internet	-3315
▁ölkələrdə	-3316
▁adını	-3317
Qarabağ	-3318
düy	-3319
▁şü	-3320
▁dəstəyi	-3321
▁xidməti	-3322
▁ümid	-3323
▁ləğv	-3324
▁regional	-3325
şam	-3326
▁razılaş	-3327
▁tip	-3328
mayan	-3329
▁qarşısını	-3330
▁isti	-3331
Biz	-3332
▁ürək	-3333
▁anadan	-3334
▁sənətkar	-3335
qanı	-3336
mı	-3337
▁gəm	-3338
▁Mərkəzinin	-3339
▁keyfiyyət	-3340
yut	-3341
alarına	-3342
aman	-3343
▁Daxili	-3344
▁orqanları	-3345
uluq	-3346
iləş	-3347
▁yum	-3348
▁dərhal	-3349
▁Təhlükəsizlik	-3350
▁İdarəsinin	-3351
ilayət	-3352
▁quruc	-3353
▁şəxsin	-3354
▁aprel	-3355
▁ediləcək	-3356
▁standart	-3357
manı	-3358
▁İk	-3359
▁rəisi	-3360
AR	-3361
▁Kar	-3362
▁fəlsəf	-3363
▁etdiril	-3364
▁fiziki	-3365
▁qulluq	-3366
▁Rəs	-3367
▁prosesi	-3368
▁göstərilən	-3369
▁dəmir	-3370
rum	-3371
övqəl	-3372
▁Füz	-3373
ətdə	-3374
standa	-3375
▁övlad	-3376
▁orqanlarının	-3377
əki	-3378
duq	-3379
▁miqdar	-3380
ızı	-3381
dük	-3382
▁rom	-3383
▁qarşılaş	-3384
▁of	-3385
▁növbədə	-3386
otik	-3387
▁müdafi	-3388
▁ide	-3389
▁bunlar	-3390
▁Tel	-3391
▁məcburi	-3392
▁AT	-3393
▁human	-3394
▁özəl	-3395
▁Mil	-3396
sında	-3397
▁Ötən	-3398
▁sahələrdə	-3399
▁akad	-3400
▁Yer	-3401
mədi	-3402
▁Digər	-3403
▁müharibəsi	-3404
▁məsləhət	-3405
Mən	-3406
▁Xüsus	-3407
▁yerə	-3408
▁səlahiyyət	-3409
▁tikintis	-3410
▁çünki	-3411
▁Nizami	-3412
aks	-3413
▁böy	-3414
▁Bal	-3415
▁dağı	-3416
▁isteda	-3417
▁oğl	-3418
gilis	-3419
▁Ass	-3420
doğ	-3421
▁üsul	-3422
ökum	-3423
iyasında	-3424
▁muzey	-3425
sen	-3426
ruz	-3427
▁verəcək	-3428
İD	-3429
▁Olimp	-3430
▁kurs	-3431
▁qarş	-3432
layan	-3433
▁kadr	-3434
ləşmiş	-3435
məs	-3436
te	-3437
▁fəaliyyətinin	-3438
əif	-3439
▁Hətta	-3440
▁imtina	-3441
çilərin	-3442
▁kəndində	-3443
madan	-3444
▁doğur	-3445
▁düşür	-3446
sir	-3447
▁yolux	-3448
əddin	-3449
▁etməy	-3450
▁bildirilir	-3451
▁tədbirlərin	-3452
▁işlə	-3453
▁Paşin	-3454
▁yetiş	-3455
▁üs	-3456
ustaf	-3457
▁APA	-3458
atda	-3459
▁xalqı	-3460
▁bayr	-3461
▁sub	-3462
atçı	-3463
▁istəyən	-3464
▁Cəfər	-3465
▁Qurban	-3466
▁har	-3467
▁fevral	-3468
▁Pol	-3469
apon	-3470
▁tərc	-3471
▁çalışır	-3472
sik	-3473
▁təkmil	-3474
▁saz	-3475
▁dəyişikliklər	-3476
deri	-3477
▁fəs	-3478
▁işğaldan	-3479
noz	-3480
▁Tarix	-3481
darlıq	-3482
▁İd	-3483
övqəladə	-3484
▁vardır	-3485
ral	-3486
kret	-3487
▁malikdir	-3488
▁Hərbi	-3489
▁ağac	-3490
▁İlk	-3491
lərarası	-3492
▁borc	-3493
▁mübadil	-3494
▁nümayəndəsi	-3495
▁rəsm	-3496
▁ilkin	-3497
▁şikayət	-3498
▁gəlin	-3499
▁qalıb	-3500
▁qabil	-3501
▁Yun	-3502
▁sadəcə	-3503
stanbul	-3504
▁addımlar	-3505
▁valideyn	-3506
▁Artıq	-3507
▁alır	-3508
▁yubiley	-3509
▁mem	-3510
▁Azərbaycanı	-3511
▁demokratik	-3512
▁həv	-3513
▁üstünlük	-3514
▁gerçək	-3515
▁medi	-3516
▁Birinci	-3517
lərimizin	-3518
▁vəziyyətdə	-3519
▁Təs	-3520
▁ada	-3521
▁AZ	-3522
▁gənclər	-3523
▁nis	-3524
▁müddətdə	-3525
▁zəif	-3526
iət	-3527
▁agent	-3528
yıq	-3529
▁festiv	-3530
timai	-3531
eport	-3532
pərvər	-3533
▁bən	-3534
osi	-3535
▁Beləliklə	-3536
arlıq	-3537
▁sur	-3538
eron	-3539
▁yayım	-3540
ılmaz	-3541
▁diqqətə	-3542
▁cəbh	-3543
▁formalaşdır	-3544
▁əməkdaşlığın	-3545
▁işləm	-3546
▁tövsiy	-3547
▁gələcəkdə	-3548
▁çıxıb	-3549
▁ust	-3550
▁İnkişaf	-3551
▁rəssam	-3552
▁sovet	-3553
▁Qazaxı	-3554
andem	-3555
▁boyu	-3556
▁yazıçı	-3557
▁fəx	-3558
▁düşünür	-3559
arəti	-3560
bəxt	-3561
▁Ağdam	-3562
adlıq	-3563
▁ixrac	-3564
▁tənzim	-3565
▁tənqid	-3566
▁dəfələrlə	-3567
▁təkrar	-3568
▁lideri	-3569
▁qabaq	-3570
qil	-3571
ərb	-3572
lama	-3573
▁artırılması	-3574
▁etdirir	-3575
iyyətində	-3576
lənən	-3577
▁ümumilikdə	-3578
▁fəaliyyətini	-3579
▁təzyiq	-3580
▁təsis	-3581
əstəkar	-3582
▁olunmuşdur	-3583
▁təsərrüfatı	-3584
▁tətbiqi	-3585
met	-3586
▁açıqlamasında	-3587
▁Elm	-3588
▁Sam	-3589
▁etibarən	-3590
▁edəcəy	-3591
▁mümkündür	-3592
▁ölç	-3593
▁çağırış	-3594
▁cənub	-3595
siv	-3596
anov	-3597
▁Nik	-3598
▁Bun	-3599
▁Və	-3600
▁heyvan	-3601
▁sənaye	-3602
▁ziyarət	-3603
▁II	-3604
▁Moskva	-3605
asım	-3606
▁şəhərinin	-3607
▁əlaqələrin	-3608
▁Bizim	-3609
▁hökm	-3610
▁Mək	-3611
▁Bunu	-3612
ənkər	-3613
▁tapşır	-3614
▁dilində	-3615
▁şimal	-3616
▁rahat	-3617
alara	-3618
lənib	-3619
▁əleyh	-3620
▁etdirən	-3621
liyindən	-3622
▁kanal	-3623
▁For	-3624
▁mövsüm	-3625
▁Turizm	-3626
▁rolu	-3627
alarda	-3628
rəy	-3629
▁Almaniya	-3630
▁Sumqayıt	-3631
ələş	-3632
▁normal	-3633
▁mərkəzində	-3634
▁XX	-3635
saylı	-3636
əyan	-3637
▁Azərbaycanla	-3638
▁İm	-3639
▁ödəniş	-3640
▁nailiyyət	-3641
dr	-3642
▁tutulmuş	-3643
▁Bakının	-3644
bu	-3645
▁Xan	-3646
▁Məcəlləsinin	-3647
▁deyilir	-3648
kum	-3649
laşma	-3650
▁İranın	-3651
▁önəmli	-3652
prezident	-3653
▁İkinci	-3654
▁yerində	-3655
▁siyahı	-3656
lanması	-3657
▁nark	-3658
▁İstanbul	-3659
▁ölkələr	-3660
▁sif	-3661
▁otur	-3662
▁sil	-3663
▁gözlənilir	-3664
məsindən	-3665
▁Əv	-3666
OV	-3667
▁təmir	-3668
EA	-3669
kü	-3670
▁təxrib	-3671
▁təşəbbüsü	-3672
▁yoldaş	-3673
▁vaxtı	-3674
xana	-3675
▁Zəng	-3676
▁Gül	-3677
emək	-3678
iyini	-3679
▁Muxtar	-3680
enz	-3681
▁dərc	-3682
▁birləşdir	-3683
əp	-3684
▁heyəti	-3685
▁bağlıdır	-3686
▁fon	-3687
▁yaxşılaşdır	-3688
▁olmaz	-3689
ama	-3690
▁ulu	-3691
▁inşa	-3692
▁şöbəsinin	-3693
laşıb	-3694
▁səbəbdən	-3695
▁əsl	-3696
▁Osman	-3697
▁bizi	-3698
ülmüş	-3699
tez	-3700
ex	-3701
▁mane	-3702
▁Məclis	-3703
▁rəqəm	-3704
▁seçk	-3705
▁Proqram	-3706
▁əsaslı	-3707
istik	-3708
şən	-3709
▁kompleks	-3710
ərkən	-3711
▁Pr	-3712
▁medal	-3713
▁stans	-3714
▁etdik	-3715
form	-3716
lor	-3717
mızı	-3718
▁zir	-3719
▁kap	-3720
▁istənilən	-3721
▁aparılıb	-3722
ag	-3723
akül	-3724
lat	-3725
▁general	-3726
diyinə	-3727
▁ermənilərin	-3728
ıma	-3729
▁sahibi	-3730
▁oxuy	-3731
ici	-3732
▁təşəkkür	-3733
▁zor	-3734
▁sərn	-3735
▁təşəbbüs	-3736
▁Qub	-3737
▁Dem	-3738
▁arasındakı	-3739
tam	-3740
▁gəlmiş	-3741
▁Bakıya	-3742
▁Sey	-3743
▁iyun	-3744
ünən	-3745
▁Ərəb	-3746
Bakı	-3747
▁konkret	-3748
ATO	-3749
ens	-3750
▁ünvan	-3751
▁bilərlər	-3752
▁media	-3753
▁günlərdə	-3754
salı	-3755
FA	-3756
tif	-3757
▁Ad	-3758
dimir	-3759
▁Mustaf	-3760
edici	-3761
▁Mur	-3762
▁çatıb	-3763
▁ayır	-3764
pektiv	-3765
urd	-3766
▁ayının	-3767
▁Vla	-3768
▁oxucu	-3769
▁çalışan	-3770
▁vahid	-3771
▁icazə	-3772
bək	-3773
▁İttifaqı	-3774
əmə	-3775
iyasına	-3776
baş	-3777
▁Əliyeva	-3778
ars	-3779
▁sisteminin	-3780
▁tərtib	-3781
▁Hesab	-3782
layış	-3783
▁obraz	-3784
▁dövləti	-3785
▁fərdi	-3786
▁Af	-3787
▁etməlidir	-3788
▁üçüncü	-3789
afiz	-3790
▁içində	-3791
▁Su	-3792
▁əvvəlcə	-3793
▁qorunması	-3794
▁vitse	-3795
▁rast	-3796
alarını	-3797
▁pen	-3798
düz	-3799
alicə	-3800
▁deyən	-3801
▁tutan	-3802
▁müğənn	-3803
amlı	-3804
▁xüsusiyyət	-3805
▁birində	-3806
▁çətinlik	-3807
▁mexan	-3808
▁Şir	-3809
▁Hey	-3810
ko	-3811
ılmasının	-3812
ayın	-3813
▁sərt	-3814
adək	-3815
mizi	-3816
▁müddətində	-3817
▁nəticə	-3818
▁hökuməti	-3819
▁kəskin	-3820
nət	-3821
▁avadan	-3822
▁vergi	-3823
amaq	-3824
inif	-3825
▁törəd	-3826
Yeni	-3827
▁res	-3828
yasiya	-3829
▁kəşf	-3830
▁düşüb	-3831
eli	-3832
▁Hav	-3833
▁Nur	-3834
▁Səm	-3835
▁ordu	-3836
▁Çox	-3837
▁yaxınlığında	-3838
▁Əsas	-3839
▁gedib	-3840
▁təsvir	-3841
▁əgər	-3842
▁içər	-3843
▁danışıqlar	-3844
▁mül	-3845
▁post	-3846
▁Öl	-3847
Türk	-3848
▁layihə	-3849
▁siz	-3850
▁qoşun	-3851
▁çevir	-3852
▁redakt	-3853
▁Birliyinin	-3854
▁bədən	-3855
▁vilayət	-3856
ix	-3857
iyik	-3858
▁Lənkər	-3859
▁komandan	-3860
mində	-3861
▁başçısının	-3862
▁Sə	-3863
▁olmayıb	-3864
▁perspektiv	-3865
▁prokuror	-3866
▁asan	-3867
▁Cüm	-3868
əniz	-3869
▁təşkili	-3870
▁vəf	-3871
▁sonrakı	-3872
▁hissəsində	-3873
▁Partiyasının	-3874
onu	-3875
▁En	-3876
indi	-3877
lilər	-3878
▁tapşırıq	-3879
edaq	-3880
▁kont	-3881
akült	-3882
▁taley	-3883
▁ərazidə	-3884
iyaları	-3885
qur	-3886
▁fun	-3887
▁port	-3888
▁təşkilatçı	-3889
▁etdirilir	-3890
▁komissiy	-3891
▁münasibətlərin	-3892
▁Azər	-3893
▁çıxan	-3894
▁yazıb	-3895
▁km	-3896
▁köçkün	-3897
məyəcək	-3898
əddəs	-3899
adakı	-3900
▁artım	-3901
namə	-3902
▁Uşaq	-3903
▁vər	-3904
usif	-3905
▁trans	-3906
▁bah	-3907
▁əlaqələr	-3908
ahiş	-3909
▁Ərdoğ	-3910
▁istəyirəm	-3911
▁adət	-3912
▁mövzusunda	-3913
▁qapı	-3914
cid	-3915
oqq	-3916
▁Füzuli	-3917
▁sürətlə	-3918
cək	-3919
▁inkişafında	-3920
▁gündən	-3921
▁imtahan	-3922
▁Görüş	-3923
▁daxilində	-3924
▁fikrin	-3925
əndi	-3926
▁Novruz	-3927
çusu	-3928
dıqları	-3929
▁NATO	-3930
▁görünür	-3931
▁Göy	-3932
ələb	-3933
und	-3934
▁danışıb	-3935
▁tan	-3936
itor	-3937
ona	-3938
▁Rəh	-3939
▁qorx	-3940
▁qayn	-3941
xniki	-3942
▁sonun	-3943
▁onunla	-3944
▁nazirinin	-3945
▁quruluş	-3946
▁əmlak	-3947
▁qalx	-3948
▁məhrum	-3949
▁Mis	-3950
▁kön	-3951
gedən	-3952
▁Amerika	-3953
▁müəllifi	-3954
▁dərəcə	-3955
▁doğma	-3956
▁tutub	-3957
▁günah	-3958
▁Bayram	-3959
▁tibb	-3960
▁rejissor	-3961
sına	-3962
▁konsert	-3963
▁təltif	-3964
▁tutulub	-3965
▁etmişdi	-3966
▁metr	-3967
şeron	-3968
▁olduqca	-3969
▁AM	-3970
▁təqdir	-3971
▁mas	-3972
▁qrupu	-3973
▁mülki	-3974
▁qorum	-3975
▁sonunda	-3976
eter	-3977
▁əleyhinə	-3978
▁öhdə	-3979
▁Val	-3980
▁mət	-3981
▁bilik	-3982
▁uş	-3983
▁ələ	-3984
▁keçirilmiş	-3985
dikcə	-3986
▁düşən	-3987
▁satış	-3988
air	-3989
▁doktoru	-3990
▁pandem	-3991
▁axtarış	-3992
▁Vladimir	-3993
▁arzu	-3994
ahis	-3995
▁səhər	-3996
▁qoyub	-3997
▁söyləyib	-3998
aspor	-3999
▁nəh	-4000
▁məhkum	-4001
▁kəm	-4002
▁mütləq	-4003
▁bəzən	-4004
▁yaşadığı	-4005
maları	-4006
▁ana	-4007
▁Cümhur	-4008
ımıza	-4009
▁sığorta	-4010
▁sinif	-4011
təş	-4012
ülməsi	-4013
▁həyatı	-4014
▁tutulan	-4015
ığı	-4016
▁kəndi	-4017
▁incəsənət	-4018
▁markalı	-4019
oji	-4020
▁istedad	-4021
▁hazırlıq	-4022
▁faizi	-4023
hi	-4024
▁raket	-4025
▁daşın	-4026
▁vəkili	-4027
▁gəz	-4028
alının	-4029
olu	-4030
▁səviyyəsində	-4031
▁xalqımızın	-4032
▁qad	-4033
əlim	-4034
▁təhlil	-4035
▁İdarə	-4036
▁çoxsaylı	-4037
▁Hadi	-4038
▁sərnişin	-4039
▁Şuşa	-4040
allı	-4041
▁minnət	-4042
▁ardı	-4043
▁canlı	-4044
▁istehsalı	-4045
▁ölkəyə	-4046
▁qonşu	-4047
▁kollektiv	-4048
oritet	-4049
▁deməkdir	-4050
▁mədəniyyəti	-4051
▁artisti	-4052
▁yaradılıb	-4053
▁tutulur	-4054
▁vurul	-4055
▁İraq	-4056
▁fakült	-4057
tü	-4058
▁meydana	-4059
▁sp	-4060
▁parç	-4061
ifik	-4062
▁model	-4063
▁Məhz	-4064
arın	-4065
aqları	-4066
▁aq	-4067
▁dövlətinin	-4068
▁xadim	-4069
lükdə	-4070
▁İnstitutunun	-4071
▁Səfər	-4072
▁ümummilli	-4073
▁kaf	-4074
əmbər	-4075
▁özündə	-4076
▁həftə	-4077
▁açılış	-4078
▁həmkar	-4079
▁Hüquq	-4080
bayev	-4081
lav	-4082
▁ATƏT	-4083
▁istifadəyə	-4084
▁keçirir	-4085
▁müalicə	-4086
▁qələbə	-4087
aqq	-4088
▁icrası	-4089
▁komit	-4090
▁İctimai	-4091
▁Birləşmiş	-4092
▁düşünc	-4093
▁pil	-4094
▁Xidmətinin	-4095
imizə	-4096
eganə	-4097
▁fikr	-4098
▁enerj	-4099
▁istəd	-4100
▁Muzey	-4101
▁ötür	-4102
▁nizam	-4103
ımızı	-4104
▁ətraflı	-4105
▁dəhliz	-4106
▁ov	-4107
▁bütövlüy	-4108
isini	-4109
▁ərazilərdə	-4110
▁dialoq	-4111
▁Hüseynov	-4112
oda	-4113
▁Ver	-4114
çıq	-4115
▁Şim	-4116
▁maliyy	-4117
vil	-4118
▁rek	-4119
atlı	-4120
erik	-4121
;.	-4122
iyaların	-4123
▁bl	-4124
▁Şurası	-4125
▁Olimpiya	-4126
▁şirkəti	-4127
sını	-4128
uğam	-4129
idir	-4130
▁yaralan	-4131
▁maşın	-4132
▁yaratmaq	-4133
▁pri	-4134
▁görülən	-4135
▁bələdiyyə	-4136
▁əslində	-4137
▁həlak	-4138
▁fəaliyyətinə	-4139
sək	-4140
çilərinin	-4141
▁əlaqələri	-4142
▁müda	-4143
▁yanğın	-4144
üley	-4145
▁işlərin	-4146
umun	-4147
ərdə	-4148
ıç	-4149
avüz	-4150
▁diplomatik	-4151
ılmasında	-4152
▁dövrü	-4153
▁Prokuror	-4154
▁mükafat	-4155
▁yerlərdə	-4156
▁qən	-4157
▁Mətbuat	-4158
itər	-4159
ıldığı	-4160
▁onda	-4161
▁sizin	-4162
▁tərz	-4163
▁Məktəb	-4164
uya	-4165
▁indiy	-4166
tik	-4167
çıların	-4168
▁Şam	-4169
kan	-4170
▁əb	-4171
əqqəti	-4172
▁problemlər	-4173
▁münasibətləri	-4174
qa	-4175
▁alaraq	-4176
▁sabiq	-4177
▁Top	-4178
▁bul	-4179
▁siyasətinin	-4180
▁başlayır	-4181
▁Nəti	-4182
mud	-4183
NE	-4184
▁akademik	-4185
▁sank	-4186
Azər	-4187
▁Zər	-4188
▁poli	-4189
▁deputat	-4190
▁kök	-4191
qilab	-4192
▁təqsir	-4193
inki	-4194
▁mür	-4195
▁keçirib	-4196
________________	-4197
ekay	-4198
▁yaşayır	-4199
▁Yusif	-4200
▁maarif	-4201
İs	-4202
▁sentyabrın	-4203
▁sayda	-4204
▁Respublikasında	-4205
▁bölüş	-4206
▁gediş	-4207
aktik	-4208
üstəm	-4209
eyir	-4210
▁səfiri	-4211
▁nəsil	-4212
▁İsveç	-4213
▁Laç	-4214
▁axşam	-4215
▁mövcuddur	-4216
▁Seç	-4217
gül	-4218
▁yarar	-4219
▁həqiqət	-4220
▁Parlament	-4221
▁Komandan	-4222
itərəfli	-4223
▁ardıcıl	-4224
erin	-4225
masından	-4226
ovanın	-4227
▁vətəndaşı	-4228
▁kampan	-4229
alt	-4230
▁paytaxtı	-4231
▁şərh	-4232
▁azı	-4233
▁əsərləri	-4234
▁saytının	-4235
▁turist	-4236
▁quraşdır	-4237
▁müəyyənləşdir	-4238
adlı	-4239
▁Sev	-4240
▁oxum	-4241
▁Qəz	-4242
▁görmək	-4243
▁aldığı	-4244
▁əş	-4245
▁bəstəkar	-4246
ırdılar	-4247
▁gənclərin	-4248
▁zon	-4249
▁Əvvəl	-4250
▁təsad	-4251
▁müqayisədə	-4252
▁Kabinetinin	-4253
arə	-4254
▁xahiş	-4255
alə	-4256
▁qalır	-4257
▁indiki	-4258
veriş	-4259
munik	-4260
▁mübahis	-4261
▁ep	-4262
▁Kənd	-4263
▁Be	-4264
alat	-4265
▁Onu	-4266
dətli	-4267
▁tikinti	-4268
▁Yapon	-4269
aqif	-4270
▁araşdırma	-4271
▁güz	-4272
giltər	-4273
iyaz	-4274
▁uğurlar	-4275
əvv	-4276
ura	-4277
▁təsiri	-4278
▁yür	-4279
▁narkotik	-4280
▁Səf	-4281
▁park	-4282
▁iclas	-4283
lının	-4284
▁etdilər	-4285
▁izah	-4286
▁gömrük	-4287
▁keçib	-4288
abad	-4289
▁vəh	-4290
▁təcavüz	-4291
mamış	-4292
▁hazırlanması	-4293
▁keçirmək	-4294
▁ömr	-4295
▁humanitar	-4296
tan	-4297
▁Abşeron	-4298
▁Nikol	-4299
diyiniz	-4300
▁ingilis	-4301
▁Gənclər	-4302
əmiyyəti	-4303
▁bələdiyy	-4304
▁Qor	-4305
acağıq	-4306
ıntı	-4307
▁qarşılan	-4308
▁onlardan	-4309
▁uşaqların	-4310
imə	-4311
idd	-4312
▁bəs	-4313
:""“	-4314
▁imper	-4315
ünür	-4316
▁mühafizə	-4317
▁qarış	-4318
▁oğur	-4319
▁yoldaşı	-4320
▁imkanları	-4321
▁etməyi	-4322
▁dal	-4323
▁olunmasına	-4324
▁hüququ	-4325
▁istisna	-4326
qnoz	-4327
bil	-4328
▁sifar	-4329
adiq	-4330
▁funk	-4331
▁qür	-4332
▁münasibətlər	-4333
▁sahəsi	-4334
sınız	-4335
▁kişi	-4336
ladığı	-4337
▁Qasım	-4338
bəst	-4339
▁toy	-4340
▁aparılması	-4341
▁institut	-4342
ağında	-4343
amış	-4344
▁sahil	-4345
▁Abdullayev	-4346
▁yerləşir	-4347
▁qiyməti	-4348
▁Şimali	-4349
▁matç	-4350
çiliy	-4351
ənlər	-4352
▁qoruy	-4353
▁istir	-4354
İV	-4355
▁prioritet	-4356
▁saxlanılıb	-4357
▁niş	-4358
▁adından	-4359
▁olmadığını	-4360
▁tem	-4361
▁layihələr	-4362
▁Qız	-4363
▁mülk	-4364
▁don	-4365
▁ünv	-4366
▁mini	-4367
axta	-4368
gen	-4369
▁səbəbi	-4370
▁məscid	-4371
▁Əmir	-4372
▁mübadiləsi	-4373
▁tərb	-4374
▁cəs	-4375
▁bilin	-4376
▁qüvvələri	-4377
▁kür	-4378
▁nöqt	-4379
▁Ermənistanda	-4380
▁görüşdə	-4381
▁könül	-4382
ement	-4383
▁birinin	-4384
▁düzəl	-4385
▁iyunun	-4386
mənin	-4387
▁vətəndaşların	-4388
düm	-4389
▁normativ	-4390
▁çoxdur	-4391
▁olmasına	-4392
isindən	-4393
▁ikitərəfli	-4394
▁Amerik	-4395
▁çar	-4396
ramp	-4397
▁doğul	-4398
▁niyə	-4399
▁yaradıcılıq	-4400
▁dinc	-4401
▁verə	-4402
ometr	-4403
▁YAP	-4404
▁əksini	-4405
▁maliyyələş	-4406
▁nəticələri	-4407
▁növü	-4408
▁Üz	-4409
▁daimi	-4410
▁ziyalı	-4411
▁Məlumata	-4412
▁Əlbəttə	-4413
ağının	-4414
▁yeganə	-4415
▁.	-4416
ing	-4417
▁vəfat	-4418
▁cəhətdən	-4419
▁bağlan	-4420
▁anal	-4421
▁paylaş	-4422
▁arzul	-4423
Rus	-4424
▁kapit	-4425
▁Tib	-4426
▁Cəmiyyət	-4427
▁şəhərin	-4428
əbr	-4429
▁regionda	-4430
▁Ev	-4431
▁imkanı	-4432
▁məmnun	-4433
çin	-4434
▁Apasport	-4435
▁formada	-4436
əkkəb	-4437
▁nüfuzlu	-4438
▁Rom	-4439
adət	-4440
▁yola	-4441
▁müvəqqəti	-4442
▁fond	-4443
▁proqramı	-4444
eyr	-4445
▁Hacıyev	-4446
bəti	-4447
zadənin	-4448
▁şərəf	-4449
erv	-4450
▁Rəş	-4451
▁İttifaqının	-4452
▁məsələsi	-4453
▁ci	-4454
▁irəlil	-4455
▁gəldi	-4456
▁məsaf	-4457
əfiq	-4458
üleyman	-4459
▁oktyabrın	-4460
▁Bələd	-4461
▁Sizin	-4462
▁günə	-4463
▁Qır	-4464
▁kəsb	-4465
şr	-4466
▁qərara	-4467
formasiya	-4468
əmir	-4469
▁yarada	-4470
ubok	-4471
▁Kür	-4472
yaslı	-4473
ılmalıdır	-4474
▁San	-4475
▁üzləş	-4476
▁etiraf	-4477
▁uşaqlar	-4478
▁nəinki	-4479
▁dostluq	-4480
ch	-4481
larus	-4482
▁Sərəncam	-4483
▁fikrincə	-4484
▁əlamət	-4485
Al	-4486
ment	-4487
▁giriş	-4488
ww	-4489
▁daşıyır	-4490
liyyə	-4491
ahir	-4492
▁Tal	-4493
▁yaxından	-4494
▁əc	-4495
▁resurs	-4496
ber	-4497
ahıs	-4498
▁strateg	-4499
▁vurub	-4500
ai	-4501
▁Bildirilib	-4502
▁ört	-4503
▁hekay	-4504
▁güm	-4505
imin	-4506
▁etdirilməsi	-4507
▁zav	-4508
▁səfəri	-4509
▁Mirzə	-4510
▁sərbəst	-4511
iyanı	-4512
▁vurğulan	-4513
▁İspan	-4514
▁Britaniya	-4515
▁Asiya	-4516
▁mənfi	-4517
▁çoxlu	-4518
▁şəraitində	-4519
▁ul	-4520
burq	-4521
▁cəmiyyətin	-4522
siyasının	-4523
▁Siz	-4524
▁bi	-4525
ambl	-4526
▁ərəb	-4527
▁etmir	-4528
▁qadağan	-4529
olkov	-4530
▁proqnoz	-4531
▁gücləndir	-4532
arıstan	-4533
atını	-4534
▁bilərik	-4535
ağına	-4536
▁Tərəf	-4537
▁Düş	-4538
ərin	-4539
▁nəfərin	-4540
▁rəqib	-4541
▁İngiltər	-4542
▁yaradılmış	-4543
siyaya	-4544
Lİ	-4545
▁Mon	-4546
▁İqtisadi	-4547
urdu	-4548
▁inam	-4549
▁final	-4550
▁olmayaraq	-4551
▁Avstr	-4552
vad	-4553
usuna	-4554
▁texnik	-4555
▁cəmi	-4556
▁qəna	-4557
siyanın	-4558
▁bas	-4559
▁noyabrın	-4560
▁sevg	-4561
▁Hökum	-4562
▁qurulması	-4563
təşəm	-4564
▁Qəb	-4565
▁tabe	-4566
▁Qanun	-4567
▁Nətic	-4568
ıqlı	-4569
▁sürücü	-4570
likləri	-4571
▁Respublika	-4572
▁qrupunun	-4573
▁Suriya	-4574
maya	-4575
▁Zeyn	-4576
▁Tay	-4577
əsə	-4578
▁iclasında	-4579
▁Mac	-4580
▁Qrup	-4581
▁bölgədə	-4582
▁edilməsinə	-4583
azımi	-4584
▁göstərib	-4585
▁mürəkkəb	-4586
▁Eks	-4587
▁Akademiyasının	-4588
▁rayonun	-4589
▁yanvarın	-4590
▁əsir	-4591
esi	-4592
▁yarıs	-4593
kun	-4594
▁Rüstəm	-4595
dum	-4596
▁investisiya	-4597
▁yalan	-4598
▁qara	-4599
eksan	-4600
▁odur	-4601
▁turn	-4602
▁onlarla	-4603
▁əf	-4604
ısı	-4605
▁Yaxın	-4606
▁tikintisi	-4607
▁start	-4608
muşdur	-4609
▁Ümumiyyətlə	-4610
▁vəzifə	-4611
▁eff	-4612
arlar	-4613
obus	-4614
▁Partiyası	-4615
▁vasitə	-4616
▁yaratdığı	-4617
▁Ermənistana	-4618
ord	-4619
▁olmadan	-4620
peratur	-4621
▁şərq	-4622
▁Aş	-4623
▁meş	-4624
▁inteq	-4625
duğunu	-4626
▁Nərim	-4627
▁çatdırıb	-4628
▁çıxır	-4629
ziz	-4630
▁iri	-4631
ID	-4632
▁xidmətləri	-4633
▁ənənəvi	-4634
▁xoşbəxt	-4635
gəl	-4636
▁AMEA	-4637
ləndirilən	-4638
uf	-4639
▁sir	-4640
▁davr	-4641
asiyalar	-4642
▁Tramp	-4643
▁faydalı	-4644
iylə	-4645
▁fevralın	-4646
▁problemləri	-4647
▁Yaş	-4648
▁Qarabağda	-4649
▁Vaqif	-4650
▁mayın	-4651
▁nəticələn	-4652
▁Teh	-4653
eya	-4654
▁Müəlli	-4655
▁kart	-4656
AZ	-4657
▁əlaqə	-4658
iyyətini	-4659
▁Komitəsi	-4660
▁ton	-4661
▁Əsəd	-4662
ministr	-4663
Bir	-4664
dədir	-4665
TAC	-4666
▁Putin	-4667
▁mənada	-4668
▁partiya	-4669
▁qürur	-4670
▁şt	-4671
gör	-4672
▁Ukraynanın	-4673
larım	-4674
acaqlar	-4675
▁lazımi	-4676
▁ko	-4677
əcəyik	-4678
▁mağ	-4679
▁müxalifət	-4680
▁Ümummilli	-4681
▁vətənpərvər	-4682
▁Lənkəran	-4683
▁nəticəsi	-4684
▁video	-4685
ifah	-4686
▁Həsənov	-4687
▁problemi	-4688
▁zərb	-4689
▁qurğu	-4690
eqor	-4691
▁qoh	-4692
tr	-4693
ünya	-4694
▁içərisində	-4695
Ermən	-4696
▁dövlətimizin	-4697
▁KİV	-4698
▁başlayaraq	-4699
tok	-4700
▁səsləndir	-4701
▁Film	-4702
kal	-4703
▁araşdırmalar	-4704
▁tərəfi	-4705
▁Paşinyan	-4706
qres	-4707
ƏRTAC	-4708
▁yaradılan	-4709
irt	-4710
▁açıqlayıb	-4711
▁qış	-4712
▁Qazaxıstan	-4713
▁qəlb	-4714
▁Sult	-4715
▁virus	-4716
▁islahatlar	-4717
əşər	-4718
amik	-4719
▁martın	-4720
▁Gö	-4721
▁ağrı	-4722
▁Bax	-4723
▁İtaliya	-4724
▁kilometr	-4725
▁müqavilə	-4726
əqin	-4727
▁möhtəşəm	-4728
▁avadanlıq	-4729
olun	-4730
▁dram	-4731
▁tərkibində	-4732
▁qalmış	-4733
▁təşv	-4734
▁Orta	-4735
▁göstərmək	-4736
su	-4737
▁Rusiyada	-4738
▁sırasında	-4739
▁dar	-4740
ıla	-4741
▁əlil	-4742
▁göstərdiyi	-4743
▁soruş	-4744
▁sevin	-4745
▁des	-4746
▁dərman	-4747
məramlı	-4748
▁cari	-4749
▁aprelin	-4750
▁əlveriş	-4751
▁birinə	-4752
lassik	-4753
▁tərəfdar	-4754
▁Müb	-4755
▁Ölkəm	-4756
▁temperatur	-4757
▁oyunun	-4758
oviç	-4759
əcəb	-4760
▁Tam	-4761
▁xarakterli	-4762
ven	-4763
▁valyut	-4764
əyini	-4765
▁vardı	-4766
əbrayıl	-4767
asız	-4768
▁Süleyman	-4769
əmiş	-4770
▁vari	-4771
▁la	-4772
▁Yazı	-4773
nov	-4774
▁davranış	-4775
▁səbəbindən	-4776
bit	-4777
▁sü	-4778
▁Xət	-4779
▁tanım	-4780
▁ac	-4781
▁qüd	-4782
▁başlı	-4783
....	-4784
xal	-4785
▁reak	-4786
▁yemək	-4787
▁hamısı	-4788
▁etdikləri	-4789
▁dəyərləndir	-4790
▁peşə	-4791
▁Paris	-4792
▁işg	-4793
ləmə	-4794
▁Səhiyyə	-4795
▁heyətinin	-4796
əmizə	-4797
▁Osmanlı	-4798
▁Nəticədə	-4799
▁Minsk	-4800
▁illərində	-4801
▁Belarus	-4802
▁təhsili	-4803
▁səmimi	-4804
▁Kat	-4805
▁insanlara	-4806
alardan	-4807
▁tələbə	-4808
ultur	-4809
▁Qara	-4810
▁kr	-4811
ağını	-4812
▁bəri	-4813
▁cəmiyyəti	-4814
▁naminə	-4815
▁vaxtlar	-4816
▁kənarda	-4817
imdə	-4818
alarından	-4819
larımızı	-4820
▁səhv	-4821
▁aparır	-4822
▁güzəş	-4823
▁tərcümə	-4824
▁hesabat	-4825
▁risk	-4826
▁siyahıs	-4827
evik	-4828
ayih	-4829
▁çəkən	-4830
▁hakimiyyətə	-4831
▁ərəf	-4832
▁plat	-4833
▁daxildir	-4834
▁minlərlə	-4835
▁Qarabağın	-4836
▁soyqırımı	-4837
▁dekabrın	-4838
▁Şirk	-4839
ilərinin	-4840
▁ehtimal	-4841
▁qala	-4842
▁Daş	-4843
▁Fon	-4844
▁telek	-4845
▁atası	-4846
▁yolunda	-4847
aba	-4848
▁olmağa	-4849
ilməsinə	-4850
▁əksəriyyəti	-4851
ındakı	-4852
yaş	-4853
▁Rusiyaya	-4854
▁gündüz	-4855
▁çevrilib	-4856
edaqoji	-4857
▁yaddaş	-4858
yla	-4859
▁terrorçu	-4860
əvvür	-4861
▁sab	-4862
▁insanları	-4863
▁veriliş	-4864
▁olunduğu	-4865
▁gedə	-4866
▁bilərsiniz	-4867
unt	-4868
.)	-4869
▁Azərbaycanlı	-4870
▁Ber	-4871
▁Millət	-4872
əyən	-4873
▁üns	-4874
▁zidd	-4875
▁gərək	-4876
▁ili	-4877
oli	-4878
▁təhlükəsizliyi	-4879
▁hissi	-4880
▁Sar	-4881
▁görülüb	-4882
▁hadisələr	-4883
▁ümumiyyətlə	-4884
▁Özbək	-4885
ler	-4886
ıbəy	-4887
▁boyun	-4888
▁Ankar	-4889
▁rolunu	-4890
▁xüsusən	-4891
▁respublika	-4892
▁respublikamız	-4893
ğa	-4894
itorinq	-4895
▁Səb	-4896
▁Arif	-4897
▁aparan	-4898
▁Tədbirdə	-4899
▁sözlə	-4900
alic	-4901
▁etnik	-4902
▁şirkətinin	-4903
ələndir	-4904
▁dövlətlərin	-4905
sub	-4906
eys	-4907
iyin	-4908
▁qarşısının	-4909
▁müşav	-4910
▁sərf	-4911
▁tələblərinə	-4912
mon	-4913
neft	-4914
▁Bol	-4915
inad	-4916
▁qətlə	-4917
▁həft	-4918
▁məmur	-4919
▁əşy	-4920
▁sonuncu	-4921
▁sonradan	-4922
▁Rəcəb	-4923
▁edilərək	-4924
çıları	-4925
▁bildiriblər	-4926
▁iradə	-4927
▁Laçın	-4928
▁təşkilatçılığı	-4929
▁fəxri	-4930
▁əhali	-4931
▁separ	-4932
▁sün	-4933
mada	-4934
▁yaxınlaş	-4935
likdən	-4936
▁sözügedən	-4937
ırda	-4938
sində	-4939
▁Əsgər	-4940
ayevin	-4941
▁ses	-4942
▁edərkən	-4943
▁Bəzi	-4944
▁diqqəti	-4945
▁Ley	-4946
▁Səməd	-4947
aca	-4948
üncü	-4949
▁Müharib	-4950
▁Nat	-4951
üddətli	-4952
dön	-4953
▁fəaliyyətə	-4954
▁direktor	-4955
abayev	-4956
▁bilən	-4957
▁imza	-4958
abitə	-4959
▁ordusu	-4960
imizi	-4961
mələr	-4962
müh	-4963
diklərini	-4964
▁Əməkdar	-4965
qtid	-4966
▁minnətdar	-4967
▁köh	-4968
▁him	-4969
laya	-4970
▁xərit	-4971
▁yandır	-4972
eyin	-4973
▁narazı	-4974
▁qurban	-4975
▁sahələrində	-4976
yam	-4977
▁ulduz	-4978
▁bitki	-4979
ülf	-4980
▁Mol	-4981
▁Şöb	-4982
An	-4983
▁orq	-4984
yaz	-4985
yektiv	-4986
▁aylıq	-4987
▁xətti	-4988
▁mütt	-4989
oder	-4990
▁Aleksan	-4991
▁miqdarda	-4992
▁üslub	-4993
▁Mak	-4994
▁Yanvar	-4995
▁olmasa	-4996
▁XI	-4997
▁yolunun	-4998
ülü	-4999
▁alman	-5000
▁bəlkə	-5001
▁aidiyyəti	-5002
▁sakinləri	-5003
ian	-5004
▁qəzeti	-5005
▁zabit	-5006
▁tipli	-5007
▁əsası	-5008
▁təəssüf	-5009
▁ömür	-5010
▁işçi	-5011
▁Hindi	-5012
ımda	-5013
▁istinad	-5014
▁Əslində	-5015
▁coğ	-5016
munikasiya	-5017
▁dövriyy	-5018
▁avro	-5019
▁hazırlaş	-5020
▁görüb	-5021
▁istirahət	-5022
▁rep	-5023
Trend	-5024
▁iştirakçıları	-5025
▁illərin	-5026
▁savaş	-5027
▁blok	-5028
▁inform	-5029
▁ölkələrində	-5030
▁müharibəsində	-5031
ılış	-5032
▁mö	-5033
▁görüşüb	-5034
▁olmasını	-5035
süz	-5036
▁foto	-5037
▁dövrün	-5038
aqlı	-5039
üqar	-5040
mer	-5041
olkovnik	-5042
ovuz	-5043
şrut	-5044
texniki	-5045
▁müqəddəs	-5046
amal	-5047
▁inş	-5048
OVID	-5049
avr	-5050
ağız	-5051
▁günlük	-5052
▁Əliyevə	-5053
▁işlərinin	-5054
▁reallaşdır	-5055
▁verilmiş	-5056
▁dünyasını	-5057
▁Təşkilatının	-5058
▁Türkiyəyə	-5059
kəl	-5060
▁müalic	-5061
▁şəraitdə	-5062
uma	-5063
▁geyim	-5064
▁etim	-5065
▁yolla	-5066
▁hüquqlarının	-5067
▁unut	-5068
▁aktual	-5069
veren	-5070
ülə	-5071
əbi	-5072
▁etibarlı	-5073
▁ordusunun	-5074
oran	-5075
▁Azərbaycandakı	-5076
▁Keç	-5077
▁açıb	-5078
▁oxş	-5079
▁təhvil	-5080
lənmiş	-5081
▁Nəs	-5082
əlz	-5083
▁xalqına	-5084
▁başlayan	-5085
▁rəqab	-5086
▁yaranan	-5087
▁ölüb	-5088
▁Universiteti	-5089
əssas	-5090
▁etdirmək	-5091
▁Əliyevanın	-5092
çü	-5093
▁sm	-5094
tament	-5095
▁Avropanın	-5096
məyin	-5097
▁İdman	-5098
ünüz	-5099
▁arxasında	-5100
lıqda	-5101
▁təmas	-5102
▁görüşü	-5103
anını	-5104
▁qaçqın	-5105
▁müstəqillik	-5106
Neft	-5107
ləyi	-5108
əyir	-5109
əsiq	-5110
▁imtah	-5111
ass	-5112
daşlıq	-5113
▁problemlərin	-5114
▁sanki	-5115
▁əlverişli	-5116
▁Məş	-5117
▁mərhələsində	-5118
▁evdə	-5119
▁qətnam	-5120
▁rəy	-5121
▁duran	-5122
▁Anar	-5123
▁vacibdir	-5124
▁edilməlidir	-5125
▁ərzaq	-5126
▁olduğundan	-5127
▁olacağı	-5128
▁qüvvələrinin	-5129
▁Region	-5130
▁ildir	-5131
▁etmə	-5132
▁Qərar	-5133
övh	-5134
▁yerləşdiril	-5135
ündür	-5136
▁Məhkəməsinin	-5137
siyaları	-5138
asiyanın	-5139
▁həyatında	-5140
▁diaspor	-5141
▁düşmüş	-5142
▁məktəbin	-5143
▁əməkdaşı	-5144
▁Cəlil	-5145
liklər	-5146
▁kimin	-5147
madı	-5148
▁cərim	-5149
ss	-5150
▁edildiyi	-5151
riq	-5152
▁Murad	-5153
▁yaşan	-5154
əmək	-5155
▁müştər	-5156
▁muğam	-5157
▁müddəti	-5158
▁festival	-5159
▁Layih	-5160
▁iyulun	-5161
▁mərhələdə	-5162
▁vak	-5163
▁həyatını	-5164
▁prosesində	-5165
▁bərpası	-5166
▁keçirən	-5167
▁tikil	-5168
▁xadimi	-5169
▁Qal	-5170
▁İqtisadiyyat	-5171
əbbət	-5172
emin	-5173
dılması	-5174
▁Elmlər	-5175
▁üzvlərinin	-5176
▁suveren	-5177
lərimizi	-5178
▁MM	-5179
usunu	-5180
▁vəsiq	-5181
əyib	-5182
▁unu	-5183
ŞİD	-5184
▁iqtid	-5185
▁məhsulları	-5186
əsimi	-5187
▁Cəbrayıl	-5188
▁nəzarəti	-5189
ıldığını	-5190
prezidenti	-5191
ou	-5192
ovu	-5193
lıqdan	-5194
ünc	-5195
▁çəkir	-5196
▁avtobus	-5197
luğun	-5198
əncamı	-5199
▁yaşı	-5200
▁poez	-5201
▁məsələyə	-5202
▁quruculu	-5203
▁Mahmud	-5204
▁Qarab	-5205
le	-5206
▁yaradıb	-5207
bəyli	-5208
▁İki	-5209
▁tapıb	-5210
▁Rəsul	-5211
▁Birliyi	-5212
SK	-5213
▁əziyyət	-5214
▁mexanizm	-5215
▁göstərilir	-5216
▁kitabı	-5217
▁kitabxan	-5218
▁Müş	-5219
▁Kabineti	-5220
▁təcrübə	-5221
▁variant	-5222
▁Fondu	-5223
▁salam	-5224
▁Möv	-5225
▁bəlli	-5226
▁qismində	-5227
▁Fik	-5228
ellekt	-5229
▁mag	-5230
▁məskun	-5231
estr	-5232
▁qulluqçu	-5233
▁mobil	-5234
ilərə	-5235
▁Qüvvələrinin	-5236
▁Xəst	-5237
▁marşrut	-5238
▁Öndər	-5239
▁qaldırılması	-5240
▁ala	-5241
▁hərtərəfli	-5242
▁sizə	-5243
▁element	-5244
sini	-5245
Məmməd	-5246
▁xeyir	-5247
▁şəxslərə	-5248
▁dinamik	-5249
▁imkanlar	-5250
▁yaranmış	-5251
içək	-5252
landiya	-5253
inf	-5254
▁gələr	-5255
ayəti	-5256
▁əvvəllər	-5257
▁vasitəsi	-5258
▁ziyan	-5259
▁alət	-5260
▁həvəs	-5261
▁uçuş	-5262
antin	-5263
▁Uz	-5264
▁almış	-5265
▁Mübar	-5266
işət	-5267
▁kq	-5268
▁ehtir	-5269
iyyətin	-5270
▁işləyən	-5271
▁mühafiz	-5272
▁soyqırım	-5273
▁deyildi	-5274
▁Çempion	-5275
▁Əfqanı	-5276
▁ölkəmizə	-5277
▁təhdi	-5278
▁pal	-5279
▁qardaşı	-5280
▁üzə	-5281
mizə	-5282
▁müəssisələrinin	-5283
pekt	-5284
üvə	-5285
▁gizli	-5286
▁imzalayıb	-5287
▁Şəm	-5288
▁Günü	-5289
▁Apar	-5290
əcər	-5291
məkdədir	-5292
mat	-5293
▁qəsəbəsində	-5294
lunun	-5295
▁səhiyyə	-5296
bətən	-5297
▁yaşıl	-5298
▁xatırlad	-5299
yön	-5300
▁apardığı	-5301
▁dərk	-5302
ikt	-5303
▁mərasimi	-5304
▁Pak	-5305
▁oynayır	-5306
▁yataq	-5307
▁Dav	-5308
▁olublar	-5309
lığından	-5310
▁seçil	-5311
lənməsinə	-5312
▁Müq	-5313
əffaf	-5314
▁inqilab	-5315
▁Ast	-5316
▁sadiq	-5317
▁tezliklə	-5318
▁fikirlər	-5319
▁Mənim	-5320
əhu	-5321
▁sınaq	-5322
▁qohum	-5323
alinin	-5324
rəm	-5325
▁Dil	-5326
▁təşkilatının	-5327
▁Bar	-5328
rətli	-5329
▁söylə	-5330
▁Söz	-5331
ider	-5332
▁Azərbaycandan	-5333
▁adamı	-5334
▁lis	-5335
ovla	-5336
ılsın	-5337
dirib	-5338
▁vaxtda	-5339
amb	-5340
anr	-5341
əməxsus	-5342
▁saatlarında	-5343
▁gözləyir	-5344
▁test	-5345
pul	-5346
vat	-5347
▁səsver	-5348
▁olmuşdu	-5349
▁Ərdoğan	-5350
▁Qoş	-5351
istika	-5352
▁tövsiyə	-5353
▁fikirləri	-5354
▁fəsil	-5355
▁iq	-5356
▁işğalçı	-5357
▁Moskvada	-5358
▁açıqlama	-5359
▁ekoloji	-5360
▁müzakirələr	-5361
▁Ek	-5362
▁boğ	-5363
▁məktəbi	-5364
▁əsəri	-5365
▁sürətli	-5366
▁təhlükə	-5367
▁göstərdi	-5368
▁infek	-5369
tom	-5370
▁Hərək	-5371
val	-5372
▁qanunvericilik	-5373
▁həcm	-5374
▁eşit	-5375
▁Nə	-5376
azil	-5377
AM	-5378
▁tərəqq	-5379
▁yurd	-5380
▁hasil	-5381
▁maddəsi	-5382
▁adi	-5383
▁klassik	-5384
ürs	-5385
▁könüllü	-5386
izmi	-5387
▁dəhş	-5388
▁bayramı	-5389
▁Qadın	-5390
▁olardı	-5391
ilərək	-5392
▁saxlamaq	-5393
çının	-5394
▁nisbətən	-5395
öhbət	-5396
lov	-5397
lanmış	-5398
▁vermir	-5399
ifə	-5400
▁İnt	-5401
▁İrəvan	-5402
ultural	-5403
▁May	-5404
onald	-5405
▁magist	-5406
▁müay	-5407
oqquş	-5408
▁avi	-5409
əcəyinə	-5410
▁göy	-5411
SCO	-5412
iyasını	-5413
▁elmləri	-5414
▁yenilik	-5415
▁töhfə	-5416
günkü	-5417
XC	-5418
ülür	-5419
▁Hava	-5420
▁oğlan	-5421
up	-5422
maqdadır	-5423
azar	-5424
▁daşıyan	-5425
▁parlaq	-5426
vənd	-5427
▁Ekspert	-5428
▁:	-5429
▁Fransanın	-5430
▁Şəki	-5431
▁nəf	-5432
▁layiqli	-5433
▁kol	-5434
▁tədbirdə	-5435
rom	-5436
▁Xidməti	-5437
▁toplantı	-5438
lək	-5439
lardır	-5440
▁səviyyəsi	-5441
▁ölkələrinin	-5442
▁Mas	-5443
dığımız	-5444
qyaslı	-5445
uda	-5446
▁Şirvan	-5447
▁İnc	-5448
▁Araşdır	-5449
laşması	-5450
▁həqiqi	-5451
▁Elçin	-5452
▁həssas	-5453
▁yerləşdirilib	-5454
▁tök	-5455
▁oxun	-5456
▁münaqişənin	-5457
▁işinə	-5458
▁çoxu	-5459
▁sənədlər	-5460
▁daşım	-5461
▁rəğ	-5462
▁Heç	-5463
▁istehlak	-5464
▁güzəşt	-5465
ultik	-5466
let	-5467
▁Seçki	-5468
▁tədbiri	-5469
gey	-5470
▁ayaq	-5471
▁Tək	-5472
""	-5473
▁Hadisə	-5474
▁təqdirdə	-5475
▁televiziya	-5476
əmadi	-5477
▁saxlam	-5478
▁mənzər	-5479
▁təf	-5480
yib	-5481
▁şübhəli	-5482
▁bat	-5483
ivil	-5484
▁Maliyyə	-5485
▁texnologiyalar	-5486
▁şahidi	-5487
arx	-5488
▁əsrdə	-5489
▁Məq	-5490
▁lab	-5491
▁vaxtında	-5492
▁özünəməxsus	-5493
idro	-5494
▁deputatı	-5495
▁Elmi	-5496
▁həmsəd	-5497
kəs	-5498
▁zavod	-5499
mayacaq	-5500
▁aparmaq	-5501
aşinq	-5502
▁sifariş	-5503
▁veriləcək	-5504
▁bütövlükdə	-5505
▁dəyərli	-5506
qal	-5507
▁Şər	-5508
birinə	-5509
yanı	-5510
▁Konfrans	-5511
▁İŞİD	-5512
▁dolu	-5513
▁kəmər	-5514
▁fonunda	-5515
▁çəkib	-5516
▁Fövqəladə	-5517
▁Man	-5518
▁həmrəy	-5519
▁müəllimi	-5520
▁təhlükəli	-5521
▁bıç	-5522
▁Aleksandr	-5523
▁Naxçıv	-5524
▁görülmüş	-5525
▁hüquqları	-5526
▁idarəetmə	-5527
▁kino	-5528
▁qiymətli	-5529
dünya	-5530
▁razılıq	-5531
istian	-5532
▁toqquş	-5533
▁maddələr	-5534
▁dəqiqə	-5535
▁vasitələrinin	-5536
ultikultural	-5537
▁avqustun	-5538
altı	-5539
▁münasibəti	-5540
▁Nəqliyyat	-5541
▁artıb	-5542
▁Con	-5543
▁başlıca	-5544
▁mes	-5545
▁istef	-5546
▁çirk	-5547
▁Arx	-5548
▁prospekt	-5549
▁Lond	-5550
▁hissəsinin	-5551
▁mövqeyi	-5552
▁Oğ	-5553
acağına	-5554
▁İsa	-5555
▁iclası	-5556
▁sədrinin	-5557
ladıq	-5558
mədə	-5559
▁kəl	-5560
imizdə	-5561
▁yazdığı	-5562
▁böhran	-5563
▁təcili	-5564
▁qanunun	-5565
ew	-5566
▁ser	-5567
omb	-5568
▁Müst	-5569
▁gücü	-5570
▁Sonr	-5571
▁tr	-5572
▁təhdid	-5573
▁hesabı	-5574
▁Sabir	-5575
▁çıxışı	-5576
▁yayın	-5577
▁Kim	-5578
▁artist	-5579
▁ildön	-5580
üfi	-5581
ensiv	-5582
▁qazanıb	-5583
▁doğr	-5584
▁kəşfiyyat	-5585
anət	-5586
düyünü	-5587
son	-5588
▁mərtəb	-5589
məməsi	-5590
emyer	-5591
▁Avropada	-5592
rant	-5593
osu	-5594
▁olmur	-5595
▁zəmin	-5596
▁bağış	-5597
▁hazırkı	-5598
layn	-5599
▁hissəsini	-5600
fon	-5601
▁Kan	-5602
▁Festiv	-5603
alandır	-5604
▁MMC	-5605
▁respublikanın	-5606
▁hadisəsi	-5607
▁bol	-5608
▁Dəniz	-5609
▁tarixinə	-5610
▁xəstəxanaya	-5611
əndis	-5612
▁layihələrin	-5613
▁edirdilər	-5614
▁təsadüf	-5615
▁bölgəsində	-5616
▁Liqasının	-5617
▁görüntü	-5618
▁sit	-5619
əndər	-5620
▁Kəlb	-5621
▁nağ	-5622
▁siq	-5623
▁təqa	-5624
▁Nam	-5625
▁Demokrat	-5626
▁təbi	-5627
sev	-5628
▁götürüb	-5629
▁III	-5630
ilməz	-5631
ımızda	-5632
▁anlam	-5633
atlarının	-5634
izdə	-5635
▁təsəvvür	-5636
muşdu	-5637
▁anası	-5638
ofiq	-5639
III	-5640
▁TV	-5641
▁üstündə	-5642
▁Qayda	-5643
▁İy	-5644
▁rayonlarında	-5645
▁nəticədə	-5646
▁Mərkəzində	-5647
▁saziş	-5648
▁təhsilin	-5649
▁təməl	-5650
ğəmbər	-5651
eyx	-5652
▁Müt	-5653
Av	-5654
▁edin	-5655
▁sə	-5656
▁genişləndir	-5657
▁frans	-5658
▁medalı	-5659
▁qəzetinin	-5660
▁layihələri	-5661
▁mağaz	-5662
əcc	-5663
▁məkan	-5664
▁qurumun	-5665
çay	-5666
ətində	-5667
▁Əziz	-5668
▁məşqçisi	-5669
▁zəlz	-5670
Rusiya	-5671
▁əməkdaşlarının	-5672
▁tədqiq	-5673
▁Prezidentin	-5674
▁diz	-5675
ook	-5676
▁Rəhim	-5677
▁ri	-5678
▁Üç	-5679
İA	-5680
▁Üzeyir	-5681
▁verg	-5682
▁fikirlərini	-5683
▁şəffaf	-5684
▁istərsə	-5685
▁qüvvəyə	-5686
▁vətəndaşları	-5687
▁inkişafının	-5688
nif	-5689
▁məsələlərin	-5690
▁pre	-5691
▁mütəmadi	-5692
akir	-5693
şünaslıq	-5694
▁Səud	-5695
▁UNE	-5696
▁müğənni	-5697
▁məhsullarının	-5698
▁əlbəttə	-5699
ləşdirilmiş	-5700
▁metod	-5701
▁məlumatı	-5702
▁au	-5703
Ab	-5704
▁redaktoru	-5705
▁İnformasiya	-5706
ərçək	-5707
▁konsep	-5708
▁hazırlanmış	-5709
ağıyev	-5710
▁intensiv	-5711
▁qəbulu	-5712
▁yaradan	-5713
▁Misir	-5714
▁miqy	-5715
ayış	-5716
▁məzm	-5717
▁maddəsinin	-5718
▁şəraiti	-5719
▁haqqı	-5720
ılaraq	-5721
▁MD	-5722
▁yaranıb	-5723
▁artması	-5724
▁eksp	-5725
▁məlumatları	-5726
▁üzü	-5727
▁əyal	-5728
eor	-5729
▁qorumaq	-5730
▁Mik	-5731
▁xidmətinin	-5732
▁Seyid	-5733
▁soyuq	-5734
▁qərarına	-5735
▁katib	-5736
aksim	-5737
▁Sizə	-5738
▁gündəlik	-5739
▁Universitetində	-5740
▁ucuz	-5741
eyi	-5742
litoloq	-5743
▁zərbə	-5744
▁müqaviləsi	-5745
▁Dər	-5746
▁tax	-5747
▁Er	-5748
▁Əd	-5749
yon	-5750
▁köhnə	-5751
lərdir	-5752
▁Forum	-5753
▁qərb	-5754
▁hekt	-5755
▁Mart	-5756
▁mətn	-5757
▁xəbərdarlıq	-5758
▁dəyişib	-5759
▁zirv	-5760
▁çatış	-5761
▁təminatı	-5762
məni	-5763
▁bacarıq	-5764
▁Sahib	-5765
mənəvi	-5766
▁Ağır	-5767
▁şəbəkələrdə	-5768
▁vəziyyətə	-5769
▁çəkin	-5770
▁Vaşinq	-5771
▁əvvəllərində	-5772
▁təşkilatların	-5773
aktiki	-5774
▁nəticələr	-5775
▁qaldı	-5776
▁Xaç	-5777
▁kafed	-5778
dirlər	-5779
▁quru	-5780
▁ssen	-5781
Ar	-5782
ımın	-5783
ayeva	-5784
ind	-5785
▁Həy	-5786
▁təşkilatlar	-5787
▁münaqişəsinin	-5788
▁karyer	-5789
maların	-5790
▁klubu	-5791
rav	-5792
▁day	-5793
▁qurtar	-5794
▁tar	-5795
sel	-5796
odern	-5797
▁Report	-5798
▁təhq	-5799
▁Fir	-5800
eksi	-5801
əzur	-5802
▁olmadığı	-5803
▁sahələri	-5804
▁Böl	-5805
▁Doğ	-5806
▁etdiyimiz	-5807
▁mesaj	-5808
▁müəssisələrində	-5809
▁mindən	-5810
oç	-5811
▁islam	-5812
▁intellekt	-5813
▁seçim	-5814
▁mot	-5815
lıqlar	-5816
üstü	-5817
▁alq	-5818
əmi	-5819
əxş	-5820
▁əhəmiyyəti	-5821
▁Tofiq	-5822
▁başına	-5823
▁Bor	-5824
▁Şərqi	-5825
▁ədəbiyyatı	-5826
▁tamaşaçı	-5827
▁Ordusunun	-5828
▁karantin	-5829
▁siyasətin	-5830
▁cəmiyyətdə	-5831
▁müdafiəsi	-5832
boy	-5833
▁etməl	-5834
əxlaq	-5835
mühafizə	-5836
ütb	-5837
▁meh	-5838
▁Ramiz	-5839
▁aktris	-5840
▁evə	-5841
tokol	-5842
▁seçilib	-5843
▁layihəsinin	-5844
▁müşay	-5845
▁budur	-5846
dıqda	-5847
▁Sultan	-5848
arları	-5849
▁zorakı	-5850
ernativ	-5851
▁əmələ	-5852
▁yolun	-5853
umuzun	-5854
▁Babayev	-5855
▁Agentliyinin	-5856
▁nüvə	-5857
▁hündür	-5858
▁fikri	-5859
urlar	-5860
▁məhəbbət	-5861
▁dahi	-5862
▁yaşında	-5863
ena	-5864
aqn	-5865
▁mövqeyini	-5866
ork	-5867
▁durum	-5868
▁fili	-5869
▁əhalisinin	-5870
▁sayının	-5871
▁Tey	-5872
▁Əmin	-5873
▁ərazisinə	-5874
mədiyi	-5875
▁Ölkə	-5876
luğunu	-5877
əkbər	-5878
▁Assambl	-5879
▁şəklində	-5880
ES	-5881
▁tanınan	-5882
▁zədə	-5883
OC	-5884
▁korrup	-5885
▁idmançı	-5886
▁yaradıcılığı	-5887
▁subyekt	-5888
▁edilə	-5889
▁altına	-5890
▁verməyə	-5891
▁sevgi	-5892
▁zal	-5893
ənlərin	-5894
▁Gürcüstanın	-5895
▁Zaq	-5896
▁müavin	-5897
▁döz	-5898
əffəq	-5899
orator	-5900
aye	-5901
▁istedadlı	-5902
▁Hələ	-5903
▁yaşamaq	-5904
▁çatdırılıb	-5905
▁ərəfəsində	-5906
▁müttəfiq	-5907
▁olanda	-5908
dınca	-5909
▁günün	-5910
▁işinin	-5911
eddi	-5912
▁tay	-5913
▁qalmaq	-5914
▁vasitələri	-5915
▁qadınlar	-5916
▁qoyulan	-5917
oqrafiya	-5918
▁idxal	-5919
▁fasil	-5920
▁ASC	-5921
▁əziz	-5922
▁çağ	-5923
▁layihənin	-5924
▁er	-5925
▁Görüşdə	-5926
▁rəhbərləri	-5927
▁sakit	-5928
▁Texn	-5929
▁Gömrük	-5930
osunun	-5931
acı	-5932
▁versin	-5933
▁gücləndirilməsi	-5934
▁monitorinq	-5935
▁ata	-5936
▁verilmişdir	-5937
diyimiz	-5938
▁sülhməramlı	-5939
▁əmr	-5940
ristian	-5941
▁İdarəsi	-5942
El	-5943
▁qıs	-5944
silə	-5945
▁mənsub	-5946
▁XV	-5947
▁çalışıb	-5948
▁cavablandır	-5949
▁surətdə	-5950
▁Ədliyyə	-5951
üc	-5952
▁Qərbi	-5953
▁Kons	-5954
abbar	-5955
ətlə	-5956
▁Akt	-5957
▁çıxışında	-5958
metr	-5959
enko	-5960
▁mm	-5961
▁klubunun	-5962
▁ant	-5963
dəbiyyat	-5964
▁quş	-5965
▁keçirilməsinə	-5966
AL	-5967
ahi	-5968
▁mərasimində	-5969
▁Zeynal	-5970
▁təşkilatın	-5971
▁adamları	-5972
dirmək	-5973
▁Müstəqil	-5974
▁təkan	-5975
▁mik	-5976
▁Federasiyasının	-5977
▁Ələkbər	-5978
▁Müasir	-5979
dıb	-5980
▁Hacıbəy	-5981
▁olmayacaq	-5982
▁müvəffəq	-5983
iti	-5984
▁etməli	-5985
ülük	-5986
▁anlaş	-5987
▁olunmalıdır	-5988
▁vəhş	-5989
▁nəhəng	-5990
▁Şt	-5991
▁nəfəri	-5992
▁Elekt	-5993
▁vəzifəli	-5994
layaraq	-5995
lıdır	-5996
Ağ	-5997
▁guya	-5998
atoru	-5999
▁Yunanı	-6000
əcəklər	-6001
▁fir	-6002
▁Səd	-6003
▁Krem	-6004
bilisi	-6005
istanın	-6006
▁Komissiyasının	-6007
izmin	-6008
▁Əməkdaşlıq	-6009
▁dəfn	-6010
ros	-6011
itinq	-6012
Neftçi	-6013
▁şöh	-6014
▁münaqişə	-6015
▁kils	-6016
▁yağış	-6017
▁bıçaq	-6018
vin	-6019
üzə	-6020
▁mükəm	-6021
▁Erməni	-6022
▁Bab	-6023
▁Koll	-6024
▁müddətinə	-6025
vaz	-6026
▁sərvət	-6027
▁oyunçu	-6028
ansız	-6029
▁Nazirliyinə	-6030
▁işini	-6031
▁şeyi	-6032
▁nadir	-6033
▁rest	-6034
▁Xəstəxan	-6035
bat	-6036
▁qarşıdur	-6037
▁Fət	-6038
▁ailəsi	-6039
lantı	-6040
▁Səudiyyə	-6041
▁səviyyəli	-6042
▁oynam	-6043
▁Hol	-6044
▁obyektiv	-6045
▁buraxılış	-6046
▁hədd	-6047
va	-6048
▁Əks	-6049
ruc	-6050
ləşib	-6051
▁tarixinin	-6052
▁göstəriş	-6053
▁Bəs	-6054
maqdan	-6055
▁”	-6056
▁fərman	-6057
▁mükəmməl	-6058
▁fəlsəfə	-6059
▁cinayətkar	-6060
▁vərəq	-6061
▁məzun	-6062
▁həllini	-6063
▁birini	-6064
▁Təbr	-6065
▁günlər	-6066
əkkil	-6067
▁prosesinin	-6068
▁Qüvvələri	-6069
lanma	-6070
gəndər	-6071
Report	-6072
▁Cavid	-6073
▁Tovuz	-6074
▁bildirən	-6075
▁xeyr	-6076
▁saray	-6077
iyyətinə	-6078
▁həqiqətən	-6079
▁Axund	-6080
▁Konqres	-6081
▁hərəkəti	-6082
▁Assambley	-6083
▁soydaş	-6084
▁hadisələri	-6085
sağ	-6086
ılmışdı	-6087
▁Hallar	-6088
pr	-6089
▁sənəti	-6090
lo	-6091
▁korp	-6092
▁rəqs	-6093
▁Qanununun	-6094
▁pozulması	-6095
▁zəh	-6096
▁verildi	-6097
▁sektorunun	-6098
mağın	-6099
▁Yas	-6100
▁mənaf	-6101
mişəm	-6102
▁Ban	-6103
▁iqtisadiyyatın	-6104
▁Tayyib	-6105
luğunda	-6106
dülər	-6107
▁Aİ	-6108
▁sorğu	-6109
olit	-6110
▁şahid	-6111
▁Zəngəzur	-6112
▁müdrik	-6113
▁bütövlüyü	-6114
▁danışan	-6115
▁başlamış	-6116
▁İranda	-6117
▁Tə	-6118
▁psixoloji	-6119
▁müstəqilliyi	-6120
▁sistemində	-6121
EV	-6122
▁əhalisi	-6123
▁yaxınlarda	-6124
▁təşkilatı	-6125
▁kateqor	-6126
maması	-6127
▁sabah	-6128
▁kamer	-6129
▁mədəniyyətinin	-6130
▁dalğ	-6131
▁Aslan	-6132
▁vəd	-6133
laşan	-6134
▁olduğuna	-6135
▁təhqir	-6136
▁sənin	-6137
▁turnir	-6138
▁açılması	-6139
▁Qafqazda	-6140
▁Sadə	-6141
malıyıq	-6142
▁sevinc	-6143
▁işin	-6144
▁olduqda	-6145
ləşdirilib	-6146
▁pozunt	-6147
dığım	-6148
▁ehtiyacı	-6149
▁xaricdə	-6150
▁rifah	-6151
▁müəllimin	-6152
ild	-6153
▁uyğunlaşdır	-6154
▁altı	-6155
▁dünən	-6156
▁ədalətli	-6157
▁olmalı	-6158
for	-6159
▁olmasının	-6160
▁du	-6161
ükür	-6162
oler	-6163
▁kağız	-6164
▁təşkilatları	-6165
mos	-6166
▁deyirlər	-6167
zu	-6168
▁yolunu	-6169
▁tanıy	-6170
▁sayılır	-6171
▁süni	-6172
▁ödəy	-6173
ərli	-6174
mdar	-6175
etika	-6176
ədd	-6177
▁Aydın	-6178
▁riayət	-6179
▁nik	-6180
▁keçirildi	-6181
iliyə	-6182
▁stadi	-6183
▁Düz	-6184
▁məşqçi	-6185
rip	-6186
▁bilsin	-6187
▁ölkələrdən	-6188
▁onlayn	-6189
ibə	-6190
▁ölkədən	-6191
▁Türkmən	-6192
▁təmsilçisi	-6193
▁prinsipi	-6194
▁heykəl	-6195
eytinq	-6196
əssüf	-6197
▁üzərindən	-6198
▁Quba	-6199
▁aktlarının	-6200
▁Xüsusi	-6201
itik	-6202
▁yor	-6203
▁AZƏRTAC	-6204
▁COVID	-6205
▁Nəsimi	-6206
▁şairi	-6207
▁Şamaxı	-6208
▁Kral	-6209
▁sərmay	-6210
siyasını	-6211
▁əcn	-6212
▁od	-6213
▁məlumatların	-6214
▁yem	-6215
▁Administr	-6216
ğını	-6217
▁niyyətində	-6218
▁qanunvericiliy	-6219
▁məktəbdə	-6220
▁Musiqi	-6221
üngül	-6222
▁çiçək	-6223
ebook	-6224
▁faktı	-6225
▁Vətəndaş	-6226
▁hissə	-6227
▁yəhu	-6228
▁sivil	-6229
▁Leyla	-6230
▁çəkilən	-6231
▁məsələni	-6232
▁sürüc	-6233
▁dönəm	-6234
▁əksinə	-6235
▁Ceyh	-6236
▁fövqəladə	-6237
▁boru	-6238
▁başlanılıb	-6239
▁Rz	-6240
▁etdim	-6241
siyasına	-6242
imn	-6243
▁vermişdir	-6244
▁olarkən	-6245
▁prose	-6246
əsin	-6247
▁yolda	-6248
▁Akademik	-6249
ətlər	-6250
▁vəzifəsində	-6251
▁qüvvələr	-6252
▁tul	-6253
▁Heyətinin	-6254
▁Bağır	-6255
şıq	-6256
▁İncəsənət	-6257
ətini	-6258
▁Fakt	-6259
▁göstəricisi	-6260
▁sahə	-6261
▁əlaqələrinin	-6262
▁otaq	-6263
acebook	-6264
▁bunları	-6265
nək	-6266
▁sol	-6267
jimi	-6268
Əs	-6269
▁əbədi	-6270
▁prosedur	-6271
▁koman	-6272
▁yarısında	-6273
▁janr	-6274
▁dövlətçilik	-6275
duğ	-6276
▁Uzun	-6277
▁Liv	-6278
olklor	-6279
▁həcmi	-6280
▁rejimi	-6281
▁müxbir	-6282
əncər	-6283
▁dövlətlər	-6284
▁nümunələri	-6285
xilə	-6286
▁Müx	-6287
laşdırma	-6288
▁özləri	-6289
▁hökumətinin	-6290
asitə	-6291
▁şairin	-6292
▁Agentliyi	-6293
olerant	-6294
▁Mün	-6295
▁evi	-6296
lal	-6297
▁görüşlər	-6298
ij	-6299
▁vəziyyətin	-6300
▁adamlar	-6301
▁azadlığı	-6302
▁qəbir	-6303
▁getdikcə	-6304
müddətli	-6305
▁getmək	-6306
▁yoluxma	-6307
▁səsi	-6308
▁göstəril	-6309
▁qadının	-6310
OCAR	-6311
▁London	-6312
▁edənlər	-6313
▁aylarında	-6314
▁alternativ	-6315
▁redak	-6316
▁indiyədək	-6317
Əliyev	-6318
▁bəşər	-6319
luğa	-6320
▁MDB	-6321
▁filmi	-6322
▁işlərinə	-6323
▁fransız	-6324
▁Me	-6325
▁orqanı	-6326
iyyətə	-6327
lənmə	-6328
qanun	-6329
▁neftin	-6330
▁Dey	-6331
▁İlkin	-6332
oğlunun	-6333
▁gəlmək	-6334
▁bel	-6335
▁Ol	-6336
▁başlanğı	-6337
▁yerini	-6338
dilli	-6339
ürü	-6340
▁fəda	-6341
▁Vüqar	-6342
▁Tərtər	-6343
▁Siyasi	-6344
▁özlərini	-6345
bus	-6346
▁götürülüb	-6347
▁qadınların	-6348
▁Yay	-6349
üter	-6350
▁cər	-6351
▁saytına	-6352
▁verməsi	-6353
▁Hakimiyyətinin	-6354
ətinə	-6355
▁oynay	-6356
avi	-6357
▁əsasını	-6358
▁bilərəm	-6359
▁kəsi	-6360
▁Kiyev	-6361
▁Ümumdünya	-6362
▁fəlak	-6363
▁həllinə	-6364
▁ittifaq	-6365
▁qırmızı	-6366
▁varsa	-6367
anlıq	-6368
▁yarımada	-6369
▁qovuş	-6370
▁dərəcəli	-6371
▁sui	-6372
▁birlik	-6373
▁təşviq	-6374
eti	-6375
▁zəm	-6376
Türkiyə	-6377
əhərrəm	-6378
▁rəhbərliyinin	-6379
▁ehtiram	-6380
▁diplomat	-6381
arda	-6382
▁verdiyini	-6383
▁Binə	-6384
▁pilot	-6385
▁görən	-6386
▁boyunca	-6387
▁the	-6388
▁Eldar	-6389
▁bugünkü	-6390
▁düşərg	-6391
▁sonuna	-6392
ıdır	-6393
giz	-6394
▁büdcə	-6395
▁məsələdə	-6396
▁Assosi	-6397
▁qoruyub	-6398
▁xidmətindən	-6399
▁edəcəyik	-6400
▁AD	-6401
▁aparıb	-6402
ləyə	-6403
▁kos	-6404
▁edilməsini	-6405
▁hakimiyyətinin	-6406
▁radikal	-6407
Mü	-6408
tul	-6409
mik	-6410
▁Göz	-6411
▁qraf	-6412
ertifik	-6413
luğunun	-6414
▁səslən	-6415
itq	-6416
▁səfərdə	-6417
▁küçəsi	-6418
adənin	-6419
▁Gəl	-6420
▁Təşkilatı	-6421
▁Mustafa	-6422
▁Əhalinin	-6423
▁oyunu	-6424
▁Əhmədov	-6425
▁hələlik	-6426
▁balıq	-6427
▁Araz	-6428
▁səlahiyyətli	-6429
arkeş	-6430
▁mitinq	-6431
▁AXC	-6432
▁müsahibəsində	-6433
siyaların	-6434
▁Ra	-6435
▁şəhərinə	-6436
▁Qazax	-6437
▁qoyulub	-6438
▁məqsədlə	-6439
▁oc	-6440
▁tank	-6441
▁zəhər	-6442
▁tarixdə	-6443
▁əsərlər	-6444
▁inkişafını	-6445
ilan	-6446
▁partlayış	-6447
▁Kö	-6448
▁separatçı	-6449
paq	-6450
▁geyin	-6451
mənalı	-6452
▁olunaraq	-6453
AzTrend	-6454
▁təbiət	-6455
▁edəcəklər	-6456
yönlü	-6457
▁müdaxilə	-6458
"-	-6459
▁qurult	-6460
▁partiyanın	-6461
əmz	-6462
ublis	-6463
▁oluna	-6464
▁amerik	-6465
üzar	-6466
▁müəssisələri	-6467
▁sön	-6468
▁tutaraq	-6469
▁yanlış	-6470
▁əhəmiyyətini	-6471
▁komitəsinin	-6472
▁saxlanılan	-6473
▁ora	-6474
▁peyvənd	-6475
▁Met	-6476
▁nəticəsidir	-6477
▁zol	-6478
avasitə	-6479
▁biləcəyi	-6480
▁himay	-6481
elin	-6482
rif	-6483
▁Saz	-6484
▁əxlaq	-6485
Hər	-6486
▁əvvəlində	-6487
▁maaş	-6488
▁Bəy	-6489
sizlik	-6490
HT	-6491
▁olunurdu	-6492
▁sam	-6493
▁Qızıl	-6494
izasiya	-6495
▁Ərəbist	-6496
▁məhdudlaşdır	-6497
▁təxribat	-6498
▁reklam	-6499
▁gətirir	-6500
▁Palat	-6501
▁zamanlar	-6502
▁sayılan	-6503
▁vəzifəsinə	-6504
ric	-6505
laşmış	-6506
▁hadisələrin	-6507
▁yaranır	-6508
▁Don	-6509
▁qaydaları	-6510
▁təminat	-6511
▁yazılı	-6512
▁atəşə	-6513
▁dəyəri	-6514
▁sizi	-6515
ional	-6516
əyəcan	-6517
illik	-6518
təz	-6519
▁ardınca	-6520
▁işləyir	-6521
▁ortaq	-6522
▁Proqramı	-6523
çiliyi	-6524
▁dilinin	-6525
▁xanımı	-6526
▁Koreya	-6527
▁Sergey	-6528
▁Yev	-6529
men	-6530
▁müddə	-6531
▁təsnif	-6532
▁Qarayev	-6533
▁komandası	-6534
▁reytinq	-6535
▁Rum	-6536
▁Xal	-6537
▁qələmə	-6538
▁Cənab	-6539
▁şəxsən	-6540
▁etməkdə	-6541
▁vətəndaşlar	-6542
▁oğul	-6543
▁yolları	-6544
▁yayılan	-6545
▁çatışmaz	-6546
▁Teymur	-6547
▁əməkdaşlığı	-6548
▁Kamal	-6549
▁Bələdiyyə	-6550
ht	-6551
▁yüngül	-6552
▁mükafatı	-6553
fə	-6554
▁səc	-6555
lusu	-6556
dilməsi	-6557
▁bunların	-6558
▁təəssür	-6559
▁almağa	-6560
▁avtomob	-6561
▁("	-6562
YEV	-6563
▁sözün	-6564
▁zövq	-6565
aqub	-6566
▁Sadıq	-6567
▁illiyi	-6568
▁arxiv	-6569
▁oğlunun	-6570
▁bilməyib	-6571
▁Azad	-6572
▁Nəz	-6573
▁müstəv	-6574
ənən	-6575
▁qəf	-6576
▁innov	-6577
▁alınan	-6578
▁Mix	-6579
▁qərarlar	-6580
▁Xəbər	-6581
▁audit	-6582
▁nəzərdən	-6583
▁Xəlil	-6584
linik	-6585
▁Həb	-6586
▁keçirilmişdir	-6587
▁Ukraynaya	-6588
▁saç	-6589
▁əsaslanan	-6590
kim	-6591
▁məişət	-6592
▁mərhələsi	-6593
larınız	-6594
▁Naz	-6595
▁Rob	-6596
▁Üst	-6597
astik	-6598
kon	-6599
▁piyada	-6600
dadır	-6601
▁bilavasitə	-6602
▁razılaşdır	-6603
▁atəşkəs	-6604
sün	-6605
▁əvəzinə	-6606
▁Ceyhun	-6607
▁mübarizədə	-6608
▁doldur	-6609
örək	-6610
▁Təsərrüf	-6611
▁azadlıqdan	-6612
▁Yük	-6613
▁böhr	-6614
▁məbləğində	-6615
Ermənistan	-6616
▁Mem	-6617
▁bənzər	-6618
▁qurumları	-6619
siyada	-6620
▁bilməyən	-6621
▁yüzlərlə	-6622
▁yatır	-6623
▁In	-6624
biz	-6625
layıcı	-6626
▁Futbol	-6627
▁tutmuş	-6628
▁çıxarıb	-6629
▁Depar	-6630
uxarı	-6631
▁işıqlandır	-6632
▁xanımın	-6633
▁Məclisinin	-6634
▁göndərilib	-6635
Re	-6636
▁det	-6637
▁Eln	-6638
▁laborator	-6639
▁təzah	-6640
▁Ter	-6641
▁binanın	-6642
▁Kazım	-6643
▁dəhşətli	-6644
▁təqaüd	-6645
alaş	-6646
▁platform	-6647
▁ip	-6648
▁kafedr	-6649
▁çıxarılması	-6650
▁vaxtlarda	-6651
diniz	-6652
▁Şeyx	-6653
▁qanuna	-6654
▁fer	-6655
▁cih	-6656
▁Premyer	-6657
▁keçidlər	-6658
▁qaynaq	-6659
larımıza	-6660
▁Qon	-6661
▁əlində	-6662
gəç	-6663
▁statusu	-6664
▁çatdırılması	-6665
▁gələcəyi	-6666
aliya	-6667
▁Vaşinqton	-6668
▁Xor	-6669
verdiyev	-6670
▁uzunmüddətli	-6671
▁alınmış	-6672
▁təkliflər	-6673
ine	-6674
miqyaslı	-6675
▁edəcəyi	-6676
▁Park	-6677
diyindən	-6678
▁tolerant	-6679
▁Har	-6680
▁göstərilməsi	-6681
▁Vəliyev	-6682
▁manata	-6683
ləşmə	-6684
▁həmsədr	-6685
▁XIX	-6686
əccüb	-6687
irmi	-6688
▁simv	-6689
▁nitq	-6690
mədiyini	-6691
▁Prezidentinə	-6692
▁dolları	-6693
ləmiş	-6694
▁Almaniyanın	-6695
eriya	-6696
▁mətb	-6697
▁Röv	-6698
▁sahibkarlıq	-6699
▁Xüsusilə	-6700
əyinin	-6701
▁Dep	-6702
qor	-6703
▁sut	-6704
▁mühəndis	-6705
▁qarşısına	-6706
buki	-6707
əhsil	-6708
iza	-6709
▁bəd	-6710
film	-6711
üşvət	-6712
karlıq	-6713
▁ərazilərində	-6714
▁nəfərə	-6715
▁anlayış	-6716
▁qoyur	-6717
▁şəh	-6718
▁yürüş	-6719
ləşməsi	-6720
▁minimum	-6721
▁özümüz	-6722
▁protokol	-6723
▁adları	-6724
▁dam	-6725
▁qələm	-6726
▁olduqlarını	-6727
▁Sp	-6728
▁hazırlayıb	-6729
▁məhkəməyə	-6730
▁Müəllif	-6731
▁Vur	-6732
▁öhdəlik	-6733
ekst	-6734
▁təbəq	-6735
▁axır	-6736
▁məsələnin	-6737
əyiş	-6738
▁məhdudiyyət	-6739
▁Bayramov	-6740
▁dilə	-6741
▁məktəbinin	-6742
▁sərgi	-6743
▁islahatların	-6744
▁em	-6745
▁çök	-6746
sion	-6747
▁ölkəni	-6748
▁Dram	-6749
aur	-6750
▁Ümumi	-6751
▁multikultural	-6752
▁yayılıb	-6753
dəf	-6754
▁qoydu	-6755
▁Departament	-6756
▁adlanan	-6757
ke	-6758
urnalist	-6759
bin	-6760
▁zərərçək	-6761
dığına	-6762
▁Sadəcə	-6763
▁ucal	-6764
ordin	-6765
▁yoxsa	-6766
▁sənədləri	-6767
▁müqavim	-6768
▁hökumətin	-6769
▁fəaliyyətində	-6770
▁faktiki	-6771
▁Ey	-6772
▁memarlıq	-6773
hüquq	-6774
əhrəmanı	-6775
▁şərti	-6776
▁hektar	-6777
▁İstintaq	-6778
▁İmam	-6779
▁qiymətləndiril	-6780
EFA	-6781
getika	-6782
▁bənz	-6783
enant	-6784
▁saxta	-6785
ğalı	-6786
▁hökmü	-6787
asim	-6788
qədi	-6789
▁Şa	-6790
▁yiy	-6791
▁Dəmir	-6792
▁cəzalandır	-6793
▁Bolq	-6794
▁qalibi	-6795
▁təcrübəsi	-6796
incisi	-6797
▁etməsinə	-6798
▁istərdim	-6799
▁Bəh	-6800
rafi	-6801
▁əlindən	-6802
▁səviyyəsinin	-6803
▁evində	-6804
▁aşıq	-6805
▁UNESCO	-6806
▁seçilən	-6807
▁üstünə	-6808
▁yeniy	-6809
▁tərbiy	-6810
▁açılıb	-6811
▁dövlətə	-6812
▁ərazisindən	-6813
onent	-6814
▁İspaniya	-6815
▁birmənalı	-6816
aməti	-6817
▁azarkeş	-6818
▁deyər	-6819
▁vurğuladı	-6820
yana	-6821
▁ərazisi	-6822
▁həyəcan	-6823
▁uğursuz	-6824
Mus	-6825
▁ayrıca	-6826
▁xidmətlər	-6827
▁Et	-6828
ləndirilir	-6829
▁futbolçusu	-6830
▁müşayiət	-6831
kir	-6832
▁XİN	-6833
çər	-6834
▁radə	-6835
▁hədiyyə	-6836
eytenant	-6837
amın	-6838
▁rəqabət	-6839
▁Bəlkə	-6840
▁dövrlərdə	-6841
▁çağırıb	-6842
▁Tahir	-6843
▁təbliğat	-6844
▁olanlar	-6845
imul	-6846
▁Bərdə	-6847
▁münasibətdə	-6848
▁Cəm	-6849
▁ör	-6850
▁cüt	-6851
▁Mehdiyev	-6852
▁Fəx	-6853
▁Oper	-6854
▁yoxlan	-6855
ədəki	-6856
▁məhəl	-6857
▁haqlı	-6858
▁vaxtilə	-6859
oniya	-6860
▁Günün	-6861
ərçəng	-6862
▁Donald	-6863
abir	-6864
▁vaksin	-6865
▁yəqin	-6866
əkkiz	-6867
▁planı	-6868
▁Cabbar	-6869
▁status	-6870
▁atıb	-6871
▁körpü	-6872
▁unudul	-6873
▁Tədqiqat	-6874
▁Müz	-6875
ikmət	-6876
▁pər	-6877
▁sənədlərin	-6878
▁İngiltərə	-6879
▁investis	-6880
gəçevir	-6881
▁görmüş	-6882
▁effektiv	-6883
▁saytında	-6884
▁Şəhid	-6885
▁Rəşad	-6886
▁təntən	-6887
▁Maraq	-6888
▁nədən	-6889
▁Təəssüf	-6890
▁Kəlbəcər	-6891
▁kur	-6892
əth	-6893
▁anbar	-6894
▁illərdir	-6895
▁iqtisadiyyatı	-6896
▁bilərdi	-6897
lıqları	-6898
▁tarixə	-6899
▁şən	-6900
▁olacağını	-6901
məkdən	-6902
▁minə	-6903
▁etimad	-6904
▁İnstitutu	-6905
▁olmaması	-6906
ülb	-6907
▁gətirən	-6908
▁Nyu	-6909
▁mənş	-6910
▁insanı	-6911
▁bazarında	-6912
▁rusiyalı	-6913
▁əkin	-6914
lanaraq	-6915
▁ünsiyyət	-6916
imli	-6917
▁vacibliyini	-6918
▁olunmasını	-6919
▁Qırğ	-6920
▁keyfiyyətli	-6921
▁sertifik	-6922
▁təəccüb	-6923
▁xalqa	-6924
▁İb	-6925
▁Apre	-6926
▁est	-6927
▁nəzd	-6928
▁məsələlərə	-6929
▁rəmz	-6930
▁valyuta	-6931
kəndi	-6932
▁Qanunveric	-6933
▁Kitabxan	-6934
əyev	-6935
▁işlərə	-6936
▁qorunub	-6937
▁istismar	-6938
▁Ədəbiyyat	-6939
▁hazırlanan	-6940
▁quruculuğu	-6941
▁görürük	-6942
▁görülür	-6943
▁siyasətini	-6944
▁ey	-6945
▁Binəqədi	-6946
▁nah	-6947
sədə	-6948
▁Əm	-6949
▁radələrində	-6950
▁Məmmədovun	-6951
▁çalışırlar	-6952
▁De	-6953
▁sus	-6954
lərimizə	-6955
▁UEFA	-6956
den	-6957
▁aldı	-6958
▁səhifəsində	-6959
▁şam	-6960
▁lə	-6961
avaş	-6962
▁Konven	-6963
onim	-6964
▁azərbaycanlılar	-6965
han	-6966
▁işçilər	-6967
▁gördük	-6968
ino	-6969
▁Televiz	-6970
▁Əbülf	-6971
▁Dünyanın	-6972
▁Port	-6973
▁şirkətləri	-6974
lamış	-6975
▁birləşdirən	-6976
▁gürcü	-6977
əyaq	-6978
▁ast	-6979
▁Məhərrəm	-6980
▁dərindən	-6981
▁kədər	-6982
▁maddələri	-6983
eyri	-6984
▁saxlanılması	-6985
▁verirlər	-6986
əlal	-6987
▁irsi	-6988
▁Aq	-6989
▁əməkdaşlığa	-6990
▁yerləri	-6991
▁vəsaiti	-6992
▁stimul	-6993
▁çəkiliş	-6994
▁(“	-6995
etin	-6996
▁qüvvələrin	-6997
darma	-6998
▁Sonda	-6999
▁şans	-7000
yur	-7001
ildi	-7002
▁ölkələrə	-7003
▁bomb	-7004
▁istəyib	-7005
▁Tan	-7006
▁bitkilər	-7007
▁iqtidar	-7008
--	-7009
▁fürs	-7010
▁Nəc	-7011
▁uzan	-7012
▁QHT	-7013
▁IV	-7014
atrı	-7015
▁İsgəndər	-7016
gid	-7017
▁divar	-7018
İM	-7019
▁hallar	-7020
▁əq	-7021
▁birliyi	-7022
▁Konstitusiya	-7023
▁ocaq	-7024
▁xəl	-7025
▁ayı	-7026
ləşir	-7027
▁təsərrüfat	-7028
▁vətənpərvərlik	-7029
▁Ener	-7030
▁Hindistan	-7031
▁Pir	-7032
▁sözlər	-7033
▁lisenz	-7034
▁göstərəcək	-7035
//	-7036
▁bəxş	-7037
KT	-7038
ba	-7039
▁münaqişəsi	-7040
incə	-7041
▁bəhr	-7042
▁Bəzən	-7043
▁anti	-7044
iada	-7045
▁Fu	-7046
info	-7047
▁hazırlanıb	-7048
iyasından	-7049
▁tələbələr	-7050
tmaq	-7051
▁müstəs	-7052
içik	-7053
▁konst	-7054
anından	-7055
▁məlumatlandır	-7056
▁Mark	-7057
dağ	-7058
▁köməyi	-7059
▁sanksiyalar	-7060
▁intih	-7061
▁şüur	-7062
bud	-7063
▁Nadir	-7064
▁telekanal	-7065
oks	-7066
▁Sənaye	-7067
▁həyatının	-7068
▁Qaf	-7069
▁ölümündən	-7070
▁tük	-7071
oca	-7072
▁məqsədyönlü	-7073
▁dövlətləri	-7074
▁cəsarət	-7075
▁ölkələrimiz	-7076
▁ekran	-7077
mişlər	-7078
▁sərəncamı	-7079
aksimum	-7080
asiyaya	-7081
▁lent	-7082
▁Ağayev	-7083
▁genişmiqyaslı	-7084
▁evin	-7085
▁çətindir	-7086
▁şəhərdə	-7087
▁barış	-7088
▁Alban	-7089
▁səviyyəsinə	-7090
▁reaksiya	-7091
▁Yalnız	-7092
▁gedər	-7093
▁işdən	-7094
munist	-7095
▁Özbəkistan	-7096
anş	-7097
elik	-7098
çiçək	-7099
▁Oruc	-7100
▁çevrilir	-7101
▁Onlardan	-7102
▁ağıl	-7103
▁qabaqcıl	-7104
məliyik	-7105
▁tərcüm	-7106
▁Yen	-7107
▁amerikalı	-7108
▁işləy	-7109
ərar	-7110
▁nəfərdən	-7111
▁alqış	-7112
ılma	-7113
▁artırmaq	-7114
▁İsmayılov	-7115
anların	-7116
kənar	-7117
▁xristian	-7118
BA	-7119
ənah	-7120
▁səhnə	-7121
▁gördüyü	-7122
iyaziyyat	-7123
▁ölçü	-7124
rak	-7125
▁qəti	-7126
▁köməkçisi	-7127
acir	-7128
▁İnzibati	-7129
▁statistik	-7130
▁gəlmişkən	-7131
▁and	-7132
▁cəza	-7133
▁çıxdı	-7134
▁növbəsində	-7135
▁Cavad	-7136
▁Zəfər	-7137
azan	-7138
▁daşıyıcı	-7139
▁dö	-7140
▁edim	-7141
▁op	-7142
▁Avropaya	-7143
▁rabitə	-7144
▁etdikdən	-7145
▁ləyaq	-7146
ze	-7147
▁Federasiyası	-7148
iyent	-7149
▁deyirdi	-7150
▁Trend	-7151
Azərbaycanın	-7152
▁quy	-7153
▁diqqətini	-7154
▁Yaponiya	-7155
▁partiyalar	-7156
▁əməkdar	-7157
dad	-7158
raq	-7159
▁nəşriyyat	-7160
▁əməliyyatı	-7161
▁yanına	-7162
▁mikro	-7163
▁Odur	-7164
▁qram	-7165
lana	-7166
▁kob	-7167
ləməyə	-7168
▁yaralanıb	-7169
Hüseyn	-7170
▁hazırdır	-7171
stans	-7172
▁Gen	-7173
▁tərəflər	-7174
▁müstəsna	-7175
On	-7176
▁məlumatda	-7177
azi	-7178
▁Yaqub	-7179
▁bina	-7180
Dövlət	-7181
www	-7182
▁komandanın	-7183
sağlığı	-7184
▁sığort	-7185
ilməsini	-7186
▁refer	-7187
▁etsə	-7188
▁yeddi	-7189
▁sektorunda	-7190
▁dollara	-7191
▁başqaları	-7192
▁seçkiləri	-7193
▁olurdu	-7194
▁əhaliyə	-7195
▁uçot	-7196
▁sənayes	-7197
tida	-7198
mədəni	-7199
▁Fəl	-7200
▁sənədli	-7201
məmək	-7202
▁icraçı	-7203
təzəm	-7204
▁önündə	-7205
▁Nazirliyindən	-7206
▁emal	-7207
▁operativ	-7208
▁qazandır	-7209
sp	-7210
▁acı	-7211
▁xidmətlərin	-7212
▁təyinatlı	-7213
ental	-7214
▁verərək	-7215
▁yazılmış	-7216
▁endir	-7217
▁kəsin	-7218
▁nümunə	-7219
əsgər	-7220
▁Təsərrüfatı	-7221
▁rüşvət	-7222
▁mövzusu	-7223
▁işçisi	-7224
▁olurlar	-7225
▁Mingəçevir	-7226
kov	-7227
▁İmt	-7228
▁İsteh	-7229
▁orqanlarında	-7230
xar	-7231
▁Ob	-7232
▁Rusiyadan	-7233
verici	-7234
▁Sen	-7235
▁şübhə	-7236
▁Ukraynada	-7237
▁şirkətin	-7238
▁cərimə	-7239
ce	-7240
axtarış	-7241
▁xalç	-7242
▁dəstəsinin	-7243
▁Deput	-7244
▁Azadlıq	-7245
acaqdır	-7246
ğunun	-7247
uv	-7248
anim	-7249
▁pəncər	-7250
▁Regional	-7251
iyab	-7252
▁aiddir	-7253
▁öndərin	-7254
▁komandasının	-7255
▁deyilən	-7256
▁Başqa	-7257
▁aydınlıq	-7258
▁günəş	-7259
məsin	-7260
▁nəhayət	-7261
Am	-7262
▁pensiya	-7263
itter	-7264
▁Tif	-7265
▁çıxmaq	-7266
▁kub	-7267
▁müstəqilliyini	-7268
▁gələrək	-7269
▁forum	-7270
▁Tələb	-7271
▁istəyirik	-7272
▁ehtimalı	-7273
▁ürəy	-7274
▁xalqların	-7275
▁binası	-7276
▁ərazilərin	-7277
▁həyatın	-7278
▁oyunda	-7279
▁Teatrının	-7280
▁Yeri	-7281
▁məhbus	-7282
▁cəhət	-7283
▁əriz	-7284
▁kir	-7285
▁mənbəyi	-7286
▁Gürcüstanda	-7287
▁Nərimanov	-7288
▁Məmmədova	-7289
▁Sərhəd	-7290
▁başçılıq	-7291
▁asp	-7292
fa	-7293
▁Mey	-7294
▁bəyin	-7295
▁folklor	-7296
daxil	-7297
▁Polşa	-7298
▁alması	-7299
ğının	-7300
▁dediyi	-7301
adar	-7302
▁xəbərinə	-7303
▁çempionu	-7304
▁özüm	-7305
şah	-7306
xah	-7307
▁Ham	-7308
▁veriblər	-7309
▁işğalı	-7310
▁bəziləri	-7311
▁sığın	-7312
▁tərbiyə	-7313
▁doktor	-7314
▁Cəmiyyətinin	-7315
▁deyim	-7316
▁əlamətdar	-7317
kom	-7318
azadə	-7319
▁təbliği	-7320
▁texnika	-7321
▁Düşünür	-7322
▁möhkəmləndir	-7323
odu	-7324
▁təfəkkür	-7325
▁Le	-7326
▁xalça	-7327
Vətən	-7328
▁bilinən	-7329
▁rəngli	-7330
ssiya	-7331
tiş	-7332
ten	-7333
▁Faktla	-7334
mışam	-7335
▁ərazisindəki	-7336
imdən	-7337
▁maksimum	-7338
▁ideolog	-7339
▁kobud	-7340
▁gələ	-7341
▁yaranması	-7342
irtual	-7343
▁enerjisi	-7344
▁etməkdən	-7345
▁poetik	-7346
▁bilib	-7347
▁Şahin	-7348
▁məhsuldar	-7349
▁işgüzar	-7350
▁təyyarə	-7351
əxtiyar	-7352
LİYEV	-7353
▁gəlincə	-7354
▁geos	-7355
asan	-7356
▁olunduğunu	-7357
DU	-7358
▁Çex	-7359
▁döyüşçü	-7360
▁güman	-7361
▁gələc	-7362
▁seçic	-7363
ləşdirmək	-7364
▁məzmun	-7365
erc	-7366
▁müdaxil	-7367
▁duyğu	-7368
▁qanlı	-7369
▁səfərbər	-7370
▁semin	-7371
▁Nor	-7372
▁uşaqları	-7373
eoloji	-7374
▁göstəricilər	-7375
▁həyatda	-7376
▁məclis	-7377
▁qarşıya	-7378
▁qulaq	-7379
▁konf	-7380
skinin	-7381
▁Məhkəmə	-7382
amin	-7383
▁Ümid	-7384
Şah	-7385
▁qoyulmuş	-7386
yot	-7387
▁Rəq	-7388
əqqi	-7389
▁Tibb	-7390
oya	-7391
▁açan	-7392
▁müharibənin	-7393
▁bölmələri	-7394
▁kompüter	-7395
▁nöq	-7396
mədiy	-7397
urt	-7398
▁etmişlər	-7399
ıncı	-7400
siyasında	-7401
▁məbləği	-7402
masın	-7403
alarla	-7404
▁ban	-7405
▁adətən	-7406
▁pedaqoji	-7407
▁dayanır	-7408
▁çıxarılıb	-7409
▁rektoru	-7410
▁yanaşma	-7411
▁uzunluğu	-7412
ersiya	-7413
▁sahələrinin	-7414
▁bab	-7415
▁istək	-7416
avənd	-7417
gilər	-7418
▁uşağın	-7419
▁şəraitinin	-7420
▁uduz	-7421
danın	-7422
▁araya	-7423
▁Ümumilikdə	-7424
▁balans	-7425
idən	-7426
▁xidmətə	-7427
əhlə	-7428
▁Kərimov	-7429
▁sarı	-7430
▁xəyan	-7431
▁atılan	-7432
əyal	-7433
▁döyüşlərdə	-7434
▁seçkilərində	-7435
yəvi	-7436
▁məsələsində	-7437
▁Radi	-7438
ınc	-7439
▁tələbələrin	-7440
▁bildirmişdir	-7441
▁bilmə	-7442
▁zəhmət	-7443
!”	-7444
▁saytı	-7445
▁səciyy	-7446
alel	-7447
▁siyahısı	-7448
▁Kol	-7449
▁Serb	-7450
ayt	-7451
▁koronavirusa	-7452
▁Yuxarı	-7453
▁cəd	-7454
▁məqsədə	-7455
▁istəyirlər	-7456
ula	-7457
▁Tibbi	-7458
ləyic	-7459
▁kimsə	-7460
▁dövrünün	-7461
▁məsələsinə	-7462
▁artırır	-7463
▁Xətai	-7464
ST	-7465
▁Bunlar	-7466
▁Mold	-7467
▁Lit	-7468
▁prosesinə	-7469
▁müqayisə	-7470
afa	-7471
▁etməyib	-7472
▁maraqlıdır	-7473
▁Mat	-7474
ranz	-7475
▁qurumlar	-7476
▁inteqrasiya	-7477
▁qərəz	-7478
▁Pər	-7479
▁bacarı	-7480
▁öt	-7481
lənin	-7482
▁Təc	-7483
▁rədd	-7484
▁səyahət	-7485
▁Sa	-7486
▁Emin	-7487
qərb	-7488
▁Bağ	-7489
ure	-7490
▁yönəldil	-7491
▁Ək	-7492
▁deyildir	-7493
▁fır	-7494
ardı	-7495
▁Mikayıl	-7496
▁mətbu	-7497
▁qəza	-7498
▁Cinayətlər	-7499
▁bilmər	-7500
tidai	-7501
▁Aşağı	-7502
▁nümunəsi	-7503
▁təşkilatlarının	-7504
▁istəyi	-7505
▁popul	-7506
▁əhval	-7507
▁söykən	-7508
▁dramatur	-7509
▁etdiyim	-7510
▁nəzəriyy	-7511
kili	-7512
▁indiyə	-7513
▁proqramları	-7514
▁pulu	-7515
▁Var	-7516
▁arxa	-7517
▁Pay	-7518
▁nazirin	-7519
▁Şıx	-7520
▁muxtar	-7521
çt	-7522
▁danışır	-7523
▁vurğulanıb	-7524
▁bölgələrdə	-7525
▁Çingiz	-7526
▁Qanunvericilik	-7527
▁Nig	-7528
▁dilinə	-7529
vili	-7530
▁Bəli	-7531
▁etməliyik	-7532
▁sənətinin	-7533
mayın	-7534
▁fars	-7535
▁Qərargah	-7536
▁istism	-7537
▁Halbuki	-7538
anları	-7539
▁iqlim	-7540
▁rayonda	-7541
lisi	-7542
▁Rumın	-7543
▁xəbərdar	-7544
şevik	-7545
dövlət	-7546
▁qanuni	-7547
▁Günəş	-7548
▁İlqar	-7549
▁küçəsində	-7550
tin	-7551
▁Cümhuriyyətinin	-7552
▁müntəzəm	-7553
şad	-7554
▁güclən	-7555
▁konfransında	-7556
▁iştirakçısı	-7557
▁kral	-7558
ülbül	-7559
▁gücləndiril	-7560
▁tələbi	-7561
▁Növ	-7562
▁Qət	-7563
▁yenilən	-7564
▁qondarma	-7565
məlidirlər	-7566
▁orij	-7567
▁cinsi	-7568
▁dünyasının	-7569
okal	-7570
ret	-7571
▁rüs	-7572
▁işçiləri	-7573
▁satışı	-7574
▁günləri	-7575
▁süt	-7576
▁qoyduğu	-7577
Qəb	-7578
▁Ermənistanla	-7579
▁kənara	-7580
▁danışmaq	-7581
kənd	-7582
keş	-7583
▁sağlamlıq	-7584
▁avtomobili	-7585
rad	-7586
▁problemin	-7587
▁saxlanılır	-7588
▁rütb	-7589
▁Fil	-7590
▁edilmişdi	-7591
ağından	-7592
▁Pakistan	-7593
▁Dəst	-7594
▁kitabın	-7595
▁gəldikdə	-7596
▁təhsilini	-7597
▁demişdir	-7598
▁desək	-7599
▁məzənn	-7600
▁Kiçik	-7601
▁mühafizəsi	-7602
▁qayıd	-7603
▁Müdafi	-7604
▁oradan	-7605
▁yiyələn	-7606
avil	-7607
KK	-7608
▁rejiminin	-7609
▁şəbəkə	-7610
iter	-7611
▁transfer	-7612
▁yaşına	-7613
▁canlandır	-7614
ellyasiya	-7615
▁Yüksək	-7616
▁səkkiz	-7617
▁yun	-7618
iyəm	-7619
▁sisteminə	-7620
▁modern	-7621
şərq	-7622
▁faktor	-7623
otel	-7624
▁forması	-7625
▁maraqları	-7626
▁metal	-7627
▁əməliyyatlar	-7628
▁cihaz	-7629
▁əlaqələndir	-7630
▁payız	-7631
▁Qəbələ	-7632
▁imzaladığı	-7633
ədəm	-7634
▁dayanıqlı	-7635
luğuna	-7636
▁bizdə	-7637
▁saxt	-7638
▁cinsinə	-7639
▁məsələdir	-7640
▁tullantı	-7641
▁Qədim	-7642
▁şur	-7643
sələr	-7644
▁anlay	-7645
▁bəyən	-7646
▁aləminin	-7647
▁müsahibə	-7648
▁mübahisə	-7649
▁işində	-7650
▁girov	-7651
▁qərargah	-7652
▁mətbəx	-7653
ester	-7654
▁suyun	-7655
▁görüşündə	-7656
▁diss	-7657
qurma	-7658
▁Ordusu	-7659
▁xəbəri	-7660
mizdə	-7661
ren	-7662
qat	-7663
▁törətdiyi	-7664
▁termin	-7665
onunda	-7666
▁gündəmə	-7667
yol	-7668
▁şübhəsiz	-7669
▁Şimal	-7670
▁qurmaq	-7671
▁şəxsləri	-7672
▁Pl	-7673
▁nəv	-7674
▁Cahan	-7675
▁kvad	-7676
?!	-7677
▁düşmənin	-7678
adaş	-7679
▁etməkdir	-7680
▁İrana	-7681
əffər	-7682
▁Çinin	-7683
▁paltar	-7684
▁başlayacaq	-7685
▁halları	-7686
▁inkişafın	-7687
io	-7688
▁jurnalistlərə	-7689
▁fəxr	-7690
▁Yox	-7691
▁tədbirin	-7692
qulu	-7693
▁əraziyə	-7694
▁maarifləndir	-7695
▁öyrənmək	-7696
Xəzər	-7697
omin	-7698
alında	-7699
▁maraqla	-7700
▁bilirlər	-7701
▁qaçır	-7702
▁çır	-7703
▁Sim	-7704
ribən	-7705
baz	-7706
▁motiv	-7707
▁çoxdan	-7708
▁istəmir	-7709
pa	-7710
▁işdə	-7711
▁Siy	-7712
▁xəstə	-7713
▁edildiyini	-7714
çüsü	-7715
▁yayılması	-7716
▁imzalanmış	-7717
▁əsassız	-7718
▁möt	-7719
▁şöbə	-7720
▁əyani	-7721
▁lövh	-7722
▁yaratdı	-7723
▁etdirib	-7724
▁təklifi	-7725
▁göl	-7726
▁məntiq	-7727
▁xəbərə	-7728
▁maraqlarına	-7729
▁saxlay	-7730
▁gəlməsi	-7731
▁Nüm	-7732
uriyent	-7733
▁efir	-7734
adıqları	-7735
▁təxirə	-7736
▁And	-7737
▁Söhbət	-7738
▁sədrliyi	-7739
▁əvvəlcədən	-7740
▁külli	-7741
▁Em	-7742
▁mərhələsinin	-7743
▁Cəfərov	-7744
▁Qarabağa	-7745
▁əfsan	-7746
▁xas	-7747
udiy	-7748
▁konstitus	-7749
dəniz	-7750
▁hak	-7751
▁polkovnik	-7752
▁yaradılmışdır	-7753
▁Aşıq	-7754
Milli	-7755
ye	-7756
əzin	-7757
▁Mül	-7758
▁açılı	-7759
▁olduqları	-7760
vəti	-7761
▁Kompl	-7762
▁Təq	-7763
▁Rəsmi	-7764
▁vəzifələri	-7765
Mİ	-7766
ümlü	-7767
mələrin	-7768
▁Pey	-7769
eterburq	-7770
▁kvadrat	-7771
▁sonralar	-7772
▁dövlətçiliy	-7773
ulmuş	-7774
▁hakimiyyətin	-7775
▁gərginlik	-7776
▁keçirdikləri	-7777
ədqiqat	-7778
▁Ekologiya	-7779
▁oxşar	-7780
▁Samir	-7781
▁bilmirəm	-7782
▁təqdimatı	-7783
▁gümüş	-7784
ökumət	-7785
ava	-7786
▁Sol	-7787
▁profil	-7788
▁gələndə	-7789
▁axı	-7790
▁inteqr	-7791
▁orijinal	-7792
▁prinsipləri	-7793
▁cam	-7794
▁işləyib	-7795
dıqlarını	-7796
▁Adil	-7797
▁məlumatlara	-7798
▁növləri	-7799
ılmasından	-7800
ubern	-7801
▁orqanlarına	-7802
▁cəmiyyətinin	-7803
iva	-7804
▁bildiril	-7805
▁Rauf	-7806
▁yazılan	-7807
▁yoxlam	-7808
▁xırda	-7809
Cənub	-7810
▁Məhkəməsində	-7811
▁Qurbanov	-7812
ps	-7813
laşdırılmış	-7814
imər	-7815
▁şir	-7816
▁mülkiyyət	-7817
▁önc	-7818
▁seçkilərdə	-7819
▁Afr	-7820
olik	-7821
uar	-7822
▁nəzdində	-7823
▁kəsə	-7824
▁nazirliyin	-7825
▁nif	-7826
orand	-7827
▁mühitin	-7828
lilik	-7829
▁Robert	-7830
▁Yasamal	-7831
▁döv	-7832
▁Qırğızı	-7833
▁Britaniyanın	-7834
▁Həkim	-7835
kl	-7836
▁Vəz	-7837
▁Müdafiəsi	-7838
▁genişləndiril	-7839
▁itk	-7840
▁Fuad	-7841
▁yubileyi	-7842
poz	-7843
▁toxum	-7844
▁bura	-7845
▁mərhələ	-7846
ope	-7847
▁edilməsinin	-7848
▁özündən	-7849
▁kontekst	-7850
səm	-7851
▁radio	-7852
▁Tehran	-7853
▁Dost	-7854
▁Abbasov	-7855
sional	-7856
▁çıxarır	-7857
▁əsaslandır	-7858
▁Təhlükəsizliyi	-7859
▁adamın	-7860
▁mənasında	-7861
▁ödənilməsi	-7862
dəmir	-7863
▁qaydalarına	-7864
▁nailiyyətlər	-7865
oyun	-7866
▁kişilər	-7867
▁ƏLİYEV	-7868
▁çatdırmaq	-7869
▁günündə	-7870
▁Bəxtiyar	-7871
▁zül	-7872
udur	-7873
▁ildönümü	-7874
▁Üstəlik	-7875
▁seçilmiş	-7876
▁başlanıb	-7877
▁Putinin	-7878
lidir	-7879
alaraq	-7880
▁pandemiya	-7881
▁referend	-7882
▁filmin	-7883
▁pillə	-7884
▁geosiyasi	-7885
▁məhsulların	-7886
mışıq	-7887
imizdən	-7888
▁qüvvə	-7889
▁Stat	-7890
▁Allahın	-7891
▁temperaturu	-7892
▁Rəssam	-7893
AD	-7894
qi	-7895
isyan	-7896
bom	-7897
ücum	-7898
▁almışdır	-7899
▁maddəsində	-7900
orn	-7901
▁köl	-7902
▁proseslər	-7903
irov	-7904
▁yerləşdiyi	-7905
▁fənn	-7906
▁yetirilməsi	-7907
▁prezidentinin	-7908
▁The	-7909
naməsi	-7910
arük	-7911
▁ədəbiyyatının	-7912
ılığı	-7913
▁sahəyə	-7914
▁ifadəsi	-7915
▁Yerli	-7916
▁tədarük	-7917
▁bərq	-7918
▁istifadəsi	-7919
▁salıb	-7920
▁qurumların	-7921
▁ideya	-7922
▁qarşısı	-7923
▁edilməsində	-7924
▁keçdi	-7925
▁genişlən	-7926
▁Oktyabr	-7927
▁Yazıçılar	-7928
▁Qarşı	-7929
▁not	-7930
anç	-7931
▁pill	-7932
▁dairəsi	-7933
▁Elnur	-7934
qanuni	-7935
ullayev	-7936
▁yaydığı	-7937
▁müayinə	-7938
səyə	-7939
▁şərəfli	-7940
▁tutacaq	-7941
▁xərçəng	-7942
▁Şuranın	-7943
▁mahn	-7944
▁Nəzər	-7945
HN	-7946
çuluq	-7947
iliyini	-7948
▁Paşinyanın	-7949
▁evinə	-7950
▁maddəsinə	-7951
▁Bür	-7952
Qəbələ	-7953
▁adının	-7954
▁Avtom	-7955
mersiya	-7956
əzi	-7957
▁Qasımov	-7958
▁rəsmiləri	-7959
eyə	-7960
▁bilmək	-7961
▁layiqincə	-7962
▁əməliyyatları	-7963
▁Fin	-7964
▁idilər	-7965
▁ayrılan	-7966
▁Ticarət	-7967
▁manatdan	-7968
laşdırmaq	-7969
jet	-7970
▁SOCAR	-7971
▁Səfir	-7972
▁Sərvət	-7973
▁saxlayıb	-7974
▁səni	-7975
▁Orada	-7976
▁uzad	-7977
ote	-7978
aşır	-7979
▁Fransada	-7980
mələrinin	-7981
▁igid	-7982
▁xüsusiyyətləri	-7983
▁Sin	-7984
▁Çempionlar	-7985
oqrafik	-7986
▁coğraf	-7987
▁Nəriman	-7988
▁artan	-7989
▁vəzifəsindən	-7990
▁Toplusu	-7991
▁İz	-7992
▁Bankı	-7993
▁maşını	-7994
▁islahat	-7995
▁mütəxəssislər	-7996
seç	-7997
oqram	-7998
dıqca	-7999
▁uşaqlara	-8000
▁ikisi	-8001
▁dəstəkləyir	-8002
▁binasının	-8003
NS	-8004
▁faktlar	-8005
▁sağal	-8006
▁cəbhə	-8007
iləcək	-8008
▁haldır	-8009
▁diqqətlə	-8010
▁elmlər	-8011
▁intellektual	-8012
▁bağç	-8013
▁sabitlik	-8014
▁ssenar	-8015
▁qeydiyyatdan	-8016
çunun	-8017
▁mötəbər	-8018
▁standartlara	-8019
▁İnan	-8020
▁orqanının	-8021
göz	-8022
▁səhh	-8023
▁dizayn	-8024
elen	-8025
▁vəzifələr	-8026
▁materiallar	-8027
▁söndür	-8028
▁çəkmək	-8029
▁Məlumat	-8030
▁sük	-8031
aci	-8032
▁tələblərə	-8033
▁inandır	-8034
▁auditor	-8035
▁planlaşdırılır	-8036
▁çəkilib	-8037
▁əlaqəli	-8038
▁təqdimat	-8039
▁ml	-8040
?”	-8041
▁rəğbət	-8042
▁atasının	-8043
nda	-8044
▁redaktor	-8045
unc	-8046
▁kan	-8047
▁hüc	-8048
▁diş	-8049
▁qazanmaq	-8050
▁Ankara	-8051
▁Yunanıstan	-8052
▁Alim	-8053
▁İsrailin	-8054
▁asılıdır	-8055
unçu	-8056
▁yoluna	-8057
▁regionun	-8058
madığını	-8059
▁Suriyada	-8060
▁itkin	-8061
akar	-8062
▁təchizatı	-8063
▁Ələsgər	-8064
▁çempionatının	-8065
▁potensi	-8066
▁Məsələ	-8067
ımdan	-8068
▁təsviri	-8069
▁dünyanı	-8070
▁Noyabr	-8071
▁dəyişir	-8072
▁qalacaq	-8073
▁ilədək	-8074
lax	-8075
▁qəsdən	-8076
▁açılışı	-8077
ğından	-8078
▁situ	-8079
▁İbrahimov	-8080
daxili	-8081
müdafiə	-8082
▁işləmək	-8083
opar	-8084
▁güləş	-8085
▁Qərbin	-8086
▁Ermənistanı	-8087
▁narahatlıq	-8088
▁Oyunları	-8089
▁törədən	-8090
▁Dövlətimizin	-8091
▁Ko	-8092
▁yazıçısı	-8093
▁yanacaq	-8094
▁ictimaiyyətə	-8095
▁etməyin	-8096
▁potensialı	-8097
▁harada	-8098
▁süd	-8099
▁effekt	-8100
Son	-8101
▁Qən	-8102
lılar	-8103
ikin	-8104
▁zəfər	-8105
▁xor	-8106
▁quruculuq	-8107
icdan	-8108
▁vermişdi	-8109
▁məx	-8110
▁Ven	-8111
ərdi	-8112
▁Bilir	-8113
▁Rövşən	-8114
mişik	-8115
əyinə	-8116
▁Şura	-8117
▁saxlayır	-8118
▁dostu	-8119
▁göstərici	-8120
▁erkən	-8121
▁vəzifəsini	-8122
mamaq	-8123
uyğun	-8124
ori	-8125
bari	-8126
▁AR	-8127
▁qruplaş	-8128
▁salmaq	-8129
▁öyrənilməsi	-8130
▁etmişik	-8131
▁arzulay	-8132
▁amansız	-8133
▁coğrafi	-8134
imkan	-8135
qul	-8136
▁qismən	-8137
▁ayrılıb	-8138
▁düşüncə	-8139
ənə	-8140
▁Dek	-8141
▁hazırlığı	-8142
▁Sentyabr	-8143
▁İsmayıllı	-8144
▁bayrağı	-8145
ranzit	-8146
▁pozuntu	-8147
ilməlidir	-8148
▁aktrisa	-8149
▁kitabxana	-8150
▁bitk	-8151
ulun	-8152
▁praktik	-8153
▁Ma	-8154
▁alış	-8155
org	-8156
ital	-8157
▁məruzə	-8158
▁fəsiləsinin	-8159
▁tələbələri	-8160
▁keçmək	-8161
▁Brüs	-8162
▁Strat	-8163
SKO	-8164
▁Düşünürəm	-8165
▁hərəkətləri	-8166
▁tarixini	-8167
▁qit	-8168
▁rejissoru	-8169
▁Tarixi	-8170
▁Şuşada	-8171
▁dissert	-8172
▁Açıq	-8173
oranboy	-8174
▁keçirilməsini	-8175
▁alınır	-8176
elo	-8177
▁men	-8178
▁qın	-8179
▁əylən	-8180
▁qalıq	-8181
▁olimp	-8182
▁paralel	-8183
▁ordeni	-8184
▁bərqərar	-8185
mark	-8186
▁Roma	-8187
▁Müsabiq	-8188
▁buyur	-8189
▁vətəndaşlarının	-8190
▁Vahid	-8191
▁faş	-8192
▁miqyasında	-8193
istifadə	-8194
▁Qəhrəman	-8195
▁yıx	-8196
▁faizini	-8197
▁Akif	-8198
);	-8199
▁Kən	-8200
▁fəsad	-8201
▁populyar	-8202
▁qüs	-8203
ülər	-8204
▁Ur	-8205
arsa	-8206
▁tərzi	-8207
əndən	-8208
▁paket	-8209
▁politoloq	-8210
alılar	-8211
▁Şəmkir	-8212
▁bütövlüyünü	-8213
lədiyi	-8214
dirir	-8215
▁yaradacaq	-8216
▁ötr	-8217
▁ölkəsi	-8218
▁istədiyi	-8219
▁kubok	-8220
▁Xankəndi	-8221
▁xatirə	-8222
▁mətbuata	-8223
▁idarəet	-8224
laşır	-8225
▁yerlərində	-8226
▁çarp	-8227
əal	-8228
▁Əfqanıstan	-8229
▁Ədalət	-8230
iktor	-8231
▁səp	-8232
▁ideal	-8233
▁şəxsə	-8234
▁qum	-8235
▁Hikmət	-8236
▁Naxçıvanda	-8237
▁konsul	-8238
üləcək	-8239
▁meydanında	-8240
▁bazasının	-8241
izədi	-8242
▁aləmdə	-8243
▁çıxması	-8244
▁verirdi	-8245
▁Xocavənd	-8246
▁təhlükəsi	-8247
▁fərqlən	-8248
▁günlərində	-8249
▁taleyi	-8250
təbəli	-8251
▁qarşıda	-8252
▁Zaqat	-8253
▁ötrü	-8254
▁sənə	-8255
▁Sərvətlər	-8256
▁yap	-8257
dırlar	-8258
▁nəfəs	-8259
▁hədiyy	-8260
▁Fat	-8261
uzə	-8262
▁gözü	-8263
▁yaradılmasına	-8264
sevər	-8265
▁py	-8266
▁rəqəmsal	-8267
▁olunmasında	-8268
▁heyətində	-8269
▁qüdrətli	-8270
▁Avrasiya	-8271
▁Rza	-8272
▁namizədi	-8273
▁edəcəyini	-8274
▁mərkəzinə	-8275
şal	-8276
▁Səlim	-8277
▁rəis	-8278
▁Dəh	-8279
▁məmul	-8280
IN	-8281
ituriyent	-8282
▁biləcəyini	-8283
edil	-8284
▁doğuran	-8285
▁qayıdan	-8286
▁serial	-8287
arsel	-8288
▁dərd	-8289
▁prosesdə	-8290
▁sahəsinin	-8291
▁naməlum	-8292
▁ərizə	-8293
▁yoxsul	-8294
▁Bələdiyy	-8295
▁sistemləri	-8296
rab	-8297
▁bölün	-8298
▁göstərə	-8299
izmə	-8300
asar	-8301
▁müharibəsinin	-8302
lərim	-8303
▁təqribən	-8304
unuz	-8305
▁poçt	-8306
▁Sabunçu	-8307
çiçəklilər	-8308
▁düşünürəm	-8309
ulla	-8310
▁kitablar	-8311
▁kv	-8312
▁baza	-8313
▁çevrildi	-8314
▁taxıl	-8315
▁xa	-8316
▁xalqımız	-8317
▁Pənah	-8318
Gənc	-8319
▁Fərman	-8320
▁Fikrət	-8321
▁Məhkəməsi	-8322
atan	-8323
QD	-8324
aydı	-8325
▁müşaviri	-8326
▁nəsə	-8327
▁mərhələsinə	-8328
dəsindən	-8329
▁PKK	-8330
odi	-8331
▁deyirəm	-8332
▁Natiq	-8333
▁Qanununda	-8334
▁tit	-8335
▁Qələb	-8336
▁həllində	-8337
had	-8338
▁olunmuşdu	-8339
ons	-8340
yub	-8341
▁dəyişdiril	-8342
▁aparılmış	-8343
▁ustad	-8344
▁Zakir	-8345
▁aqrar	-8346
ələk	-8347
▁vaxtdan	-8348
▁Mustafayev	-8349
qu	-8350
▁Vas	-8351
▁düşdü	-8352
▁bütövlüyünün	-8353
▁...	-8354
▁əsrlər	-8355
▁qabağ	-8356
▁detal	-8357
lüm	-8358
▁şəhərlərində	-8359
Bak	-8360
▁məkanında	-8361
▁Musa	-8362
əşəri	-8363
landiy	-8364
▁açır	-8365
▁zəlzələ	-8366
lum	-8367
▁işçilərinin	-8368
▁qazandığı	-8369
▁dünyası	-8370
▁külək	-8371
▁göstərməyə	-8372
▁Afrika	-8373
▁hissədə	-8374
uvar	-8375
▁Oyunlarının	-8376
▁çıxarmaq	-8377
▁həvalə	-8378
ricən	-8379
▁hökmdar	-8380
▁fəaliyyətin	-8381
▁Qul	-8382
▁qubern	-8383
▁rayonlarda	-8384
▁ass	-8385
dəy	-8386
▁texnologiyaları	-8387
liklərdə	-8388
▁hissəsinə	-8389
▁publis	-8390
mağ	-8391
▁tərkibinə	-8392
▁bariz	-8393
▁qəd	-8394
▁rey	-8395
▁Səl	-8396
▁hadisənin	-8397
▁təcrid	-8398
▁verməyib	-8399
▁başlamışdır	-8400
▁dördüncü	-8401
▁ailənin	-8402
▁Komissiyası	-8403
aret	-8404
don	-8405
▁ölkəsinin	-8406
▁imkanlarını	-8407
▁nəql	-8408
▁tələbləri	-8409
▁Mehdi	-8410
mad	-8411
▁Brazil	-8412
▁düşməsi	-8413
tərəm	-8414
▁vuruş	-8415
▁Klub	-8416
məsə	-8417
▁qapıs	-8418
▁deməyə	-8419
The	-8420
adolu	-8421
casına	-8422
▁etsinlər	-8423
▁Goranboy	-8424
▁sahələr	-8425
▁salınıb	-8426
▁Təlim	-8427
▁Xaçmaz	-8428
▁gözlənilən	-8429
▁eyn	-8430
▁Cəlal	-8431
▁həbsxan	-8432
▁bahalaş	-8433
▁tapmaq	-8434
de	-8435
adam	-8436
▁tarixin	-8437
▁dos	-8438
▁sair	-8439
▁Həmrəy	-8440
▁Məm	-8441
abı	-8442
amızın	-8443
▁çəkilmiş	-8444
▁etn	-8445
▁keçirilməsində	-8446
işir	-8447
▁şəhərindəki	-8448
▁Cey	-8449
ƏN	-8450
▁tayf	-8451
▁qaş	-8452
▁qoymaq	-8453
əndiyev	-8454
▁salınması	-8455
▁hərbçilər	-8456
▁əbəd	-8457
▁bilet	-8458
▁məsuliyyəti	-8459
ucu	-8460
▁rub	-8461
▁siyasətinə	-8462
▁anda	-8463
məliyyat	-8464
▁Kubok	-8465
▁yuxarıda	-8466
▁Vaxt	-8467
▁meyvə	-8468
▁seçilir	-8469
▁yey	-8470
erk	-8471
▁Məlik	-8472
▁DİN	-8473
▁bilməyəcək	-8474
▁caz	-8475
▁AB	-8476
▁başlanğıc	-8477
Şərq	-8478
dirdi	-8479
▁Qeyri	-8480
ayiq	-8481
sınlar	-8482
▁Plan	-8483
▁hüdud	-8484
▁vilayətinin	-8485
▁işar	-8486
▁lən	-8487
▁rüb	-8488
▁güll	-8489
▁əməkh	-8490
asiyasına	-8491
▁layihələrinin	-8492
səy	-8493
▁ictimaiyyəti	-8494
▁keçdiyi	-8495
vətən	-8496
Ay	-8497
▁xam	-8498
cisi	-8499
▁Elxan	-8500
əqiq	-8501
üğ	-8502
▁Əbd	-8503
▁Yardım	-8504
▁Orxan	-8505
▁Müxtəlif	-8506
▁Məsəl	-8507
▁Nazim	-8508
▁xidmətin	-8509
▁yaşamış	-8510
enn	-8511
▁siyahısına	-8512
▁öhdəsindən	-8513
▁ölümü	-8514
▁işlərini	-8515
▁cərəyan	-8516
▁Ölkədə	-8517
nəqliyyat	-8518
▁nəzəri	-8519
▁keçirməyə	-8520
▁Masallı	-8521
▁miqyas	-8522
▁Akademiyası	-8523
▁tərəfinin	-8524
▁respublikamızın	-8525
▁qazın	-8526
iyər	-8527
▁yaşayıb	-8528
▁imzalanıb	-8529
▁ı	-8530
▁xəstəliy	-8531
▁misal	-8532
öyüş	-8533
▁aer	-8534
▁intihar	-8535
orpaq	-8536
▁qoc	-8537
▁işləmiş	-8538
əməsi	-8539
▁burda	-8540
▁müəssisə	-8541
erb	-8542
▁yarımadasında	-8543
▁açıqlan	-8544
▁şeirlər	-8545
lini	-8546
▁gördüm	-8547
▁respublikada	-8548
▁təp	-8549
▁avtomobilin	-8550
▁artmasına	-8551
▁nəticələrinə	-8552
örə	-8553
▁dilini	-8554
▁qonaqlar	-8555
▁İtaliyanın	-8556
▁reallıq	-8557
ləşən	-8558
▁qorxu	-8559
▁nəslin	-8560
▁Oğuz	-8561
▁qabiliyyəti	-8562
▁qədəm	-8563
▁həyatına	-8564
.-	-8565
▁olarsa	-8566
▁millisinin	-8567
▁icrasına	-8568
jiss	-8569
▁nas	-8570
▁Arxiv	-8571
birindən	-8572
alaşdır	-8573
▁sədaq	-8574
▁Elmar	-8575
▁qazanan	-8576
▁lap	-8577
▁gətirmək	-8578
saydı	-8579
▁tapa	-8580
▁yerindən	-8581
▁AXCP	-8582
▁jurnalistlərin	-8583
▁cədvəl	-8584
▁etmişəm	-8585
▁Təsad	-8586
▁koordin	-8587
▁Hökumət	-8588
▁üçtərəfli	-8589
asiyaların	-8590
▁vəsaitin	-8591
▁potensialının	-8592
▁Mənə	-8593
▁ayda	-8594
ladım	-8595
▁məcburiyyətində	-8596
istanda	-8597
▁Müsəlman	-8598
sızlıq	-8599
▁gimn	-8600
▁incəsən	-8601
▁məzar	-8602
Bay	-8603
▁şeydən	-8604
▁maraqlarını	-8605
▁göstərilib	-8606
▁balaca	-8607
▁əli	-8608
mas	-8609
▁Sah	-8610
ews	-8611
▁xərcləri	-8612
Əl	-8613
▁fəlsəfi	-8614
▁torpaqları	-8615
▁Tiflis	-8616
▁siyahıya	-8617
▁Moskvanın	-8618
▁düy	-8619
▁minnətdarlığını	-8620
▁tikilib	-8621
▁lob	-8622
▁problemlərinin	-8623
▁keçirəcək	-8624
▁Macarıstan	-8625
▁Bildirilir	-8626
qud	-8627
TV	-8628
görüş	-8629
▁həs	-8630
▁məktəblərdə	-8631
indədir	-8632
▁Yaxşı	-8633
rof	-8634
▁nağıl	-8635
▁etdirilib	-8636
▁davran	-8637
▁Prof	-8638
▁millətin	-8639
▁etməd	-8640
Tbilisi	-8641
axanı	-8642
ruk	-8643
▁istiqamətləri	-8644
▁əd	-8645
▁Ölkəmizdə	-8646
▁Kabinetinə	-8647
bənd	-8648
orativ	-8649
▁Əkbər	-8650
▁tanınır	-8651
▁Mübariz	-8652
▁kəndinin	-8653
▁Elektron	-8654
▁keş	-8655
▁qalması	-8656
▁Növbəti	-8657
▁Sənəd	-8658
▁başında	-8659
▁İnstitutunda	-8660
▁kürd	-8661
▁hazırladığı	-8662
▁olanların	-8663
▁meşə	-8664
▁Nəh	-8665
▁övladı	-8666
əvan	-8667
▁ibtidai	-8668
▁sonda	-8669
çisinin	-8670
▁səbəbləri	-8671
zin	-8672
▁məlumdur	-8673
▁suvar	-8674
▁sahənin	-8675
▁çevik	-8676
▁ifaçı	-8677
▁Sizi	-8678
rü	-8679
▁imkanlarının	-8680
▁məktəbə	-8681
Heydər	-8682
▁doğum	-8683
▁təsirini	-8684
dəfəlik	-8685
▁Liqasında	-8686
arəng	-8687
▁Bəyan	-8688
▁azadlığa	-8689
▁insana	-8690
▁Tim	-8691
▁mətbuatda	-8692
▁Lim	-8693
usun	-8694
▁sona	-8695
hesab	-8696
▁tutduğu	-8697
▁Lat	-8698
▁bürünc	-8699
rək	-8700
▁hesabında	-8701
”-	-8702
miləş	-8703
▁parçalan	-8704
▁sök	-8705
▁tədricən	-8706
▁Vüs	-8707
▁Abdulla	-8708
▁gözləy	-8709
▁Fondun	-8710
▁Şöbəsinin	-8711
atar	-8712
▁yazırdı	-8713
Qeyd	-8714
▁Təşkilat	-8715
hər	-8716
▁qut	-8717
▁Cümhuriyyəti	-8718
▁oldum	-8719
▁Ağc	-8720
▁materialları	-8721
KS	-8722
▁məsələlərdən	-8723
▁olmadığ	-8724
▁Nümay	-8725
▁mərkəzinin	-8726
▁Mixail	-8727
▁hüququn	-8728
▁olacaqdır	-8729
Kərim	-8730
▁yönəlmiş	-8731
▁yadda	-8732
ts	-8733
rəs	-8734
▁Təbriz	-8735
▁toxunul	-8736
adanın	-8737
▁diri	-8738
▁çər	-8739
▁fermer	-8740
▁Qaradağ	-8741
▁əsərlərinin	-8742
▁çıxmış	-8743
əmən	-8744
ola	-8745
▁döş	-8746
ləndirən	-8747
▁bölgələrində	-8748
dıcı	-8749
başına	-8750
▁Həbib	-8751
▁təəssürat	-8752
▁Avstriya	-8753
▁qəsəbə	-8754
▁silin	-8755
imcə	-8756
▁ixt	-8757
▁Nar	-8758
▁sözünü	-8759
▁çoxal	-8760
▁tədbirlərinin	-8761
▁rəhbərliyinə	-8762
Ax	-8763
aqlar	-8764
▁qaydalarını	-8765
▁məsələn	-8766
▁alsaq	-8767
▁Demokratik	-8768
▁AF	-8769
görən	-8770
▁prosesini	-8771
▁doğurur	-8772
▁niyyət	-8773
▁sabitliyin	-8774
Böyük	-8775
▁Dünən	-8776
▁ehtiva	-8777
▁çayı	-8778
▁rəsmiləş	-8779
▁məhkəmənin	-8780
nəzər	-8781
▁nəyə	-8782
▁əsərin	-8783
▁çəkdiyi	-8784
▁qapalı	-8785
▁sahibliyi	-8786
▁yollar	-8787
▁çatan	-8788
▁yazılıb	-8789
▁olmasından	-8790
▁Dmit	-8791
▁dərəcəsi	-8792
▁həlledici	-8793
Bizim	-8794
obu	-8795
▁gizlət	-8796
ruktiv	-8797
▁sistemli	-8798
birini	-8799
▁tutdu	-8800
▁Ziya	-8801
avuş	-8802
▁dağlıq	-8803
▁olduğumuz	-8804
▁operator	-8805
▁regionlarda	-8806
▁Vil	-8807
▁Dadaş	-8808
▁jurnalistlər	-8809
▁adamların	-8810
▁mərkəzləri	-8811
▁orda	-8812
▁ayından	-8813
▁turş	-8814
▁vicdan	-8815
arıq	-8816
oqquz	-8817
▁limanın	-8818
▁açıqlanıb	-8819
ambıq	-8820
mışdılar	-8821
İR	-8822
▁müstəqilliyinin	-8823
▁proseslərin	-8824
▁sərmayə	-8825
İnter	-8826
amışdır	-8827
▁xəstəliyi	-8828
▁müşavir	-8829
▁Tağıyev	-8830
▁Axı	-8831
▁Qrupunun	-8832
▁məktəbində	-8833
▁istə	-8834
Musavat	-8835
önül	-8836
▁tranzit	-8837
▁universitetin	-8838
▁torpaqlarımızın	-8839
tək	-8840
▁nişan	-8841
▁istinadla	-8842
▁sülhün	-8843
ndə	-8844
ernat	-8845
▁Vəkil	-8846
▁xadimləri	-8847
▁milyondan	-8848
▁şirkətlər	-8849
▁Almaniyada	-8850
▁tədbirlərdə	-8851
▁Yolları	-8852
▁Əməliyyat	-8853
▁bərk	-8854
▁bacısı	-8855
Qaz	-8856
▁kapital	-8857
mental	-8858
▁nifrət	-8859
▁təkliflərini	-8860
▁siviliz	-8861
lamağa	-8862
ABŞ	-8863
▁tərəfdaşlıq	-8864
▁bazası	-8865
▁tərkibi	-8866
▁feder	-8867
▁Avtomobil	-8868
▁bilmədi	-8869
▁rəhmət	-8870
▁Bolqarıstan	-8871
▁böyüy	-8872
üsx	-8873
▁həz	-8874
▁edəndə	-8875
essoru	-8876
▁əməli	-8877
▁Da	-8878
ua	-8879
liklərinin	-8880
://	-8881
mama	-8882
▁Kanada	-8883
▁Sağ	-8884
▁Maq	-8885
▁kompleksi	-8886
ero	-8887
▁laure	-8888
▁başı	-8889
▁rəsmisi	-8890
▁məntəqəsi	-8891
timal	-8892
▁maraqlan	-8893
▁ah	-8894
▁təqv	-8895
▁olmadı	-8896
▁istefa	-8897
▁qurumlarının	-8898
▁formalaşması	-8899
▁tədqiqatlar	-8900
▁Alt	-8901
▁köçkünlərin	-8902
▁Əvvəlcə	-8903
salar	-8904
▁Sark	-8905
▁İmtahan	-8906
▁şüş	-8907
▁İşğal	-8908
▁qayğısı	-8909
▁texnoloji	-8910
▁Düzdür	-8911
▁Səhmdar	-8912
▁kiloqram	-8913
▁Kər	-8914
razı	-8915
▁yenidənqurma	-8916
▁artill	-8917
▁orqanizm	-8918
ildən	-8919
▁mehriban	-8920
▁edilmir	-8921
▁evdən	-8922
▁görünən	-8923
▁qeydiyyata	-8924
▁qəsəbəsi	-8925
▁heyrət	-8926
▁gəldiyi	-8927
əssamı	-8928
▁Hansı	-8929
▁kompoz	-8930
▁İstanbulda	-8931
▁prosesin	-8932
▁aksiya	-8933
▁yarı	-8934
fət	-8935
▁kənddə	-8936
▁Teatrında	-8937
▁böyükdür	-8938
▁qurultay	-8939
▁müəllifin	-8940
əcəkdir	-8941
mosfer	-8942
▁azdır	-8943
vari	-8944
ılmalı	-8945
jissor	-8946
▁nüsx	-8947
▁sənayesi	-8948
urov	-8949
▁Dəhliz	-8950
▁tarixindən	-8951
ızıl	-8952
▁üzündən	-8953
asıb	-8954
▁şid	-8955
▁məsələsini	-8956
▁Araşdırmalar	-8957
▁yada	-8958
▁təzə	-8959
▁çörək	-8960
▁qəribə	-8961
▁itirib	-8962
Avrop	-8963
St	-8964
▁Brüssel	-8965
▁müqavimət	-8966
▁Qafqazın	-8967
iliyinin	-8968
▁oyunları	-8969
▁arvad	-8970
Həsən	-8971
▁məntiqi	-8972
▁gözləm	-8973
▁cərr	-8974
▁alimlər	-8975
▁Peş	-8976
əşəkkil	-8977
▁metro	-8978
Azərbaycanda	-8979
▁irsinin	-8980
lədi	-8981
qtay	-8982
▁prezidentin	-8983
ullah	-8984
rov	-8985
▁pasport	-8986
gin	-8987
▁Bey	-8988
▁dünyagörüş	-8989
▁mərhum	-8990
▁aşkarlanıb	-8991
eksiya	-8992
▁Zaur	-8993
▁Ruh	-8994
▁yaradıcılığında	-8995
rid	-8996
▁dedim	-8997
yet	-8998
▁Sankt	-8999
▁xatirəsinə	-9000
ilin	-9001
ılar	-9002
▁sahibləri	-9003
▁önünə	-9004
▁qaldırmaq	-9005
siyanı	-9006
▁suallar	-9007
▁sammit	-9008
▁Qlobal	-9009
▁qəzəb	-9010
təhsil	-9011
▁Ul	-9012
ləduz	-9013
▁qüvvədə	-9014
▁Texnolog	-9015
▁səmərəl	-9016
▁alınmaqla	-9017
▁Rəşid	-9018
▁məqalə	-9019
▁içməli	-9020
▁evinin	-9021
▁əcnəbi	-9022
▁Cəmiyyəti	-9023
▁müəllimlərin	-9024
▁Hökuməti	-9025
out	-9026
▁xanın	-9027
lərindəki	-9028
▁Qorqud	-9029
▁professoru	-9030
▁yerləşdir	-9031
▁Mür	-9032
▁maşının	-9033
▁dis	-9034
▁gələni	-9035
▁Mük	-9036
▁Təsadüfi	-9037
▁korrupsiya	-9038
▁Bankın	-9039
SE	-9040
▁Lider	-9041
▁Tac	-9042
ilsiz	-9043
▁qurb	-9044
ürlər	-9045
pp	-9046
▁qrafik	-9047
▁Nəcəf	-9048
▁yaralı	-9049
çəl	-9050
▁bilmirlər	-9051
▁borcu	-9052
▁şeirləri	-9053
▁paytaxtın	-9054
▁Ət	-9055
▁Fevr	-9056
ruh	-9057
raj	-9058
ansa	-9059
▁kəndin	-9060
▁proqramının	-9061
iano	-9062
Tur	-9063
▁vətəndaşlara	-9064
▁Rafiq	-9065
▁mütər	-9066
▁şagirdlərin	-9067
▁səsvermə	-9068
▁bilməy	-9069
▁məmnunluq	-9070
▁Deputat	-9071
▁Gəncəvi	-9072
yeni	-9073
enden	-9074
▁mübarizəyə	-9075
arl	-9076
▁Bakıdakı	-9077
▁Yevlax	-9078
▁Mad	-9079
▁salır	-9080
▁sonu	-9081
asiyanı	-9082
▁birdəfəlik	-9083
▁güllə	-9084
Əh	-9085
▁qayıda	-9086
▁məndən	-9087
aqon	-9088
▁Türkmənistan	-9089
▁üsyan	-9090
rəti	-9091
▁Qanununa	-9092
karlar	-9093
Müs	-9094
▁dik	-9095
▁vərdiş	-9096
Məmmədov	-9097
▁yaratmağa	-9098
▁nəticələrini	-9099
▁Mirzəyev	-9100
▁qətli	-9101
▁oynayan	-9102
ilməsinin	-9103
yaşlı	-9104
▁çempionatında	-9105
▁alda	-9106
▁törə	-9107
▁qoyan	-9108
▁töhfələr	-9109
▁qatar	-9110
▁qurulub	-9111
▁cəmiyyətə	-9112
▁Rey	-9113
ilərinə	-9114
▁Şək	-9115
▁Kamran	-9116
▁arabir	-9117
▁mükafatlandır	-9118
ilməsində	-9119
ayə	-9120
uri	-9121
▁edilirdi	-9122
▁filologiya	-9123
▁qətl	-9124
▁sıradan	-9125
▁fikrini	-9126
▁təsadüfi	-9127
▁vəzifələrin	-9128
▁otel	-9129
mışlar	-9130
▁roman	-9131
▁ömrünün	-9132
▁fit	-9133
▁bizimlə	-9134
▁Ölkənin	-9135
▁rəssamı	-9136
▁Tom	-9137
▁əmri	-9138
▁abituriyent	-9139
At	-9140
▁olunmur	-9141
▁iclasda	-9142
▁nəticələnən	-9143
▁müəssisəsi	-9144
sinlər	-9145
▁ekst	-9146
▁əlif	-9147
enit	-9148
▁cavan	-9149
▁uzaqgörən	-9150
▁Ailə	-9151
▁getdi	-9152
undamental	-9153
▁şöbəsinə	-9154
▁ruhu	-9155
▁uşağı	-9156
▁inşası	-9157
ow	-9158
keç	-9159
▁İvan	-9160
əstin	-9161
▁əraziləri	-9162
▁özlərinə	-9163
▁şax	-9164
▁Həş	-9165
sikl	-9166
sər	-9167
▁iştirakçılarına	-9168
▁Slov	-9169
▁tərəfə	-9170
▁dosent	-9171
yak	-9172
▁veter	-9173
berq	-9174
▁bitirib	-9175
▁pol	-9176
dirici	-9177
▁oldular	-9178
▁qarışıq	-9179
▁immun	-9180
▁qadir	-9181
▁Görün	-9182
▁pan	-9183
▁atır	-9184
▁gecik	-9185
▁Qol	-9186
lıqların	-9187
▁şöbəsi	-9188
▁Kip	-9189
▁Əsədov	-9190
▁örnək	-9191
▁analiz	-9192
▁görülməsi	-9193
▁dan	-9194
dığından	-9195
▁sa	-9196
▁aralarında	-9197
▁qanunla	-9198
▁Fəal	-9199
▁təmsilçiləri	-9200
▁diqqətinə	-9201
▁meydanç	-9202
▁təmiri	-9203
iymət	-9204
▁əlaqəsi	-9205
▁vurğulayan	-9206
▁Doğru	-9207
▁epiz	-9208
qəs	-9209
▁müsabiqə	-9210
▁meyit	-9211
▁yoxlama	-9212
▁diaq	-9213
▁camaat	-9214
ronun	-9215
oza	-9216
▁baxır	-9217
▁xeyirxah	-9218
▁söylədi	-9219
▁haqları	-9220
▁göndərib	-9221
▁bilirik	-9222
▁Bul	-9223
əviyyat	-9224
▁Dağı	-9225
▁demokratiya	-9226
▁qəzetində	-9227
▁əngəl	-9228
▁Ağa	-9229
qara	-9230
▁Portuq	-9231
▁Oqtay	-9232
▁Qoşul	-9233
▁Fərhad	-9234
▁Zir	-9235
▁etibarilə	-9236
▁alıram	-9237
▁əsgəri	-9238
▁gündəm	-9239
ləyici	-9240
rus	-9241
▁xəyanət	-9242
▁keçirilməsinin	-9243
▁əmanət	-9244
▁Can	-9245
▁işsiz	-9246
aktiv	-9247
▁xəttində	-9248
ularaq	-9249
▁zərərsiz	-9250
▁peyğəmbər	-9251
ikal	-9252
▁Rasim	-9253
▁Os	-9254
▁kimyəvi	-9255
▁dəyərlərin	-9256
▁yardımı	-9257
▁Çıx	-9258
▁Şərif	-9259
▁tenden	-9260
dab	-9261
▁bilirəm	-9262
▁göstərmişdir	-9263
▁seçilməsi	-9264
avan	-9265
▁gətirilib	-9266
▁demişdi	-9267
▁kimə	-9268
▁çatır	-9269
▁qrupları	-9270
zaman	-9271
▁xəbərlər	-9272
▁baxılması	-9273
▁teatrın	-9274
▁təşəkkürünü	-9275
əvəz	-9276
▁yetirir	-9277
▁azaldılması	-9278
▁qəhrəmanlıq	-9279
arselona	-9280
▁Gəncədə	-9281
qun	-9282
▁Fa	-9283
▁Qırmızı	-9284
▁Polş	-9285
▁tür	-9286
▁ibn	-9287
ologiyası	-9288
▁Per	-9289
ue	-9290
gö	-9291
▁sevimli	-9292
▁gəncləri	-9293
▁təsdiqləyib	-9294
▁bayraq	-9295
▁vəzifəsi	-9296
▁Sığ	-9297
Peterburq	-9298
▁idarəsinin	-9299
▁prokurorluq	-9300
▁kadrların	-9301
▁Hakimiyyəti	-9302
▁dənizi	-9303
▁Kəm	-9304
blem	-9305
▁alacaq	-9306
▁qismi	-9307
▁çevrilməsi	-9308
▁cild	-9309
▁MT	-9310
▁qazıntı	-9311
▁imzalanması	-9312
▁Ramil	-9313
▁olmağı	-9314
ılsa	-9315
türk	-9316
▁fin	-9317
▁xəyal	-9318
üyü	-9319
▁meyl	-9320
▁Tanrı	-9321
▁Dekabr	-9322
▁yaradılır	-9323
apar	-9324
abi	-9325
▁misilsiz	-9326
▁dinin	-9327
pərəst	-9328
▁aparılacaq	-9329
▁yarımmüdafiə	-9330
▁Assambleyasının	-9331
▁ilində	-9332
▁gələcəyə	-9333
ıldıqdan	-9334
bəyov	-9335
▁İstehsal	-9336
▁yerlərinin	-9337
▁Bin	-9338
tmək	-9339
▁emalı	-9340
▁hücuma	-9341
Qur	-9342
▁qurtul	-9343
▁təqib	-9344
sif	-9345
▁Sərg	-9346
dırım	-9347
▁Lavr	-9348
▁ağz	-9349
AK	-9350
▁memar	-9351
şək	-9352
ətlərin	-9353
▁oxuyur	-9354
▁deb	-9355
▁yaranmasına	-9356
▁süjet	-9357
▁temp	-9358
isə	-9359
▁mak	-9360
polkovnik	-9361
▁rəhbərinin	-9362
uşu	-9363
▁reallaş	-9364
▁sahəsinə	-9365
▁abadlıq	-9366
▁Bah	-9367
▁hakimi	-9368
▁Əminəm	-9369
leytenant	-9370
▁ork	-9371
▁olmuşam	-9372
▁Əy	-9373
▁mütərəqqi	-9374
obel	-9375
▁maraqlandır	-9376
sından	-9377
ack	-9378
▁uğurları	-9379
▁vurğulay	-9380
▁mənafe	-9381
ision	-9382
▁Peyğəmbər	-9383
▁məsələlərlə	-9384
▁Moskvaya	-9385
orlar	-9386
▁olay	-9387
▁mir	-9388
▁əsərində	-9389
▁Tərəflər	-9390
erlər	-9391
▁Saat	-9392
▁beyn	-9393
acağam	-9394
dığınız	-9395
▁dostları	-9396
▁modeli	-9397
▁qıl	-9398
▁mühacir	-9399
▁Yəqin	-9400
▁danışıqların	-9401
eqativ	-9402
▁əvəzsiz	-9403
▁iqtisadiyyatına	-9404
▁əhəmiyyətə	-9405
▁dillərində	-9406
▁seçmə	-9407
▁jurnalının	-9408
▁etməsini	-9409
▁Mübarizə	-9410
▁məktubu	-9411
istem	-9412
▁nəşri	-9413
▁tərəfində	-9414
▁Norveç	-9415
▁açılışında	-9416
▁ekspertlər	-9417
▁tapır	-9418
▁Həz	-9419
▁zərərçəkmiş	-9420
▁xidmətlərinin	-9421
▁yəhudi	-9422
▁fundamental	-9423
▁sada	-9424
▁hücumu	-9425
▁Qoşulmama	-9426
▁Layihə	-9427
▁gündür	-9428
manında	-9429
▁Oyunlarında	-9430
▁gücünü	-9431
▁inkişafa	-9432
▁Vergi	-9433
▁vuran	-9434
afat	-9435
▁obrazı	-9436
▁sayını	-9437
elikop	-9438
▁vəziyyətdən	-9439
▁oynayıb	-9440
▁dəyərlər	-9441
▁gənclərə	-9442
▁dolğun	-9443
▁nikah	-9444
dəni	-9445
▁küçə	-9446
▁vaxta	-9447
▁şirin	-9448
▁tərəfin	-9449
▁parlamentin	-9450
........	-9451
hazırda	-9452
▁Soy	-9453
▁gətirdi	-9454
▁Cor	-9455
▁Dünyada	-9456
▁Zəngilan	-9457
▁Əfəndiyev	-9458
▁Təkcə	-9459
▁orden	-9460
▁qaydalara	-9461
▁ifasında	-9462
▁abidələri	-9463
oport	-9464
▁mühiti	-9465
▁kəndlərində	-9466
lasın	-9467
▁güv	-9468
▁çeş	-9469
▁liman	-9470
▁Qus	-9471
▁əsərlərində	-9472
▁tir	-9473
▁Möh	-9474
▁irs	-9475
▁qəp	-9476
▁təhlükəsizliyin	-9477
▁cins	-9478
his	-9479
▁üzünə	-9480
amet	-9481
Məh	-9482
▁gətirilən	-9483
▁bildirmişdi	-9484
▁sinf	-9485
▁çırp	-9486
▁müayin	-9487
▁yeraltı	-9488
▁pulsuz	-9489
▁Co	-9490
▁sonsuz	-9491
▁ictimaiyyətin	-9492
▁fakültəsinin	-9493
▁Nazirliyin	-9494
▁Sentyabrın	-9495
▁xalqlarının	-9496
▁Kos	-9497
hökumət	-9498
▁kabinet	-9499
əfa	-9500
▁minik	-9501
▁alınaraq	-9502
▁müharibəyə	-9503
▁çıxa	-9504
▁görüşün	-9505
nak	-9506
avar	-9507
▁işlən	-9508
▁Bankının	-9509
▁məf	-9510
ation	-9511
▁Lev	-9512
▁Bər	-9513
▁məsələlərdə	-9514
ursat	-9515
▁oxumaq	-9516
▁göstəricisidir	-9517
▁bolşevik	-9518
▁müharibədə	-9519
rli	-9520
▁tarixlərində	-9521
▁ölkədəki	-9522
▁Pal	-9523
▁perspektivləri	-9524
▁istədiy	-9525
▁tənzimlənməsi	-9526
otek	-9527
▁Meks	-9528
▁albom	-9529
adıcı	-9530
oto	-9531
▁ideoloji	-9532
▁istilik	-9533
▁qətimkan	-9534
▁dəstə	-9535
▁xalqını	-9536
▁əzab	-9537
ilmişdir	-9538
▁Havanın	-9539
▁Necə	-9540
▁kab	-9541
asıdır	-9542
lili	-9543
▁vasitələrin	-9544
ilərini	-9545
edic	-9546
▁çayının	-9547
▁araşdırılması	-9548
▁razılığa	-9549
▁işçilərin	-9550
York	-9551
▁Müv	-9552
▁Məqal	-9553
▁Cahangir	-9554
▁Kap	-9555
▁binasında	-9556
▁müraciəti	-9557
▁danışdı	-9558
▁karb	-9559
▁Cəlilabad	-9560
▁Cəbh	-9561
uel	-9562
▁kimya	-9563
▁dəhlizi	-9564
▁dəyişdir	-9565
▁qiymətləri	-9566
▁şirkətlərinin	-9567
ədəbəy	-9568
▁Deməli	-9569
▁tabeliyində	-9570
umb	-9571
▁ans	-9572
▁başçısına	-9573
▁magistral	-9574
▁dinlən	-9575
▁hazırlamaq	-9576
▁Zərifə	-9577
▁ölkəmizi	-9578
▁sərh	-9579
▁vəhdət	-9580
alda	-9581
▁suyu	-9582
▁Nümayəndə	-9583
▁Mərkəzin	-9584
▁dildə	-9585
▁ailəsinin	-9586
adçı	-9587
▁İx	-9588
▁aren	-9589
▁Qafar	-9590
▁Latv	-9591
▁Ağcab	-9592
▁qoyulması	-9593
▁qətiyyətli	-9594
▁qüsur	-9595
▁pat	-9596
▁mahiyyəti	-9597
▁mənəviyyat	-9598
▁çəkisi	-9599
İB	-9600
ses	-9601
erey	-9602
▁tim	-9603
▁yuxu	-9604
▁Səbail	-9605
▁Dmitri	-9606
ılmayıb	-9607
▁sutka	-9608
▁qiymətinin	-9609
ətləri	-9610
▁əsirg	-9611
▁Kreml	-9612
▁AŞ	-9613
▁olmasın	-9614
bal	-9615
▁misr	-9616
▁tarif	-9617
adov	-9618
▁qətiyyətlə	-9619
▁bak	-9620
▁nor	-9621
▁guş	-9622
▁Oktyabrın	-9623
▁dəyişdirilməsi	-9624
▁xatırlat	-9625
eçen	-9626
▁irəliləyiş	-9627
▁saf	-9628
▁nədir	-9629
▁sonlarında	-9630
▁büdcəsinin	-9631
ılmır	-9632
▁duz	-9633
amızda	-9634
duqdan	-9635
ərsə	-9636
▁Krım	-9637
ASAN	-9638
▁gəliş	-9639
▁öldürül	-9640
▁siqn	-9641
karı	-9642
▁Avqust	-9643
▁Xorvat	-9644
▁oxuyan	-9645
▁görünüş	-9646
▁mühitinin	-9647
▁proqnozlaşdır	-9648
▁etməlidirlər	-9649
▁arada	-9650
▁tələblər	-9651
▁buz	-9652
▁önə	-9653
▁qəbiristan	-9654
▁müqabil	-9655
▁nöqsan	-9656
▁aktı	-9657
▁yaxındır	-9658
▁dilindən	-9659
▁keçməsi	-9660
yuta	-9661
atürk	-9662
▁müəllimlər	-9663
▁ənənələri	-9664
▁müddətə	-9665
▁İman	-9666
▁analitik	-9667
▁illərdən	-9668
▁Qap	-9669
▁Sor	-9670
...”	-9671
▁keçirdi	-9672
▁həqiqəti	-9673
▁Korey	-9674
▁person	-9675
▁heyran	-9676
▁üzr	-9677
osof	-9678
▁rayonları	-9679
▁yetirib	-9680
▁turistlərin	-9681
▁neqativ	-9682
▁ölkələrindən	-9683
▁arxeoloji	-9684
▁Ömər	-9685
▁itkilər	-9686
▁infl	-9687
▁Şuşanın	-9688
▁Ərəbistanı	-9689
ildiyi	-9690
umanitar	-9691
▁prosesləri	-9692
▁səfirliyinin	-9693
▁cəzası	-9694
▁rəv	-9695
▁özlərinin	-9696
▁ağl	-9697
▁Müzəffər	-9698
çilərə	-9699
▁hadisəni	-9700
▁təsərrüfatının	-9701
▁dağıd	-9702
▁keçərək	-9703
▁Paşa	-9704
▁xaricdən	-9705
▁siyasətçi	-9706
▁bələdiyyənin	-9707
▁Media	-9708
▁diaqnoz	-9709
▁arzusu	-9710
▁komandanı	-9711
▁dəyərləri	-9712
▁şərəfinə	-9713
▁Maraqlıdır	-9714
▁təslim	-9715
▁yollarını	-9716
▁halında	-9717
▁İndiy	-9718
▁Amerikanın	-9719
▁müdir	-9720
▁səviyyəyə	-9721
▁Mütəxəssis	-9722
▁ikili	-9723
▁süm	-9724
▁vəziyyətinin	-9725
▁bölgə	-9726
▁qoşunlarının	-9727
▁milyonlarla	-9728
▁addımı	-9729
▁göstərirlər	-9730
▁yas	-9731
▁pambıq	-9732
ner	-9733
▁Fili	-9734
▁edildikdən	-9735
▁AFFA	-9736
əsindəki	-9737
▁əlaqələn	-9738
▁mif	-9739
▁şanlı	-9740
▁Zaqatala	-9741
▁Müəllim	-9742
▁kommunikasiya	-9743
▁Millətlər	-9744
▁riyaziyyat	-9745
▁xatırlay	-9746
▁təntənəli	-9747
▁vəzifəyə	-9748
▁həyət	-9749
ləndirir	-9750
SS	-9751
▁satın	-9752
▁etməyən	-9753
▁yaxşılaş	-9754
▁meyv	-9755
▁sel	-9756
Xalq	-9757
eir	-9758
▁oxuyub	-9759
▁doqquz	-9760
▁eləm	-9761
ras	-9762
pək	-9763
▁kəndləri	-9764
▁Nəhayət	-9765
▁dəstəyini	-9766
▁Est	-9767
▁Viktor	-9768
▁plana	-9769
▁İKT	-9770
Əgər	-9771
▁kafedrasının	-9772
▁dəyərlərə	-9773
▁ərsəyə	-9774
▁birdən	-9775
▁Ermənilər	-9776
▁belədir	-9777
▁şikayəti	-9778
▁vəsiqə	-9779
▁Vol	-9780
▁yunan	-9781
▁konfransı	-9782
▁çevrilmişdir	-9783
▁sint	-9784
▁formalaşmasında	-9785
▁oke	-9786
▁müxalifətin	-9787
göl	-9788
▁Fərmanı	-9789
▁yorul	-9790
▁gəlmir	-9791
▁ifşa	-9792
▁dayanan	-9793
▁qurub	-9794
▁hissəsidir	-9795
▁yaradıcılığının	-9796
madığı	-9797
▁qatı	-9798
▁açaraq	-9799
▁Əsgərov	-9800
▁uzaqlaşdır	-9801
▁kubmetr	-9802
▁qarşıdakı	-9803
uculuq	-9804
aşvili	-9805
▁xatirəsi	-9806
▁Hidro	-9807
▁mac	-9808
▁təsnifat	-9809
▁Qüd	-9810
▁helikop	-9811
▁danışarkən	-9812
▁Trampın	-9813
ləşdirmə	-9814
▁evlən	-9815
▁olunduq	-9816
▁Rzayev	-9817
enk	-9818
▁zəlzəl	-9819
uncu	-9820
▁siqaret	-9821
▁Əlizadə	-9822
adrid	-9823
▁məhsulun	-9824
")	-9825
▁təzahürü	-9826
▁yollarının	-9827
▁avtomat	-9828
▁miqyasda	-9829
Qafqaz	-9830
Paş	-9831
▁etdirdi	-9832
▁gener	-9833
▁dövrünə	-9834
▁Ramazan	-9835
▁QSC	-9836
▁səhnəyə	-9837
▁tapşırığ	-9838
▁tərəfdarı	-9839
▁əlyaz	-9840
Ər	-9841
▁mütəxəssisləri	-9842
▁Nəzarət	-9843
İran	-9844
▁yeniyet	-9845
▁görülmüşdür	-9846
▁Adam	-9847
▁praktiki	-9848
emat	-9849
▁Elşad	-9850
▁məktəblərin	-9851
minin	-9852
▁Mayın	-9853
▁Türkiyədən	-9854
təlik	-9855
▁Fran	-9856
▁yayımlanan	-9857
▁Ərdoğanın	-9858
▁xidmətlərinə	-9859
ƏM	-9860
▁məskunlaş	-9861
▁Kal	-9862
▁hazırlanır	-9863
▁çıxaraq	-9864
▁hallarının	-9865
▁malların	-9866
lavə	-9867
ılmaq	-9868
Mir	-9869
▁yuy	-9870
örmətli	-9871
▁Keçmiş	-9872
▁insanlarla	-9873
▁oturub	-9874
witter	-9875
UNE	-9876
▁eksper	-9877
▁hörmətlə	-9878
atıcı	-9879
▁adlandırıb	-9880
▁dövlətlərinin	-9881
aksi	-9882
▁mühasir	-9883
▁ailələri	-9884
Ən	-9885
▁elmin	-9886
odik	-9887
ğur	-9888
ızın	-9889
rag	-9890
▁yazmaq	-9891
▁musiqisi	-9892
▁kompens	-9893
▁Din	-9894
▁açılan	-9895
▁yararlan	-9896
▁toplaş	-9897
▁Həmid	-9898
▁alov	-9899
ərt	-9900
▁qızın	-9901
▁məbəd	-9902
ervator	-9903
əlayiq	-9904
əşq	-9905
▁Cavanş	-9906
▁seminar	-9907
▁gizlə	-9908
▁torpaqlarımız	-9909
▁ölkələrlə	-9910
▁dönüş	-9911
▁Lu	-9912
”)	-9913
▁kəməri	-9914
▁edənlərin	-9915
Real	-9916
▁Qəmbər	-9917
▁fədakar	-9918
edilməz	-9919
▁polisi	-9920
▁qrupun	-9921
▁Həyat	-9922
▁Paytaxt	-9923
▁başçıları	-9924
▁forma	-9925
qut	-9926
▁zamanlarda	-9927
▁artımı	-9928
▁komandiri	-9929
tədqiqat	-9930
▁administr	-9931
rini	-9932
ləşdirir	-9933
▁məhəllə	-9934
▁Salyan	-9935
▁Əlaq	-9936
▁ərazisinin	-9937
.”	-9938
▁Forumu	-9939
▁başlanan	-9940
▁məbləğdə	-9941
▁istifadəsinə	-9942
▁xeyrinə	-9943
▁Qırğızıstan	-9944
▁Noyabrın	-9945
▁regionunda	-9946
məmməd	-9947
▁yazar	-9948
Sumqayıt	-9949
qol	-9950
▁təkzib	-9951
▁Ben	-9952
▁restor	-9953
▁xatırladıb	-9954
▁törədilən	-9955
▁formasında	-9956
▁torpaqlarının	-9957
▁demiş	-9958
▁bahalı	-9959
▁Cəmil	-9960
▁digərləri	-9961
▁Adı	-9962
▁yerdən	-9963
▁prospekti	-9964
▁havanın	-9965
▁başladılar	-9966
▁ürəyi	-9967
Kor	-9968
▁eşq	-9969
▁xarakterizə	-9970
▁aydan	-9971
▁rəmzi	-9972
dular	-9973
▁mina	-9974
▁tapşırıqlar	-9975
▁nahiy	-9976
▁sənədi	-9977
▁təcrübəli	-9978
oj	-9979
▁gördüy	-9980
▁turizmin	-9981
▁aspekt	-9982
▁başda	-9983
▁ictimaiyyətinə	-9984
▁silsilə	-9985
▁hissələri	-9986
▁Məcəlləsində	-9987
▁Özü	-9988
▁qərəzli	-9989
▁polisə	-9990
▁Xətalar	-9991
ube	-9992
▁nəfərlik	-9993
▁kəsiş	-9994
▁konfransda	-9995
BC	-9996
▁Dini	-9997
▁təcavüzkar	-9998
▁övladları	-9999
▁şəxslərdən	-10000
▁Ağcabədi	-10001
▁sənədin	-10002
▁xalqları	-10003
▁sk	-10004
PU	-10005
▁müəssisələrinə	-10006
▁seyr	-10007
▁özümü	-10008
▁səviyyəsini	-10009
▁To	-10010
.,	-10011
▁yoluxan	-10012
▁Müqəddəs	-10013
kinin	-10014
olunmaz	-10015
▁sözlərini	-10016
▁qərarın	-10017
▁əsilli	-10018
▁bildi	-10019
▁təsbit	-10020
▁Aleks	-10021
red	-10022
▁Pat	-10023
▁göstərirdi	-10024
rinin	-10025
▁götürül	-10026
ulması	-10027
▁Zelen	-10028
deh	-10029
▁tərif	-10030
aması	-10031
▁maddənin	-10032
▁fasiləsiz	-10033
▁verilsin	-10034
▁Hüquqları	-10035
▁vəziyyətinə	-10036
▁əsərlərini	-10037
▁imi	-10038
▁başladığı	-10039
▁Agentliyin	-10040
▁şərtləri	-10041
▁təsdiqləyir	-10042
▁şöhrət	-10043
▁höv	-10044
▁prinsiplərinə	-10045
▁nəticələrə	-10046
oslav	-10047
iləşdir	-10048
▁Yaz	-10049
▁müalicəsi	-10050
unə	-10051
▁ölkələrinə	-10052
▁marağı	-10053
çəkil	-10054
▁zamanın	-10055
▁ixtisası	-10056
▁pyes	-10057
▁Qurum	-10058
▁artilleriya	-10059
▁ANS	-10060
▁Hazır	-10061
▁gətirdiyi	-10062
▁Trans	-10063
mərtəbəli	-10064
▁Bakıdan	-10065
dem	-10066
▁şəbəkədə	-10067
▁davamı	-10068
▁kommersiya	-10069
▁boğaz	-10070
işəhər	-10071
▁klinik	-10072
▁İclas	-10073
▁istəyirdi	-10074
▁keçirildiyi	-10075
alınmaz	-10076
▁işığ	-10077
▁parlamentinin	-10078
▁yaratmışdır	-10079
▁Mehman	-10080
▁poem	-10081
əşfiyyat	-10082
▁hala	-10083
▁qayıdıb	-10084
▁cavabı	-10085
▁Fərid	-10086
▁etdikdə	-10087
▁Nobel	-10088
▁abidəsi	-10089
ster	-10090
▁çatdırdı	-10091
ogen	-10092
▁estetik	-10093
ropolit	-10094
▁dəstələri	-10095
▁məsci	-10096
▁Bülbül	-10097
▁bizdən	-10098
▁bilirdi	-10099
▁əməkhaqq	-10100
▁ayın	-10101
▁Federal	-10102
▁kütlə	-10103
▁energetika	-10104
▁səsini	-10105
▁səfirliyi	-10106
▁şəhərə	-10107
▁şəbəkəsi	-10108
▁söhbəti	-10109
▁vətəndaşın	-10110
▁PR	-10111
Əhməd	-10112
▁PA	-10113
▁gəlirdi	-10114
düs	-10115
▁Mor	-10116
▁filial	-10117
▁açılır	-10118
▁Cen	-10119
▁büdcəsi	-10120
▁dələduz	-10121
▁azadlıqlarının	-10122
▁məharət	-10123
▁edəcəkdir	-10124
ağımız	-10125
sön	-10126
▁tət	-10127
▁gəliblər	-10128
▁verilmir	-10129
▁Ch	-10130
▁kitabında	-10131
▁qayıdış	-10132
▁münasibətlərdə	-10133
▁hüceyr	-10134
▁çərşən	-10135
▁edilməklə	-10136
▁Qoşun	-10137
yarov	-10138
İst	-10139
▁təzyiqi	-10140
▁gəlmişdi	-10141
fiq	-10142
▁deməli	-10143
▁tələs	-10144
▁Məz	-10145
▁Kir	-10146
malıdırlar	-10147
▁mühakim	-10148
▁ind	-10149
▁referendum	-10150
yəm	-10151
▁Şirin	-10152
▁xeyriyyə	-10153
▁bildirirlər	-10154
▁vilayətində	-10155
▁Qubadlı	-10156
▁prinsipial	-10157
▁torpaqların	-10158
▁avtomobillərin	-10159
▁fas	-10160
▁yüksəldilməsi	-10161
▁məsuliyyətə	-10162
▁yaşadıqları	-10163
▁qurulan	-10164
▁Atatürk	-10165
▁verməlidir	-10166
anq	-10167
▁qadağa	-10168
▁viz	-10169
▁mask	-10170
eton	-10171
AZƏRTAC	-10172
osp	-10173
▁buraxılıb	-10174
▁kampaniyası	-10175
▁hərəkətə	-10176
▁Qüvvələrin	-10177
rul	-10178
▁çıxarılan	-10179
▁həmkarı	-10180
▁çimər	-10181
▁proqramlar	-10182
▁sırada	-10183
▁ölkədir	-10184
▁hotel	-10185
▁ünvanına	-10186
axan	-10187
▁qoşunları	-10188
▁silsil	-10189
▁başını	-10190
▁Nider	-10191
Ukrayn	-10192
▁uydur	-10193
dirilmiş	-10194
▁ildönüm	-10195
▁ibadət	-10196
çərişəhər	-10197
Avropa	-10198
▁FHN	-10199
▁yarısı	-10200
▁sevən	-10201
▁işlət	-10202
lilərin	-10203
taj	-10204
▁rekord	-10205
▁sırf	-10206
liklərin	-10207
ttps	-10208
▁kitabları	-10209
▁aksiyalar	-10210
▁Şərqdə	-10211
▁liderləri	-10212
▁işləməyə	-10213
▁Mülki	-10214
▁daşınmaz	-10215
▁müqabilində	-10216
▁sərgisi	-10217
yans	-10218
▁xit	-10219
xanlı	-10220
viz	-10221
▁mətbuatı	-10222
▁Sənət	-10223
▁ermənilərə	-10224
▁Kərimli	-10225
▁Ölkəmizin	-10226
▁Tacik	-10227
▁olunmasının	-10228
ındadır	-10229
▁məqamda	-10230
▁İkin	-10231
▁Sovetinin	-10232
▁yaradıldı	-10233
alin	-10234
▁Dir	-10235
▁qaytarılması	-10236
▁durumu	-10237
▁Ətraf	-10238
Quliyev	-10239
▁günahlandır	-10240
▁İnkişafı	-10241
▁Sözü	-10242
▁müəyyənləşdiril	-10243
▁seçimi	-10244
▁Bağırov	-10245
▁addımları	-10246
▁şüca	-10247
▁İsveçrə	-10248
animark	-10249
▁Fəxri	-10250
▁komandir	-10251
▁Venes	-10252
▁sanitar	-10253
aft	-10254
▁ölkəsində	-10255
İK	-10256
▁nümunəsidir	-10257
▁ailəsinə	-10258
ordan	-10259
▁Pedaqoji	-10260
▁Sonradan	-10261
▁istədiyini	-10262
▁kitabının	-10263
▁briq	-10264
ücü	-10265
▁atdığı	-10266
▁ünvanı	-10267
siyalarının	-10268
əsuvar	-10269
▁Fərmanın	-10270
▁hüquqlarını	-10271
▁rejimin	-10272
şax	-10273
▁Nəş	-10274
söndür	-10275
▁həcmində	-10276
▁quldur	-10277
▁oğurluq	-10278
▁sakinlərinin	-10279
▁zərərli	-10280
▁bunlara	-10281
▁insident	-10282
▁Sərəncamı	-10283
▁sürüş	-10284
▁dirçəl	-10285
▁klubun	-10286
▁möhkəmlən	-10287
▁yazan	-10288
▁seçkilərin	-10289
▁Aprelin	-10290
▁fikirləş	-10291
▁binaların	-10292
▁səbəblərdən	-10293
▁menec	-10294
üblər	-10295
▁ukrayn	-10296
irəs	-10297
▁istintaqa	-10298
▁Gədəbəy	-10299
arlı	-10300
▁ədib	-10301
▁Andr	-10302
▁payı	-10303
▁toz	-10304
▁vəzifədən	-10305
▁Torpaq	-10306
▁görər	-10307
▁komissiyasının	-10308
▁azalması	-10309
▁xəttinin	-10310
▁sakinlərin	-10311
Sp	-10312
▁mövzuda	-10313
▁oynamaq	-10314
▁amillər	-10315
▁yana	-10316
▁ayrılmış	-10317
ametr	-10318
▁bəndində	-10319
▁disk	-10320
▁inanc	-10321
Mənim	-10322
▁müharibədən	-10323
duqları	-10324
▁qonağı	-10325
▁Moldova	-10326
▁yaxşıdır	-10327
▁çıxacaq	-10328
▁Suriyanın	-10329
▁/	-10330
ekvat	-10331
▁gəlirlər	-10332
▁respublikamızda	-10333
▁sistemin	-10334
laması	-10335
▁komponent	-10336
▁Tehr	-10337
▁şirkətlərin	-10338
▁yarandı	-10339
▁Demək	-10340
ədənkənar	-10341
▁agentliyi	-10342
▁qadını	-10343
lüyünü	-10344
redi	-10345
▁verilməsini	-10346
▁dəyişən	-10347
▁pedaq	-10348
▁tanınması	-10349
ehli	-10350
▁Madrid	-10351
▁Kur	-10352
▁mədəniyyətin	-10353
era	-10354
DM	-10355
sat	-10356
▁artaraq	-10357
▁çatmaq	-10358
▁yaradıcılığına	-10359
▁sahibkarlığın	-10360
ilərdən	-10361
▁etik	-10362
▁sürücüsü	-10363
▁Sevinc	-10364
▁çevrilən	-10365
▁qələbəsi	-10366
▁bildirmək	-10367
EC	-10368
▁müddətdir	-10369
▁inkar	-10370
▁gözləri	-10371
▁ris	-10372
▁sevgisi	-10373
▁unikal	-10374
çular	-10375
▁xalqımıza	-10376
aət	-10377
▁büdcəsindən	-10378
▁Musayev	-10379
ümüzü	-10380
▁rəğmən	-10381
▁gəmi	-10382
▁ürəkdən	-10383
onda	-10384
▁çəkilməsi	-10385
ÜR	-10386
ediya	-10387
▁əşyaları	-10388
▁regionların	-10389
▁gözəllik	-10390
pə	-10391
soy	-10392
▁vəziyyətlə	-10393
ayi	-10394
▁məhsulu	-10395
▁yürüt	-10396
▁sakinlər	-10397
▁nağd	-10398
▁mənims	-10399
▁səth	-10400
▁ətrafındakı	-10401
▁sərhədləri	-10402
▁müdafiəçisi	-10403
▁Diqq	-10404
▁buğ	-10405
▁güzəştli	-10406
▁azyaşlı	-10407
▁təhsilə	-10408
▁yığmasının	-10409
iliyin	-10410
▁halı	-10411
▁sırasına	-10412
▁ərazilərə	-10413
▁Tural	-10414
▁sistemlərinin	-10415
▁müstəvidə	-10416
▁laureatı	-10417
▁Allaha	-10418
▁rəhbərlərinin	-10419
üstə	-10420
▁İmper	-10421
▁tolerantlıq	-10422
▁süf	-10423
əllim	-10424
jan	-10425
▁gözlə	-10426
Allah	-10427
vard	-10428
▁gəlinir	-10429
ms	-10430
▁ital	-10431
ləsi	-10432
▁xarakteri	-10433
alığı	-10434
▁təcəss	-10435
▁kommun	-10436
▁bircə	-10437
▁çəkilir	-10438
▁qaydası	-10439
▁məqsədləri	-10440
▁Mari	-10441
▁özünüz	-10442
▁hərəkatının	-10443
▁Suraxanı	-10444
▁şəhərindən	-10445
biri	-10446
▁Əbdül	-10447
▁Luk	-10448
ia	-10449
birinin	-10450
▁saxlanması	-10451
▁uca	-10452
▁xitam	-10453
▁tapşırığı	-10454
▁Qran	-10455
▁istiqamətlərdə	-10456
asiyasını	-10457
▁götürülmüş	-10458
andakı	-10459
▁Parisdə	-10460
▁məntəqələri	-10461
ləşməsinə	-10462
▁Həmrəyliyi	-10463
▁Qax	-10464
▁Kin	-10465
saqqal	-10466
▁azalıb	-10467
▁Çıxış	-10468
▁qaldığı	-10469
▁yetirmək	-10470
▁koal	-10471
▁sektoru	-10472
▁Rabitə	-10473
otip	-10474
▁romant	-10475
müşdür	-10476
çika	-10477
▁illəri	-10478
Xoc	-10479
Öz	-10480
▁başlamaq	-10481
▁zənc	-10482
▁Arzu	-10483
▁səmim	-10484
abilit	-10485
▁Serbiya	-10486
▁faizə	-10487
▁təyinat	-10488
▁açdı	-10489
▁əlinə	-10490
▁Əraz	-10491
▁Ola	-10492
iyyən	-10493
▁Professor	-10494
▁torpaqlarını	-10495
▁yarımbənd	-10496
▁Qərarı	-10497
▁plen	-10498
▁üsulu	-10499
▁Qaç	-10500
▁ölən	-10501
▁illiyinə	-10502
)"	-10503
▁Beh	-10504
▁Nəsr	-10505
ely	-10506
▁Qı	-10507
▁adsız	-10508
işik	-10509
▁mülah	-10510
▁yaşat	-10511
▁şok	-10512
▁sevgil	-10513
eziya	-10514
▁xalqlar	-10515
▁şəxsiyyəti	-10516
cıq	-10517
▁atan	-10518
▁Sabirabad	-10519
▁Qobu	-10520
▁qarşılanıb	-10521
▁Talıb	-10522
▁qazandı	-10523
▁olmas	-10524
tiq	-10525
▁ekspertiz	-10526
▁Ot	-10527
▁razılığı	-10528
▁tədbirlərə	-10529
▁Anton	-10530
▁danışıqları	-10531
▁Tamaşa	-10532
▁istiqaməti	-10533
▁market	-10534
▁müzakirəsi	-10535
▁İyunun	-10536
▁əsərlərin	-10537
▁Məclisi	-10538
▁nomin	-10539
▁Anadolu	-10540
▁fərqi	-10541
▁Qriq	-10542
▁mərhələyə	-10543
▁həsrət	-10544
▁miqdarı	-10545
▁sətir	-10546
zam	-10547
▁damar	-10548
iqur	-10549
▁arv	-10550
▁Her	-10551
ett	-10552
▁əsəb	-10553
asiyaları	-10554
▁Zaman	-10555
Barselona	-10556
▁Ge	-10557
▁üzvlərinə	-10558
▁sahilində	-10559
▁sözçüsü	-10560
▁İkincisi	-10561
aşın	-10562
Hacı	-10563
▁Qida	-10564
itiv	-10565
axış	-10566
▁müc	-10567
▁məhsullar	-10568
▁istif	-10569
▁hörmətli	-10570
▁çalışırıq	-10571
▁Bəhram	-10572
▁maddələrin	-10573
▁mahiyyətini	-10574
▁dağıntı	-10575
▁səyləri	-10576
▁xatirəsini	-10577
▁şamil	-10578
▁cib	-10579
▁nələr	-10580
▁İranla	-10581
▁yüksəkliklərdə	-10582
▁repres	-10583
ribun	-10584
lanın	-10585
▁Texniki	-10586
oteka	-10587
▁evləri	-10588
▁Ermənistandan	-10589
▁salan	-10590
▁Argent	-10591
▁paylaşım	-10592
▁rayonlarının	-10593
▁əlç	-10594
▁Şübh	-10595
▁qazanmış	-10596
▁sükut	-10597
Dağ	-10598
▁etməm	-10599
Azadlıq	-10600
▁yekunlarına	-10601
▁bildirirəm	-10602
▁hüququna	-10603
söhbət	-10604
▁hadisələrə	-10605
▁borclu	-10606
▁sifarişi	-10607
▁meyil	-10608
▁Problem	-10609
▁aqres	-10610
▁Namiq	-10611
▁olduğum	-10612
▁tərəqqi	-10613
▁abad	-10614
▁yollan	-10615
▁filmlər	-10616
omen	-10617
▁ekspon	-10618
▁göstəriciləri	-10619
adıqda	-10620
▁tapılıb	-10621
ann	-10622
vay	-10623
▁çoxşax	-10624
▁miqrant	-10625
malarının	-10626
▁Sür	-10627
▁səbəbini	-10628
▁xanəndə	-10629
▁hamısını	-10630
qo	-10631
Or	-10632
▁dad	-10633
▁köçürül	-10634
▁dediyinə	-10635
▁asanlıqla	-10636
▁BDU	-10637
ayacaq	-10638
▁virtual	-10639
▁məsuliyyətli	-10640
▁gah	-10641
▁yarımf	-10642
▁yararsız	-10643
mamalıdır	-10644
▁əkil	-10645
▁filosof	-10646
zə	-10647
▁dəb	-10648
alim	-10649
siklope	-10650
▁dövriyyəsi	-10651
▁Balak	-10652
▁şəhadət	-10653
▁komissiya	-10654
▁dənizinin	-10655
▁göstərmiş	-10656
▁Bat	-10657
çox	-10658
▁cavabdeh	-10659
▁Tbilisi	-10660
▁sayında	-10661
ovski	-10662
▁Tar	-10663
▁elminin	-10664
▁Kompleks	-10665
▁əsrlərdə	-10666
▁dondur	-10667
▁tələbat	-10668
▁kollek	-10669
▁qərarını	-10670
▁çevrilmiş	-10671
quliyev	-10672
▁İstər	-10673
▁rəqibi	-10674
▁depar	-10675
▁İnternet	-10676
▁Kürdəmir	-10677
▁icbari	-10678
▁Fevralın	-10679
▁mütəşəkkil	-10680
Əli	-10681
▁Fazil	-10682
▁qoymuş	-10683
arıstanın	-10684
ayb	-10685
▁ehtiyatları	-10686
▁görüləcək	-10687
▁qanunvericiliyə	-10688
iyalarının	-10689
asiyasında	-10690
▁ölənlərin	-10691
▁sistemini	-10692
▁küləyi	-10693
▁Vüsal	-10694
idin	-10695
▁hərbçi	-10696
▁Saak	-10697
▁saxlaya	-10698
▁yəhudilər	-10699
▁torpağı	-10700
▁mövqelərini	-10701
ace	-10702
▁imiş	-10703
▁rəngarəng	-10704
▁Könül	-10705
▁Dekabrın	-10706
▁beyin	-10707
▁təsirli	-10708
▁hərf	-10709
▁qeydiyyatı	-10710
▁mənfə	-10711
▁yazılar	-10712
▁yayılmış	-10713
▁La	-10714
▁Nazirliyində	-10715
▁şou	-10716
▁obyektlərinin	-10717
▁Hüseynovun	-10718
▁faktları	-10719
▁Biləsuvar	-10720
olla	-10721
▁gedəcək	-10722
▁bölgənin	-10723
▁baxmaq	-10724
▁törədilmiş	-10725
imov	-10726
▁Əlavə	-10727
▁töhfəsini	-10728
▁bölməsinin	-10729
▁alimləri	-10730
▁minnətdarlıq	-10731
ılırdı	-10732
▁Qarabağı	-10733
▁Serj	-10734
▁göndərilən	-10735
▁sult	-10736
▁dəyərində	-10737
▁qəhrəmanı	-10738
▁Xəl	-10739
▁layihəsini	-10740
▁yarımçıq	-10741
▁səfərə	-10742
▁Ondan	-10743
▁Ordu	-10744
▁Televiziya	-10745
▁ziddiyyət	-10746
▁alıblar	-10747
ket	-10748
▁qardaşlıq	-10749
▁çıxart	-10750
▁ərazilərinin	-10751
ore	-10752
▁kər	-10753
▁ailələrinə	-10754
▁tükən	-10755
▁lüğ	-10756
▁əməyi	-10757
▁oğluna	-10758
əxminən	-10759
▁torpağa	-10760
▁atış	-10761
▁işlərdən	-10762
▁qüdrət	-10763
▁Respublikasına	-10764
▁İngilis	-10765
▁etdiklərini	-10766
iminal	-10767
▁boşan	-10768
▁qüvvəsi	-10769
Frans	-10770
▁yardımçı	-10771
▁Məhkəmənin	-10772
▁Vasif	-10773
▁yerin	-10774
Gün	-10775
▁Rumıniya	-10776
▁şərtlər	-10777
iqat	-10778
▁səbir	-10779
▁işarə	-10780
gü	-10781
İl	-10782
▁Elman	-10783
▁baxıb	-10784
▁ictimaiyyətinin	-10785
▁qəddar	-10786
▁gətirə	-10787
▁Martın	-10788
▁Şurasına	-10789
▁kompleksinin	-10790
ulinin	-10791
▁qənaət	-10792
▁nömrəsi	-10793
matik	-10794
NT	-10795
▁Karl	-10796
müs	-10797
▁görüşə	-10798
sam	-10799
▁Qarabağdakı	-10800
dirilən	-10801
asət	-10802
▁İnsanlar	-10803
▁Ruslan	-10804
▁nəğ	-10805
▁Komanda	-10806
tisas	-10807
ilov	-10808
▁taraz	-10809
▁azərbaycançılıq	-10810
▁yüksəlib	-10811
▁XXI	-10812
▁əzm	-10813
▁Astara	-10814
▁departament	-10815
▁nəzarətdə	-10816
uç	-10817
anınmış	-10818
▁müzakirəyə	-10819
▁İq	-10820
abul	-10821
▁fotoş	-10822
▁inter	-10823
Hazırda	-10824
▁Bi	-10825
▁platfor	-10826
▁arzulayıram	-10827
▁ciz	-10828
▁bəndini	-10829
▁elədi	-10830
▁ye	-10831
ener	-10832
▁liderin	-10833
▁xiyab	-10834
▁lib	-10835
▁tikilmiş	-10836
▁əcnəb	-10837
ütləvi	-10838
▁sürən	-10839
▁möhkəmləndiril	-10840
▁qrupuna	-10841
▁kollektivi	-10842
▁Mühafizə	-10843
▁məktəblərində	-10844
gahı	-10845
▁həbsdə	-10846
▁Əbu	-10847
▁Saray	-10848
▁mənası	-10849
▁illərlə	-10850
irəsalınmaz	-10851
▁zəminində	-10852
▁qətnamə	-10853
▁görəndə	-10854
▁məqamlar	-10855
▁Şükür	-10856
▁atam	-10857
▁obyektləri	-10858
▁ssenari	-10859
▁olmasıdır	-10860
▁partiyaların	-10861
▁Razı	-10862
▁Məşhur	-10863
▁fəhlə	-10864
▁filminin	-10865
Baş	-10866
▁Fətəli	-10867
▁xron	-10868
▁kal	-10869
▁çıxara	-10870
misiniz	-10871
▁dolayı	-10872
▁Xəs	-10873
pe	-10874
▁Vətənə	-10875
▁epid	-10876
ərrik	-10877
cadan	-10878
▁Komitə	-10879
▁qoşulub	-10880
ilərlə	-10881
▁dayaq	-10882
▁etməmiş	-10883
▁Diplom	-10884
▁müəssisəsinin	-10885
▁Forumunun	-10886
▁amillərdən	-10887
▁siyasətində	-10888
▁Qəhrəmanı	-10889
▁artırılmasına	-10890
▁Sülh	-10891
▁aksiyası	-10892
▁qaynar	-10893
əfəkk	-10894
▁sənayesinin	-10895
▁verməklə	-10896
▁bankın	-10897
▁Məqsəd	-10898
▁pərdə	-10899
▁qaranlıq	-10900
▁dönəmində	-10901
▁fərmanı	-10902
▁Rusiyanı	-10903
▁fəaliyyətindən	-10904
örf	-10905
▁bulud	-10906
▁ədəbiyyatşünas	-10907
▁təqsirli	-10908
▁Yaşar	-10909
▁olsaydı	-10910
▁taxt	-10911
▁Etibar	-10912
▁yetirilib	-10913
▁gördü	-10914
▁ədliyyə	-10915
▁bəhrələn	-10916
zon	-10917
▁Müharibə	-10918
▁separat	-10919
▁prepar	-10920
▁mineral	-10921
▁vanda	-10922
▁Məlumatda	-10923
▁İlyas	-10924
baba	-10925
▁əməlləri	-10926
▁gəldiyini	-10927
dirsə	-10928
▁məna	-10929
ium	-10930
▁Od	-10931
▁akadem	-10932
▁obyektlərin	-10933
▁Valyuta	-10934
▁Əbülfəs	-10935
▁əsirgəm	-10936
▁kitabda	-10937
▁sərhədi	-10938
▁yağı	-10939
▁Quliyevin	-10940
▁Cavanşir	-10941
ET	-10942
İr	-10943
▁iddiaları	-10944
ulan	-10945
▁qəzaya	-10946
▁hədəfi	-10947
▁bilməzdi	-10948
▁Ed	-10949
▁üstə	-10950
ıra	-10951
▁akk	-10952
▁saxlayan	-10953
▁biləcəklər	-10954
ahab	-10955
▁halların	-10956
▁Sözügedən	-10957
ommunikasiya	-10958
əcəyəm	-10959
▁Rəhimov	-10960
▁partiyasının	-10961
▁proqramlarının	-10962
▁komandamız	-10963
▁tələbəsi	-10964
▁aktların	-10965
▁Görkəmli	-10966
ruq	-10967
▁ümumtəhsil	-10968
▁Müqavil	-10969
▁dayandırılması	-10970
▁çağırır	-10971
▁ehtiramla	-10972
▁şagirdləri	-10973
hüquqi	-10974
▁təhlili	-10975
▁nazirlik	-10976
▁yetirən	-10977
▁Şair	-10978
▁çıxışları	-10979
oma	-10980
▁təşkilati	-10981
▁etmələri	-10982
▁fərqlənir	-10983
▁doğrusu	-10984
Şuş	-10985
▁müəssisələrin	-10986
▁ağıllı	-10987
▁alç	-10988
stanı	-10989
▁Müşahidə	-10990
mişli	-10991
▁gətirilməsi	-10992
▁oxunuş	-10993
LƏR	-10994
▁Dörd	-10995
▁hesablı	-10996
dirə	-10997
▁xəzin	-10998
diyin	-10999
eninq	-11000
▁idim	-11001
▁Bayden	-11002
▁təlimlər	-11003
▁Flor	-11004
Nov	-11005
▁Bazar	-11006
▁hesablam	-11007
▁istismara	-11008
▁məsələlərinə	-11009
▁restoran	-11010
▁tele	-11011
▁Faiq	-11012
▁işlədiyi	-11013
▁əminəm	-11014
dılıb	-11015
▁heyətinə	-11016
▁ayrılmaz	-11017
mbud	-11018
▁Əzim	-11019
▁kod	-11020
▁onlarda	-11021
▁şeiri	-11022
ublika	-11023
▁aralı	-11024
icat	-11025
▁Bəhr	-11026
▁briqada	-11027
▁işlərlə	-11028
Sən	-11029
▁fabr	-11030
▁tənqidi	-11031
▁böyüm	-11032
Onun	-11033
▁Müslüm	-11034
▁planları	-11035
▁xəsarətləri	-11036
▁nəticələrinin	-11037
▁beləliklə	-11038
▁əmlakın	-11039
▁icar	-11040
agəl	-11041
▁Əvvəllər	-11042
iyəli	-11043
meteor	-11044
▁səhnədə	-11045
▁məqsədlər	-11046
▁bilməmiş	-11047
▁əməkdaşlığ	-11048
▁ölümünə	-11049
old	-11050
▁mütəxəssislərin	-11051
ladan	-11052
▁hazırlaşır	-11053
AY	-11054
▁möc	-11055
▁yerləşdirilməsi	-11056
▁mübarizənin	-11057
▁mükafatına	-11058
▁İnqilab	-11059
▁buraya	-11060
▁edilməyib	-11061
▁keçəcək	-11062
▁Far	-11063
▁dövlətinə	-11064
▁probleminin	-11065
test	-11066
▁şəkər	-11067
▁Sərk	-11068
▁əla	-11069
▁çətinliklər	-11070
▁qatılıb	-11071
▁AZN	-11072
▁Əliyevi	-11073
ləməsi	-11074
▁oluruq	-11075
▁bazarda	-11076
▁həddi	-11077
▁ömrü	-11078
▁alıcı	-11079
▁Departamentinin	-11080
▁ikən	-11081
edes	-11082
▁zəb	-11083
▁qətiyyən	-11084
;"	-11085
▁Hüseynova	-11086
üntü	-11087
▁portret	-11088
osti	-11089
▁So	-11090
▁çəki	-11091
Abdul	-11092
▁Statistika	-11093
▁görmür	-11094
▁mövcudluğu	-11095
▁innovativ	-11096
▁pandemiyası	-11097
çılara	-11098
ümüzə	-11099
malarına	-11100
▁mədəniyyətinə	-11101
▁fəlakət	-11102
çiyə	-11103
▁uzaqlaş	-11104
▁arayış	-11105
▁Geor	-11106
▁planlaşdırır	-11107
Mədən	-11108
▁Pap	-11109
▁Qazaxıstanın	-11110
▁dəqiqəlik	-11111
▁Lis	-11112
axçıvan	-11113
▁qiymətləndirir	-11114
▁Həqiq	-11115
▁bakal	-11116
▁yetkin	-11117
▁hövz	-11118
▁Döyüş	-11119
▁Öndərin	-11120
▁mədə	-11121
▁prosesə	-11122
▁Nigar	-11123
▁hesabla	-11124
masa	-11125
evin	-11126
▁texnikası	-11127
▁mövqelərdən	-11128
▁kosmik	-11129
▁axını	-11130
▁yağın	-11131
▁Pek	-11132
▁doğrudan	-11133
zal	-11134
▁çöl	-11135
▁İsveçr	-11136
▁niyyətindədir	-11137
▁Müğənn	-11138
▁Xəstəxanasına	-11139
▁Yaradıcı	-11140
▁Salman	-11141
üks	-11142
▁görüşləri	-11143
▁qırğın	-11144
▁Mükaf	-11145
▁stansiyası	-11146
▁mətbuatın	-11147
▁başlaması	-11148
▁Teatrı	-11149
▁Sarı	-11150
▁Zahid	-11151
▁mənşəli	-11152
▁xəstəxanada	-11153
▁intizam	-11154
ılmağa	-11155
▁müharibəsindən	-11156
▁havada	-11157
▁etdirəcək	-11158
▁hidro	-11159
▁ailəsində	-11160
rel	-11161
▁Fiz	-11162
▁Saziş	-11163
▁Ana	-11164
mrə	-11165
▁hazırlay	-11166
iyyətindən	-11167
▁Molla	-11168
▁adlarını	-11169
▁qaydasında	-11170
▁nümunəvi	-11171
▁çin	-11172
▁Camal	-11173
▁Yek	-11174
luqda	-11175
ain	-11176
UNESKO	-11177
▁həmrəylik	-11178
▁dev	-11179
▁həkk	-11180
▁üzünü	-11181
▁hör	-11182
▁personaj	-11183
▁Müsahib	-11184
əqədər	-11185
▁həkimlər	-11186
▁mln	-11187
seçkil	-11188
▁cəbhədə	-11189
▁məktəblər	-11190
fonik	-11191
▁Sədri	-11192
gar	-11193
▁şagirdlər	-11194
götür	-11195
▁texnologiya	-11196
▁kanalizasiya	-11197
▁çıl	-11198
▁Politoloq	-11199
▁Axşam	-11200
▁helikopter	-11201
▁mənbə	-11202
▁Memorand	-11203
▁Çal	-11204
asion	-11205
one	-11206
ələm	-11207
▁zorla	-11208
▁Əliyevlə	-11209
▁tarixdən	-11210
ger	-11211
▁Babək	-11212
▁müddətli	-11213
imlə	-11214
▁bağır	-11215
▁Lid	-11216
nu	-11217
▁Mahir	-11218
▁zar	-11219
▁şəraitin	-11220
▁bazarına	-11221
▁vüs	-11222
eyli	-11223
hine	-11224
▁Ön	-11225
▁Musiq	-11226
▁binada	-11227
OY	-11228
▁gücündə	-11229
▁İyulun	-11230
▁idarəçilik	-11231
▁adekvat	-11232
asiyadan	-11233
▁etdiyiniz	-11234
▁dövrə	-11235
TAc	-11236
▁pozulmasına	-11237
Art	-11238
iyevin	-11239
▁ehtiyatlarının	-11240
vanın	-11241
▁Miş	-11242
▁faciə	-11243
▁evlərin	-11244
▁müraciətlər	-11245
▁hərəkətlər	-11246
▁duyur	-11247
▁verənlər	-11248
▁təmizləmə	-11249
▁Radio	-11250
▁dekabrında	-11251
▁Kipr	-11252
▁daşınması	-11253
ümün	-11254
▁Ail	-11255
▁rəf	-11256
▁zorakılıq	-11257
▁rayonuna	-11258
Gürcü	-11259
▁Litva	-11260
▁dialoqun	-11261
▁hərəkatı	-11262
▁Miq	-11263
▁Bos	-11264
▁dedik	-11265
▁savadlı	-11266
▁Sak	-11267
▁vəziyyətini	-11268
▁yavaş	-11269
▁fən	-11270
▁suy	-11271
▁Göyçay	-11272
▁çatdı	-11273
▁mədəniyyətini	-11274
▁hədəfə	-11275
▁Qardaş	-11276
▁Nəb	-11277
ümkün	-11278
Amma	-11279
İslam	-11280
▁Palatasının	-11281
ƏS	-11282
▁plastik	-11283
bert	-11284
▁qəzetin	-11285
▁etmədən	-11286
▁nəyi	-11287
jor	-11288
▁yaraş	-11289
▁getdiyi	-11290
▁Şəhr	-11291
▁yetişdir	-11292
iyazi	-11293
▁Hacıbəyli	-11294
▁müsabiqənin	-11295
▁çağdaş	-11296
▁Rəy	-11297
▁müqaviləsinin	-11298
▁sürür	-11299
▁ödəyic	-11300
▁məntəqələrində	-11301
▁oyununda	-11302
▁proqramına	-11303
▁Super	-11304
▁həddə	-11305
▁məqalələr	-11306
▁Avro	-11307
▁İdarəetmə	-11308
▁Keçən	-11309
▁konstruk	-11310
▁Fer	-11311
▁aparıblar	-11312
▁məşğuldur	-11313
Tel	-11314
▁Filmin	-11315
lərimi	-11316
▁irad	-11317
▁müvəffəqiyyətlə	-11318
▁sarsı	-11319
▁zəbt	-11320
▁unudulmaz	-11321
osuna	-11322
▁qalın	-11323
▁keçə	-11324
▁Zülf	-11325
▁meydanda	-11326
▁Muzeyinin	-11327
▁edam	-11328
▁qurucusu	-11329
▁taksi	-11330
məməlidir	-11331
▁mülahiz	-11332
▁prodüs	-11333
▁Afrik	-11334
▁düşmənə	-11335
xt	-11336
▁Elşən	-11337
erməni	-11338
▁nur	-11339
▁neç	-11340
▁məxsusdur	-11341
▁Bunlardan	-11342
▁vurğulanır	-11343
▁məntəqəsində	-11344
▁bazarı	-11345
▁nümunələr	-11346
▁ideyası	-11347
▁Ağst	-11348
lardakı	-11349
▁Gələcək	-11350
▁götürür	-11351
▁ərazinin	-11352
mıram	-11353
▁qayıdır	-11354
▁keyfiyyətinin	-11355
▁israr	-11356
▁mövqeləri	-11357
▁çalışırdı	-11358
▁mehman	-11359
ərincə	-11360
▁Tanınmış	-11361
eybol	-11362
rəh	-11363
ğına	-11364
▁xərclər	-11365
▁Paşayev	-11366
▁ordunun	-11367
▁Müşfiq	-11368
▁katibinin	-11369
▁açmaq	-11370
▁qiymətə	-11371
▁Məhkəməsinə	-11372
▁stabil	-11373
▁düşündür	-11374
▁bölməsində	-11375
kür	-11376
▁Kommunist	-11377
çəkilən	-11378
▁şəbəkəsinin	-11379
Qərb	-11380
▁kontin	-11381
▁adlanır	-11382
▁proseslərə	-11383
▁masa	-11384
▁optimal	-11385
▁nat	-11386
▁dəstəsi	-11387
▁Danimark	-11388
▁rit	-11389
▁nisbət	-11390
▁Xat	-11391
▁olmamış	-11392
▁Yanvarın	-11393
▁qruplar	-11394
▁dəstəkləyən	-11395
▁Sığorta	-11396
lip	-11397
▁uzat	-11398
laşdırır	-11399
▁Məcəl	-11400
▁Prokurorluğun	-11401
rajlı	-11402
▁rüsum	-11403
▁strategiyası	-11404
▁YUNESKO	-11405
▁qazana	-11406
falt	-11407
▁filmdə	-11408
▁maarifləndirmə	-11409
▁xəstəlikləri	-11410
dirilməsinə	-11411
▁Klin	-11412
▁vurur	-11413
▁əlifb	-11414
▁etməkdədir	-11415
▁birinc	-11416
▁məkanda	-11417
▁əsasları	-11418
▁görüntüləri	-11419
▁cansağlığı	-11420
▁timsal	-11421
▁Ül	-11422
▁şiş	-11423
▁sülhə	-11424
udu	-11425
▁əməliyyatların	-11426
▁Görünür	-11427
▁hazırlanmasında	-11428
▁gücləndirmək	-11429
rəsmi	-11430
▁yaşadığ	-11431
▁namaz	-11432
.“	-11433
kam	-11434
▁Muzeyi	-11435
▁yağmur	-11436
els	-11437
▁üzərindəki	-11438
▁binalar	-11439
▁talan	-11440
▁addımların	-11441
▁qiymətləndirib	-11442
▁buradan	-11443
▁Məmmədli	-11444
▁verdiyimiz	-11445
▁niyyəti	-11446
▁monoqraf	-11447
▁Van	-11448
▁deport	-11449
agəlməz	-11450
▁tərəfinə	-11451
ora	-11452
malara	-11453
▁inamla	-11454
ələrimiz	-11455
▁yüksəkdir	-11456
▁Olimpiada	-11457
▁Hərəkatının	-11458
lasa	-11459
▁Machine	-11460
▁fen	-11461
ifahi	-11462
▁qəpik	-11463
ılacağı	-11464
▁çoxşaxəli	-11465
▁Sadıqov	-11466
▁yanğınsöndür	-11467
▁şəhərləri	-11468
osional	-11469
▁mütəfəkk	-11470
▁yığması	-11471
▁şöhrətli	-11472
▁Vilayət	-11473
▁jurnalistik	-11474
rol	-11475
▁istiqlal	-11476
rit	-11477
mişdilər	-11478
sus	-11479
ətənin	-11480
▁kişinin	-11481
▁olacaqlar	-11482
▁məsləhətləş	-11483
▁sül	-11484
ont	-11485
▁valideynlər	-11486
▁şahzadə	-11487
▁yarandığı	-11488
▁lobb	-11489
▁verdilər	-11490
▁islahatları	-11491
▁günahsız	-11492
▁Əfqanıstanda	-11493
▁paylaşıb	-11494
▁bitirdikdən	-11495
▁Belçika	-11496
▁Bəyanat	-11497
▁nən	-11498
▁növbədənkənar	-11499
ibəy	-11500
▁azalt	-11501
▁yaşamağa	-11502
▁etdirdiyi	-11503
▁mühərrik	-11504
▁oxuc	-11505
▁olunsun	-11506
▁xəstəliyin	-11507
▁eşid	-11508
▁diqqətli	-11509
▁hadisədən	-11510
şt	-11511
▁faciəsi	-11512
▁imzalanan	-11513
▁ayrılması	-11514
omat	-11515
▁başsağlığı	-11516
urnalı	-11517
Manç	-11518
▁Braziliya	-11519
alam	-11520
▁yetərincə	-11521
▁toxunan	-11522
▁sərgil	-11523
▁onsuz	-11524
▁sayına	-11525
işt	-11526
▁söyləmək	-11527
▁ünvanında	-11528
▁incə	-11529
peş	-11530
quluz	-11531
▁verildiyi	-11532
▁bildirərək	-11533
▁diviz	-11534
▁dairə	-11535
▁ara	-11536
ender	-11537
▁dedilər	-11538
emət	-11539
▁türkiyəli	-11540
▁Zeynalov	-11541
▁sualına	-11542
▁həmyer	-11543
▁Bayr	-11544
▁Göygöl	-11545
▁aparacaq	-11546
▁keyfiyyəti	-11547
▁ard	-11548
▁mühazir	-11549
▁köçürülməsi	-11550
▁Elmir	-11551
ayback	-11552
çın	-11553
▁durur	-11554
▁deyiləm	-11555
▁kasıb	-11556
▁zək	-11557
əxsi	-11558
▁dünyəvi	-11559
▁Zirvə	-11560
▁barmaq	-11561
▁Layihənin	-11562
▁maraqlarının	-11563
skaya	-11564
▁müsabiqəsinin	-11565
▁rəsmən	-11566
▁adamlarının	-11567
▁başçılarının	-11568
Belə	-11569
▁İnvest	-11570
əkmə	-11571
▁qox	-11572
▁məzmunun	-11573
▁Biznes	-11574
Mançester	-11575
▁meyar	-11576
▁alındı	-11577
▁güvən	-11578
▁yaradılmasının	-11579
▁Dev	-11580
▁tribun	-11581
lif	-11582
ph	-11583
▁təzahür	-11584
▁valideynləri	-11585
▁ağız	-11586
OS	-11587
▁həddindən	-11588
▁qaldığını	-11589
▁münasibətlərini	-11590
▁vul	-11591
▁vil	-11592
▁Qay	-11593
▁Baku	-11594
▁Arxivləşdirilib	-11595
▁məscidi	-11596
ensi	-11597
▁qəzası	-11598
▁xatırladır	-11599
▁çoxları	-11600
▁ağa	-11601
▁deyərək	-11602
▁mərkəzlərinin	-11603
▁yazıları	-11604
abet	-11605
▁basdır	-11606
▁nişanlı	-11607
▁abunə	-11608
▁Mes	-11609
▁smart	-11610
▁heyətin	-11611
▁çatışmazlığı	-11612
▁etdirməyə	-11613
▁ixtiyar	-11614
▁ixra	-11615
astika	-11616
▁Xüsusən	-11617
▁infrastrukturun	-11618
▁dünyasında	-11619
▁tikintisinə	-11620
▁bilmərəm	-11621
▁Andrey	-11622
▁partiyası	-11623
▁sı	-11624
▁ondadır	-11625
▁Bəstəkar	-11626
▁ləq	-11627
▁sahibkarlar	-11628
rey	-11629
▁edirsiniz	-11630
udə	-11631
▁bildirdilər	-11632
qızı	-11633
▁oynadığı	-11634
İnsan	-11635
▁xətləri	-11636
▁çatacaq	-11637
▁torpaqlarımızı	-11638
▁zərbələr	-11639
▁keçirə	-11640
▁bacı	-11641
▁hüz	-11642
▁yollarla	-11643
▁ilham	-11644
▁qorunmasına	-11645
▁əzəm	-11646
▁tütün	-11647
estri	-11648
▁göndərilir	-11649
▁simp	-11650
▁diyar	-11651
▁dəyişikliklərin	-11652
▁qayıtmaq	-11653
▁tərəflərin	-11654
▁başlandı	-11655
▁yerlərə	-11656
▁norma	-11657
▁Komissiyanın	-11658
▁Razılığa	-11659
▁tariximizin	-11660
▁süz	-11661
bundan	-11662
▁məkanı	-11663
mələrinə	-11664
▁qurbanı	-11665
▁şaxələn	-11666
▁VI	-11667
▁yolların	-11668
amüddətli	-11669
▁Yunus	-11670
▁yerlər	-11671
▁Hamı	-11672
roz	-11673
▁alınmasına	-11674
▁əhəmiyyətindən	-11675
sovet	-11676
▁Liqası	-11677
▁siqnal	-11678
▁Qrupu	-11679
əmizin	-11680
▁məktəblərinin	-11681
▁AzərTAc	-11682
▁qurulmuş	-11683
▁tutmaq	-11684
▁dastan	-11685
larıdır	-11686
▁əsaslanır	-11687
▁sağlamlığı	-11688
▁Güney	-11689
ne	-11690
ləriniz	-11691
Radi	-11692
ümüzün	-11693
aşırı	-11694
▁Amerikada	-11695
▁Aqil	-11696
▁birliyinin	-11697
▁quraşdırılıb	-11698
▁Muğam	-11699
▁verilməsinə	-11700
canlı	-11701
▁əlaməti	-11702
▁düşər	-11703
▁sümük	-11704
▁vurulub	-11705
əfərrü	-11706
▁çəkdi	-11707
▁Mariya	-11708
▁Axundov	-11709
▁yaradılacaq	-11710
yoru	-11711
▁deyərlər	-11712
▁səylərini	-11713
▁törətməkdə	-11714
▁İclasda	-11715
namənin	-11716
▁köməklik	-11717
▁namizədlər	-11718
▁sındır	-11719
İsmayıl	-11720
▁tanıyır	-11721
hücum	-11722
▁Na	-11723
▁mənimlə	-11724
▁yaxınlığındakı	-11725
▁Sərəncamına	-11726
lüyündə	-11727
▁dəlil	-11728
Hac	-11729
▁xoşagəlməz	-11730
▁məsafədə	-11731
Pİ	-11732
▁quyu	-11733
▁Göründüyü	-11734
▁sərhədində	-11735
▁verin	-11736
▁idmanın	-11737
▁mövsümün	-11738
▁düzən	-11739
urovision	-11740
▁ayaqq	-11741
▁vaxtından	-11742
▁şöbəsində	-11743
ınızı	-11744
▁yoldan	-11745
▁tətbiqinə	-11746
ƏB	-11747
▁iradəsi	-11748
▁faizdən	-11749
▁vəzifələrini	-11750
mələrini	-11751
▁razılaşma	-11752
yik	-11753
▁səlahiyyətləri	-11754
üfəng	-11755
▁izləmək	-11756
üdo	-11757
▁Apellyasiya	-11758
▁qrant	-11759
sənin	-11760
▁dəm	-11761
▁arvadı	-11762
▁məqsədəuyğun	-11763
▁İmişli	-11764
▁anlaşma	-11765
▁KT	-11766
▁Vergilər	-11767
▁Corc	-11768
▁lək	-11769
▁bəst	-11770
▁altındadır	-11771
▁profilaktik	-11772
▁mövsümündə	-11773
▁Stans	-11774
▁Sonralar	-11775
alvar	-11776
▁vol	-11777
▁manda	-11778
▁inşaat	-11779
▁Səfərov	-11780
▁fotoşəkil	-11781
▁abz	-11782
▁hamımız	-11783
Tər	-11784
AzAZƏRTAC	-11785
ats	-11786
▁turunda	-11787
aqnost	-11788
▁nəzarətində	-11789
▁Humanitar	-11790
▁etdiyinə	-11791
salma	-11792
▁fürsət	-11793
Kitab	-11794
▁həddən	-11795
▁üzvüdür	-11796
▁kifayətlən	-11797
▁çevriliş	-11798
▁xidmətlərindən	-11799
ğunluq	-11800
▁benz	-11801
aqa	-11802
ılmamış	-11803
▁sığınacaq	-11804
▁Kil	-11805
▁sərgidə	-11806
iyində	-11807
▁tutulması	-11808
ilərdə	-11809
ınıza	-11810
▁Yenə	-11811
ota	-11812
▁qiymətləndirmə	-11813
▁İns	-11814
▁verdim	-11815
▁beşinci	-11816
▁ifaçısı	-11817
▁önəmlidir	-11818
▁səviyyəsindən	-11819
▁vurdu	-11820
mey	-11821
▁Yanğın	-11822
▁münasibətini	-11823
▁satışa	-11824
▁bazasında	-11825
▁Tədbirin	-11826
▁olmamalıdır	-11827
▁yazıçının	-11828
▁strategiyasının	-11829
▁Asif	-11830
larındakı	-11831
▁per	-11832
▁epizod	-11833
▁Kamil	-11834
▁günahkar	-11835
▁qu	-11836
lant	-11837
Prezident	-11838
eviç	-11839
▁tədqiqatçı	-11840
▁göstərməsi	-11841
▁spirt	-11842
▁keçirildiyini	-11843
▁işlərində	-11844
▁mahnıs	-11845
▁Səs	-11846
▁Kremlin	-11847
▁tanıt	-11848
▁itki	-11849
▁gəlirləri	-11850
▁Üçüncü	-11851
Aİ	-11852
▁formasını	-11853
▁Dar	-11854
onimləri	-11855
▁hakimiyyətdə	-11856
▁dayanıb	-11857
▁SİA	-11858
xüsus	-11859
▁cəhdi	-11860
▁kənarlaşdır	-11861
▁ukraynalı	-11862
▁pred	-11863
▁böhranı	-11864
▁üzüm	-11865
Qızıl	-11866
▁dəhlizinin	-11867
DN	-11868
ağıl	-11869
ektron	-11870
▁Xoş	-11871
▁bişir	-11872
▁Diaspor	-11873
▁sen	-11874
▁altındakı	-11875
tonun	-11876
▁big	-11877
▁qaydalarının	-11878
▁qaldırıb	-11879
▁məhkəməsi	-11880
▁iyirmi	-11881
▁Niderland	-11882
▁Emil	-11883
▁proqramında	-11884
▁Fəxr	-11885
mırdı	-11886
▁peyk	-11887
▁mahnısı	-11888
liq	-11889
ininin	-11890
▁geridə	-11891
liyindəki	-11892
▁asfalt	-11893
həm	-11894
▁çeşid	-11895
▁Qobustan	-11896
▁matçda	-11897
▁super	-11898
▁Strateji	-11899
▁bildiriş	-11900
urum	-11901
▁bədbəxt	-11902
çulu	-11903
Əv	-11904
▁təxirəsalınmaz	-11905
▁medianın	-11906
▁toxunulmaz	-11907
▁şim	-11908
▁Ac	-11909
ınca	-11910
ləyərək	-11911
▁qadınlara	-11912
▁Eləcə	-11913
▁sonunadək	-11914
▁Qanuna	-11915
▁erməniləri	-11916
elosip	-11917
▁dövrünü	-11918
▁üf	-11919
▁lirik	-11920
uan	-11921
▁Sabah	-11922
▁Qısa	-11923
ulur	-11924
▁oyuna	-11925
ink	-11926
▁Polad	-11927
▁tapmışdır	-11928
▁timsalında	-11929
▁Prezidentimiz	-11930
▁təfərrü	-11931
▁başlayıblar	-11932
▁dəyişikliyi	-11933
▁Qusar	-11934
▁yam	-11935
▁imkanlarından	-11936
▁qrupunda	-11937
▁çalar	-11938
▁infrastrukturu	-11939
▁məktəbləri	-11940
▁adlandırılan	-11941
▁İndon	-11942
çılığın	-11943
kat	-11944
qum	-11945
▁Aprel	-11946
▁filmində	-11947
▁qarşıdurma	-11948
▁quruluşçu	-11949
mırlar	-11950
▁cərrah	-11951
▁gəlmişdir	-11952
▁Elektrik	-11953
▁çatdıran	-11954
▁zonasında	-11955
▁cəhdləri	-11956
▁alətləri	-11957
▁xoşbəxtlik	-11958
▁göstərərək	-11959
▁predmet	-11960
▁pap	-11961
▁sədrlik	-11962
Əmək	-11963
▁aktları	-11964
▁Qanunu	-11965
alıyıq	-11966
▁pozan	-11967
▁dəstəklə	-11968
▁Vit	-11969
▁məzmunu	-11970
▁viza	-11971
▁banisi	-11972
▁azald	-11973
▁Beş	-11974
▁mediada	-11975
▁fərd	-11976
▁İdarəsində	-11977
Kom	-11978
har	-11979
▁Vəli	-11980
▁atmosfer	-11981
▁kəndinə	-11982
▁yanıb	-11983
▁Müraci	-11984
▁komitə	-11985
▁payına	-11986
▁Siyas	-11987
▁köklü	-11988
▁danışıqlara	-11989
▁ədalətsiz	-11990
xoz	-11991
▁olma	-11992
qı	-11993
ədiyi	-11994
▁ayağa	-11995
▁komiss	-11996
▁düşünülmüş	-11997
▁namizədliyini	-11998
ect	-11999
Həm	-12000
▁imic	-12001
▁dəqiqədə	-12002
▁tapan	-12003
▁sazişi	-12004
▁planet	-12005
▁jurnalı	-12006
▁Ağsu	-12007
▁istehsalçı	-12008
▁Məmmədyarov	-12009
▁toplayıb	-12010
▁sorğ	-12011
uly	-12012
▁olunmayıb	-12013
adze	-12014
ASS	-12015
ella	-12016
larımı	-12017
▁suvarma	-12018
▁əsərinin	-12019
▁utan	-12020
▁Cari	-12021
▁lisenziya	-12022
▁Məcid	-12023
▁Araşdırma	-12024
▁Proqramının	-12025
rüb	-12026
▁hamının	-12027
▁Yaponiyanın	-12028
▁sfer	-12029
▁göndərdiyi	-12030
▁məsafə	-12031
▁üstündən	-12032
▁oyan	-12033
▁Əksinə	-12034
▁vətənə	-12035
▁tikilən	-12036
▁sahəsindəki	-12037
▁Konf	-12038
▁Rüstəmov	-12039
ly	-12040
▁boyn	-12041
kəsən	-12042
▁rektor	-12043
XI	-12044
▁yapon	-12045
buk	-12046
girdi	-12047
kərdə	-12048
▁konstruktiv	-12049
▁qarışdır	-12050
▁baxanda	-12051
▁Koronavirus	-12052
▁kafe	-12053
▁axının	-12054
Mər	-12055
▁yağacağı	-12056
sixoloji	-12057
▁hadisədir	-12058
▁Sk	-12059
ity	-12060
▁qabiliyyət	-12061
▁formatda	-12062
larımızdan	-12063
▁müf	-12064
▁Obama	-12065
▁qoyun	-12066
çə	-12067
amiz	-12068
ləyirlər	-12069
▁Müəyyən	-12070
əzz	-12071
▁vurduğu	-12072
▁bacarığı	-12073
▁Facebook	-12074
▁Şəhidlər	-12075
▁Kateqor	-12076
▁miqyaslı	-12077
NA	-12078
günə	-12079
▁suallarını	-12080
▁meyiti	-12081
▁Kolleg	-12082
▁başqalarının	-12083
▁şahmat	-12084
▁Güm	-12085
▁diqqətin	-12086
▁nəticəyə	-12087
▁yekunlaş	-12088
▁soyqırımının	-12089
▁Ziy	-12090
▁Aygün	-12091
əkkül	-12092
▁qolu	-12093
▁Konservator	-12094
allah	-12095
▁ustası	-12096
isiniz	-12097
▁fotos	-12098
▁sərhəddə	-12099
▁qanad	-12100
▁hay	-12101
▁torpaqlarda	-12102
▁Avqustun	-12103
▁ədəbiyyatın	-12104
İş	-12105
▁tanıyan	-12106
▁Fələstin	-12107
▁şagirdi	-12108
▁içəri	-12109
▁Həzrət	-12110
▁romanı	-12111
▁zirehli	-12112
▁kompozis	-12113
cel	-12114
▁əlini	-12115
▁Məras	-12116
ləndirilib	-12117
▁icrasını	-12118
▁tarixən	-12119
▁bölgəsinin	-12120
naməsinin	-12121
cuq	-12122
▁Elvin	-12123
iqlal	-12124
▁Gürcüstana	-12125
usa	-12126
▁kursu	-12127
▁aviasiya	-12128
▁Vida	-12129
▁TÜR	-12130
▁vətəndaşlıq	-12131
▁lif	-12132
▁yeniyetmə	-12133
orf	-12134
▁hazırlayır	-12135
▁Tez	-12136
mədilər	-12137
▁vəhşilik	-12138
▁agentliyinə	-12139
umuzu	-12140
▁pedaqoq	-12141
▁öldürülüb	-12142
▁Rəyasət	-12143
▁anlayışı	-12144
▁Du	-12145
▁taxta	-12146
▁Aleksey	-12147
▁deyəndə	-12148
▁Bunların	-12149
▁sahibkarların	-12150
▁istəyənlər	-12151
▁Neftç	-12152
▁parlamentdə	-12153
▁Ağam	-12154
ress	-12155
▁sız	-12156
▁atılıb	-12157
▁Korrup	-12158
▁xaricə	-12159
umuza	-12160
▁arası	-12161
▁sualları	-12162
▁uğurlara	-12163
▁etmişdilər	-12164
bank	-12165
lüyünə	-12166
▁Şuşaya	-12167
▁Səhər	-12168
▁vurğulayır	-12169
▁süqut	-12170
elli	-12171
▁Div	-12172
▁kvadratmetr	-12173
▁Ker	-12174
▁Eht	-12175
▁qalası	-12176
▁İrəvanda	-12177
▁Nəzərə	-12178
▁naxış	-12179
▁qəh	-12180
▁xəbərsiz	-12181
▁Müəssis	-12182
▁Xuda	-12183
əkimi	-12184
▁uğram	-12185
▁VII	-12186
▁Enerji	-12187
▁rejimini	-12188
▁çiyin	-12189
▁müəyyənləş	-12190
▁plenar	-12191
▁danışığı	-12192
▁təşkilinə	-12193
▁minnətdarlığ	-12194
▁Çində	-12195
▁dözüm	-12196
madağın	-12197
▁əfv	-12198
▁şəxslərlə	-12199
▁sürətləndir	-12200
ərgiz	-12201
▁təyinatı	-12202
eta	-12203
ikinti	-12204
▁alma	-12205
▁çalışdığı	-12206
▁Ələkbərov	-12207
Dədə	-12208
əzən	-12209
▁Zav	-12210
▁rastlaş	-12211
▁toxunub	-12212
▁yanaşır	-12213
▁konser	-12214
▁yönəlt	-12215
▁Eyvaz	-12216
idan	-12217
▁Of	-12218
▁günədək	-12219
müşdü	-12220
▁yaşanan	-12221
▁kanalı	-12222
▁Muradov	-12223
ləşdirilməsinə	-12224
▁teatrı	-12225
▁dəri	-12226
əvinin	-12227
lülük	-12228
CAN	-12229
▁qaçıb	-12230
▁standartlarına	-12231
▁abidələrin	-12232
▁insanlarda	-12233
▁məğlubiyyət	-12234
▁Sağlam	-12235
aza	-12236
▁Ağdaş	-12237
▁hissənin	-12238
▁suala	-12239
Ukrayna	-12240
▁sektorun	-12241
orun	-12242
▁gücünə	-12243
▁Qış	-12244
▁evlərinə	-12245
▁bölməsi	-12246
▁qazanc	-12247
▁sübuta	-12248
Di	-12249
▁iştirakçılar	-12250
dərə	-12251
▁İraqın	-12252
▁cəsəd	-12253
▁Qurult	-12254
▁ezam	-12255
▁həcmdə	-12256
▁yolver	-12257
▁qazanır	-12258
qab	-12259
udi	-12260
▁Ənvər	-12261
▁istehsalının	-12262
▁Qab	-12263
▁təhrif	-12264
▁səhm	-12265
▁ixracı	-12266
▁yolundan	-12267
▁xəttinə	-12268
▁məhkəmədə	-12269
▁verilməlidir	-12270
▁varmı	-12271
▁məqalədə	-12272
▁qərarları	-12273
▁David	-12274
ladıqları	-12275
▁kiminsə	-12276
maqdır	-12277
▁artacaq	-12278
▁xərclərinin	-12279
▁alırlar	-12280
▁Mərkəzinə	-12281
▁Əmlak	-12282
tac	-12283
▁dəstəklənməsi	-12284
▁getməyə	-12285
mus	-12286
▁yağmursuz	-12287
▁təminatının	-12288
daraq	-12289
ubad	-12290
▁hücumçu	-12291
alma	-12292
▁məşğulluq	-12293
Xocalı	-12294
▁çirkin	-12295
▁darmadağın	-12296
▁Aralıq	-12297
▁Köç	-12298
▁suverenliyi	-12299
▁ədəbiyyatında	-12300
▁oktyabrında	-12301
Tİ	-12302
▁istehsalat	-12303
▁vida	-12304
▁problemlərini	-12305
▁fiqur	-12306
uba	-12307
Sev	-12308
ləndi	-12309
lic	-12310
▁kadrlar	-12311
▁missiyası	-12312
▁müddətdən	-12313
▁dollarlıq	-12314
layim	-12315
▁dəstəyə	-12316
▁ucald	-12317
▁nömrə	-12318
▁Qiymət	-12319
▁çıxardı	-12320
▁Çexiya	-12321
▁Şirkətinin	-12322
▁Qədir	-12323
▁Mədəni	-12324
▁oyunlar	-12325
▁did	-12326
▁repert	-12327
▁ortalarında	-12328
▁qəfil	-12329
▁şifahi	-12330
▁Bildirib	-12331
▁Yerev	-12332
ıza	-12333
▁gəlişi	-12334
▁Elç	-12335
▁quruluşu	-12336
▁çiy	-12337
▁avrop	-12338
rix	-12339
▁tərəfləri	-12340
▁Bölg	-12341
ortaj	-12342
bədii	-12343
▁gedirdi	-12344
▁sürdüyü	-12345
▁Turan	-12346
▁sınaqdan	-12347
▁Tat	-12348
▁yardımın	-12349
▁mümkünsüz	-12350
▁konflik	-12351
▁vurğulamaq	-12352
▁Bütöv	-12353
▁ağr	-12354
▁Kateqoriya	-12355
▁mətbuatına	-12356
▁boks	-12357
▁anasının	-12358
aşə	-12359
▁futbolçular	-12360
▁edilməli	-12361
▁rubl	-12362
▁işlənib	-12363
▁tərəfdə	-12364
▁bürosunun	-12365
▁Nəsib	-12366
▁qərarların	-12367
▁Qəzet	-12368
▁əyalət	-12369
▁sənətkarın	-12370
aric	-12371
▁gənclik	-12372
▁fəth	-12373
▁müddətinin	-12374
▁layihəsinə	-12375
kimilər	-12376
▁eləmək	-12377
▁düşdüyü	-12378
edia	-12379
▁neyt	-12380
▁keçəcəyi	-12381
▁sx	-12382
Axund	-12383
▁nüfuzu	-12384
▁Şabr	-12385
▁Hacıq	-12386
ormula	-12387
▁dollardan	-12388
OB	-12389
▁Mo	-12390
verdi	-12391
▁AS	-12392
▁maye	-12393
▁pozitiv	-12394
▁dəyişməsi	-12395
▁etməyəcək	-12396
▁abidələr	-12397
▁tərəvəz	-12398
▁İndiki	-12399
BAY	-12400
▁törədil	-12401
▁səhnəsində	-12402
dal	-12403
inski	-12404
▁baha	-12405
▁mühasib	-12406
lanmasına	-12407
Facebook	-12408
▁görüşdən	-12409
▁Dəstəyi	-12410
▁cis	-12411
▁şəhərlərdə	-12412
▁tutması	-12413
▁gedəndə	-12414
▁Çay	-12415
▁nazirlərinin	-12416
▁maqn	-12417
▁yarana	-12418
▁hərbçiləri	-12419
▁sintez	-12420
▁aldığını	-12421
▁köməy	-12422
▁bazarının	-12423
▁Se	-12424
armon	-12425
oloqlar	-12426
▁Sil	-12427
▁Lerik	-12428
▁qanunları	-12429
▁kövr	-12430
▁diləy	-12431
▁qonaqları	-12432
ulub	-12433
zi	-12434
▁sülal	-12435
▁həmvətən	-12436
ets	-12437
avt	-12438
ate	-12439
ydı	-12440
▁yeniləş	-12441
▁silahı	-12442
▁görünt	-12443
▁düşməni	-12444
orb	-12445
▁Qoru	-12446
▁olimpiada	-12447
ləqan	-12448
▁Tamaş	-12449
▁süfr	-12450
ağım	-12451
▁düzəliş	-12452
▁festivalı	-12453
▁tüfəng	-12454
▁keçiriblər	-12455
▁torpağın	-12456
▁gözdən	-12457
▁qəlbində	-12458
▁yaradılmasını	-12459
▁əsaslan	-12460
▁Meydan	-12461
▁dikt	-12462
qon	-12463
▁ölçülü	-12464
▁donan	-12465
▁Şəxs	-12466
▁Mer	-12467
luğundan	-12468
▁Boris	-12469
▁emosional	-12470
Naxçıvan	-12471
irli	-12472
▁Bas	-12473
▁Tən	-12474
▁kas	-12475
▁cinayətlər	-12476
▁Hor	-12477
▁ordumuzun	-12478
▁ərazini	-12479
▁Salah	-12480
▁yarpaq	-12481
▁əvvəlindən	-12482
▁etmirəm	-12483
İndi	-12484
▁ofis	-12485
▁Operativ	-12486
xoş	-12487
çiliyin	-12488
▁şübhələr	-12489
▁göndərilməsi	-12490
▁vermə	-12491
▁tərbiyəsi	-12492
ins	-12493
▁kontingent	-12494
▁aparılmasına	-12495
▁Sax	-12496
▁Qadınlar	-12497
▁komissiyanın	-12498
ome	-12499
▁ispan	-12500
▁heyvanlar	-12501
▁qızlar	-12502
▁haqlarının	-12503
▁vətəndaşlığı	-12504
co	-12505
▁Muğ	-12506
təs	-12507
BAYCAN	-12508
▁XVIII	-12509
▁Bilirsiniz	-12510
Dağlıq	-12511
▁Fəaliyyət	-12512
▁əri	-12513
▁olmaqdan	-12514
▁həkimi	-12515
uta	-12516
▁qabiliyyətinin	-12517
▁türkdilli	-12518
▁qoyuldu	-12519
▁gözlənilməz	-12520
▁döyüşlər	-12521
▁sevdiyi	-12522
ovest	-12523
▁bilmərik	-12524
▁yumurt	-12525
▁studiy	-12526
▁ştatının	-12527
▁amili	-12528
Bütün	-12529
▁Hüquqi	-12530
▁ayrılır	-12531
▁şi	-12532
▁qalmışdı	-12533
In	-12534
▁istərdik	-12535
▁dərslik	-12536
HP	-12537
▁görmə	-12538
▁salınmış	-12539
▁mənimsən	-12540
▁apellyasiya	-12541
▁Ox	-12542
▁reys	-12543
undakı	-12544
Çünki	-12545
▁vəsat	-12546
▁formalaşmasına	-12547
ruhiyy	-12548
aşov	-12549
▁yolverilməz	-12550
ilərkən	-12551
▁təbiəti	-12552
düş	-12553
▁Parlamentinin	-12554
▁Polisi	-12555
▁sərvəti	-12556
▁resursları	-12557
▁büruzə	-12558
▁İngiltərənin	-12559
▁odlu	-12560
▁xəstəliklərin	-12561
▁dava	-12562
▁işğalından	-12563
▁ştatında	-12564
▁şərab	-12565
▁dövlətimiz	-12566
▁əhəmiyyətlidir	-12567
▁Maked	-12568
oper	-12569
▁Pet	-12570
▁öyrət	-12571
neçə	-12572
▁qatılan	-12573
▁Mahmudov	-12574
▁tədbirə	-12575
ızda	-12576
ƏRBAYCAN	-12577
▁vasitələrdən	-12578
pen	-12579
▁çatdırır	-12580
▁Tələbə	-12581
▁qazı	-12582
▁qanunu	-12583
▁nöqteyi	-12584
▁eşidən	-12585
▁təmizlənməsi	-12586
tarlıq	-12587
▁olduqdan	-12588
▁buyurur	-12589
▁MK	-12590
▁Abdullah	-12591
▁Novruzov	-12592
▁söyləyən	-12593
▁görüşlərdə	-12594
▁sars	-12595
▁törətdikləri	-12596
...""	-12597
▁Dum	-12598
▁məsələsinin	-12599
▁Onlara	-12600
▁buraxılması	-12601
antı	-12602
▁işgənc	-12603
elyasiya	-12604
▁təməli	-12605
▁əsərlərindən	-12606
▁ixtisaslı	-12607
▁manatı	-12608
▁poeziya	-12609
iterror	-12610
ano	-12611
▁əsgərləri	-12612
▁tic	-12613
▁Paşayeva	-12614
▁çatdıqdan	-12615
▁hadisələrdən	-12616
▁Sahil	-12617
ER	-12618
▁bilmirik	-12619
ford	-12620
▁Latviya	-12621
▁siyasətə	-12622
▁həqiqətləri	-12623
▁konqres	-12624
▁layihəyə	-12625
▁Konsert	-12626
▁kəndindən	-12627
▁qanı	-12628
▁bəşəri	-12629
▁nəsillərə	-12630
▁Eyn	-12631
▁istiqamətlər	-12632
▁izləyic	-12633
lüklə	-12634
iyinə	-12635
▁nəsr	-12636
▁mahiyyət	-12637
▁Avstraliya	-12638
▁bioloji	-12639
İc	-12640
▁bilmədiyi	-12641
▁uşaqlıq	-12642
▁narazılıq	-12643
▁İrəvanın	-12644
▁səfərləri	-12645
▁aparmağa	-12646
akeş	-12647
▁MTN	-12648
▁kriminal	-12649
AQ	-12650
▁Sərdar	-12651
▁kompensasiya	-12652
ilərindən	-12653
Bank	-12654
▁dolan	-12655
▁vokal	-12656
▁məqamı	-12657
sid	-12658
▁kənarında	-12659
▁qaydalar	-12660
rəng	-12661
▁maneə	-12662
▁əlaqədə	-12663
▁yaşayırlar	-12664
▁müsabiqədə	-12665
▁Əmr	-12666
hy	-12667
oğrul	-12668
▁reabilit	-12669
▁dib	-12670
▁qurur	-12671
▁Ağstafa	-12672
▁Tehsil	-12673
▁gedərək	-12674
ilki	-12675
▁etməsindən	-12676
müəyyən	-12677
▁mənzərə	-12678
▁əhalini	-12679
▁rəyi	-12680
malarını	-12681
▁atmaq	-12682
▁İrandan	-12683
▁kəmərinin	-12684
▁Den	-12685
▁hüququnu	-12686
▁rif	-12687
▁üzündə	-12688
▁öldürmə	-12689
▁investor	-12690
▁seh	-12691
ira	-12692
▁orkestr	-12693
▁humanist	-12694
▁içki	-12695
Bur	-12696
▁başlamışdı	-12697
▁ştat	-12698
iyyatı	-12699
▁İşçi	-12700
Lakin	-12701
▁Ger	-12702
▁Portuqaliya	-12703
▁alimi	-12704
▁Süleymanov	-12705
▁ruhunda	-12706
▁avtomatik	-12707
eksual	-12708
▁Məni	-12709
▁aeroport	-12710
▁olmasaydı	-12711
▁başlanması	-12712
▁Ukraynadakı	-12713
niya	-12714
landı	-12715
Eurovision	-12716
▁namizədlərin	-12717
▁münasibətlərə	-12718
▁miqrasiya	-12719
küy	-12720
▁Pərviz	-12721
▁tədqiqi	-12722
▁çempionatı	-12723
lakı	-12724
▁əqidə	-12725
▁qaçılmaz	-12726
olist	-12727
▁göndərir	-12728
▁Ye	-12729
▁qiymətlər	-12730
off	-12731
▁qabarıq	-12732
▁piy	-12733
▁təşkilatlarda	-12734
▁getmir	-12735
▁Kəşfiyyat	-12736
▁müştəri	-12737
▁qurğ	-12738
▁hüquqşünas	-12739
erbai	-12740
▁rejiminə	-12741
▁Zelenski	-12742
▁təqvim	-12743
▁oğlunu	-12744
▁müdafiəsinin	-12745
mayor	-12746
▁Gözəl	-12747
▁noyabrında	-12748
Sab	-12749
▁bağlam	-12750
▁azaltmaq	-12751
▁portal	-12752
ıncaq	-12753
atra	-12754
▁Şəhriyar	-12755
əcik	-12756
▁faşist	-12757
lərinizi	-12758
▁Müğənni	-12759
▁ocağı	-12760
▁hüquqa	-12761
▁Londonda	-12762
aliforn	-12763
usundan	-12764
▁balet	-12765
▁Nağıyev	-12766
▁iclasının	-12767
rtəsi	-12768
▁sessiyasında	-12769
▁mənbələri	-12770
▁vir	-12771
▁Bələdiyyənin	-12772
▁əldən	-12773
▁qalxıb	-12774
▁sanb	-12775
Hacıyev	-12776
▁müəssisənin	-12777
do	-12778
▁üstəl	-12779
▁alimin	-12780
▁eni	-12781
▁fərqlənən	-12782
▁bunlardan	-12783
▁sirr	-12784
ept	-12785
ünd	-12786
▁azərbaycanlının	-12787
▁cinayəti	-12788
▁möhtərəm	-12789
▁ta	-12790
uzd	-12791
▁bağlayıb	-12792
▁olunmaq	-12793
▁başlanğıcı	-12794
▁çalışmışdır	-12795
▁edilməsindən	-12796
mamışdı	-12797
▁hara	-12798
▁manatlıq	-12799
▁görməyə	-12800
▁təklifləri	-12801
▁Cəmiyyətin	-12802
▁tun	-12803
▁jurnalistika	-12804
▁turistlər	-12805
▁kölg	-12806
▁doğulub	-12807
▁sərkərdə	-12808
ker	-12809
▁müqavilənin	-12810
▁şəxsiyyətin	-12811
acam	-12812
zil	-12813
▁bib	-12814
▁imtahanı	-12815
▁suya	-12816
▁Məcəlləsinə	-12817
▁sövq	-12818
▁arzulayıb	-12819
▁Dağıstan	-12820
▁idx	-12821
▁xələl	-12822
▁ansambl	-12823
COVID	-12824
▁Komandanın	-12825
▁izləyir	-12826
▁didərgin	-12827
▁Post	-12828
oman	-12829
üklü	-12830
▁Şirkəti	-12831
▁Qənirə	-12832
▁qalmayıb	-12833
▁qrip	-12834
▁Naxçıvanın	-12835
▁bəyanatlar	-12836
▁sevir	-12837
Abdullayev	-12838
▁türb	-12839
▁xəbərləri	-12840
▁üstəlik	-12841
▁ideyaları	-12842
▁sertifikat	-12843
▁bəyanatda	-12844
qin	-12845
▁mahnıları	-12846
▁assosi	-12847
▁qızının	-12848
▁Büny	-12849
▁Birgə	-12850
▁Onda	-12851
▁vurmaq	-12852
▁sentyabrında	-12853
▁mərd	-12854
▁Birincisi	-12855
▁çax	-12856
▁etsək	-12857
▁mərkəzin	-12858
▁sahələrinə	-12859
..."	-12860
Həmin	-12861
ernational	-12862
▁əsn	-12863
▁əhv	-12864
▁gələcəyini	-12865
▁almışdı	-12866
▁AK	-12867
ınacaq	-12868
elosiped	-12869
▁fizika	-12870
▁Şəhərin	-12871
▁əyləncə	-12872
▁hündürlüyü	-12873
▁siyahısında	-12874
▁növlərinin	-12875
▁əsrə	-12876
▁xəritəsi	-12877
▁alimlərin	-12878
əyiniz	-12879
eqal	-12880
▁Eh	-12881
dınız	-12882
▁sərhədlərin	-12883
▁bölgəsi	-12884
▁elit	-12885
▁sayıla	-12886
Rəs	-12887
▁liberal	-12888
▁olunmaqla	-12889
əliyə	-12890
▁Sadiq	-12891
▁Kredit	-12892
orit	-12893
qument	-12894
▁bölüşüb	-12895
▁hüququnun	-12896
▁müəssisəsində	-12897
hum	-12898
▁yeniliklər	-12899
Tal	-12900
buri	-12901
▁yarp	-12902
▁zəmanət	-12903
▁aqressiv	-12904
▁təkid	-12905
▁Səid	-12906
▁şansı	-12907
iqam	-12908
▁nazirləri	-12909
▁vurğulamışdır	-12910
▁yüksəliş	-12911
Yaş	-12912
▁düşmək	-12913
▁vaxtaşırı	-12914
dırıcı	-12915
▁mühitə	-12916
▁Miqrasiya	-12917
tirak	-12918
▁saxlamağa	-12919
▁sahələrin	-12920
umi	-12921
▁dəyişmək	-12922
▁opera	-12923
ecər	-12924
lararası	-12925
şəhər	-12926
▁daima	-12927
▁Bildiyiniz	-12928
▁tələbələrə	-12929
alus	-12930
▁çağırışlar	-12931
▁Əvəz	-12932
▁Bədə	-12933
▁danışıqlarda	-12934
əmlək	-12935
▁Baxmayaraq	-12936
▁yerinin	-12937
▁tanışlıq	-12938
▁ruhunu	-12939
▁xatırladan	-12940
▁apardı	-12941
▁Xorvatiya	-12942
▁hesabatı	-12943
▁sex	-12944
▁oyundan	-12945
▁müəllifidir	-12946
▁aşıl	-12947
▁itirmiş	-12948
▁potensialını	-12949
▁yumşaq	-12950
▁ilinin	-12951
▁istəmirəm	-12952
vəz	-12953
▁klubunda	-12954
▁keçirirlər	-12955
siklopediy	-12956
▁ərazidən	-12957
▁edildikdə	-12958
▁romantik	-12959
▁məqaləsində	-12960
hen	-12961
▁Sonuncu	-12962
▁yenicə	-12963
▁götürdüyü	-12964
▁vəzifələrə	-12965
▁fəaliyyətlə	-12966
▁göstərişi	-12967
▁münsif	-12968
▁xəstəliklər	-12969
ronom	-12970
▁Say	-12971
▁apara	-12972
▁simvol	-12973
▁məzmunda	-12974
Uşaq	-12975
▁Tədris	-12976
▁laq	-12977
▁bölgəyə	-12978
▁Çar	-12979
▁Sistem	-12980
▁böyü	-12981
▁şeyə	-12982
▁dəyib	-12983
▁sualı	-12984
▁obrazını	-12985
▁etməz	-12986
məmişdir	-12987
▁parad	-12988
▁torpaqlarında	-12989
▁kontekstində	-12990
▁makro	-12991
▁İstehsalat	-12992
ılmaqla	-12993
▁dayandırılıb	-12994
RO	-12995
əydi	-12996
▁Ant	-12997
▁mövzular	-12998
▁İçərişəhər	-12999
▁zərurət	-13000
▁Allahverdiyev	-13001
▁davamçısı	-13002
▁yönələn	-13003
▁görürəm	-13004
▁borcunu	-13005
▁Opera	-13006
▁le	-13007
eyhan	-13008
▁kitabların	-13009
Gör	-13010
▁götürmək	-13011
▁İnanıram	-13012
▁Avi	-13013
▁qoyulur	-13014
▁ailədə	-13015
▁KTMT	-13016
▁ölkəmizdəki	-13017
▁vüsət	-13018
▁konven	-13019
▁məzmunlu	-13020
▁Lavrov	-13021
▁mexanizmi	-13022
▁bilməsi	-13023
▁Açı	-13024
▁səfərlər	-13025
▁suallara	-13026
▁rolunun	-13027
▁aprelində	-13028
▁şimalında	-13029
▁Gəm	-13030
landiyanın	-13031
▁yubileyinə	-13032
▁Adət	-13033
▁görkəm	-13034
▁zamanında	-13035
▁yarışlarda	-13036
▁verər	-13037
▁Beyləqan	-13038
▁əsaslanaraq	-13039
▁Həsənovun	-13040
ercell	-13041
no	-13042
▁irəliləy	-13043
ercedes	-13044
▁yayılmasının	-13045
▁Vaxtilə	-13046
▁zərif	-13047
▁qane	-13048
▁kommunik	-13049
▁Bildiril	-13050
▁Tacikistan	-13051
▁Komiss	-13052
▁Xanım	-13053
▁keçdikcə	-13054
▁övladlarının	-13055
▁Hers	-13056
▁taleyini	-13057
▁Med	-13058
▁Əsər	-13059
▁haqsız	-13060
▁dır	-13061
▁Müstəqillik	-13062
▁cümə	-13063
▁şəhidlərimizin	-13064
▁qr	-13065
▁kommunal	-13066
lərimizdən	-13067
▁Pav	-13068
▁şeyin	-13069
▁Akademiyasında	-13070
▁Vurğun	-13071
▁namizədliyi	-13072
quruculuq	-13073
▁oxumuş	-13074
▁enerjisinin	-13075
▁qurbanlarının	-13076
▁gedəc	-13077
▁həmiş	-13078
▁pir	-13079
▁limanında	-13080
▁qrupların	-13081
ld	-13082
lanacaq	-13083
▁işıqlı	-13084
dol	-13085
▁kamera	-13086
▁vətəndaşının	-13087
▁imperiyasının	-13088
aşirk	-13089
şamı	-13090
▁Krist	-13091
▁vadar	-13092
▁illə	-13093
yət	-13094
▁sayır	-13095
▁diaqnozu	-13096
▁etdirərək	-13097
▁sabitliyi	-13098
▁Dəyiş	-13099
▁kirayə	-13100
ragalus	-13101
məşq	-13102
▁Bizə	-13103
▁qaçaq	-13104
▁AŞPA	-13105
▁sözündən	-13106
bel	-13107
▁filmləri	-13108
▁təyyarəsi	-13109
▁Yarım	-13110
▁qazanılan	-13111
▁zib	-13112
Meh	-13113
▁məsələlərini	-13114
▁varlı	-13115
▁doğrult	-13116
▁qoruyur	-13117
▁etməsinin	-13118
▁vuraraq	-13119
▁Nəsrəddin	-13120
▁bilmədiy	-13121
all	-13122
acar	-13123
▁Şamil	-13124
▁https	-13125
▁yaxınları	-13126
▁qopar	-13127
▁York	-13128
▁konfransın	-13129
▁lentə	-13130
▁rezident	-13131
▁Alı	-13132
▁yanvarında	-13133
madığ	-13134
▁iddialar	-13135
agram	-13136
▁heyvanların	-13137
▁bölüşdür	-13138
ular	-13139
▁deyillər	-13140
iver	-13141
▁komandaya	-13142
▁AZƏRBAYCAN	-13143
▁Həl	-13144
▁kökün	-13145
▁mediası	-13146
▁oxuculara	-13147
▁Dədə	-13148
▁limanı	-13149
▁söhbətlər	-13150
▁tamaşaçılar	-13151
oban	-13152
▁Behbud	-13153
▁patr	-13154
▁kimlər	-13155
▁MSK	-13156
▁bilmirdi	-13157
▁istismarı	-13158
amanlıq	-13159
yum	-13160
▁gözlənt	-13161
▁İspaniyanın	-13162
▁trav	-13163
▁məqsədli	-13164
▁Qətər	-13165
▁səsləndirilib	-13166
▁Mə	-13167
▁Cam	-13168
▁şeylər	-13169
▁görüşlərin	-13170
▁Antal	-13171
▁muzeyin	-13172
▁kinote	-13173
▁izahat	-13174
▁xarab	-13175
▁Rafa	-13176
▁İnnov	-13177
▁iştirakını	-13178
▁Nəşr	-13179
▁yanğından	-13180
▁üzvlərindən	-13181
▁bağlanması	-13182
▁Türkiyəni	-13183
▁Şübhəsiz	-13184
▁işğalçılıq	-13185
▁Balakən	-13186
▁Hidrometeor	-13187
▁heyətini	-13188
lass	-13189
▁İttifaqına	-13190
▁Davud	-13191
əyindən	-13192
▁boşluq	-13193
▁tələblərini	-13194
ƏD	-13195
▁şəkli	-13196
çarx	-13197
▁Məclisdə	-13198
▁salon	-13199
▁si	-13200
▁boşal	-13201
▁Aparatının	-13202
▁tikilməsi	-13203
▁əməliyyatlarına	-13204
▁nəc	-13205
erialı	-13206
bek	-13207
▁şəhidi	-13208
▁xalla	-13209
▁münasibətlərinə	-13210
şin	-13211
▁mill	-13212
erbaijan	-13213
▁kilsə	-13214
aqdan	-13215
▁qurulmasına	-13216
▁adıçəkilən	-13217
▁otuz	-13218
▁vəzifələrdən	-13219
▁nümayişi	-13220
məh	-13221
çülük	-13222
asaray	-13223
Məs	-13224
tov	-13225
duğum	-13226
inist	-13227
▁Kaliforn	-13228
▁təşkilatlara	-13229
▁olunsa	-13230
▁Yad	-13231
▁Partiya	-13232
▁reyestr	-13233
stagram	-13234
Mos	-13235
▁hərrac	-13236
▁Məns	-13237
▁müəssisələr	-13238
▁sayğ	-13239
▁investisiyalar	-13240
Xan	-13241
▁millisi	-13242
▁axşamı	-13243
▁əlamətləri	-13244
tişaş	-13245
▁zalında	-13246
▁inanıram	-13247
▁çevirmək	-13248
sünüz	-13249
▁w	-13250
▁simptom	-13251
▁əlaqədardır	-13252
▁vacibliyi	-13253
▁Vide	-13254
▁məskən	-13255
şağı	-13256
▁səslənən	-13257
▁Güln	-13258
eqraf	-13259
dinin	-13260
▁fabrik	-13261
▁Ayn	-13262
▁neytral	-13263
▁Hacıqabul	-13264
▁Ramin	-13265
aşkar	-13266
▁bəyanatı	-13267
▁yayılmışdır	-13268
▁təcavüzü	-13269
OVİD	-13270
akov	-13271
▁büdcəsində	-13272
kubok	-13273
LI	-13274
▁İcraiyyə	-13275
KSOY	-13276
,“	-13277
asus	-13278
▁qonaqların	-13279
part	-13280
▁qəhrəm	-13281
▁vəzifədə	-13282
▁Rejissor	-13283
▁musiqisinin	-13284
▁həvəslə	-13285
▁vəsaitləri	-13286
▁Səfəvi	-13287
▁nüfuzunun	-13288
▁Texnologiyalar	-13289
▁qırıcı	-13290
▁Bək	-13291
əddü	-13292
▁Korp	-13293
▁müəllimləri	-13294
▁Vurğul	-13295
▁qabaqcadan	-13296
▁qül	-13297
▁soydaşlarımızın	-13298
▁dedikdə	-13299
deyə	-13300
▁ayına	-13301
▁Fİ	-13302
▁Yel	-13303
▁yazılır	-13304
essional	-13305
▁mənasız	-13306
BM	-13307
▁mövqeyindən	-13308
▁Kiş	-13309
▁verəcəyini	-13310
▁saxtalaşdır	-13311
▁səviyyədədir	-13312
ayz	-13313
Cav	-13314
ləşdirib	-13315
▁mənasını	-13316
▁hazırıq	-13317
day	-13318
▁deyiblər	-13319
▁ahəng	-13320
▁axın	-13321
▁Agentlik	-13322
▁sanballı	-13323
▁alınmışdır	-13324
▁italyan	-13325
məmişdi	-13326
risi	-13327
▁irimi	-13328
▁baxan	-13329
▁qrupa	-13330
▁sürəti	-13331
▁tərənn	-13332
▁etiq	-13333
▁olacağıq	-13334
▁Artur	-13335
linq	-13336
əcəm	-13337
▁stadionunda	-13338
vəli	-13339
isyanın	-13340
UN	-13341
▁Qr	-13342
▁buradakı	-13343
▁Məlumdur	-13344
▁Vahab	-13345
▁Oyunlarına	-13346
▁Xəlilov	-13347
▁oynadı	-13348
onik	-13349
▁magistr	-13350
▁etdiriləcək	-13351
▁istədi	-13352
▁İdarəsinə	-13353
▁mənafey	-13354
▁dolaş	-13355
ərəf	-13356
▁Dövlətin	-13357
▁mahnılar	-13358
▁irimiqyaslı	-13359
▁Leon	-13360
▁təşviqi	-13361
istlər	-13362
iminin	-13363
yetnam	-13364
▁TAN	-13365
▁birliyin	-13366
▁veb	-13367
▁Valideyn	-13368
gov	-13369
▁qalmaqal	-13370
iliyinə	-13371
▁pilotsuz	-13372
tərək	-13373
▁İordan	-13374
▁Qriqor	-13375
▁əlaqələrini	-13376
▁təqdirəlayiq	-13377
lövh	-13378
▁dairəsinin	-13379
▁Aparılan	-13380
▁şəhərc	-13381
▁polisin	-13382
▁bəndə	-13383
▁Sonrakı	-13384
▁iaşə	-13385
▁br	-13386
şar	-13387
▁Təz	-13388
tih	-13389
▁qalıqları	-13390
▁əlilliyi	-13391
▁aparırlar	-13392
▁axar	-13393
▁gözləmək	-13394
▁yaradıcısı	-13395
▁Sahibkar	-13396
▁planına	-13397
▁Məcəllənin	-13398
▁təsisçisi	-13399
▁teatrının	-13400
▁Pa	-13401
▁böhtan	-13402
▁büdcəsinə	-13403
lul	-13404
▁Nərgiz	-13405
▁qurumu	-13406
▁parametr	-13407
▁voleybol	-13408
lud	-13409
lərdəndir	-13410
▁dənizində	-13411
▁ləğvi	-13412
ülərək	-13413
fur	-13414
mirlər	-13415
▁olunurlar	-13416
▁avtomobillə	-13417
▁toplanış	-13418
▁evlər	-13419
öhnə	-13420
▁zəncir	-13421
▁dük	-13422
▁sət	-13423
▁gününə	-13424
▁fikrində	-13425
dükdən	-13426
▁Məncə	-13427
▁rəssamın	-13428
▁olunublar	-13429
▁sov	-13430
▁məntəqələrinin	-13431
▁göndəril	-13432
ry	-13433
▁frak	-13434
▁İqor	-13435
iyan	-13436
▁brend	-13437
▁problemlərlə	-13438
▁aktyoru	-13439
▁digəri	-13440
▁inanır	-13441
üsünün	-13442
iban	-13443
▁Komitəsinə	-13444
▁sahiblərinin	-13445
▁Nikolay	-13446
▁körf	-13447
▁çalışacaq	-13448
▁əşyalar	-13449
▁ve	-13450
▁Zam	-13451
▁sap	-13452
etsk	-13453
Cəfər	-13454
▁Mahnı	-13455
▁istirah	-13456
▁çoxluğu	-13457
ayırma	-13458
▁ha	-13459
▁qapısı	-13460
▁binaları	-13461
▁şəhərini	-13462
▁tamaşaya	-13463
▁Net	-13464
▁Məsələləri	-13465
oyunlu	-13466
▁tənzimlən	-13467
▁biç	-13468
▁Bəşər	-13469
▁pulunu	-13470
AB	-13471
▁edirdim	-13472
▁məharətlə	-13473
▁qadınları	-13474
▁qarşısındakı	-13475
▁ipoteka	-13476
▁Füzulinin	-13477
Təhsil	-13478
▁nəyin	-13479
▁mətbuatında	-13480
▁uzunluğunda	-13481
İbrahim	-13482
▁təchizat	-13483
▁Dəhlizi	-13484
▁qalmır	-13485
▁Muzeyində	-13486
▁xəstələrin	-13487
▁savad	-13488
əxana	-13489
otu	-13490
▁Festivalı	-13491
▁Nicat	-13492
▁əlavələr	-13493
▁nəzarətə	-13494
ənf	-13495
inizdə	-13496
▁yazdığına	-13497
▁Xidmətindən	-13498
məzdən	-13499
▁Komandanı	-13500
▁birləşdirir	-13501
▁edirsə	-13502
Kar	-13503
▁Slovak	-13504
▁fəaliyyətdə	-13505
▁əvvəldən	-13506
▁dəyişiklikləri	-13507
AŞ	-13508
LAR	-13509
▁müstəmlək	-13510
▁insanlardan	-13511
▁kosm	-13512
▁rüt	-13513
▁daşnak	-13514
cəz	-13515
▁dağlarda	-13516
▁dalğalan	-13517
▁qəzetinə	-13518
▁sahibkarlara	-13519
ladığ	-13520
Abbas	-13521
▁çəkmiş	-13522
▁xətlərinin	-13523
▁gülüş	-13524
▁Tikinti	-13525
▁bö	-13526
▁etmirlər	-13527
elsi	-13528
▁Monitorinq	-13529
▁aləmində	-13530
roup	-13531
▁Aqrar	-13532
▁genişləndirmək	-13533
▁qonaqpərvər	-13534
üq	-13535
▁Pan	-13536
▁körpə	-13537
isən	-13538
batından	-13539
▁İpək	-13540
▁xidmətinə	-13541
▁anam	-13542
▁tənəzz	-13543
▁yumur	-13544
▁örtüy	-13545
▁qalaraq	-13546
▁kifayətdir	-13547
▁bəşəriyyətin	-13548
▁Telman	-13549
▁Aktyor	-13550
▁dələduzluq	-13551
▁qılınc	-13552
oter	-13553
▁Hüm	-13554
▁vəsaitlərin	-13555
▁universitetdə	-13556
▁povest	-13557
▁fondu	-13558
İY	-13559
▁rayonundan	-13560
▁göv	-13561
▁şəkillər	-13562
▁Novosti	-13563
▁sözünün	-13564
▁dramaturq	-13565
▁gözə	-13566
▁obyekti	-13567
sax	-13568
mbudsman	-13569
▁Rəsulzadə	-13570
▁mövsümü	-13571
▁böyrək	-13572
▁Nazirlik	-13573
▁magistrat	-13574
▁barel	-13575
▁Hacıbəylinin	-13576
▁sütunun	-13577
▁festivalın	-13578
▁Meş	-13579
ləyəcək	-13580
▁ümumxalq	-13581
▁məzh	-13582
▁layihəsində	-13583
▁kamil	-13584
▁bakalavr	-13585
lizm	-13586
▁səhifələrində	-13587
▁çıxmağa	-13588
▁Komitənin	-13589
▁özbək	-13590
əməz	-13591
▁mülayim	-13592
▁Şəf	-13593
▁Ayrı	-13594
▁Zərdab	-13595
▁ucbatından	-13596
▁həcminin	-13597
zaq	-13598
üfət	-13599
▁kommunist	-13600
▁qoruyan	-13601
▁söyləyir	-13602
Şahdəniz	-13603
▁küçədə	-13604
▁özümə	-13605
▁genişlənməsi	-13606
▁hissləri	-13607
iyat	-13608
▁Atam	-13609
▁ödəmək	-13610
▁paytaxtda	-13611
▁sözlərindən	-13612
▁Sədr	-13613
▁deputatlar	-13614
Qır	-13615
▁Gələn	-13616
▁işlədil	-13617
▁Sumqayıtda	-13618
idarə	-13619
əmsal	-13620
▁müzakirələrin	-13621
▁möcüz	-13622
ılacağını	-13623
▁tikint	-13624
ifikasiya	-13625
amo	-13626
▁boz	-13627
▁gedişində	-13628
▁üsulla	-13629
▁müqəd	-13630
orasiya	-13631
▁Kolumb	-13632
▁fakültəsində	-13633
outube	-13634
▁müsabiqəsi	-13635
car	-13636
övdə	-13637
▁yaşaması	-13638
po	-13639
▁topl	-13640
:"""	-13641
ita	-13642
▁ruhuna	-13643
▁problemlərə	-13644
▁hüdudlarından	-13645
ğtişaş	-13646
▁Zaqafqaz	-13647
▁cinayətin	-13648
ikası	-13649
kommunikasiya	-13650
zan	-13651
▁Etir	-13652
çiliyə	-13653
▁ayaqqabı	-13654
▁güllələn	-13655
▁Müharibəsi	-13656
▁Real	-13657
▁idarəsi	-13658
Bunun	-13659
▁Məmmədquluz	-13660
▁verməyi	-13661
▁bankların	-13662
▁yararlı	-13663
▁kürs	-13664
▁vermədi	-13665
▁hamıya	-13666
▁yaradılmasında	-13667
leri	-13668
▁mayında	-13669
▁olacağına	-13670
▁köçkünlər	-13671
▁istedadı	-13672
▁mütəx	-13673
▁buğda	-13674
▁qısamüddətli	-13675
▁aparıcısı	-13676
▁Abdullayevin	-13677
▁dilin	-13678
▁oradakı	-13679
▁TANAP	-13680
▁verilməyib	-13681
▁Ərazi	-13682
▁yüksəldil	-13683
əkdən	-13684
▁həftədə	-13685
ləşdirən	-13686
▁apasport	-13687
fik	-13688
Mədəniyyət	-13689
▁Həsənli	-13690
▁Xos	-13691
▁iddiası	-13692
eytun	-13693
▁mərasimdə	-13694
▁İsraf	-13695
▁aparılmışdır	-13696
▁satılan	-13697
▁qurumlara	-13698
▁Məcnun	-13699
▁manatın	-13700
▁Xəzərin	-13701
▁ağsaqqal	-13702
▁Astragalus	-13703
▁pillədə	-13704
alov	-13705
▁dənizdə	-13706
▁gəlirlərinin	-13707
▁yüksələn	-13708
▁gedişi	-13709
larımızla	-13710
açəkmə	-13711
▁adama	-13712
▁otağı	-13713
▁esk	-13714
▁Men	-13715
▁red	-13716
▁pozub	-13717
▁müvəkkil	-13718
▁qadına	-13719
▁başlayanda	-13720
▁arı	-13721
▁rejimində	-13722
▁genetik	-13723
▁mövqeyinə	-13724
▁içinə	-13725
▁analoji	-13726
▁yoluxanların	-13727
▁icarəyə	-13728
▁ümumən	-13729
▁bacaran	-13730
▁təlimat	-13731
▁İli	-13732
▁Məmmədə	-13733
LİK	-13734
▁yarmark	-13735
təpə	-13736
▁Əz	-13737
▁təşkilata	-13738
▁xarakterik	-13739
▁cərəy	-13740
▁Finlandiya	-13741
sioner	-13742
▁koronavirusun	-13743
▁düşəcək	-13744
ləşdirməyə	-13745
▁saldı	-13746
▁təsdiqini	-13747
▁tuş	-13748
▁Çeçen	-13749
Qars	-13750
▁onil	-13751
▁ustalıq	-13752
▁ARDN	-13753
aşı	-13754
▁dəstəkləmək	-13755
▁kreditlərin	-13756
▁bəstəl	-13757
▁yekunlaşdır	-13758
▁titul	-13759
▁torpaqlarına	-13760
▁sürülüb	-13761
▁Qalib	-13762
▁vasitələrlə	-13763
▁Məl	-13764
aber	-13765
▁başdan	-13766
▁arqument	-13767
alatasaray	-13768
▁rayonların	-13769
▁tərəfdarları	-13770
▁Musiqili	-13771
▁törədib	-13772
▁gecəsi	-13773
▁aqro	-13774
▁Soveti	-13775
▁gəncin	-13776
▁immunitet	-13777
▁gərginliyin	-13778
▁Roman	-13779
▁verirəm	-13780
▁yapış	-13781
▁qəzəl	-13782
masıdır	-13783
▁materialların	-13784
▁ifadələr	-13785
▁üzləşdiyi	-13786
▁Aslanov	-13787
Nar	-13788
▁zəman	-13789
▁ədəbiyyata	-13790
▁sənəddə	-13791
▁itirən	-13792
vel	-13793
▁yerlik	-13794
▁Baba	-13795
▁çempionat	-13796
hisar	-13797
ved	-13798
▁sənətin	-13799
▁pas	-13800
▁leytenant	-13801
▁antiterror	-13802
▁dür	-13803
▁məhkəməsinin	-13804
erson	-13805
▁DİM	-13806
▁zülm	-13807
▁yumşal	-13808
▁yetərli	-13809
▁Metropolit	-13810
vazim	-13811
▁Yarış	-13812
lərdəki	-13813
▁qısqan	-13814
▁Pen	-13815
▁dəyişdi	-13816
▁Ceyms	-13817
▁ölü	-13818
▁ekstre	-13819
Ümum	-13820
▁şərəflə	-13821
▁irq	-13822
▁halına	-13823
▁nəqliyyatı	-13824
▁öp	-13825
▁do	-13826
▁sağlamlığının	-13827
▁Qaydaları	-13828
Əsrin	-13829
▁əsaslarla	-13830
▁müəyyənləşib	-13831
Çox	-13832
?-	-13833
ddin	-13834
▁tanıdılması	-13835
ləb	-13836
▁zavodu	-13837
▁musavat	-13838
▁şan	-13839
▁ÜDM	-13840
▁faizinin	-13841
avər	-13842
▁Qu	-13843
▁sərişt	-13844
▁Doğrudur	-13845
▁nişanı	-13846
yucu	-13847
▁Dol	-13848
▁layihələrə	-13849
▁hadisəyə	-13850
▁xadimlərinin	-13851
▁nailiyyətləri	-13852
siyadan	-13853
▁Maqom	-13854
▁hərəkətdə	-13855
▁kreditlər	-13856
▁Şahbaz	-13857
▁tədqiqatların	-13858
mümkün	-13859
▁laqeyd	-13860
▁vilayəti	-13861
▁maraqlandıran	-13862
▁sürüb	-13863
▁ilahi	-13864
▁Assosiasiyası	-13865
▁yetirilir	-13866
▁varisi	-13867
▁hücumundan	-13868
ott	-13869
▁Neftçala	-13870
▁altından	-13871
▁Əsasnamə	-13872
▁möhkəmlənməsinə	-13873
▁mübarizəni	-13874
▁əmtə	-13875
Dünya	-13876
▁keçməsinə	-13877
▁nəsli	-13878
▁dünyasına	-13879
VQD	-13880
▁İndiyədək	-13881
▁ailələrin	-13882
▁stansiyasının	-13883
▁Qəbul	-13884
qoy	-13885
inti	-13886
▁ağlı	-13887
▁yoldaşları	-13888
▁Com	-13889
▁müxbiri	-13890
▁cəlbedici	-13891
iyeva	-13892
▁şiddət	-13893
▁köş	-13894
rakt	-13895
▁köməkçi	-13896
▁Vidadi	-13897
▁Bizdə	-13898
adiz	-13899
▁Rafael	-13900
▁xoşməramlı	-13901
ASI	-13902
▁qəlbi	-13903
▁olunmayan	-13904
▁mövqeyinin	-13905
▁agentliyinin	-13906
əngiz	-13907
▁məhəll	-13908
▁tıx	-13909
▁proqramın	-13910
▁redaksiyada	-13911
▁proqramların	-13912
▁Əvvəlki	-13913
▁qabiliyyətini	-13914
▁Sakit	-13915
▁Eş	-13916
▁Terror	-13917
▁düşünmür	-13918
▁varis	-13919
▁subsid	-13920
▁sürülən	-13921
▁məmlək	-13922
▁yaşad	-13923
▁səylər	-13924
▁mövzusuna	-13925
▁qast	-13926
▁korrupsiyaya	-13927
SM	-13928
▁yaddaq	-13929
orus	-13930
▁dövründən	-13931
▁yarımfinal	-13932
▁vasitələr	-13933
▁irsin	-13934
▁zirvəsinə	-13935
▁görürlər	-13936
▁qanunlar	-13937
▁Qələbə	-13938
▁Raz	-13939
öhrət	-13940
▁vaksinasiya	-13941
aban	-13942
▁müsa	-13943
▁ster	-13944
Gürcüstan	-13945
şaat	-13946
▁dəyişikliklərə	-13947
▁cavabını	-13948
▁əvəzində	-13949
▁maska	-13950
▁siyasətçilər	-13951
▁pax	-13952
▁mərhəm	-13953
▁pik	-13954
▁Dan	-13955
▁vəsaitlərinin	-13956
▁Dair	-13957
▁Çavuş	-13958
▁danışmağa	-13959
▁fevralında	-13960
▁TÜRKSOY	-13961
▁cüml	-13962
▁döyüşdə	-13963
▁ailələrinin	-13964
▁dez	-13965
əttar	-13966
▁tale	-13967
▁muzd	-13968
▁çatmış	-13969
ays	-13970
▁həftənin	-13971
▁operatoru	-13972
▁tapşırılıb	-13973
▁Yazıçı	-13974
EK	-13975
▁olmadıqda	-13976
▁etdirmişdir	-13977
▁quruma	-13978
▁Konfeder	-13979
▁imzası	-13980
▁öncədən	-13981
iversal	-13982
▁qarşılığında	-13983
▁jurnalında	-13984
▁etdirə	-13985
▁açıqlamada	-13986
▁Hit	-13987
▁aviaşirk	-13988
▁döyüşə	-13989
▁vaqon	-13990
▁gəldim	-13991
▁qoyaraq	-13992
İL	-13993
məmişəm	-13994
▁Makron	-13995
▁strukturu	-13996
▁peşəkarlıq	-13997
Beynəlxalq	-13998
▁sürgün	-13999
▁haqqının	-14000
▁kapitanı	-14001
mamışdır	-14002
▁həvəskar	-14003
sinizsə	-14004
▁sənətinə	-14005
▁keçidi	-14006
▁Int	-14007
▁kəndə	-14008
▁metodik	-14009
▁gözləyən	-14010
▁ləz	-14011
▁ləvazim	-14012
▁təşkilatlarla	-14013
▁tərəddü	-14014
▁götürülən	-14015
▁Sib	-14016
▁Pyot	-14017
esk	-14018
▁zarafat	-14019
Br	-14020
▁mərkəzlərində	-14021
▁zalı	-14022
▁İtaliyada	-14023
▁Təxminən	-14024
ilaf	-14025
Şuşa	-14026
iker	-14027
▁Türkiyədəki	-14028
▁Prokurorluq	-14029
SOCAR	-14030
▁Bosniya	-14031
▁tənb	-14032
▁banklar	-14033
səydi	-14034
▁bölgüsü	-14035
▁hekayə	-14036
▁başladıq	-14037
▁Məqalədə	-14038
▁izlən	-14039
▁gəlməyə	-14040
▁çant	-14041
----	-14042
abəy	-14043
▁solist	-14044
▁tünd	-14045
əntiq	-14046
APA	-14047
▁vəkilləri	-14048
▁Şirkət	-14049
▁ştam	-14050
▁məktubda	-14051
▁naz	-14052
lavyan	-14053
▁yaxınlıq	-14054
▁nəy	-14055
▁yaratmış	-14056
liv	-14057
▁Zati	-14058
aqram	-14059
▁olunduqdan	-14060
▁rifahının	-14061
▁dairəsində	-14062
▁dəvəti	-14063
▁martında	-14064
▁atdı	-14065
▁bənzərsiz	-14066
▁cavablandırıb	-14067
sərhəd	-14068
▁təbiətin	-14069
ja	-14070
▁söylədiyi	-14071
▁artırıb	-14072
mist	-14073
▁Müsəlmanları	-14074
▁Təm	-14075
▁instans	-14076
▁olmuşuq	-14077
▁Adətən	-14078
▁deputatları	-14079
lərimizdə	-14080
mirdi	-14081
▁hökumətinə	-14082
▁yarımstans	-14083
▁mətbuatının	-14084
▁silahlar	-14085
▁Güc	-14086
▁Qaçqın	-14087
▁getməsi	-14088
▁boya	-14089
▁olursa	-14090
▁Hörmətli	-14091
İP	-14092
▁Yaxud	-14093
▁çıxdığı	-14094
ukla	-14095
▁ruslar	-14096
▁götürən	-14097
▁Ermənilərin	-14098
▁Filarmon	-14099
ami	-14100
▁matçı	-14101
esin	-14102
▁civə	-14103
▁liderimiz	-14104
▁fant	-14105
▁dəfədir	-14106
▁hücumçusu	-14107
▁yüzil	-14108
▁Albaniya	-14109
▁götürərək	-14110
▁verməy	-14111
▁;	-14112
▁rev	-14113
▁təşkilində	-14114
▁seçkilərinin	-14115
Yar	-14116
▁ləng	-14117
▁münbit	-14118
səniz	-14119
təmin	-14120
▁aşır	-14121
▁riski	-14122
▁qiymətini	-14123
Mercedes	-14124
▁Anlaşma	-14125
▁inteqrasiyası	-14126
▁Atası	-14127
▁olmazdı	-14128
▁Daşkəsən	-14129
▁ikiqat	-14130
▁oynayacaq	-14131
▁mənbələr	-14132
emiya	-14133
▁Mərasimdə	-14134
▁seçib	-14135
▁çıxışlar	-14136
▁əksəriyyətinin	-14137
▁müəllimə	-14138
▁yaşaya	-14139
▁görərik	-14140
▁qonaqlara	-14141
▁bölgəsinə	-14142
▁infeksiyasına	-14143
▁harda	-14144
▁Fərəc	-14145
▁Naxçıvana	-14146
▁sənətə	-14147
▁reallığı	-14148
▁Sir	-14149
▁missiyasını	-14150
aksimal	-14151
bala	-14152
akəndə	-14153
ostudiy	-14154
itekt	-14155
▁yaradıcılığını	-14156
▁bün	-14157
▁məlumatın	-14158
▁mövzularda	-14159
▁xammal	-14160
▁yarışda	-14161
▁illərindən	-14162
▁Mədəniyyəti	-14163
▁Saatlı	-14164
▁problemlərdən	-14165
▁Qaraq	-14166
▁etdirilən	-14167
▁aparıldı	-14168
▁İraqda	-14169
▁halal	-14170
ESS	-14171
▁abidələrinin	-14172
▁kitabını	-14173
▁partlayıcı	-14174
▁duman	-14175
▁əminliyini	-14176
▁evlərinin	-14177
por	-14178
▁Qərib	-14179
▁Xiyab	-14180
▁AzadlıqRadi	-14181
▁alver	-14182
otrop	-14183
▁siyasətdə	-14184
▁sıxışdır	-14185
▁dünyadan	-14186
▁sahələrini	-14187
▁zəngindir	-14188
▁Rəf	-14189
ilməsindən	-14190
▁Meksika	-14191
▁telefonla	-14192
▁Qəbəl	-14193
iyav	-14194
▁xəttini	-14195
▁çev	-14196
▁İştirak	-14197
▁həmsədri	-14198
▁Xocalıda	-14199
▁Bəş	-14200
əliyeva	-14201
▁xaos	-14202
pt	-14203
▁tərəfdaşı	-14204
▁edərsə	-14205
▁keçməyə	-14206
▁çör	-14207
▁qətliam	-14208
▁Korrupsiyaya	-14209
▁bazara	-14210
▁söyləmiş	-14211
▁kölgə	-14212
▁imkanlardan	-14213
▁qonşuluq	-14214
▁FİFA	-14215
Un	-14216
▁mütali	-14217
▁General	-14218
▁IX	-14219
▁Təcrüb	-14220
lüyün	-14221
▁Stadi	-14222
▁transform	-14223
▁Kənan	-14224
▁ortada	-14225
▁əlçatan	-14226
▁iğtişaş	-14227
▁diasporunun	-14228
▁üstünlüyü	-14229
▁verilişində	-14230
▁Şabran	-14231
Müsavat	-14232
▁Rəhman	-14233
▁Ərdə	-14234
▁Maş	-14235
▁virusun	-14236
▁Məktəbinin	-14237
▁tiraj	-14238
▁memorand	-14239
eşik	-14240
▁göründüyü	-14241
▁məqamları	-14242
əffüs	-14243
çilərinə	-14244
▁vitamin	-14245
lislam	-14246
▁psixi	-14247
GC	-14248
▁gətirərək	-14249
▁Hen	-14250
ayted	-14251
▁Hərəkatı	-14252
Twitter	-14253
▁prezidentliyə	-14254
▁anım	-14255
▁yerüstü	-14256
▁iranlı	-14257
▁Oy	-14258
▁köy	-14259
▁əsərini	-14260
▁qədərdir	-14261
izadə	-14262
▁həyati	-14263
▁oynamış	-14264
▁səsləndirib	-14265
Ast	-14266
▁Gər	-14267
▁reportaj	-14268
▁virusa	-14269
▁milyona	-14270
entin	-14271
▁dəftər	-14272
▁almaqla	-14273
maddi	-14274
▁tikilir	-14275
▁gerçəkləş	-14276
süm	-14277
▁qalmışdır	-14278
▁Los	-14279
idənin	-14280
▁verdikləri	-14281
▁mavi	-14282
▁hid	-14283
▁kampaniya	-14284
▁həyətində	-14285
▁harmon	-14286
▁işgəncə	-14287
▁işlərdə	-14288
▁sükutla	-14289
luqla	-14290
▁Haq	-14291
▁qruplarının	-14292
▁DT	-14293
▁torpaqlar	-14294
SA	-14295
▁veririk	-14296
▁bəllidir	-14297
▁cinayətlərin	-14298
▁videoçarx	-14299
Həsənov	-14300
▁düzəlt	-14301
▁Rusiyadakı	-14302
Turan	-14303
▁Hafiz	-14304
▁otağında	-14305
▁çılpaq	-14306
inar	-14307
▁stək	-14308
rifinq	-14309
manda	-14310
▁nöqtəsi	-14311
Alman	-14312
▁Sakin	-14313
▁tac	-14314
enti	-14315
▁Pyotr	-14316
▁dindar	-14317
miti	-14318
▁anlamaq	-14319
▁kənardan	-14320
▁verəcəyi	-14321
▁Müxalif	-14322
haq	-14323
indiki	-14324
▁quraşdırılması	-14325
liklərində	-14326
▁özümüzü	-14327
▁tarixçi	-14328
▁üm	-14329
▁məsələlərinin	-14330
▁əməkhaqqı	-14331
▁Onları	-14332
▁söykənən	-14333
▁qalxan	-14334
▁Mövlud	-14335
▁sanksiyaların	-14336
▁Allahdan	-14337
▁vətəndaşlarına	-14338
▁Bit	-14339
elyef	-14340
kuroru	-14341
th	-14342
tah	-14343
▁Festival	-14344
▁vasitəsinin	-14345
▁Kras	-14346
▁elmə	-14347
Din	-14348
▁Bl	-14349
port	-14350
▁məzarı	-14351
▁inandırıcı	-14352
▁vurğulayaraq	-14353
▁yataqxan	-14354
▁prospektində	-14355
▁futbolçunun	-14356
▁İlin	-14357
▁minməsi	-14358
▁Şəxsi	-14359
▁smartfon	-14360
▁birləşmələri	-14361
Hüseynov	-14362
▁səsləndirdiyi	-14363
▁Ronald	-14364
▁düç	-14365
▁qarın	-14366
▁atmağa	-14367
▁Gəncəvinin	-14368
▁əminliklə	-14369
alv	-14370
Mar	-14371
▁Ankarada	-14372
▁tətbiqini	-14373
[...]
