<unk>	0
<s>	0
</s>	0
<0x00>	0
<0x01>	0
<0x02>	0
<0x03>	0
<0x04>	0
<0x05>	0
<0x06>	0
<0x07>	0
<0x08>	0
<0x09>	0
<0x0A>	0
<0x0B>	0
<0x0C>	0
<0x0D>	0
<0x0E>	0
<0x0F>	0
<0x10>	0
<0x11>	0
<0x12>	0
<0x13>	0
<0x14>	0
<0x15>	0
<0x16>	0
<0x17>	0
<0x18>	0
<0x19>	0
<0x1A>	0
<0x1B>	0
<0x1C>	0
<0x1D>	0
<0x1E>	0
<0x1F>	0
<0x20>	0
<0x21>	0
<0x22>	0
<0x23>	0
<0x24>	0
<0x25>	0
<0x26>	0
<0x27>	0
<0x28>	0
<0x29>	0
<0x2A>	0
<0x2B>	0
<0x2C>	0
<0x2D>	0
<0x2E>	0
<0x2F>	0
<0x30>	0
<0x31>	0
<0x32>	0
<0x33>	0
<0x34>	0
<0x35>	0
<0x36>	0
<0x37>	0
<0x38>	0
<0x39>	0
<0x3A>	0
<0x3B>	0
<0x3C>	0
<0x3D>	0
<0x3E>	0
<0x3F>	0
<0x40>	0
<0x41>	0
<0x42>	0
<0x43>	0
<0x44>	0
<0x45>	0
<0x46>	0
<0x47>	0
<0x48>	0
<0x49>	0
<0x4A>	0
<0x4B>	0
<0x4C>	0
<0x4D>	0
<0x4E>	0
<0x4F>	0
<0x50>	0
<0x51>	0
<0x52>	0
<0x53>	0
<0x54>	0
<0x55>	0
<0x56>	0
<0x57>	0
<0x58>	0
<0x59>	0
<0x5A>	0
<0x5B>	0
<0x5C>	0
<0x5D>	0
<0x5E>	0
<0x5F>	0
<0x60>	0
<0x61>	0
<0x62>	0
<0x63>	0
<0x64>	0
<0x65>	0
<0x66>	0
<0x67>	0
<0x68>	0
<0x69>	0
<0x6A>	0
<0x6B>	0
<0x6C>	0
<0x6D>	0
<0x6E>	0
<0x6F>	0
<0x70>	0
<0x71>	0
<0x72>	0
<0x73>	0
<0x74>	0
<0x75>	0
<0x76>	0
<0x77>	0
<0x78>	0
<0x79>	0
<0x7A>	0
<0x7B>	0
<0x7C>	0
<0x7D>	0
<0x7E>	0
<0x7F>	0
<0x80>	0
<0x81>	0
<0x82>	0
<0x83>	0
<0x84>	0
<0x85>	0
<0x86>	0
<0x87>	0
<0x88>	0
<0x89>	0
<0x8A>	0
<0x8B>	0
<0x8C>	0
<0x8D>	0
<0x8E>	0
<0x8F>	0
<0x90>	0
<0x91>	0
<0x92>	0
<0x93>	0
<0x94>	0
<0x95>	0
<0x96>	0
<0x97>	0
<0x98>	0
<0x99>	0
<0x9A>	0
<0x9B>	0
<0x9C>	0
<0x9D>	0
<0x9E>	0
<0x9F>	0
<0xA0>	0
<0xA1>	0
<0xA2>	0
<0xA3>	0
<0xA4>	0
<0xA5>	0
<0xA6>	0
<0xA7>	0
<0xA8>	0
<0xA9>	0
<0xAA>	0
<0xAB>	0
<0xAC>	0
<0xAD>	0
<0xAE>	0
<0xAF>	0
<0xB0>	0
<0xB1>	0
<0xB2>	0
<0xB3>	0
<0xB4>	0
<0xB5>	0
<0xB6>	0
<0xB7>	0
<0xB8>	0
<0xB9>	0
<0xBA>	0
<0xBB>	0
<0xBC>	0
<0xBD>	0
<0xBE>	0
<0xBF>	0
<0xC0>	0
<0xC1>	0
<0xC2>	0
<0xC3>	0
<0xC4>	0
<0xC5>	0
<0xC6>	0
<0xC7>	0
<0xC8>	0
<0xC9>	0
<0xCA>	0
<0xCB>	0
<0xCC>	0
<0xCD>	0
<0xCE>	0
<0xCF>	0
<0xD0>	0
<0xD1>	0
<0xD2>	0
<0xD3>	0
<0xD4>	0
<0xD5>	0
<0xD6>	0
<0xD7>	0
<0xD8>	0
<0xD9>	0
<0xDA>	0
<0xDB>	0
<0xDC>	0
<0xDD>	0
<0xDE>	0
<0xDF>	0
<0xE0>	0
<0xE1>	0
<0xE2>	0
<0xE3>	0
<0xE4>	0
<0xE5>	0
<0xE6>	0
<0xE7>	0
<0xE8>	0
<0xE9>	0
<0xEA>	0
<0xEB>	0
<0xEC>	0
<0xED>	0
<0xEE>	0
<0xEF>	0
<0xF0>	0
<0xF1>	0
<0xF2>	0
<0xF3>	0
<0xF4>	0
<0xF5>	0
<0xF6>	0
<0xF7>	0
<0xF8>	0
<0xF9>	0
<0xFA>	0
<0xFB>	0
<0xFC>	0
<0xFD>	0
<0xFE>	0
<0xFF>	0
,	-3.11394
.	-3.15608
▁	-3.6177
▁və	-4.07303
-	-4.133
1	-4.67246
0	-4.77163
2	-4.89198
▁ki	-4.89502
▁ilə	-5.12177
▁bu	-5.18614
▁bir	-5.25468
▁“	-5.33173
▁də	-5.39396
▁Azərbaycan	-5.44914
”	-5.47093
9	-5.54127
▁üçün	-5.67055
3	-5.70913
"	-5.71955
a	-5.7309
▁da	-5.76387
5	-5.76441
▁"	-5.79024
da	-5.89616
4	-5.89811
n	-5.89991
də	-5.90672
:	-5.914
▁olan	-5.93745
▁(	-5.98034
ci	-5.99505
▁Bu	-6.00701
)	-6.01179
8	-6.01961
in	-6.05303
i	-6.06251
ə	-6.0697
6	-6.07412
▁görə	-6.07497
▁kimi	-6.09404
7	-6.09841
lar	-6.17309
nin	-6.18638
dən	-6.21932
▁çox	-6.21932
dan	-6.25638
lər	-6.27394
▁isə	-6.28882
nın	-6.296
▁sonra	-6.30172
▁il	-6.34234
▁daha	-6.4092
▁-	-6.42266
ın	-6.45658
▁edib	-6.47295
dir	-6.48579
▁bağlı	-6.50445
▁o	-6.54856
▁edir	-6.55186
▁hər	-6.60083
▁öz	-6.61015
la	-6.63037
▁ildə	-6.63833
▁baş	-6.64415
▁tərəfindən	-6.6646
lə	-6.69521
▁üzrə	-6.69576
▁böyük	-6.70187
ni	-6.70271
▁onun	-6.72859
▁olaraq	-6.73512
▁bütün	-6.7672
▁edən	-6.79794
▁yeni	-6.79873
▁gün	-6.81651
▁ən	-6.81772
m	-6.82403
nı	-6.82779
▁qədər	-6.82851
▁dövlət	-6.83172
dır	-6.84287
▁barədə	-6.85792
▁O	-6.87541
▁Azərbaycanın	-6.8884
ya	-6.89285
na	-6.90315
▁olub	-6.91812
▁var	-6.92992
▁qeyd	-6.93159
▁verir	-6.93933
▁arasında	-6.94357
▁idi	-6.96367
▁digər	-6.98291
▁etmək	-6.99121
ları	-6.99157
▁haqqında	-7.01493
▁həm	-7.03017
ı	-7.04444
ların	-7.0491
▁Respublikasının	-7.05827
▁həyata	-7.05896
▁Dövlət	-7.06127
ləri	-7.08415
cü	-7.0894
▁Milli	-7.09181
▁ya	-7.10197
▁qarşı	-7.11609
▁belə	-7.11811
li	-7.12618
▁xəbər	-7.12656
▁Əliyev	-7.13026
nə	-7.13081
▁bildirib	-7.14595
▁iki	-7.14721
▁ilk	-7.15647
▁heç	-7.17242
un	-7.17589
▁həmin	-7.19059
az	-7.19776
▁qəbul	-7.21863
▁İlham	-7.22705
▁deyil	-7.24805
▁davam	-7.25386
lərin	-7.25696
▁beynəlxalq	-7.25957
▁ilin	-7.27173
▁əsas	-7.2759
▁istifadə	-7.28917
▁Rusiya	-7.30905
?	-7.33361
▁müəyyən	-7.3361
yə	-7.34281
▁Bakı	-7.35084
▁təmin	-7.35472
lı	-7.36238
▁nə	-7.36734
▁edilib	-7.37188
▁hərbi	-7.38686
▁zamanı	-7.39034
”.	-7.39455
▁edilməsi	-7.39981
▁yüksək	-7.41123
▁olduğunu	-7.41189
▁milli	-7.42267
▁dəfə	-7.4244
▁onların	-7.4254
▁iştirak	-7.42626
▁ABŞ	-7.43257
▁məlumat	-7.43309
;	-7.43811
▁müxtəlif	-7.44066
▁Qeyd	-7.44322
▁artıq	-7.4438
u	-7.44614
▁Heydər	-7.44744
▁bilər	-7.44795
▁son	-7.45317
▁Respublikası	-7.45507
▁Avropa	-7.45655
▁Azərbaycanda	-7.45675
▁olduğu	-7.4582
▁etdiyi	-7.47039
▁biri	-7.47441
▁inkişaf	-7.4834
▁təşkil	-7.49246
▁siyasi	-7.49524
▁təqdim	-7.50199
▁olunub	-7.50755
▁sosial	-7.51206
cu	-7.51597
▁daxil	-7.52411
▁xüsusi	-7.52538
▁olunan	-7.53379
▁Əliyevin	-7.53682
k	-7.5371
▁Ermənistan	-7.54307
▁onu	-7.55396
s	-7.5564
▁yaxşı	-7.55891
▁təhsil	-7.56175
▁şəkildə	-7.56225
cı	-7.56407
▁edək	-7.57831
▁deyib	-7.58086
▁zaman	-7.58613
▁–	-7.59319
▁başqa	-7.60612
q	-7.61347
▁Prezident	-7.62298
▁keçirilən	-7.62742
si	-7.6314
▁nəticəsində	-7.63993
▁xarici	-7.64581
di	-7.64631
Azərbaycan	-7.66489
▁olunur	-7.67126
▁ölkə	-7.67577
▁əsasən	-7.68348
▁Türkiyə	-7.68412
▁dünya	-7.69032
▁tarixi	-7.69124
▁Baş	-7.70464
▁əlavə	-7.71239
▁ərzində	-7.71377
▁verib	-7.72166
▁uyğun	-7.72868
▁geniş	-7.73045
...	-7.73253
▁əldə	-7.73302
▁edilmiş	-7.7335
▁biz	-7.74461
▁neçə	-7.74595
▁ona	-7.74733
▁Prezidenti	-7.75251
ndan	-7.7559
▁çıxış	-7.75746
▁fəaliyyət	-7.7671
▁Onun	-7.78569
▁iqtisadi	-7.78802
▁zamanda	-7.79982
sı	-7.80269
▁min	-7.8089
▁yaxın	-7.81087
▁edilən	-7.8255
ndən	-7.83346
▁hesab	-7.8346
▁olunmuş	-7.8377
▁Qarabağ	-7.83946
▁eyni	-7.84007
▁insan	-7.84463
lik	-7.84698
▁elə	-7.84742
▁etdi	-7.84939
".	-7.85289
▁iş	-7.85399
Az	-7.85947
▁Bir	-7.86111
▁A	-7.86248
▁azad	-7.86425
dı	-7.86617
▁müvafiq	-7.86858
▁əvvəl	-7.86912
▁olur	-7.86965
larının	-7.87366
▁nəzərdə	-7.87829
▁nəfər	-7.87889
▁Belə	-7.87918
▁edilir	-7.88058
▁sədri	-7.88168
▁bizim	-7.88262
sa	-7.88659
lara	-7.88722
▁hansı	-7.88912
lərə	-7.89091
▁naziri	-7.8985
▁erməni	-7.90296
r	-7.91001
t	-7.9126
▁həmçinin	-7.9149
▁istinadən	-7.91862
▁ciddi	-7.9189
z	-7.94094
▁Amma	-7.94591
▁işlər	-7.94691
▁oğlu	-7.95019
nda	-7.95125
▁elmi	-7.9635
▁yol	-7.96609
▁edərək	-7.96646
▁bunu	-7.96865
▁olacaq	-7.96967
▁vaxt	-7.96971
▁verən	-7.97328
▁edə	-7.97843
sə	-7.98899
▁gələn	-7.99515
▁mühüm	-7.99542
▁çərçivəsində	-7.99711
▁olar	-8.00317
▁S	-8.00538
▁xidmət	-8.01183
▁oldu	-8.01623
▁rəsmi	-8.01898
▁ölkənin	-8.0207
▁yalnız	-8.02581
▁müasir	-8.02943
▁sahəsində	-8.0347
inin	-8.03846
lərinin	-8.03992
▁başa	-8.04139
▁yenidən	-8.04263
▁səbəb	-8.04518
▁tam	-8.04815
▁illərdə	-8.05045
▁Lakin	-8.05764
▁deyə	-8.05771
▁yanaşı	-8.05919
▁yer	-8.06225
l	-8.06607
nun	-8.06729
dakı	-8.06848
▁qeyri	-8.07021
▁Çünki	-8.07761
▁göstərir	-8.08876
▁ictimai	-8.09432
▁yerinə	-8.10155
▁az	-8.10256
▁yoxdur	-8.10605
larını	-8.10945
ki	-8.11167
▁mən	-8.11169
▁rayon	-8.1143
▁bəzi	-8.11986
▁birinci	-8.12522
▁hələ	-8.12561
▁M	-8.12695
▁milyon	-8.1273
▁dair	-8.12802
▁onlar	-8.13282
▁sözlərinə	-8.13718
▁icra	-8.13827
▁Nazirliyinin	-8.13928
▁ildən	-8.14016
”,	-8.14225
▁edəcək	-8.14235
▁s	-8.14331
▁sıra	-8.14345
▁istiqamətində	-8.16246
d	-8.1626
▁—	-8.16912
▁tədbirlər	-8.16996
▁əsasında	-8.17141
▁həyat	-8.17513
ov	-8.17637
an	-8.17759
▁şəhərində	-8.17933
▁adı	-8.18234
▁Nazirliyi	-8.1824
▁müraciət	-8.18502
▁cavab	-8.18604
▁kənd	-8.1909
▁Beynəlxalq	-8.19337
▁yolu	-8.19476
▁Biz	-8.19584
▁ikinci	-8.19691
lərini	-8.19808
▁diqqət	-8.20031
▁olması	-8.20065
▁cümlədən	-8.20476
▁təsdiq	-8.20864
▁ola	-8.21139
▁inkişafı	-8.21209
lıq	-8.21387
▁üzərində	-8.21489
▁etməyə	-8.21836
▁su	-8.2188
mi	-8.22091
▁altında	-8.22178
▁Bakıda	-8.22266
ndə	-8.22429
▁adlı	-8.22451
▁birgə	-8.22833
▁cəlb	-8.22992
▁olunması	-8.23373
▁Mərkəzi	-8.23498
▁əlaqədar	-8.235
▁tələb	-8.24188
lərdən	-8.24582
▁Mən	-8.24883
ma	-8.24923
▁orta	-8.24969
▁rəhbəri	-8.2506
▁yerləşən	-8.25195
▁Axar	-8.25346
▁Həmin	-8.25925
▁yerli	-8.2612
▁müavini	-8.26495
lardan	-8.26539
/	-8.26599
▁ümumi	-8.27011
▁Azərbaycana	-8.27708
▁necə	-8.28253
▁prezidenti	-8.28556
▁şəhər	-8.28833
dur	-8.28862
▁maliyyə	-8.29136
▁Bundan	-8.29177
▁manat	-8.29992
▁yaşlı	-8.30256
▁halda	-8.30269
▁mədəniyyət	-8.30679
▁yox	-8.31004
▁təsir	-8.31461
▁tətbiq	-8.31884
▁növbəti	-8.31886
▁ərazisində	-8.31906
▁bundan	-8.32014
▁işləri	-8.32059
▁verilən	-8.32217
▁müddət	-8.32299
o	-8.32351
▁nümayiş	-8.32374
▁sayı	-8.32614
ini	-8.33133
▁Ermənistanın	-8.33243
▁ölkədə	-8.33469
▁məhz	-8.33486
▁tarixli	-8.34001
▁dünyanın	-8.34133
▁ay	-8.34285
▁ağır	-8.34662
▁fəaliyyəti	-8.34711
lərinə	-8.3476
▁keçirilib	-8.35004
▁eləcə	-8.35247
▁özünü	-8.35315
▁burada	-8.35332
▁Ancaq	-8.35395
b	-8.35562
▁Rusiyanın	-8.35668
▁nəzərə	-8.35981
▁təyin	-8.35997
ik	-8.36065
▁Hər	-8.36165
▁illər	-8.36416
▁malik	-8.36456
▁üç	-8.36973
▁ediblər	-8.36983
▁ötən	-8.37008
▁məqsədilə	-8.37086
▁irəli	-8.37086
▁cür	-8.37261
▁müzakirə	-8.37323
inə	-8.37413
▁mümkün	-8.37499
▁edirlər	-8.37713
▁mövcud	-8.38122
▁saat	-8.38367
▁verdiyi	-8.38559
▁hüquqi	-8.38588
▁başçısı	-8.39395
▁keçirilməsi	-8.3942
larda	-8.39427
▁aid	-8.39749
▁qərar	-8.3998
▁Əli	-8.40048
▁idarə	-8.40111
▁əməkdaşlıq	-8.40653
▁hazırda	-8.4074
▁şəxs	-8.40904
yan	-8.40931
▁olmaqla	-8.41024
▁əks	-8.41092
▁ifadə	-8.41461
▁müdafiə	-8.41572
dəki	-8.41852
▁edirəm	-8.4192
▁ərazi	-8.4193
▁verilib	-8.42216
larına	-8.4322
▁söz	-8.43253
▁lazımdır	-8.43422
▁neft	-8.43558
▁elan	-8.43731
▁olmaq	-8.43738
▁uzun	-8.43763
lərlə	-8.4384
▁yaşayan	-8.43873
▁olmayan	-8.44019
▁olmuşdur	-8.44064
▁İran	-8.44474
▁mübarizə	-8.44502
▁cinayət	-8.44518
▁adına	-8.44653
▁məlumatına	-8.44746
▁Xalq	-8.44806
▁xalq	-8.44855
▁keçmiş	-8.4509
▁hadisə	-8.45202
▁bildirir	-8.45308
▁Ali	-8.45359
▁amma	-8.45484
▁üzvü	-8.4559
▁informasiya	-8.45689
▁dünyada	-8.45752
▁buna	-8.46112
▁işi	-8.46414
▁azərbaycanlı	-8.46498
▁rayonunun	-8.46576
▁gözəl	-8.47004
Bu	-8.47304
▁qarşısında	-8.47603
▁məlumata	-8.47714
▁gəlir	-8.4795
▁alıb	-8.48041
▁işğal	-8.48135
▁güclü	-8.48189
larla	-8.48739
▁türk	-8.48811
▁imkan	-8.49382
▁gənc	-8.49552
▁dəstək	-8.49803
▁hava	-8.49919
y	-8.50009
▁hətta	-8.50432
▁sözləri	-8.50783
▁etmişdir	-8.509
▁Ona	-8.5096
▁ali	-8.51054
am	-8.51385
▁Dağlıq	-8.51463
),	-8.51482
▁Yeni	-8.51625
▁Türkiyənin	-8.51663
com	-8.51868
▁indi	-8.52078
▁vasitəsilə	-8.52092
▁mənim	-8.52403
▁maddə	-8.52905
lərdə	-8.52961
▁məşğul	-8.53166
▁məqsədi	-8.53356
▁bərpa	-8.534
▁baxmayaraq	-8.53483
▁sahədə	-8.53535
▁insanların	-8.53844
▁onlara	-8.54245
▁xanım	-8.54309
▁birlikdə	-8.54364
▁ibarət	-8.5443
▁həsr	-8.54618
▁E	-8.54685
▁özü	-8.54852
e	-8.54906
▁rəhbərliyi	-8.55007
!	-8.55157
▁hüquq	-8.55389
▁yaşayış	-8.55569
▁dövründə	-8.55913
▁enerji	-8.56077
▁qaz	-8.56719
▁açıq	-8.56919
▁mətbuat	-8.57165
▁göstərən	-8.5719
▁etmiş	-8.57298
▁demək	-8.5749
▁Nazirlər	-8.57624
▁Mədəniyyət	-8.57708
▁Böyük	-8.57899
ca	-8.58255
▁mədəni	-8.58259
▁gəlib	-8.58361
▁musiqi	-8.59119
▁həll	-8.59137
▁Bütün	-8.59369
▁Dünya	-8.59538
▁Hazırda	-8.59802
liyi	-8.59883
▁təklif	-8.60007
▁C	-8.60137
▁daxili	-8.60148
mə	-8.60183
lu	-8.60342
▁nömrəli	-8.60469
▁Ukrayna	-8.60616
S	-8.60737
▁təbii	-8.60829
▁Onlar	-8.60877
▁keçiriləcək	-8.61044
▁uşaq	-8.61061
▁R	-8.61094
▁Eyni	-8.61143
▁illik	-8.61283
▁maraqlı	-8.61343
▁pul	-8.61431
▁bunun	-8.61436
▁faiz	-8.61567
▁şəxsi	-8.61757
ş	-8.618
▁şəxslər	-8.61872
sının	-8.61971
▁insanlar	-8.62128
A	-8.62254
▁əl	-8.62839
▁olmuş	-8.62926
▁nəqliyyat	-8.63111
▁vurğulayıb	-8.63578
▁almaq	-8.63713
▁ailə	-8.63752
▁B	-8.63757
▁N	-8.63973
▁dini	-8.64182
▁direktoru	-8.64232
▁Bununla	-8.64266
▁Rayon	-8.64341
▁ölkəmizin	-8.64502
▁F	-8.651
▁fikir	-8.65233
▁edilmişdir	-8.65268
▁həbs	-8.65423
▁İ	-8.65811
▁İşlər	-8.65876
▁K	-8.65966
▁qadın	-8.65983
▁nail	-8.66009
",	-8.66053
▁müəllim	-8.66534
▁Xarici	-8.66555
▁məşhur	-8.66835
▁rayonu	-8.66983
▁yanında	-8.67042
▁onları	-8.67284
▁inkişafına	-8.6729
▁gələcək	-8.67332
▁BMT	-8.67349
–	-8.67453
▁yaradılması	-8.67624
▁gecə	-8.67684
▁müşahidə	-8.67696
▁İslam	-8.67748
larından	-8.6784
▁günü	-8.68281
▁döyüş	-8.68954
▁I	-8.69197
▁deyir	-8.69358
▁T	-8.69529
▁rol	-8.69585
▁məsələ	-8.69602
▁geri	-8.69697
▁müstəqil	-8.69747
▁bəy	-8.69761
▁səviyyədə	-8.69897
▁edirik	-8.69948
▁Şurasının	-8.70108
c	-8.70196
lərindən	-8.70331
▁mənə	-8.70618
▁ev	-8.70697
f	-8.71741
▁Əgər	-8.71743
▁aparılan	-8.71875
▁tanış	-8.72025
▁yardım	-8.72576
▁hakimiyyəti	-8.72726
▁dövrdə	-8.72788
▁nümayəndələri	-8.72891
▁lakin	-8.7324
▁olsa	-8.73328
əm	-8.7356
▁qədim	-8.73687
▁öncə	-8.73811
▁verilməsi	-8.73899
▁qarşılıqlı	-8.7396
▁Q	-8.74614
▁şəhəri	-8.74798
▁əhatə	-8.74867
▁edirdi	-8.75208
▁yeri	-8.75297
▁polis	-8.75362
▁keçən	-8.75648
▁hissəsi	-8.75683
ləşdirilməsi	-8.75712
▁keçirilir	-8.75779
laşdırılması	-8.75887
siz	-8.75914
▁həmişə	-8.75959
▁aradan	-8.7596
▁ayında	-8.76048
▁kiçik	-8.76123
▁fərqli	-8.76168
dək	-8.76288
▁V	-8.76335
▁Naxçıvan	-8.7646
▁sülh	-8.76617
▁uğrunda	-8.76668
▁əməliyyat	-8.76788
▁müsbət	-8.76842
▁Son	-8.7694
▁ölkəmizdə	-8.77009
▁prezident	-8.77013
▁aşağı	-8.77025
▁Daha	-8.77266
▁alan	-8.77341
▁zəngin	-8.77785
▁hiss	-8.77981
▁tez	-8.78411
▁Prezidentinin	-8.78555
▁rayonunda	-8.78676
▁ayrı	-8.78681
▁idman	-8.78813
▁rus	-8.79226
▁təmsil	-8.79642
▁bizə	-8.79802
▁şəxslərin	-8.79936
▁uğurla	-8.79975
▁H	-8.80001
miz	-8.80078
ən	-8.80092
▁ancaq	-8.80116
▁məhkəmə	-8.80151
▁etməsi	-8.80357
▁bununla	-8.80364
ində	-8.80554
▁Məmmədov	-8.80739
▁Vətən	-8.80794
▁başlayıb	-8.81197
al	-8.81325
▁mərkəzi	-8.81502
▁təkcə	-8.81515
▁uğurlu	-8.81756
ü	-8.8177
▁orada	-8.81778
x	-8.81842
▁Həmçinin	-8.82211
▁Ə	-8.82437
▁əhəmiyyətli	-8.82611
ləndirilməsi	-8.82642
▁habelə	-8.82691
larında	-8.831
▁qısa	-8.83203
▁doğru	-8.83221
▁qalan	-8.83222
▁aşkar	-8.83269
cə	-8.83315
▁bildirdi	-8.83489
▁silahlı	-8.83839
lərində	-8.8387
▁olsun	-8.83974
▁əhalinin	-8.84005
▁məlum	-8.84017
▁No	-8.84322
▁seçki	-8.84367
▁ondan	-8.84596
▁səs	-8.84787
O	-8.84826
▁dedi	-8.84979
▁tarixində	-8.84991
▁yerdə	-8.85123
▁müharibə	-8.85345
▁çətin	-8.85348
▁nəzarət	-8.85511
▁istehsal	-8.85539
▁turizm	-8.85679
▁Buna	-8.85851
▁fəal	-8.85869
▁məxsus	-8.8606
çi	-8.86062
▁dövlətin	-8.86134
▁yaxud	-8.86212
▁Müdafiə	-8.86366
▁baxımından	-8.86404
▁siyasət	-8.86567
▁iştirakı	-8.86585
▁xüsusilə	-8.86614
▁D	-8.86768
▁gedən	-8.86807
▁əməkdaşları	-8.87022
▁əsrin	-8.87026
▁vacib	-8.87163
▁qrup	-8.87241
▁kömək	-8.87423
sına	-8.87586
▁dollar	-8.87672
▁avtomobil	-8.87725
▁nazir	-8.88159
▁bədii	-8.88399
▁Fransa	-8.88459
▁dərin	-8.88549
▁tanınmış	-8.88682
▁tədbirləri	-8.88809
▁rəhbərlik	-8.88894
▁qeydə	-8.88997
▁özünün	-8.89023
▁qiymət	-8.89242
▁xeyli	-8.89405
▁daim	-8.89421
▁üzvləri	-8.89425
▁Cənubi	-8.89491
▁haqda	-8.8955
▁milyard	-8.89579
san	-8.90702
▁Polis	-8.9073
ka	-8.91561
▁şərait	-8.916
▁mənəvi	-8.91769
▁adam	-8.92083
▁Universitetinin	-8.92099
▁Təhsil	-8.92163
p	-8.92251
▁söhbət	-8.92582
▁edildi	-8.92677
▁elektron	-8.92885
▁İndi	-8.93188
▁dünyaya	-8.93263
▁hərəkət	-8.93412
▁işə	-8.93424
▁saylı	-8.93625
▁sakini	-8.93697
▁məni	-8.9374
▁məsələlər	-8.93915
B	-8.93939
▁kifayət	-8.94091
▁ticarət	-8.94323
▁möhkəm	-8.94417
▁məsələləri	-8.9475
▁şey	-8.95104
▁baxımdan	-8.95409
▁düzgün	-8.95604
▁əmək	-8.95651
▁kitab	-8.95675
▁üz	-8.95834
▁cənab	-8.96026
▁maddi	-8.96059
▁edilsin	-8.9608
▁təhlükəsizlik	-8.96299
▁ölkələrin	-8.96663
▁üzərinə	-8.96677
▁xalqın	-8.96732
▁Komitəsinin	-8.97043
C	-8.97155
▁vəziyyət	-8.97245
▁keçirdiyi	-8.97279
man	-8.9733
▁dəvət	-8.97508
▁verdi	-8.97623
im	-8.97845
▁Burada	-8.97926
nu	-8.97941
▁asılı	-8.97965
K	-8.98001
▁alınıb	-8.98044
h	-8.98119
▁vəziyyəti	-8.98219
▁qərarı	-8.98298
▁isti	-8.98358
▁Türk	-8.98595
▁olunacaq	-8.98817
▁istiqamətdə	-8.98821
▁qızı	-8.98831
▁vətəndaş	-8.98984
▁etməklə	-8.99171
siyasi	-8.9919
▁siyasəti	-8.99214
ını	-8.99239
çı	-8.99263
▁inzibati	-8.99469
lığı	-8.9955
iqtisadi	-8.99939
▁Yəni	-9.00266
▁şəhid	-9.00511
mı	-9.00685
▁professor	-9.00843
▁tərəfdən	-9.00948
▁ədəbi	-9.0098
▁xalqının	-9.0114
M	-9.01179
▁qanunsuz	-9.01314
▁məhv	-9.01809
▁katibi	-9.01857
▁bilməz	-9.02118
:“	-9.02124
▁müdiri	-9.02367
▁ətrafında	-9.02469
▁gedir	-9.02695
▁barəsində	-9.02917
maq	-9.02922
▁səfər	-9.02927
▁iddia	-9.02937
▁kütləvi	-9.02968
mış	-9.03007
▁səmərəli	-9.03039
ıq	-9.0368
▁ədəd	-9.03844
▁elm	-9.04035
▁SSRİ	-9.04094
sında	-9.04162
▁lider	-9.04189
▁Məclisin	-9.04364
▁yenə	-9.04471
▁etdiyini	-9.04501
▁tamamilə	-9.04876
F	-9.0492
▁yayıb	-9.04974
▁olmalıdır	-9.05281
▁layihəsi	-9.05325
▁Gəncə	-9.0535
▁X	-9.05648
▁Fondunun	-9.05668
▁ana	-9.05672
▁nümayəndə	-9.06618
▁Silahlı	-9.06716
▁hesabına	-9.06788
▁ortaya	-9.06872
▁bərabər	-9.0701
ının	-9.07024
▁əvvəlki	-9.0712
▁hansısa	-9.07152
indən	-9.07184
mız	-9.07271
▁Xatırladaq	-9.07284
▁ibarətdir	-9.07462
▁yaradır	-9.0765
▁aparıcı	-9.07685
▁Ulu	-9.07694
▁dili	-9.07781
▁Məhəmməd	-9.07868
▁tədris	-9.07897
▁hazır	-9.08054
▁sistemi	-9.08268
sını	-9.08295
ir	-9.08324
▁tibbi	-9.08532
▁özünə	-9.08646
▁münasibət	-9.08704
▁elektrik	-9.08868
▁təbrik	-9.08973
▁ehtiyac	-9.09056
▁strateji	-9.09126
▁U	-9.09248
ar	-9.09447
▁sayəsində	-9.09527
▁real	-9.09532
▁aparılır	-9.09623
▁zəruri	-9.09652
▁yəni	-9.09671
▁G	-9.09711
▁ittiham	-9.09811
▁Sonra	-9.0982
▁qaydada	-9.09852
Qarabağ	-9.09857
sız	-9.10024
▁görkəmli	-9.10103
▁göz	-9.10117
▁Oxu	-9.10245
▁həlli	-9.10286
▁insanın	-9.10291
▁başladı	-9.10306
▁Onların	-9.10411
▁qalib	-9.1042
▁təvəllüdlü	-9.10443
▁Musavat	-9.10633
İ	-9.10728
▁kəs	-9.10864
du	-9.11067
▁Müsavat	-9.11233
ün	-9.11363
▁hallarda	-9.11369
▁aydın	-9.11421
▁Məsələn	-9.11447
at	-9.11468
▁münasibətilə	-9.11469
▁gətirib	-9.11469
▁bildirilib	-9.11472
▁Və	-9.11554
ri	-9.11689
▁hökumət	-9.11769
▁məruz	-9.1184
▁dərəcədə	-9.11852
▁texniki	-9.11876
▁alınması	-9.1199
▁dəstəyi	-9.12042
▁aşağıdakı	-9.12256
▁maraq	-9.12342
P	-9.12443
▁münasibətlərin	-9.12451
▁bəyan	-9.12591
▁bəhs	-9.12632
▁təxminən	-9.1275
▁rəisi	-9.12799
▁orqanları	-9.12811
▁qanun	-9.13025
▁biridir	-9.13057
▁Təbii	-9.13216
▁məlumatlar	-9.13241
▁Qafqaz	-9.13362
▁regional	-9.13362
▁Gürcüstan	-9.13373
T	-9.13383
▁vermək	-9.13384
▁beş	-9.13497
▁adını	-9.13546
▁müharibəsi	-9.13649
▁Mehriban	-9.13755
▁məktəb	-9.13801
▁lazım	-9.13964
▁əvəz	-9.14141
▁tərk	-9.14147
▁imtina	-9.14178
▁Nizami	-9.14262
▁verilir	-9.14319
▁birbaşa	-9.1444
▁xalqı	-9.14596
▁layiq	-9.14686
▁dərhal	-9.14761
▁xidməti	-9.14813
▁şəxsin	-9.14927
▁qarşısını	-9.14928
ovun	-9.15081
▁tarix	-9.15249
▁P	-9.15381
▁Mərkəzinin	-9.15415
sən	-9.15597
▁Daxili	-9.15625
liyə	-9.1567
▁İdarəsinin	-9.15818
▁dəyişikliklər	-9.15897
▁Təhlükəsizlik	-9.15916
▁layihə	-9.16158
▁prosesi	-9.16196
▁silah	-9.16261
▁Qara	-9.16303
▁icazə	-9.16315
▁ə	-9.16334
▁növbədə	-9.16379
il	-9.1644
▁məcburi	-9.16663
ayrı	-9.16758
▁Elə	-9.16797
▁m	-9.16924
▁çap	-9.16978
▁tədbir	-9.16983
▁fiziki	-9.1705
▁orqanlarının	-9.17258
▁dörd	-9.17281
▁göstərilən	-9.17285
▁sənət	-9.17438
▁anadan	-9.17493
▁yerə	-9.17499
▁ləğv	-9.17636
▁dəqiq	-9.17846
▁millət	-9.17861
▁tədbirlərin	-9.17885
ına	-9.18033
miş	-9.18132
▁sahələrdə	-9.18161
▁Bunun	-9.18203
▁bilir	-9.1822
▁şair	-9.18225
▁Ötən	-9.18244
▁çünki	-9.18334
▁Digər	-9.18375
▁əməkdaşlığın	-9.18393
▁nümayəndəsi	-9.185
▁may	-9.18517
▁hücum	-9.18521
▁Xocalı	-9.18586
▁gənclər	-9.18728
▁təşəbbüsü	-9.18868
▁bildirilir	-9.18883
▁kəndində	-9.18921
▁görüş	-9.18939
▁yanvar	-9.18985
▁addımlar	-9.19231
▁nəticə	-9.19413
luq	-9.1959
▁davamlı	-9.19643
▁boyu	-9.19694
▁Hətta	-9.19705
▁bunlar	-9.19731
ova	-9.19807
▁doğma	-9.19955
▁media	-9.20015
▁qalıb	-9.20237
er	-9.20262
▁təsərrüfatı	-9.20373
▁terror	-9.20389
anın	-9.20511
Q	-9.20591
▁fəaliyyətinin	-9.20651
sinə	-9.20748
▁APA	-9.20846
▁Sovet	-9.20941
▁ölkələrdə	-9.20995
▁sıx	-9.20996
▁hakim	-9.21039
▁Birinci	-9.21105
▁olundu	-9.21204
▁işğaldan	-9.21275
▁Moskva	-9.21308
▁Hərbi	-9.21558
▁dəyişiklik	-9.2159
▁sadəcə	-9.21689
▁Ş	-9.21778
▁üzv	-9.21829
oğlu	-9.21833
niz	-9.2184
▁Cinayət	-9.21934
▁İlk	-9.22079
▁Artıq	-9.22158
▁nəşr	-9.22175
▁aprel	-9.22219
▁torpaq	-9.22397
▁artırılması	-9.22414
▁gələcəkdə	-9.22441
▁İcra	-9.22473
ç	-9.22517
▁Sosial	-9.22618
▁Almaniya	-9.22735
▁açıqlamasında	-9.22801
▁sübut	-9.22881
tez	-9.22901
v	-9.23
▁əlaqələrin	-9.23022
▁ilkin	-9.23068
▁rolu	-9.23104
▁əhəmiyyət	-9.23197
▁vardır	-9.23265
▁xoş	-9.23494
▁etdirir	-9.23559
ğa	-9.2362
▁Beləliklə	-9.23661
▁çıxıb	-9.23677
▁fəaliyyətini	-9.23828
▁diqqətə	-9.23848
▁alır	-9.23899
▁qlobal	-9.2412
▁etiraz	-9.24164
▁qələbə	-9.24181
▁ermənilər	-9.24186
▁tətbiqi	-9.24314
▁təlim	-9.24461
▁Azərbaycanı	-9.2455
▁Xəzər	-9.24656
▁pis	-9.24769
▁ümumilikdə	-9.2483
E	-9.24897
▁dəfələrlə	-9.24998
▁etibarən	-9.25003
▁Amerika	-9.2501
▁münasibətləri	-9.25043
D	-9.25047
ında	-9.25078
▁müddətdə	-9.25118
▁olunmuşdur	-9.25155
▁əsl	-9.25288
▁şəhərinin	-9.25505
▁İkinci	-9.25543
▁Turizm	-9.25549
sinin	-9.25598
▁ediləcək	-9.25753
▁çalışır	-9.25756
▁II	-9.25929
▁qara	-9.25965
▁dilində	-9.26034
▁Bunu	-9.26057
G	-9.26082
▁etdirən	-9.26168
▁yazır	-9.26171
▁sənaye	-9.26203
Yeni	-9.26575
▁təhlükəsizliyi	-9.26583
▁Şəhər	-9.26615
▁Bizim	-9.26629
▁Çin	-9.26651
▁mart	-9.26767
▁ulu	-9.26813
▁dərəcə	-9.26813
Ə	-9.26969
g	-9.2704
▁demokratik	-9.2708
▁deyilir	-9.27156
▁tutan	-9.27193
▁əlaqə	-9.27308
▁Ən	-9.27377
ır	-9.2739
▁inşa	-9.27465
▁dərc	-9.27721
▁Türkiyədə	-9.27878
▁İranın	-9.2797
▁noyabr	-9.2803
▁Məcəlləsinin	-9.28057
▁vaxtı	-9.28387
▁iyun	-9.28469
▁əməl	-9.28502
▁əlaqələr	-9.28509
▁Bakının	-9.28539
▁İttifaqı	-9.28713
▁fərdi	-9.28817
▁biləcək	-9.28827
▁parlament	-9.28978
▁teatr	-9.29023
V	-9.29098
▁Qərb	-9.29138
▁ermənilərin	-9.29362
▁öndər	-9.29415
▁aparılıb	-9.29417
▁bizi	-9.29566
▁istənilən	-9.29668
▁sığorta	-9.29766
▁heyəti	-9.29865
▁kim	-9.29952
▁ölkələr	-9.3
▁şöbəsinin	-9.30035
▁dekabr	-9.30064
▁vergi	-9.30127
▁Bakıya	-9.30247
mək	-9.30257
▁sahibi	-9.30261
▁Əliyeva	-9.30384
▁günlərdə	-9.30479
▁vermiş	-9.30535
▁arasındakı	-9.30538
▁gözlənilir	-9.30568
▁səbəbdən	-9.30576
▁çıxan	-9.30603
lan	-9.3072
Bakı	-9.30724
▁Füzuli	-9.30732
▁konkret	-9.30738
▁danışıqlar	-9.30761
▁həftə	-9.30873
▁general	-9.30934
▁sovet	-9.31008
▁hökuməti	-9.31152
▁çatıb	-9.31165
▁üstünlük	-9.31336
▁bağlıdır	-9.31355
▁müddətində	-9.31427
▁qorunması	-9.31509
▁əsaslı	-9.31657
▁sahib	-9.31674
▁mümkündür	-9.31695
▁ayının	-9.317
▁imza	-9.318
▁qızıl	-9.31813
▁yük	-9.31866
▁bilərlər	-9.31958
N	-9.32176
▁vitse	-9.3228
▁Şuşa	-9.3229
▁vəziyyətdə	-9.32381
▁uzaq	-9.3252
▁bələdiyyə	-9.32646
▁sisteminin	-9.32819
▁de	-9.32841
▁müalicə	-9.32845
▁təmir	-9.32946
▁malikdir	-9.33006
▁addım	-9.33032
▁Hüseyn	-9.33037
▁Azərbaycanla	-9.33387
▁deyən	-9.33409
▁dövləti	-9.33412
sini	-9.33512
▁tək	-9.33524
zadə	-9.33865
▁etdirilir	-9.33889
▁vəsait	-9.34069
▁sərt	-9.34204
▁qala	-9.34231
▁olmayıb	-9.34451
▁əgər	-9.34456
▁birində	-9.34458
:"	-9.34549
▁ələ	-9.34597
▁Muxtar	-9.34599
▁üçüncü	-9.34768
▁dəniz	-9.34801
▁təşkili	-9.34985
Biz	-9.35042
▁növ	-9.35159
▁əleyhinə	-9.35242
▁yerində	-9.35271
▁həyatı	-9.35335
▁km	-9.35351
ması	-9.35357
▁vəkili	-9.35485
▁telefon	-9.35514
▁on	-9.35514
▁mövzusunda	-9.35529
▁problem	-9.35554
▁dəmir	-9.35559
ib	-9.35566
▁incəsənət	-9.3573
▁sonrakı	-9.35737
▁sözü	-9.35741
▁oktyabr	-9.35867
▁Partiyasının	-9.35874
▁başçısının	-9.35896
▁ölkələri	-9.35926
unun	-9.35942
is	-9.35944
dür	-9.36094
▁Birliyinin	-9.36101
▁sürətlə	-9.36198
▁içində	-9.36315
▁araşdırma	-9.36395
▁tikinti	-9.36444
▁artisti	-9.36509
▁istəyirəm	-9.36713
▁qardaş	-9.36758
▁sentyabr	-9.36795
▁danışıb	-9.368
▁daxilində	-9.36888
▁yaşadığı	-9.36963
▁qrupu	-9.36975
▁yazıb	-9.37038
ti	-9.37256
▁tutulan	-9.37281
▁olduqca	-9.37325
H	-9.37462
▁düşmən	-9.3752
▁istehsalı	-9.37528
▁faizi	-9.37709
▁düşən	-9.37765
▁etmişdi	-9.37873
▁mülki	-9.37892
▁tibb	-9.37961
▁çalışan	-9.37983
▁nazirinin	-9.38045
▁münasibətlər	-9.38072
▁akademik	-9.38093
▁NATO	-9.3818
▁mərkəzində	-9.38254
▁kəskin	-9.38346
▁sonunda	-9.384
▁qan	-9.38489
▁hissəsində	-9.38528
mağa	-9.38539
▁onunla	-9.38568
▁İnsan	-9.38675
▁gündən	-9.38781
▁tutulub	-9.388
▁səfiri	-9.38823
▁istəyir	-9.3884
▁kişi	-9.38953
sində	-9.38963
▁təltif	-9.39043
▁qol	-9.39091
▁doktoru	-9.39097
▁keçirilmiş	-9.39186
▁Şurası	-9.39271
▁oyun	-9.39289
ta	-9.39328
▁düşüb	-9.3949
▁xilas	-9.39522
▁canlı	-9.39525
▁peşə	-9.39618
▁etsin	-9.39627
▁bəzən	-9.39639
▁markalı	-9.39657
▁gedib	-9.39756
▁çoxsaylı	-9.39764
yi	-9.39773
▁baxış	-9.39783
▁komanda	-9.39906
▁yoldaşı	-9.40103
▁dərs	-9.40126
▁hazırlıq	-9.40224
▁özündə	-9.40287
bi	-9.40375
▁güc	-9.40423
▁lideri	-9.40453
▁internet	-9.40535
lığa	-9.40808
ra	-9.40883
▁verəcək	-9.40983
▁meydana	-9.41053
▁investisiya	-9.41076
▁deməkdir	-9.41196
▁Vladimir	-9.41287
▁ölkəyə	-9.41292
▁yaradılıb	-9.41302
▁Gənclər	-9.41345
▁dövlətinin	-9.41408
▁fevral	-9.41408
▁Şərq	-9.41468
▁yazıçı	-9.41522
▁paytaxtı	-9.41617
▁əsərləri	-9.41662
▁film	-9.41708
▁Nə	-9.41775
▁ATƏT	-9.42025
▁icrası	-9.42042
▁xalqımızın	-9.42092
▁təkmil	-9.421
▁Mirzə	-9.42115
▁təsvir	-9.42128
ur	-9.42164
▁Xidmətinin	-9.42197
▁Məhz	-9.42212
▁istifadəyə	-9.42248
▁Əhməd	-9.42257
▁Olimpiya	-9.4229
▁Z	-9.42411
▁Birləşmiş	-9.4243
Mən	-9.42433
▁İctimai	-9.4248
▁Quliyev	-9.42545
▁İnstitutunun	-9.42582
▁Su	-9.42583
▁hakimiyyət	-9.42762
▁aldığı	-9.42835
▁ümummilli	-9.42863
▁sentyabrın	-9.42922
▁tutur	-9.42922
▁ərazilərdə	-9.42966
▁iyul	-9.43074
▁əslində	-9.43096
▁istisna	-9.43146
▁peşəkar	-9.43148
iya	-9.43163
de	-9.4318
▁Ağdam	-9.43221
▁ətraflı	-9.43221
R	-9.43234
▁ərazidə	-9.43262
▁aktiv	-9.43339
en	-9.43342
▁şirkəti	-9.43346
▁partiya	-9.43423
▁müsəlman	-9.43425
▁problemlər	-9.43557
▁ədəbiyyat	-9.43584
▁jurnalist	-9.437
▁cəhd	-9.43783
vi	-9.43818
su	-9.43823
▁at	-9.43854
▁Mətbuat	-9.43881
▁keçirir	-9.44019
▁kəndi	-9.44048
▁qalır	-9.44101
▁görülən	-9.44128
▁verə	-9.44128
bu	-9.44262
▁İş	-9.44272
▁həlak	-9.44542
▁rəhbər	-9.44545
▁işıq	-9.44576
▁uğurlar	-9.44592
▁diplomatik	-9.44741
▁mütləq	-9.44796
▁gənclərin	-9.44843
▁başlayır	-9.45225
X	-9.45346
▁Sumqayıt	-9.45359
▁dövrü	-9.45418
▁indiki	-9.45463
▁keçirib	-9.45569
▁səviyyəsində	-9.45603
▁söyləyib	-9.45629
▁hazırlanması	-9.45649
▁yerlərdə	-9.45702
▁fəaliyyətinə	-9.45739
▁İsrail	-9.4582
min	-9.45911
▁ifa	-9.45956
▁inkişafında	-9.4602
▁tutulmuş	-9.46056
▁siyasətinin	-9.46119
▁sayda	-9.46216
▁saytının	-9.46223
▁Onu	-9.46281
▁sabiq	-9.46362
▁səbəbi	-9.46392
▁tutulur	-9.46399
▁Neft	-9.46452
▁azı	-9.46454
ğ	-9.46513
▁hal	-9.46548
▁vətəndaşı	-9.46669
▁müqayisədə	-9.46813
▁Çox	-9.46851
▁Kabinetinin	-9.46902
▁Hüseynov	-9.46903
▁təsiri	-9.47099
on	-9.47148
▁alaraq	-9.47236
▁mövcuddur	-9.47263
▁yuxarı	-9.47284
▁düşür	-9.47357
▁sahəsi	-9.47466
▁imkanı	-9.47478
▁özəl	-9.47617
▁vəzifə	-9.4762
▁tərəf	-9.47672
imiz	-9.47773
▁axşam	-9.47846
▁hüququ	-9.47858
▁görmək	-9.47874
▁ətraf	-9.47912
um	-9.48093
▁etdilər	-9.48241
▁Britaniya	-9.48314
▁imkanları	-9.48372
▁aparılması	-9.48393
▁yaşayır	-9.48549
▁görünür	-9.48594
▁mübadiləsi	-9.48609
▁istəyən	-9.48667
▁Lənkəran	-9.48691
▁vahid	-9.48735
▁alim	-9.48794
za	-9.48827
▁təhlükə	-9.48873
▁normal	-9.48902
▁Allah	-9.48979
▁xan	-9.48993
▁olmadığını	-9.49013
▁vətəndaşların	-9.49097
▁keçirmək	-9.4911
ba	-9.49114
▁iri	-9.49198
it	-9.49239
▁Həsən	-9.49335
▁yerləşir	-9.4942
:""“	-9.49462
▁biznes	-9.49499
▁onlardan	-9.4963
▁keçib	-9.49638
və	-9.49653
▁qoyub	-9.49664
▁respublika	-9.49699
▁tutub	-9.49708
▁uşaqların	-9.49986
▁etməyi	-9.50004
▁humanitar	-9.50033
▁olmaz	-9.50046
▁önəmli	-9.50048
▁azərbaycanlılar	-9.50087
kar	-9.50096
▁görüşdə	-9.50179
▁olunmasına	-9.50314
▁gömrük	-9.50406
▁yaxınlığında	-9.50472
▁Respublikasında	-9.50596
▁Abşeron	-9.507
▁məcbur	-9.5071
▁yaratmaq	-9.50728
▁şəraitində	-9.50825
▁qiyməti	-9.50841
▁proqramı	-9.50913
▁istintaq	-9.51036
▁cəmi	-9.5104
▁xahiş	-9.5139
▁xəsarət	-9.5139
▁Orta	-9.51403
▁dil	-9.51409
▁adından	-9.5142
▁qüvvələri	-9.5142
▁layihələr	-9.51429
▁islahatlar	-9.51509
▁istər	-9.51514
▁səfəri	-9.51525
▁açıqlama	-9.5156
▁gəldi	-9.51614
▁daimi	-9.5165
▁YAP	-9.51673
▁Şimali	-9.51675
▁bazar	-9.5171
▁müqavilə	-9.51753
▁yaratdığı	-9.51754
▁cəmiyyətin	-9.51761
▁yaradıcılıq	-9.51809
▁məsələsi	-9.5189
▁səhər	-9.51929
▁nəticələri	-9.51998
▁çoxdur	-9.52081
yla	-9.52098
▁regionda	-9.52112
▁tənqid	-9.52195
▁oktyabrın	-9.52221
▁məhrum	-9.52244
▁ikitərəfli	-9.52257
▁uşaqlar	-9.52421
▁sağ	-9.52434
▁sənəd	-9.52457
▁yekun	-9.52476
▁forma	-9.52526
▁əksini	-9.52553
▁niyə	-9.52624
▁yüz	-9.52634
▁rast	-9.5267
▁bax	-9.5268
▁ürək	-9.52694
▁formada	-9.5278
ğı	-9.52835
▁qida	-9.52867
▁ad	-9.52891
▁cəhətdən	-9.52936
▁Məlumata	-9.53036
▁normativ	-9.53049
mizin	-9.53126
▁məqsəd	-9.53144
▁olmasına	-9.53185
▁Apasport	-9.5323
▁müəllifi	-9.53242
lü	-9.53267
▁Əlbəttə	-9.53354
▁nüfuzlu	-9.5341
▁təcrübə	-9.53645
▁müvəqqəti	-9.53645
▁yaş	-9.53653
bir	-9.53736
id	-9.53879
▁daşıyır	-9.53962
▁nəfərin	-9.53967
▁yeganə	-9.54051
▁keçir	-9.54098
▁futbol	-9.54133
▁mənfi	-9.5414
▁şəhərin	-9.54301
▁noyabrın	-9.54305
ndakı	-9.54316
▁şimal	-9.54319
L	-9.54388
▁Partiyası	-9.54391
▁yanvarın	-9.5441
▁etdirilməsi	-9.54456
▁kredit	-9.54591
▁Həm	-9.54632
▁işlərin	-9.54657
▁yola	-9.54848
▁nəinki	-9.54906
▁dostluq	-9.55152
▁kəsb	-9.55152
▁artır	-9.55172
▁İttifaqının	-9.5521
▁Mir	-9.55283
▁tərəfi	-9.55328
▁dövr	-9.55329
▁zəng	-9.55561
▁sərhəd	-9.55575
▁növü	-9.55658
▁qurulması	-9.55686
▁bayram	-9.55725
▁hörmət	-9.55762
st	-9.55774
Ş	-9.55919
▁narahat	-9.55929
▁ata	-9.55951
▁tələbə	-9.55976
▁İtaliya	-9.56021
el	-9.56077
▁fikrincə	-9.56091
U	-9.56131
dığı	-9.56188
▁qərara	-9.56199
▁məhkum	-9.56276
▁an	-9.56323
▁İqtisadi	-9.56346
▁təkrar	-9.56369
yıb	-9.56436
▁Respublika	-9.56524
▁ziyarət	-9.56529
▁ixtisas	-9.56717
▁cənub	-9.56719
▁çıxır	-9.56842
▁izah	-9.5702
▁tikintisi	-9.57129
kı	-9.5716
▁zərər	-9.57275
▁çoxlu	-9.57444
▁Bildirilib	-9.57462
▁göstərdiyi	-9.57482
iş	-9.57506
▁bitki	-9.57512
▁iclasında	-9.57528
▁birinin	-9.57691
▁günə	-9.57695
▁Komitəsi	-9.5775
▁narkotik	-9.57824
▁bank	-9.57832
▁yaxından	-9.57849
▁bilərik	-9.57981
▁televiziya	-9.58078
▁fevralın	-9.58097
▁qrupunun	-9.58122
▁etdikləri	-9.58249
▁L	-9.58255
▁ölüm	-9.58349
▁olmayaraq	-9.58403
▁problemləri	-9.58474
▁dəyər	-9.58562
▁edilməsinə	-9.58562
▁soyqırımı	-9.58643
▁Akademiyasının	-9.58666
▁rayonun	-9.58705
▁avqust	-9.59078
▁Y	-9.59085
▁nəticəsi	-9.59127
▁mürəkkəb	-9.59182
▁həkim	-9.59201
▁Ümumiyyətlə	-9.59236
▁onlarla	-9.59433
▁martın	-9.59608
▁olmadan	-9.59663
▁xidmətləri	-9.597
▁göstərib	-9.59739
xan	-9.59796
▁sizin	-9.59832
▁İnkişaf	-9.59857
▁səmimi	-9.59882
▁etiraf	-9.59956
▁Laçın	-9.60079
ist	-9.60082
▁koronavirus	-9.60089
▁vaxtlar	-9.60196
▁çatdırıb	-9.6038
▁Hacı	-9.6039
▁sərbəst	-9.60428
▁ənənəvi	-9.60544
▁hissi	-9.60564
▁əhali	-9.60622
▁kino	-9.60656
▁mayın	-9.6071
▁saxlanılıb	-9.6073
▁odur	-9.60888
ko	-9.61015
▁siz	-9.61133
▁aprelin	-9.61217
▁etmir	-9.61335
liyini	-9.61371
▁rahat	-9.61385
▁mənada	-9.61559
▁ümid	-9.61656
▁yaradılan	-9.61675
sin	-9.61761
▁bilən	-9.61799
▁Osmanlı	-9.61841
▁Asiya	-9.61856
▁De	-9.61867
▁işçi	-9.61892
▁iştirakçıları	-9.61933
▁olunduğu	-9.61977
▁AMEA	-9.62032
▁metr	-9.62034
▁Ukraynanın	-9.6205
▁Ümummilli	-9.62064
▁artım	-9.62158
▁can	-9.6216
▁lazımi	-9.62268
▁Həsənov	-9.623
liyin	-9.62338
▁qız	-9.62386
▁açıqlayıb	-9.62406
siniz	-9.62416
▁tərtib	-9.62554
▁dekabrın	-9.6257
▁aparan	-9.62591
rkən	-9.62595
▁etməlidir	-9.62643
▁vurub	-9.62688
lərarası	-9.62783
▁aktyor	-9.62804
▁mühafizə	-9.62848
▁cari	-9.62879
▁Ermənistana	-9.62901
▁əksəriyyəti	-9.63014
▁tərkibində	-9.63019
▁Qarabağda	-9.63031
▁vəfat	-9.63035
▁başlayaraq	-9.63047
▁Öz	-9.63074
▁töhfə	-9.63082
nız	-9.63128
▁dövlətimizin	-9.63154
▁qonşu	-9.63221
▁ardıcıl	-9.63249
▁Səhiyyə	-9.63315
▁Yaxın	-9.63614
▁təhlil	-9.63909
▁gücləndirilməsi	-9.64126
▁ingilis	-9.64165
▁sonuncu	-9.64197
▁deputat	-9.64207
▁ala	-9.64215
▁hamısı	-9.64235
▁göstərmək	-9.64262
▁sadə	-9.64315
▁Nəticədə	-9.6433
▁XX	-9.64341
▁möhtəşəm	-9.64458
▁bəri	-9.64513
▁qəzeti	-9.64585
▁olmasa	-9.64591
▁vardı	-9.64591
məsi	-9.64729
▁Ölkə	-9.64747
▁Al	-9.64835
▁yolla	-9.64954
▁KİV	-9.65011
▁aparır	-9.65167
▁məğlub	-9.65211
▁bilmir	-9.65279
▁Sizin	-9.65297
▁rejissor	-9.6543
▁Məmməd	-9.65445
▁ordu	-9.65466
▁yaradılmış	-9.65523
▁kənarda	-9.65567
▁proqram	-9.6565
yev	-9.65677
▁atası	-9.65683
araq	-9.65689
▁xarakterli	-9.65711
▁İsmayıl	-9.65728
▁Kənd	-9.65738
▁qalmış	-9.65771
▁təhsili	-9.65773
▁yaranan	-9.65856
▁çəkən	-9.6589
▁Minsk	-9.65925
▁səbəbindən	-9.65991
▁heyətinin	-9.66084
ul	-9.66159
▁Qazaxıstan	-9.66212
▁naminə	-9.66341
▁Rusiyada	-9.6647
▁xətti	-9.66495
▁illərində	-9.66538
▁ordusu	-9.66547
▁insanları	-9.66552
▁olmağa	-9.66558
▁Bəzi	-9.66592
▁problemi	-9.66599
▁olacağı	-9.66611
▁yad	-9.6666
▁Şah	-9.66689
prezidenti	-9.6677
▁çevrilib	-9.66771
mizi	-9.66893
▁ümumiyyətlə	-9.66893
▁İdarə	-9.66929
▁Rusiyaya	-9.66992
▁minlərlə	-9.67012
▁İsa	-9.67053
ran	-9.67147
▁içərisində	-9.67186
▁sözlə	-9.67198
▁rolunu	-9.67328
▁gündüz	-9.67339
▁görülüb	-9.674
▁dövlətlərin	-9.67408
▁cəza	-9.67533
▁hakimiyyətə	-9.67563
▁sağlam	-9.67568
▁əməkdaşı	-9.67569
▁xadimi	-9.67576
▁mənzil	-9.67613
▁idarəetmə	-9.67685
▁hadisələr	-9.6781
▁dəqiqə	-9.67847
le	-9.67869
▁İki	-9.67931
▁prioritet	-9.67998
▁ixrac	-9.68068
▁insanlara	-9.68073
▁təşkilatçılığı	-9.68101
▁bilərsiniz	-9.68145
▁Seçki	-9.68147
▁ağ	-9.68207
ylə	-9.68264
▁daxildir	-9.68274
▁çay	-9.68302
▁Tədbirdə	-9.68319
▁Suriya	-9.68365
▁səhiyyə	-9.6841
▁əmin	-9.68411
▁şirkətinin	-9.6847
▁mövqe	-9.68656
▁qətlə	-9.68807
▁görüşü	-9.68827
▁edilərək	-9.6883
▁qardaşı	-9.68832
▁etmə	-9.68848
va	-9.68856
▁Hava	-9.68856
▁xüsusən	-9.68864
▁dinc	-9.69062
▁sən	-9.69113
▁kənar	-9.69127
ıb	-9.69129
▁tövsiyə	-9.69157
▁əziyyət	-9.69196
Z	-9.69239
▁ili	-9.69307
▁Qarabağın	-9.6932
▁etnik	-9.69337
▁müxalifət	-9.69343
dü	-9.69354
▁vasitəsi	-9.69356
dılar	-9.69388
▁fəxri	-9.69429
▁edildiyi	-9.69522
▁iyunun	-9.69585
▁start	-9.69611
▁tələblərinə	-9.69769
▁giriş	-9.69843
▁müğənni	-9.69906
▁Əməkdar	-9.69906
▁Universiteti	-9.69907
▁miqdarda	-9.69955
▁istirahət	-9.70013
us	-9.70057
▁qadağan	-9.7008
▁birinə	-9.70132
ər	-9.70338
▁qarşısının	-9.70347
▁sakinləri	-9.704
▁zərbə	-9.70413
▁sərgi	-9.70425
▁tipli	-9.70429
▁sözügedən	-9.70446
zi	-9.70465
▁başlayan	-9.70501
▁edərkən	-9.70528
es	-9.70592
▁aylıq	-9.70691
▁namizəd	-9.70728
▁aidiyyəti	-9.7078
▁konsert	-9.7079
van	-9.70797
▁illərin	-9.70947
▁din	-9.70959
▁qayğı	-9.70961
▁sahələrində	-9.70984
qa	-9.70985
▁sevgi	-9.7099
▁infrastruktur	-9.71053
▁onda	-9.71069
do	-9.71105
▁Nazir	-9.71141
▁yolunda	-9.7117
▁Ay	-9.71307
▁müstəqillik	-9.71382
▁deyildi	-9.71406
▁kitabı	-9.71408
dim	-9.71429
▁Kabineti	-9.71432
ter	-9.71524
▁yolunun	-9.716
▁yanğın	-9.7166
▁Hadisə	-9.71691
▁Ermənistanda	-9.7171
▁keçirən	-9.71746
▁şikayət	-9.71783
▁duran	-9.71891
▁Anar	-9.72223
▁fəaliyyətə	-9.72227
or	-9.72299
▁bəlkə	-9.72341
▁əsası	-9.72393
▁bildiriblər	-9.72449
▁tərcümə	-9.72455
▁Siz	-9.725
▁yay	-9.72507
dilər	-9.72559
▁atəş	-9.72587
▁əbədi	-9.72614
▁açıb	-9.72741
sınız	-9.72761
▁müqəddəs	-9.72934
▁Ağ	-9.72977
gi	-9.72989
▁təhvil	-9.73097
j	-9.73154
▁ölüb	-9.73233
▁dost	-9.73247
▁qaldırılması	-9.73304
▁Vaqif	-9.73332
▁dünyasını	-9.73348
▁Əslində	-9.73486
▁dövrün	-9.7352
▁cəmiyyət	-9.73541
▁hüquqlarının	-9.73563
▁olmasını	-9.73625
▁həyatını	-9.73637
▁Şəki	-9.7364
▁apardığı	-9.7365
▁ərzaq	-9.7372
▁günlük	-9.73738
▁məhsulları	-9.73761
▁Təşkilatının	-9.73768
▁ordusunun	-9.73834
▁iyulun	-9.73961
▁işlərinin	-9.73962
▁verilmiş	-9.73977
▁şəraitdə	-9.74015
▁yazdığı	-9.74106
▁maddəsi	-9.74109
▁mövqeyi	-9.74324
▁İbrahim	-9.74337
▁Birliyi	-9.744
▁edilməlidir	-9.74461
▁Bank	-9.74479
▁Əliyevanın	-9.74488
▁şərh	-9.74555
ro	-9.7456
▁Türkiyəyə	-9.74594
▁sanki	-9.74624
▁məktəbi	-9.74656
▁olardı	-9.74664
▁məsuliyyət	-9.74702
▁etdirmək	-9.74706
əl	-9.74829
▁məktəbin	-9.7494
▁ziyan	-9.74968
▁müddəti	-9.74978
▁mərhələsində	-9.75007
▁ərəb	-9.75141
▁xalqına	-9.7518
▁bərpası	-9.75205
▁prosesində	-9.75316
▁ön	-9.75354
▁yaşı	-9.75398
▁Putin	-9.75403
▁Avropanın	-9.75425
▁sonradan	-9.75439
▁qüvvələrinin	-9.7549
▁şahidi	-9.75492
▁həyatında	-9.75494
▁Məhkəməsinin	-9.75526
▁Elmlər	-9.75548
▁təşkilat	-9.75585
▁İrəvan	-9.75617
▁şəxsiyyət	-9.75622
▁əsr	-9.7563
əli	-9.75689
▁bal	-9.75707
▁sual	-9.75716
▁səhnə	-9.75753
▁əsəri	-9.75756
▁problemlərin	-9.7576
▁futbolçu	-9.75812
▁dərk	-9.75903
son	-9.75964
▁Uşaq	-9.75965
▁Əl	-9.75977
▁evdə	-9.76029
▁faydalı	-9.76051
▁Azərbaycandakı	-9.76061
te	-9.76159
▁vacibdir	-9.76167
neft	-9.76191
▁quru	-9.76256
fa	-9.76311
▁olduğundan	-9.764
▁əvvəlcə	-9.76423
▁fikirlər	-9.76492
▁mərasimi	-9.76598
▁Əmək	-9.76601
dar	-9.76635
▁adamı	-9.76668
▁şübhəli	-9.76674
▁təzyiq	-9.7668
▁təsis	-9.76697
▁Əliyevə	-9.76702
▁müdaxilə	-9.76718
▁oynayır	-9.76795
▁hadisəsi	-9.76925
▁göstərdi	-9.76945
▁tamam	-9.76958
▁Fondu	-9.76974
ski	-9.76998
▁tapıb	-9.77051
▁hesabı	-9.77058
▁kq	-9.77079
▁əlaqələri	-9.77133
▁imkanlar	-9.7717
Rusiya	-9.77288
▁nəzarəti	-9.77324
rə	-9.77362
Bir	-9.77373
▁üzvlərinin	-9.77402
▁məhsul	-9.77469
▁bölgədə	-9.77493
▁mədəniyyəti	-9.77559
Y	-9.77606
ha	-9.77668
▁klassik	-9.77691
▁Arif	-9.77738
unu	-9.77812
texniki	-9.77868
▁etibarlı	-9.77891
▁yaradıb	-9.77932
▁Qüvvələrinin	-9.77963
▁bayramı	-9.77965
▁zəif	-9.78038
▁müzakirələr	-9.78119
▁tədbiri	-9.78132
▁əvvəllər	-9.78139
▁daş	-9.7823
▁ölkələrində	-9.78265
▁üzə	-9.78277
▁qismində	-9.78326
▁məsələyə	-9.78372
▁dağ	-9.78384
▁Aleksandr	-9.78414
▁müəssisələrinin	-9.78431
▁Paşinyan	-9.78454
▁mərhələdə	-9.78463
▁ölkəmizə	-9.78516
▁sizə	-9.78522
▁qat	-9.78534
▁yaradıcılığı	-9.78651
▁Günü	-9.78653
▁yaranmış	-9.78696
▁İdman	-9.78719
▁qaldı	-9.78728
▁yanaşma	-9.7873
▁aparmaq	-9.78751
▁olmuşdu	-9.78775
▁köhnə	-9.78823
▁hərtərəfli	-9.78919
▁razılıq	-9.7905
▁gizli	-9.79082
▁adi	-9.79162
▁iqtisadiyyatın	-9.79243
▁həqiqi	-9.79379
▁etdik	-9.79443
▁tezliklə	-9.79474
▁karantin	-9.7958
▁arxasında	-9.79597
▁arzu	-9.79658
▁mobil	-9.79705
▁elmləri	-9.79771
▁gücü	-9.79776
▁çıxışı	-9.79841
▁məşqçi	-9.7994
▁səviyyəsi	-9.7999
▁saatlarında	-9.80076
Neftçi	-9.80222
▁məhdud	-9.80252
▁deputatı	-9.80329
▁şəxslərə	-9.80338
▁müharibəsində	-9.80341
ım	-9.80354
▁təşkilatının	-9.80367
▁qurumun	-9.80414
▁gül	-9.80466
▁təhlükəli	-9.80477
▁yoluxma	-9.80482
▁medalı	-9.80569
▁ildir	-9.80596
▁Maliyyə	-9.80729
▁dahi	-9.80744
▁tədqiqat	-9.80793
▁sənədlər	-9.80999
▁Mənim	-9.81001
▁Tarix	-9.81142
▁nüvə	-9.81186
▁Moskvada	-9.81198
▁daşıyan	-9.81281
▁ekspert	-9.81293
▁keçid	-9.81318
▁yaradıcı	-9.81513
os	-9.81544
▁sürətli	-9.81558
▁redaktoru	-9.81576
▁Novruz	-9.81579
▁tədbirdə	-9.81695
▁xarakter	-9.81751
▁avqustun	-9.81792
▁Elçin	-9.81817
▁ekoloji	-9.82006
▁Xidməti	-9.82077
▁nisbətən	-9.82077
▁layiqli	-9.82157
▁görüşüb	-9.82189
▁vaxtda	-9.82193
▁fikirləri	-9.82212
ət	-9.82226
▁çoxu	-9.82244
▁çəkir	-9.823
▁işğalçı	-9.82372
▁sinif	-9.82688
▁qiymətli	-9.82712
▁maddələr	-9.82794
▁imtahan	-9.82795
▁haqqı	-9.82882
▁parlaq	-9.83012
▁razı	-9.83044
▁iclası	-9.83102
▁diqqəti	-9.83153
▁təşkilatların	-9.83182
▁şirkət	-9.83196
▁hüquqları	-9.83201
▁fəlsəfə	-9.83208
▁yerləşdirilib	-9.8329
mir	-9.83315
▁yalan	-9.83321
▁Fransanın	-9.83386
(	-9.83436
▁verməyə	-9.83698
▁görüb	-9.83729
▁gündəlik	-9.83747
▁video	-9.83787
diyi	-9.83799
▁Yol	-9.8382
ver	-9.83884
larımız	-9.83917
▁təqdirdə	-9.83917
I	-9.84044
▁ölkələrinin	-9.8416
▁bütövlükdə	-9.84167
▁məşqçisi	-9.84206
▁Heç	-9.84218
▁hesabat	-9.84316
▁İnformasiya	-9.8433
▁əsrdə	-9.84335
▁təminatı	-9.84347
▁olublar	-9.84359
▁çəkib	-9.84365
▁mütəxəssis	-9.84424
▁şeir	-9.84431
▁əsgər	-9.84464
▁vaxtında	-9.8455
▁əksər	-9.84563
▁qazanıb	-9.84643
▁İŞİD	-9.84675
lo	-9.84694
▁Ka	-9.84701
▁əlverişli	-9.84711
et	-9.84776
▁kilometr	-9.84801
▁məlumatı	-9.84841
▁münasibəti	-9.84914
▁sırasında	-9.84956
lərimiz	-9.84997
▁anası	-9.85021
▁Elmi	-9.85024
▁münaqişənin	-9.85025
▁artıb	-9.85037
▁Fövqəladə	-9.85069
;.	-9.85071
▁dəyərli	-9.85111
▁yazı	-9.85214
imizin	-9.85217
▁Universitetində	-9.85272
▁saxta	-9.85319
▁yarım	-9.85361
birinə	-9.85429
▁nəticələr	-9.85431
▁üzü	-9.85557
▁müəssisələrində	-9.85584
▁Ar	-9.85597
▁Ərdoğan	-9.85632
▁işinə	-9.85671
▁təşkilatın	-9.85678
▁göstərilir	-9.85793
▁olmadığı	-9.8586
▁başlıca	-9.85863
▁MMC	-9.85917
▁hissəsini	-9.85958
▁vasitələrinin	-9.85976
▁münaqişə	-9.85993
▁fonunda	-9.86063
sından	-9.86088
▁təcili	-9.86113
▁Quba	-9.86223
▁Ç	-9.86248
▁məsələlərin	-9.8634
▁fikirlərini	-9.86395
▁vətəndaşları	-9.86503
▁Liqasının	-9.86571
▁edirdilər	-9.86574
▁dərman	-9.86575
▁olmur	-9.86609
▁gərgin	-9.8662
▁Hesab	-9.86906
▁qəsəbəsində	-9.86913
▁müqaviləsi	-9.86944
▁xəstəxanaya	-9.87016
▁düz	-9.87098
▁asan	-9.87106
▁şəraiti	-9.87192
▁Üzeyir	-9.87218
▁hissəsinin	-9.87232
▁ehtiyacı	-9.87343
▁yaradan	-9.87464
▁nəticədə	-9.87466
▁Sa	-9.87494
▁ton	-9.87542
▁adət	-9.87706
▁dəyişib	-9.87711
▁Rəcəb	-9.87722
▁layihələrin	-9.87761
mənəvi	-9.87918
▁təhsilin	-9.87943
▁III	-9.88056
▁imzalayıb	-9.88064
sk	-9.88106
▁mütəmadi	-9.88109
▁hazırkı	-9.88123
▁qəbulu	-9.88169
▁edin	-9.88212
▁məsləhət	-9.88262
ne	-9.88303
▁respublikanın	-9.88312
▁təşkilatlar	-9.88397
▁klubu	-9.88407
▁bədən	-9.88442
▁texnologiyaları	-9.88451
▁edilə	-9.88518
ad	-9.88613
▁paytaxt	-9.88642
▁təmsilçisi	-9.88679
məyə	-9.88707
mühafizə	-9.88725
▁xəstə	-9.88763
▁əlbəttə	-9.8878
▁ədəbiyyatı	-9.8879
▁Abdullayev	-9.88897
▁Mərkəzində	-9.88897
▁Avropada	-9.88938
▁sədrinin	-9.88991
▁istərsə	-9.8901
▁Belarus	-9.89062
▁işləyən	-9.8913
▁anti	-9.89174
▁xəbərdarlıq	-9.89181
▁raket	-9.89211
▁rayonlarında	-9.89218
▁Görüşdə	-9.89242
▁TV	-9.89257
▁müəllimi	-9.89324
▁etməli	-9.89372
▁hazırlanmış	-9.89407
▁yaranıb	-9.89471
▁top	-9.89485
▁məhsullarının	-9.89746
▁b	-9.8978
▁etdiyimiz	-9.89834
▁müdafiəsi	-9.89837
▁dolu	-9.89839
▁önəm	-9.89843
▁konfrans	-9.89856
▁məlumatları	-9.89992
▁vəzifəli	-9.9001
tan	-9.90018
▁haqq	-9.90103
▁əməkdaşlarının	-9.90123
▁qəzetinin	-9.90184
▁Şərqi	-9.90217
aq	-9.90275
▁görür	-9.90345
dım	-9.90348
▁valyuta	-9.90413
▁nəzər	-9.9046
▁altı	-9.90542
▁cərimə	-9.9055
▁Si	-9.9056
▁maddəsinin	-9.90626
▁əhəmiyyəti	-9.90706
▁Sizə	-9.90803
▁Ramiz	-9.90952
ından	-9.91039
▁mövqeyini	-9.91041
▁layihələri	-9.91063
▁qüvvəyə	-9.91067
▁yolun	-9.9112
▁sahələri	-9.91159
▁inkişafının	-9.91197
▁artması	-9.91207
ləşdirilmiş	-9.91257
▁mal	-9.91298
▁Yusif	-9.91321
ça	-9.91503
▁Report	-9.91573
▁sahə	-9.91624
▁Abbas	-9.91757
▁qorumaq	-9.91802
▁Tofiq	-9.91816
▁təhlükəsizliyin	-9.91822
▁mərasimində	-9.91833
▁qoyulan	-9.91835
▁Erməni	-9.91835
▁vəziyyətə	-9.91849
▁xidmətinin	-9.91938
▁qərarına	-9.91938
▁dəfn	-9.91964
▁rəhbərləri	-9.91994
▁Ordusunun	-9.92041
▁Əsas	-9.92157
▁münaqişəsinin	-9.92162
acaq	-9.92162
mızın	-9.92205
▁muğam	-9.9221
▁Musiqi	-9.92235
▁mane	-9.92293
▁cəmiyyətdə	-9.92349
▁veriləcək	-9.92449
▁seçilib	-9.92482
▁sədr	-9.92484
▁cəmiyyəti	-9.92509
▁qadınlar	-9.92515
dığını	-9.92606
▁İqtisadiyyat	-9.92615
▁sərnişin	-9.92678
▁Hacıyev	-9.92691
▁sərf	-9.92795
▁e	-9.92891
▁tanınan	-9.92891
▁təbliğ	-9.92936
▁baza	-9.92945
▁iqtisadiyyat	-9.92952
▁əvvəllərində	-9.92954
ye	-9.92958
▁yaşında	-9.92973
▁başına	-9.93051
▁Prezidentin	-9.9308
▁proses	-9.93244
▁of	-9.9325
▁La	-9.93295
▁şəklində	-9.93363
mu	-9.93396
▁Sultan	-9.93401
▁ailəsi	-9.93424
▁Ağır	-9.93426
▁əziz	-9.93447
▁gəlmək	-9.93528
▁qəzet	-9.93568
Türkiyə	-9.93693
▁olmayacaq	-9.93696
▁Agentliyinin	-9.93707
▁təmiz	-9.93732
▁adamları	-9.93741
▁Gürcüstanın	-9.93786
▁əhalisinin	-9.93787
▁arxa	-9.93802
▁texnika	-9.93844
▁evi	-9.93877
▁Hələ	-9.93889
▁qüvvələr	-9.93954
bə	-9.94005
▁layihəsinin	-9.94022
▁təşkilatı	-9.94036
lığın	-9.94051
▁ərəfəsində	-9.94067
▁vasitələri	-9.94074
ür	-9.94168
▁sistem	-9.94274
▁altına	-9.94275
▁evə	-9.94372
▁Səudiyyə	-9.94398
as	-9.944
▁qanunvericilik	-9.94404
▁ehtimal	-9.94513
▁sayının	-9.94533
▁müəllif	-9.94538
▁Gül	-9.9454
▁verilmişdir	-9.94546
▁mindən	-9.94579
▁istedadlı	-9.94618
▁reaksiya	-9.94654
▁pozulması	-9.947
▁nəfəri	-9.94703
▁Dəniz	-9.94763
▁işlə	-9.94772
▁olunmalıdır	-9.94889
pa	-9.94917
▁nəhəng	-9.94935
▁ASC	-9.95079
▁ərazisinə	-9.95086
▁Ədliyyə	-9.95092
▁çıxışında	-9.95123
▁işinin	-9.95159
▁verməsi	-9.95173
▁uğur	-9.95181
▁bildirən	-9.9519
▁adamlar	-9.95191
▁ara	-9.95278
izm	-9.95331
▁Bəs	-9.95357
▁Müasir	-9.95398
▁ömür	-9.95489
▁çalışıb	-9.95503
▁Federasiyasının	-9.95598
▁surətdə	-9.95602
▁Nikol	-9.95645
▁şeyi	-9.95708
▁keçirilməsinə	-9.95744
çu	-9.95805
▁çatdırılıb	-9.95829
▁hamı	-9.95926
▁Gömrük	-9.95944
▁layihənin	-9.95999
▁İdarəsi	-9.96031
▁medal	-9.96048
▁klubunun	-9.96125
▁müəllimin	-9.96132
▁səsi	-9.96151
▁əmələ	-9.96178
ub	-9.96224
▁Mustafa	-9.9631
▁tərkib	-9.96315
▁Əməkdaşlıq	-9.96334
▁təşkilatları	-9.96368
▁çəkilən	-9.9637
▁mm	-9.96379
▁getmək	-9.96403
▁Qərbi	-9.96466
▁Gənc	-9.96521
▁təşəkkür	-9.96531
▁siyasətin	-9.96555
▁özünəməxsus	-9.96583
▁tarixinə	-9.96634
▁şəbəkələrdə	-9.96691
▁oluna	-9.96707
▁budur	-9.96754
▁ədalətli	-9.96758
▁Leyla	-9.96795
▁qaçqın	-9.96804
raq	-9.96807
▁götürüb	-9.96815
▁Bələdiyyə	-9.96835
iki	-9.9686
▁təkan	-9.96942
▁səviyyəli	-9.96965
▁mükəmməl	-9.96997
Report	-9.97034
▁Hallar	-9.97106
▁Nəsimi	-9.97119
ay	-9.97156
▁şairi	-9.97212
▁danışan	-9.97216
▁açılması	-9.97239
▁Cəbrayıl	-9.97369
▁hərəkəti	-9.97411
▁əhalisi	-9.97431
▁çağırış	-9.97518
▁azadlığı	-9.97541
▁Nəqliyyat	-9.97582
▁dilə	-9.97586
▁təchiz	-9.97586
▁qəza	-9.976
▁müddətinə	-9.97614
▁final	-9.97674
re	-9.97681
▁verildi	-9.97772
▁Təşkilatı	-9.97797
▁nadir	-9.97804
▁bütövlüyü	-9.97849
▁mübahisə	-9.97886
▁Komissiyasının	-9.97904
▁hadisələri	-9.97914
▁sürət	-9.97915
▁avro	-9.97947
▁ölkəmiz	-9.98033
ərək	-9.98036
▁f	-9.98157
▁An	-9.98164
dik	-9.98205
▁mahnı	-9.98254
▁bölgəsində	-9.98263
▁prosesinin	-9.98269
▁məişət	-9.98554
▁şübhə	-9.98593
▁həqiqətən	-9.98612
▁sistemində	-9.98641
▁təsəvvür	-9.98702
ev	-9.98708
ton	-9.98851
▁işini	-9.98856
▁qürur	-9.9886
tə	-9.98862
▁Qafqazda	-9.98887
▁küçəsi	-9.98934
ilə	-9.98994
▁guya	-9.99074
▁Misir	-9.991
▁xaricdə	-9.99166
▁meşə	-9.99208
▁həllini	-9.99222
▁kadr	-9.99248
▁üstündə	-9.99249
▁Nazirliyinə	-9.99291
▁keçirildi	-9.99366
▁günün	-9.99366
▁toy	-9.9939
üzə	-9.99422
▁büdcə	-9.99425
▁İncəsənət	-9.99461
lük	-9.99569
▁Azər	-9.99682
▁olduqda	-9.99753
▁əsər	-9.99819
▁azadlıq	-9.99877
▁Qanununun	-9.99887
▁səlahiyyətli	-9.99945
▁hökm	-10.0005
▁İstanbul	-10.0014
▁həcmi	-10.0017
▁neftin	-10.0017
▁keçidlər	-10.0018
▁Xüsusi	-10.0019
▁Agentliyi	-10.0032
▁Na	-10.0037
▁orqanı	-10.0041
▁sektorunun	-10.0042
▁günlər	-10.005
▁Azərbaycandan	-10.0054
▁qayda	-10.0056
▁Tayyib	-10.0059
▁başlanılıb	-10.0061
▁Akademik	-10.0063
▁yaşamaq	-10.0063
▁mədəniyyətinin	-10.0064
▁müsahibə	-10.007
▁Tramp	-10.0071
▁təkliflər	-10.0078
▁süni	-10.008
▁Ağa	-10.0087
▁bəlli	-10.0095
▁şairin	-10.0095
▁rejimi	-10.0101
▁yaxınlarda	-10.0101
▁iqtisadiyyatı	-10.0111
Ermənistan	-10.0113
▁AZƏRTAC	-10.0115
▁saxlamaq	-10.0118
▁istiqamət	-10.0119
▁alman	-10.0135
lıdır	-10.0137
▁faktı	-10.0145
▁Tərtər	-10.015
▁qadınların	-10.015
▁qonaq	-10.015
▁olduğuna	-10.0152
▁məktəbdə	-10.0153
▁görüşlər	-10.0155
▁Koreya	-10.0165
▁psixoloji	-10.0169
▁şərti	-10.0171
▁tarixinin	-10.0171
▁deyirlər	-10.0173
▁riayət	-10.0175
▁COVID	-10.0177
təqsirləndirilən	-10.0186
▁əksinə	-10.0194
▁təminat	-10.0215
▁gerçək	-10.0218
▁olmasının	-10.0219
▁məlumatların	-10.0228
▁təəssüf	-10.0228
qaz	-10.0237
din	-10.0238
▁yolunu	-10.0239
▁İraq	-10.0239
▁Vüqar	-10.0243
▁bunları	-10.0246
▁hökmü	-10.0253
▁onlayn	-10.0263
▁dəyəri	-10.0265
▁olarkən	-10.0266
▁Co	-10.0269
mizə	-10.0278
▁aylarında	-10.0283
▁məsələni	-10.0286
▁gərək	-10.0288
▁dolları	-10.0288
▁etdim	-10.029
yar	-10.0292
▁dövlətçilik	-10.0294
kin	-10.0296
▁xüsusiyyətləri	-10.0297
▁fövqəladə	-10.0297
▁qurum	-10.0298
▁Şirvan	-10.0307
▁kompleks	-10.0313
▁alma	-10.0314
▁hədiyyə	-10.0317
▁pay	-10.032
▁rəssam	-10.0321
ant	-10.0326
▁Aİ	-10.0327
▁Re	-10.033
kan	-10.0336
▁mövzu	-10.0336
▁intensiv	-10.0343
▁aktlarının	-10.0344
▁qırmızı	-10.0344
ge	-10.0357
▁indiyədək	-10.0358
▁araşdırmalar	-10.0361
▁ayı	-10.0366
▁getdikcə	-10.0366
▁sözün	-10.0368
▁yarısında	-10.037
▁vermişdir	-10.0371
▁köməyi	-10.0376
▁filmi	-10.0383
▁Heyətinin	-10.0384
▁vəziyyətin	-10.039
▁nümunələri	-10.0395
ül	-10.0399
▁nümunə	-10.04
▁yolda	-10.04
▁qərarlar	-10.0402
▁İspaniya	-10.0402
▁Siyasi	-10.0402
▁vəzifəsində	-10.0411
▁üzərindən	-10.0414
▁Qarayev	-10.0414
▁dünən	-10.0422
▁hadisələrin	-10.0423
▁oyunu	-10.0425
▁əsərlər	-10.0429
▁əlaqələrinin	-10.0434
▁dövlətlər	-10.0437
▁İlkin	-10.0448
siya	-10.045
una	-10.047
▁saytına	-10.0472
fi	-10.0476
▁sərəncam	-10.0486
▁Ümumdünya	-10.0488
▁MDB	-10.0495
▁özləri	-10.0509
▁götürülüb	-10.0511
diyini	-10.0511
▁gündə	-10.0514
▁yerini	-10.0516
▁Kamal	-10.0525
▁müsahibəsində	-10.0529
▁mərhələsi	-10.0531
▁sui	-10.0533
▁almış	-10.0537
▁qaydaları	-10.054
▁hökumətinin	-10.0542
▁el	-10.0548
▁özlərini	-10.0552
▁komandası	-10.0562
▁edəcəklər	-10.0562
▁əsir	-10.0565
▁olunurdu	-10.0567
▁birini	-10.0575
▁dərəcəli	-10.0577
▁Proqramı	-10.0577
▁məqsədlə	-10.0583
▁açılış	-10.0587
▁saxlanılması	-10.0592
sın	-10.0593
▁vətəndaşlar	-10.0598
▁işin	-10.0598
asiya	-10.0602
▁əhəmiyyətini	-10.0602
▁Xan	-10.0603
▁xanımı	-10.0604
▁islam	-10.0605
▁statusu	-10.0605
▁düşüncə	-10.0606
▁Əhmədov	-10.0606
▁Yanvar	-10.0609
▁varsa	-10.061
▁aparıb	-10.0612
se	-10.0618
ing	-10.0619
▁fransız	-10.0628
▁edənlər	-10.063
▁Mü	-10.063
▁ehtiyat	-10.0631
▁boyunca	-10.0632
▁ölkədən	-10.0633
çilik	-10.0634
▁gətirir	-10.0639
▁verdiyini	-10.064
▁bilərəm	-10.0642
ak	-10.0653
▁qoyulub	-10.0656
mızı	-10.0658
▁yara	-10.066
liyinə	-10.0664
sindən	-10.0666
▁təbliğat	-10.0668
▁səfərdə	-10.0671
▁həllinə	-10.0671
▁islahatların	-10.0672
ana	-10.0675
▁əsasını	-10.0677
▁p	-10.0677
▁alınan	-10.0679
▁işlərinə	-10.0682
▁edəcəyik	-10.0704
ot	-10.0706
▁qoruyub	-10.0707
▁bugünkü	-10.0707
laşma	-10.0712
▁oğlan	-10.0714
▁rəqabət	-10.0716
▁çatdırılması	-10.0719
▁çıxarılması	-10.0724
▁Hakimiyyətinin	-10.0725
▁mükafatı	-10.0734
▁təhqir	-10.0737
!”	-10.074
▁səfir	-10.0744
▁güllə	-10.0745
▁direktor	-10.0751
▁sonuna	-10.0757
▁yolları	-10.0759
▁xal	-10.0761
adi	-10.0763
▁hələlik	-10.0771
▁the	-10.0772
▁rəhbərliyinin	-10.0773
▁Ü	-10.0775
▁Qazax	-10.0779
▁partiyanın	-10.0781
▁Tovuz	-10.0794
▁məsələdə	-10.0794
▁şəhərinə	-10.0799
▁xidmətindən	-10.08
▁qəhrəman	-10.0802
▁dialoq	-10.0805
▁edilməsini	-10.0808
▁ruh	-10.082
▁El	-10.0823
▁Rəşad	-10.0824
▁Bayramov	-10.0825
▁məbləğində	-10.0832
▁qurumları	-10.0834
▁könüllü	-10.0844
▁əməkdaşlığı	-10.0844
▁komitəsinin	-10.0845
▁əmlak	-10.0849
▁göstərilməsi	-10.0852
▁nəticəsidir	-10.0853
▁xanımın	-10.0853
▁olunaraq	-10.0856
▁əvvəlində	-10.0862
▁vasitə	-10.0869
▁hökumətin	-10.0874
xa	-10.0876
▁gətirən	-10.0878
▁şəbəkə	-10.088
▁inkişafını	-10.0885
▁tarixdə	-10.0885
▁Ərəb	-10.0888
▁hakimiyyətinin	-10.0889
iz	-10.0891
▁Aydın	-10.0898
çılıq	-10.0901
▁sahibkarlıq	-10.0903
▁şöbə	-10.0905
▁yayılan	-10.0907
▁təsadüf	-10.091
mar	-10.0912
▁Ev	-10.0912
▁Əhalinin	-10.0913
▁qar	-10.0914
▁Sergey	-10.0917
▁inteqrasiya	-10.0924
luğu	-10.0926
▁adları	-10.093
▁saxlanılan	-10.0931
AzTrend	-10.0932
▁sayılan	-10.0937
▁Nyu	-10.094
▁mü	-10.0944
▁Başqa	-10.0948
ol	-10.0954
▁planı	-10.096
▁illiyi	-10.0965
▁atəşə	-10.0971
▁ardınca	-10.0971
▁zamanlar	-10.0974
▁Konstitusiya	-10.0977
▁qış	-10.0977
▁yaranır	-10.0979
▁Ceyhun	-10.0981
▁Di	-10.0985
mışdı	-10.0986
▁sizi	-10.0998
▁yüngül	-10.1003
▁Ukraynaya	-10.1004
▁qələmə	-10.1007
▁keçirilmişdir	-10.1012
▁ortaq	-10.1016
▁sənəti	-10.1018
▁səyahət	-10.1031
▁müəssisələri	-10.1032
▁təcrübəsi	-10.1042
ram	-10.1043
▁Se	-10.1054
▁hədəf	-10.1068
▁sərəncamı	-10.1068
▁sm	-10.1069
▁İngiltərə	-10.1073
▁bəstəkar	-10.1076
▁dilinin	-10.1077
▁bilavasitə	-10.1079
▁tutaraq	-10.1083
▁kitabxana	-10.1083
▁Cənab	-10.1087
▁bunların	-10.1089
▁dəhşətli	-10.109
to	-10.1091
▁obyektiv	-10.1092
lənən	-10.1096
▁şəxsən	-10.11
çılar	-10.1104
uq	-10.1106
▁rabitə	-10.1108
▁boş	-10.1109
▁Cənub	-10.111
iyyə	-10.1111
▁vəzifəsinə	-10.1112
▁test	-10.1114
▁futbolçusu	-10.1115
▁əsaslanan	-10.113
▁işçisi	-10.1131
▁olanda	-10.1137
qdan	-10.1138
▁Qaz	-10.1144
Ç	-10.1144
▁Li	-10.1145
▁mübarizədə	-10.115
▁Parlament	-10.1156
▁azadlıqdan	-10.1157
▁çıxarıb	-10.1164
▁hissə	-10.117
▁almağa	-10.1176
▁Ko	-10.1177
▁yüzlərlə	-10.118
▁fikri	-10.1181
▁sənin	-10.1184
▁ölkələrdən	-10.1188
ru	-10.119
▁şah	-10.1192
mü	-10.1204
▁Şamaxı	-10.1204
çilər	-10.1209
▁tərbiyə	-10.1212
▁vurğuladı	-10.1215
▁qalibi	-10.1215
▁vaxtlarda	-10.1228
▁vermir	-10.1234
▁fərq	-10.1234
▁yemək	-10.1236
▁binanın	-10.1236
▁heyvan	-10.1237
▁alması	-10.1242
▁idxal	-10.1244
oloji	-10.1246
▁bilik	-10.1246
▁göndərilib	-10.1251
▁k	-10.1253
▁foto	-10.1254
▁quruculuğu	-10.1256
▁məhkəməyə	-10.1266
ağa	-10.1271
han	-10.1272
▁qanunun	-10.1274
▁qanunvericiliyi	-10.1284
▁aktual	-10.1287
▁radio	-10.1289
▁Qurban	-10.1293
der	-10.1311
▁Azad	-10.1314
▁alınmış	-10.1317
▁bina	-10.1325
▁nəsil	-10.1325
▁Eldar	-10.1325
ke	-10.1329
▁etsə	-10.1333
▁manata	-10.1336
▁təsərrüfat	-10.1338
▁Premyer	-10.1345
▁ödəniş	-10.1346
▁olduqlarını	-10.1348
▁qəsəbə	-10.135
▁qarşısına	-10.1355
▁nəzərdən	-10.1361
▁mərhələ	-10.1367
ımız	-10.1368
▁qüvvə	-10.1369
▁uzunmüddətli	-10.1374
▁Yay	-10.1377
▁Millət	-10.1379
▁əvəzinə	-10.1383
▁Almaniyanın	-10.1383
▁tutmuş	-10.139
▁Yer	-10.1405
▁təyyarə	-10.1407
▁ayaq	-10.1407
▁SSR	-10.141
▁evində	-10.1412
▁XIX	-10.1414
▁Məclisinin	-10.1416
▁Xüsusilə	-10.142
▁Ya	-10.1422
▁birmənalı	-10.1425
▁sənədləri	-10.1433
▁icraçı	-10.144
▁münasibətdə	-10.1442
▁təhdid	-10.1444
▁mərkəz	-10.1445
▁Uzun	-10.1448
▁t	-10.1452
▁edəcəyi	-10.1453
▁aldı	-10.1453
▁ərazilərində	-10.1456
▁biləcəyi	-10.1467
▁yarada	-10.1471
▁oğlunun	-10.1475
▁istərdim	-10.1477
▁tərəflər	-10.1479
ek	-10.1484
▁üstün	-10.1492
ed	-10.1496
▁zəlzələ	-10.1501
▁satış	-10.1506
▁fəaliyyətində	-10.151
▁reklam	-10.1511
▁hektar	-10.1513
▁Rus	-10.1519
▁qüvvələrin	-10.152
▁Süleyman	-10.1529
▁ayrıca	-10.1531
▁qadının	-10.1534
öv	-10.1535
▁olmaması	-10.1536
▁pensiya	-10.1542
▁Sadəcə	-10.1542
▁dövrlərdə	-10.1542
▁ş	-10.1547
▁seçilən	-10.1548
▁Kəlbəcər	-10.1551
▁ehtimalı	-10.1551
▁versin	-10.1552
▁Sənaye	-10.1557
▁yayılıb	-10.1559
▁ərazisi	-10.156
▁səviyyəsinin	-10.1561
▁köməkçisi	-10.1563
▁sabah	-10.1566
▁sabit	-10.1573
▁təhlükəsiz	-10.1574
▁adlanan	-10.1579
▁əmr	-10.1582
mer	-10.1597
▁yoxsa	-10.1598
▁ictimaiyyət	-10.1598
▁sənədlərin	-10.1599
ce	-10.1599
▁faktiki	-10.16
malıdır	-10.1601
▁yoxlama	-10.1603
▁Polşa	-10.1607
▁klub	-10.161
▁tamaşa	-10.1613
▁açılıb	-10.1615
▁Prezidentinə	-10.1616
▁memarlıq	-10.1619
▁insanı	-10.162
▁ölkəni	-10.1627
▁şirkətləri	-10.1627
▁sayılır	-10.1628
▁bazarında	-10.1628
▁sorğu	-10.163
ləşmə	-10.163
▁UNESCO	-10.1632
qara	-10.1635
▁müqayisə	-10.1635
▁vətən	-10.1636
▁hallar	-10.1636
▁münaqişəsi	-10.164
▁soyuq	-10.1641
▁təbliği	-10.1648
▁gələ	-10.1655
▁sadiq	-10.1661
▁radikal	-10.1662
▁olacağını	-10.1667
▁qəti	-10.1673
▁boru	-10.1675
▁partlayış	-10.1678
▁qərb	-10.1679
▁bar	-10.1693
▁rəy	-10.1699
▁tələbi	-10.1699
men	-10.17
▁Cavid	-10.17
▁Səməd	-10.1703
▁mütəxəssislər	-10.1709
▁Ta	-10.1709
▁məsələnin	-10.1712
▁İstintaq	-10.1715
▁İnstitutu	-10.1716
▁nəfərə	-10.1718
▁vəsaiti	-10.1723
▁artırmaq	-10.1723
▁rusiyalı	-10.1727
▁etməsinə	-10.1729
▁İranda	-10.1735
▁istəyi	-10.1736
▁gördüyü	-10.1737
▁üstünə	-10.1738
▁San	-10.1738
▁İn	-10.1742
▁suyun	-10.1744
▁məktəbinin	-10.1746
▁çıxmaq	-10.1751
▁vaxtilə	-10.1752
▁dinamik	-10.1754
can	-10.1759
▁Zəngəzur	-10.1761
▁Donald	-10.1762
ber	-10.1768
▁məktub	-10.1774
mədəni	-10.178
▁Yaponiya	-10.178
▁çağırıb	-10.178
▁əlindən	-10.1783
▁yan	-10.1784
▁Binəqədi	-10.1797
▁haqlı	-10.1799
▁yazılı	-10.1799
▁aktrisa	-10.1799
lanma	-10.18
▁üst	-10.1806
▁etməkdə	-10.1806
▁təqdimatı	-10.1807
▁sol	-10.1807
ts	-10.1817
▁tələbələr	-10.182
▁məqam	-10.1822
▁ərazisindən	-10.183
▁çempionu	-10.1831
▁seçim	-10.1833
▁ideya	-10.1834
▁gəlin	-10.184
▁yeddi	-10.184
▁Con	-10.1845
▁keyfiyyətli	-10.1849
▁ölkələrimiz	-10.1849
▁xidmətlər	-10.1851
▁atıb	-10.1853
▁vacibliyini	-10.1854
▁XİN	-10.1858
▁kimsə	-10.1859
▁saytında	-10.1861
▁görən	-10.1862
▁hazırlanan	-10.1863
▁radələrində	-10.1865
▁tarixə	-10.1866
▁səhv	-10.1866
▁bilərdi	-10.1867
▁x	-10.1872
▁ekran	-10.1875
▁Federasiyası	-10.1875
▁qoyur	-10.1876
▁müşayiət	-10.1876
▁Qəbələ	-10.1878
▁illərdir	-10.1882
ologiya	-10.1882
bar	-10.1882
muz	-10.1883
▁İsmayılov	-10.1885
▁düşmüş	-10.1889
▁iştirakçısı	-10.1895
▁Bəlkə	-10.1896
▁bilməyən	-10.1899
▁deyirdi	-10.191
mur	-10.1912
▁məqsədyönlü	-10.1914
▁gələcəyi	-10.1921
▁yəqin	-10.1923
▁yerləri	-10.1924
hə	-10.1926
▁Şura	-10.1929
▁olunmasını	-10.193
çay	-10.1931
▁yağış	-10.1934
▁məsələlərə	-10.1948
▁Rüstəm	-10.1955
▁maddələri	-10.1955
▁alternativ	-10.1959
▁səhifəsində	-10.1959
▁Bunlar	-10.1972
▁cəbhə	-10.1975
▁vətənpərvərlik	-10.1976
▁şagird	-10.1976
▁buraxılış	-10.1977
▁cinsi	-10.198
▁mövsüm	-10.1984
▁xoşbəxt	-10.1984
▁çalışırlar	-10.1986
▁say	-10.1987
▁Dram	-10.1992
▁sədrliyi	-10.1999
larımızın	-10.2006
▁xalqa	-10.201
film	-10.2013
▁Məmmədova	-10.2015
▁açan	-10.2015
▁Özbəkistan	-10.2016
▁həssas	-10.2016
▁görülür	-10.2022
▁tabe	-10.2026
▁Məlum	-10.2026
▁siyasətini	-10.2033
▁xətt	-10.2038
qo	-10.2039
▁kompüter	-10.2048
lama	-10.205
▁qorunub	-10.2053
▁istəyib	-10.2056
▁hazırlanıb	-10.2059
▁struktur	-10.2075
▁dediyi	-10.2079
▁Məhkəmə	-10.2081
▁dərindən	-10.2083
▁görürük	-10.2085
▁diqqətini	-10.2088
▁UEFA	-10.2099
▁pulu	-10.2101
lığını	-10.2103
edici	-10.2104
▁deyim	-10.2107
▁bura	-10.211
▁gözləyir	-10.2114
dıq	-10.2116
▁nümunəsi	-10.2117
▁Le	-10.2125
lidir	-10.2126
▁Araz	-10.2127
▁danışmaq	-10.2128
▁gəlmiş	-10.2129
if	-10.2129
▁Teymur	-10.2131
▁bəxş	-10.2132
▁Təsərrüfatı	-10.2134
lanan	-10.2136
laşdırma	-10.2142
▁çıxdı	-10.215
▁qurmaq	-10.2153
▁uzunluğu	-10.2153
▁Sonda	-10.2154
▁Komandan	-10.2154
▁(“	-10.2158
liyinin	-10.2158
lərimizin	-10.2166
▁kök	-10.2166
▁infrastrukturun	-10.2167
▁böhran	-10.2171
▁artırır	-10.2172
▁əlində	-10.2178
▁birləşdirən	-10.2178
▁Dünyanın	-10.2186
▁bəyanat	-10.2188
tar	-10.2198
▁ölkələrə	-10.2199
▁al	-10.2202
▁çevrilir	-10.2202
▁dollara	-10.2203
var	-10.2205
▁uşaqları	-10.2205
▁saytı	-10.221
ler	-10.222
▁hazırlayıb	-10.2223
▁Ailə	-10.2227
▁edim	-10.2228
▁Yalnız	-10.2229
▁xalqların	-10.2229
üb	-10.2229
▁qabaqcıl	-10.2231
▁sözlər	-10.2234
▁Qüvvələri	-10.2234
▁işlərə	-10.2237
▁yaşıl	-10.2246
iyyət	-10.2247
▁alt	-10.2249
bo	-10.2251
▁Cinayətlər	-10.2253
▁ədalət	-10.2254
▁Film	-10.226
▁QHT	-10.2261
▁Məmmədovun	-10.2265
Dövlət	-10.2265
ab	-10.2268
▁rəqs	-10.2273
ö	-10.2273
▁yaralanıb	-10.2277
▁qanuni	-10.2277
▁əməliyyatı	-10.2279
▁tələbələrin	-10.2286
▁təchizatı	-10.2288
yu	-10.2288
▁təbiət	-10.2288
axtarış	-10.2289
▁tərzi	-10.2293
gen	-10.2293
ası	-10.2301
▁komandanın	-10.2301
▁əməkdaşlığa	-10.2304
▁həyatının	-10.2306
▁göstərəcək	-10.2307
▁gərginlik	-10.2308
▁plan	-10.2313
▁Xətai	-10.2316
▁Bərdə	-10.232
▁ərizə	-10.2322
▁maksimum	-10.2329
▁genişmiqyaslı	-10.2338
yacaq	-10.2341
▁köçkün	-10.2346
▁Yeri	-10.2347
▁IV	-10.2349
▁Bəzən	-10.2351
▁şəhərdə	-10.2353
▁etdikdən	-10.2356
▁universitet	-10.2361
▁Xəbər	-10.2363
▁dövlətləri	-10.2365
▁seçkiləri	-10.2367
▁rektoru	-10.2368
▁təzə	-10.237
▁məsələsində	-10.2371
▁gəlmişkən	-10.2371
▁səviyyəsinə	-10.2375
▁təmas	-10.2378
▁sənədli	-10.2387
▁dövlətə	-10.2394
▁iqlim	-10.2398
▁məsul	-10.2402
▁çətindir	-10.2404
▁salınması	-10.2411
fə	-10.2416
▁müstəsna	-10.2417
▁operativ	-10.2419
▁məbləği	-10.2422
oviç	-10.2424
▁Trend	-10.2426
▁növbəsində	-10.2435
məlidir	-10.2437
▁sarı	-10.2443
Azərbaycanın	-10.2444
▁potensial	-10.2448
onun	-10.245
▁Murad	-10.2452
▁binası	-10.2452
▁yanına	-10.2456
▁İnzibati	-10.2458
▁meydan	-10.2464
▁ölümündən	-10.2471
▁fakt	-10.2473
ək	-10.2476
▁kəsə	-10.2476
▁oxu	-10.2481
▁əməliyyatlar	-10.2489
▁dostu	-10.249
▁yazılmış	-10.2491
▁Odur	-10.2491
▁axtarış	-10.2493
▁acı	-10.2493
▁öyrənmək	-10.2493
▁nəfərdən	-10.2494
▁bilinən	-10.2496
▁regionun	-10.2498
▁gələrək	-10.25
▁çıxarır	-10.2501
▁əməkdar	-10.2501
▁Pakistan	-10.2504
▁kommunikasiya	-10.2505
▁meyvə	-10.2507
▁parça	-10.251
▁döyüşlərdə	-10.2511
laşdırılmış	-10.2513
▁Hüquq	-10.2515
▁Əziz	-10.2517
▁peyvənd	-10.2521
mən	-10.2523
▁olunduğunu	-10.2523
▁Səfər	-10.2523
▁bəziləri	-10.2543
▁işğalı	-10.2544
▁verərək	-10.2546
▁materiallar	-10.2551
▁Roma	-10.2552
▁Ba	-10.2554
▁xidmətlərin	-10.2555
▁yaranması	-10.2559
▁yerləşdiyi	-10.256
▁başqaları	-10.2563
▁Onlardan	-10.2567
▁Cəfər	-10.2568
▁yubileyi	-10.2573
▁təyinatlı	-10.2575
▁komandasının	-10.2576
▁Ak	-10.258
▁olun	-10.2585
▁Nazirliyindən	-10.2586
▁imzaladığı	-10.2591
▁Ukraynada	-10.2603
▁güman	-10.2604
▁Nərimanov	-10.2605
▁gəlməsi	-10.2605
▁zəmin	-10.2609
▁aiddir	-10.261
▁kəşf	-10.2612
▁xatirə	-10.2614
▁olurdu	-10.2616
▁bölmələri	-10.2616
▁Ana	-10.262
▁başçılıq	-10.2623
▁gəlincə	-10.2624
▁dayanır	-10.2635
▁uşağın	-10.2636
▁sağlamlıq	-10.2638
▁ərazilərin	-10.2638
▁işdən	-10.2639
▁bilsin	-10.2641
lənir	-10.2642
▁verirlər	-10.2644
▁müstəqilliyini	-10.2644
▁rəng	-10.2647
▁şirkətin	-10.2649
▁nəhayət	-10.2657
▁Tahir	-10.2657
▁Rəsmi	-10.2661
▁tur	-10.2663
əddin	-10.2667
▁Avropaya	-10.2668
▁sürücü	-10.2668
▁Regional	-10.2671
▁Ümumi	-10.2675
▁and	-10.2678
▁araya	-10.2679
▁sənətkar	-10.2683
▁başlayacaq	-10.2686
▁həyatın	-10.2695
▁qoyduğu	-10.2695
▁tədbirin	-10.2706
▁öndərin	-10.271
▁bəyin	-10.272
▁dəstəsinin	-10.272
▁rəngli	-10.272
▁Kərimov	-10.2721
▁evin	-10.2724
▁Ağayev	-10.2725
Türk	-10.2735
▁əlamətdar	-10.2735
▁olanlar	-10.2736
▁Me	-10.2737
ner	-10.2742
▁gec	-10.2743
▁Bar	-10.2746
▁əhaliyə	-10.2746
▁göstərə	-10.2746
▁Afrika	-10.2752
▁qeydiyyat	-10.2754
▁aydınlıq	-10.2755
▁Musa	-10.2758
▁istədiyi	-10.276
▁narahatlıq	-10.2763
▁Faktla	-10.2765
▁istiqamətləri	-10.2769
▁istinad	-10.277
qan	-10.277
▁kitabın	-10.277
ley	-10.2771
▁qazanmaq	-10.2772
▁Teatrının	-10.2777
▁enerjisi	-10.2778
Milli	-10.2788
▁qoydu	-10.2791
▁Mar	-10.2797
▁ağac	-10.2798
▁Ekologiya	-10.2803
▁qurumlar	-10.2804
▁gəmi	-10.2805
▁olurlar	-10.2807
▁Elm	-10.2808
qar	-10.2808
▁ora	-10.2812
▁model	-10.2813
▁qələm	-10.2824
▁sakit	-10.2825
▁Çingiz	-10.2829
▁qanlı	-10.2831
▁xəbərinə	-10.2831
▁yubiley	-10.2831
▁sərmayə	-10.284
▁Öndər	-10.284
▁Emin	-10.2844
▁ərazisindəki	-10.2845
▁çəkmək	-10.2846
▁işçiləri	-10.2846
▁kəsin	-10.2848
▁qabaq	-10.2849
Hər	-10.285
▁Tibb	-10.285
▁Cəmiyyətinin	-10.2851
________________	-10.2855
▁qulaq	-10.2865
▁maraqları	-10.2874
▁Rusiyadan	-10.2875
▁keçirdikləri	-10.2876
▁qoyulmuş	-10.288
▁proqramları	-10.288
▁siyahısı	-10.288
▁seçkilərində	-10.2884
tu	-10.2885
▁yanlış	-10.2885
qə	-10.289
▁artist	-10.2892
unda	-10.2896
▁arxiv	-10.2896
▁Qanunvericilik	-10.2899
▁Ku	-10.2899
▁Şimal	-10.2903
▁mükafat	-10.2907
▁bildirmişdir	-10.2909
▁bil	-10.2911
etmə	-10.2913
tik	-10.2918
ey	-10.2924
▁avtomobili	-10.2928
▁atəşkəs	-10.2932
yib	-10.2933
▁bilib	-10.2935
▁mühafizəsi	-10.2935
▁işgüzar	-10.2938
▁Müəllif	-10.294
▁Ordusu	-10.2944
▁yaratdı	-10.2946
▁diaspor	-10.295
▁kəşfiyyat	-10.295
▁Konstitusiyası	-10.2951
▁Administrasiya	-10.2952
▁nailiyyətlər	-10.2955
▁pedaqoji	-10.2958
▁hakimiyyətin	-10.2961
▁maraqla	-10.2963
▁etmişlər	-10.2965
▁Sərhəd	-10.2968
▁vəsiqə	-10.2968
▁piyada	-10.297
▁təsviri	-10.2974
▁məlumatda	-10.2975
yən	-10.2977
▁şəraitinin	-10.298
▁əməliyyatları	-10.2982
▁təklifi	-10.2985
▁törətdiyi	-10.2989
▁həyatda	-10.2994
lanması	-10.2996
▁aşıq	-10.2998
▁girov	-10.2999
▁sahələrinin	-10.3003
▁problemin	-10.3004
▁Nadir	-10.3009
▁adətən	-10.3011
▁yayılması	-10.3016
uş	-10.3017
▁Məsələ	-10.3018
▁etməyib	-10.3026
▁orqanlarında	-10.3027
▁Tibbi	-10.3027
▁qarşıya	-10.3038
▁razılaşma	-10.3038
▁Ümumilikdə	-10.3043
▁bəs	-10.3045
▁indiyə	-10.3046
▁Halbuki	-10.3047
▁prosesinə	-10.3049
▁yaz	-10.3051
▁ödənilməsi	-10.3055
▁əkin	-10.3057
malı	-10.3061
▁oyunda	-10.3065
▁açılışı	-10.3065
▁birlik	-10.3066
▁ssenari	-10.3083
▁məsələsinə	-10.3087
▁dövrünün	-10.3087
▁günləri	-10.3092
▁müharibənin	-10.3095
▁müdrik	-10.3102
▁çıxarılıb	-10.3103
▁öyrənilməsi	-10.3106
▁kimin	-10.311
▁veriblər	-10.3114
▁zidd	-10.3114
▁nazirliyin	-10.3118
▁maşını	-10.3122
biz	-10.3122
▁düşməsi	-10.3123
▁Kar	-10.3124
▁koronavirusa	-10.3127
▁rədd	-10.3134
▁xidmətə	-10.3137
▁bölgələrdə	-10.3139
▁konfransında	-10.3145
▁ordeni	-10.3151
▁Bəli	-10.3151
▁Qurbanov	-10.3152
▁Qızıl	-10.3153
▁ha	-10.3154
▁əyani	-10.3154
▁təşkilatlarının	-10.3158
▁dilinə	-10.3159
▁vurğulanıb	-10.3162
▁imzalanmış	-10.3164
lanmış	-10.3166
prezident	-10.3167
lən	-10.3173
▁atılan	-10.3174
▁çatdırmaq	-10.3178
▁Babayev	-10.3181
ləşir	-10.3182
▁külli	-10.3188
▁Cəfərov	-10.3188
dadır	-10.3191
ut	-10.3195
▁Teatr	-10.3195
▁əsrlər	-10.3195
▁axı	-10.3196
▁işarə	-10.32
▁pandemiya	-10.3203
▁müntəzəm	-10.3204
▁edilmişdi	-10.3206
▁Abbasov	-10.3207
▁etməliyik	-10.3216
▁Qadın	-10.3217
▁Sabir	-10.3218
▁Rza	-10.3218
▁demişdir	-10.3235
▁Orada	-10.3239
▁qondarma	-10.324
▁Hindistan	-10.3241
▁Cümhuriyyətinin	-10.3242
▁adamın	-10.3249
▁iç	-10.3254
▁işləyir	-10.3255
▁Az	-10.3257
▁satışı	-10.3258
▁Samir	-10.3263
▁seçmə	-10.3264
▁gözü	-10.3267
▁rayonda	-10.3267
▁dayanıqlı	-10.3268
▁çətinlik	-10.3268
ydi	-10.327
▁bağ	-10.3273
▁tutacaq	-10.3274
▁dəyişir	-10.3276
?”	-10.3282
▁İlqar	-10.3292
▁Yüksək	-10.3297
▁bayrağı	-10.3299
▁çıxması	-10.33
▁Ankara	-10.33
co	-10.3301
▁düşmənin	-10.3305
▁saxlanılır	-10.3311
▁etməkdən	-10.3311
▁demokratiya	-10.3312
▁Zəfər	-10.3312
▁etdiyim	-10.3316
▁elmlər	-10.3323
▁maraqlıdır	-10.3325
▁gəldikdə	-10.3326
yam	-10.3326
▁balaca	-10.3326
▁çıxarmaq	-10.3329
▁maşın	-10.3332
▁olduqları	-10.3333
▁təxirə	-10.3333
laşdırılmasını	-10.3334
Qəbələ	-10.3337
yanın	-10.3339
iç	-10.3341
▁taleyi	-10.3344
▁qorxu	-10.3344
▁çəki	-10.3348
qda	-10.3354
▁işində	-10.3356
▁sənətinin	-10.3357
▁halları	-10.3357
▁məqalə	-10.3365
▁Er	-10.3369
me	-10.3373
▁məhsulların	-10.3376
▁minə	-10.3376
xana	-10.3378
▁desək	-10.338
▁May	-10.3387
▁kənara	-10.3388
▁borc	-10.3389
▁sektorunda	-10.3391
▁yetirilməsi	-10.3393
lılar	-10.3394
▁oradan	-10.3398
▁etdirib	-10.34
▁açır	-10.3402
▁mühitin	-10.3406
iyə	-10.3407
▁seçilməsi	-10.3431
▁bilməyib	-10.3432
▁geyim	-10.3432
ndəki	-10.3433
▁Fuad	-10.3433
▁müəssisə	-10.3434
▁gündəmə	-10.344
▁inam	-10.3443
▁prinsipləri	-10.3445
Xəzər	-10.3447
uz	-10.345
▁Bəxtiyar	-10.3456
şa	-10.3456
▁dünyasının	-10.3457
▁bizdə	-10.346
ch	-10.3461
▁Söhbət	-10.3462
▁ağrı	-10.3463
▁Mi	-10.3464
▁Ma	-10.3464
▁təhsilini	-10.3465
▁The	-10.3467
▁çevrildi	-10.3468
▁temperaturu	-10.347
lənmiş	-10.3477
▁deyildir	-10.348
▁sisteminə	-10.348
▁Ermənistanla	-10.348
▁edildiyini	-10.3482
▁Rauf	-10.3486
▁uca	-10.3487
▁seçkilərdə	-10.3488
▁Mingəçevir	-10.3488
▁nazirin	-10.349
▁danışır	-10.3491
muş	-10.3495
▁rəsmiləri	-10.3495
▁yaydığı	-10.3495
ban	-10.3495
▁qalacaq	-10.3498
▁əraziyə	-10.3498
▁bilmək	-10.35
▁aləmdə	-10.3505
▁şeirlər	-10.351
▁şəxsləri	-10.3511
▁Rövşən	-10.3517
▁ziyalı	-10.3517
▁qiymətləndirmə	-10.3529
▁hazırlığı	-10.3531
▁Şeyx	-10.3535
▁aləminin	-10.3535
▁çəkilib	-10.3538
▁orqan	-10.3539
▁rejiminin	-10.3539
▁filmin	-10.3539
▁yazıçısı	-10.3541
▁jurnalistlərə	-10.3542
▁Çinin	-10.3543
▁ucuz	-10.3547
▁cinsinə	-10.3548
▁qazandığı	-10.3548
w	-10.3549
▁keçdiyi	-10.355
qanuni	-10.3565
▁yaradılmışdır	-10.3568
▁mənbəyi	-10.3574
▁proseslər	-10.3574
▁İmam	-10.3576
▁Yasamal	-10.3579
▁Təhlükəsizliyi	-10.3579
▁fəsiləsi	-10.3579
▁kitablar	-10.3586
▁xəbəri	-10.3593
▁maraqlarına	-10.3593
▁Man	-10.36
tı	-10.3603
kənd	-10.3604
▁vəzifələr	-10.3605
▁kobud	-10.361
▁nəfəs	-10.3611
▁hazırladığı	-10.3612
▁Bankı	-10.3614
lat	-10.3614
▁ayrılan	-10.362
▁əli	-10.3624
▁növləri	-10.3625
▁əvvəlcədən	-10.3629
▁mərhələsinin	-10.3641
▁poetik	-10.3652
▁görüşündə	-10.3652
▁əməli	-10.3653
▁nəzdində	-10.3653
▁Avrasiya	-10.3655
▁amil	-10.3656
▁oxşar	-10.3659
▁sabitlik	-10.3662
▁uçuş	-10.3663
▁sabitliyin	-10.3664
▁Ədəbiyyat	-10.3665
▁vəzifələri	-10.3666
▁seçilmiş	-10.3668
məz	-10.3669
▁Qasımov	-10.3671
▁maddəsində	-10.3674
▁işləyib	-10.3677
▁İl	-10.3678
?!	-10.3679
▁İbrahimov	-10.3679
▁sifariş	-10.3681
▁keçdi	-10.3691
əsi	-10.3694
ata	-10.3697
sun	-10.3698
▁saxlayır	-10.3699
▁keçmək	-10.37
laşdırılmasına	-10.3701
▁baxılması	-10.3708
▁Məhkəməsində	-10.3709
▁istifadəsi	-10.371
rin	-10.3714
▁bitkilər	-10.3719
▁istəyirik	-10.3723
▁Təəssüf	-10.3723
▁Mahmud	-10.3725
▁əri	-10.3727
▁qaydalarına	-10.373
▁dairəsi	-10.3736
▁texnologiya	-10.3738
▁istəyirlər	-10.3741
▁təhlükəsi	-10.3745
▁birliyi	-10.3746
lanıb	-10.3746
▁kollektiv	-10.3748
▁salmaq	-10.3748
▁status	-10.3751
▁do	-10.3751
▁məşq	-10.3758
▁mühit	-10.3758
▁bilmirəm	-10.3759
▁istefa	-10.376
hər	-10.376
▁bilirlər	-10.376
▁alınır	-10.3764
▁To	-10.3764
▁ƏLİYEV	-10.3766
▁gedə	-10.3768
sen	-10.3768
▁Yazıçılar	-10.3773
▁ildönümü	-10.3774
▁Yerli	-10.3774
▁Üstəlik	-10.3777
den	-10.3778
▁faktlar	-10.3789
▁potensialı	-10.379
▁işdə	-10.3796
ud	-10.3799
▁as	-10.3808
bəyli	-10.3814
▁məsələdir	-10.3814
▁İrana	-10.3818
▁məntiqi	-10.3818
▁namizədi	-10.3821
ış	-10.3823
▁Allahın	-10.3823
▁davranış	-10.3826
▁Şəmkir	-10.3828
▁Putinin	-10.383
▁mənasında	-10.3831
▁Britaniyanın	-10.3832
kov	-10.3832
▁hazırdır	-10.3833
▁dəstə	-10.3835
▁Adil	-10.384
mışdır	-10.3842
▁inkişafın	-10.3845
▁başlanıb	-10.3848
▁Ticarət	-10.3849
no	-10.3855
▁qurumların	-10.3858
▁Paşinyanın	-10.3859
▁Elnur	-10.386
▁geosiyasi	-10.386
▁fərman	-10.386
zə	-10.3863
▁Vahid	-10.3863
▁küçəsində	-10.3867
▁məna	-10.3867
▁önündə	-10.3869
▁ikisi	-10.387
▁itkin	-10.3874
ləşdirilib	-10.3876
▁ət	-10.3877
▁qapı	-10.3881
▁Qa	-10.3884
▁nömrə	-10.3885
▁Qarabağa	-10.3886
rat	-10.3886
▁qabiliyyəti	-10.3887
▁transfer	-10.3888
▁alimlər	-10.389
▁sahəyə	-10.3894
▁Akademiyası	-10.39
▁günündə	-10.3905
rəm	-10.3907
▁Şahin	-10.3909
▁ədəbiyyatının	-10.391
▁qəribə	-10.3912
▁səni	-10.3913
▁şərq	-10.3915
▁Çempionlar	-10.3916
▁tapa	-10.3918
▁Müdafiəsi	-10.392
▁sahibliyi	-10.3922
▁tədqiqatlar	-10.3925
▁cəmiyyətinin	-10.3925
▁intihar	-10.3928
nü	-10.3928
▁mövzusu	-10.393
▁suallar	-10.3939
▁("	-10.394
dədir	-10.394
▁tələblərə	-10.3942
▁kağız	-10.3949
lənib	-10.3951
cək	-10.3952
▁SOCAR	-10.3953
▁orqanlarına	-10.3953
istifadə	-10.3955
suz	-10.3955
▁Məlumat	-10.3956
▁salıb	-10.3961
▁təmsilçiləri	-10.3962
▁kor	-10.3963
▁Toplusu	-10.3968
▁qeydiyyatdan	-10.3969
▁Avstriya	-10.397
▁ünsiyyət	-10.3973
▁gələndə	-10.3976
▁təqdimat	-10.3978
▁aksiya	-10.3979
▁Şuranın	-10.3979
▁vəzifəsindən	-10.398
▁övladı	-10.3981
İnter	-10.3981
▁sənə	-10.3983
▁özündən	-10.3983
▁universitetin	-10.399
▁edilməsində	-10.399
▁manatdan	-10.3995
▁qonaqlar	-10.4004
▁mötəbər	-10.4004
▁imzalanması	-10.4004
▁Oyunları	-10.4005
▁polkovnik	-10.4006
▁nəzəri	-10.4009
▁Kiçik	-10.4013
▁Türkmənistan	-10.4016
▁qoymaq	-10.4017
▁binasının	-10.4019
▁müsabiqə	-10.4021
▁rəsm	-10.4025
▁Tarixi	-10.4027
▁göstərməyə	-10.4034
▁əlaqəli	-10.4036
▁körpü	-10.4037
şi	-10.4042
▁nəslin	-10.4042
▁hərəkətləri	-10.4043
▁çempionatının	-10.4043
▁artan	-10.4044
▁müqavimət	-10.4045
▁maddəsinə	-10.4049
mağı	-10.4053
▁edəcəyini	-10.4055
▁Fransada	-10.4057
▁dəstəkləyir	-10.4059
▁evinə	-10.4064
▁paralel	-10.4065
▁heyətində	-10.4067
▁məlumatlara	-10.4068
▁Ha	-10.4069
▁uşaqlara	-10.4072
▁şərəfli	-10.4074
▁qazanan	-10.4075
▁avtomobilin	-10.4082
▁meydanında	-10.4083
▁intellektual	-10.4085
▁nifrət	-10.4087
qi	-10.4091
▁bacısı	-10.4095
linin	-10.4099
liklə	-10.4112
▁layiqincə	-10.4118
▁prezidentinin	-10.4118
▁avtobus	-10.4119
▁standartlara	-10.412
▁region	-10.412
▁Kitab	-10.4125
biri	-10.4126
▁haldır	-10.4129
▁deyilən	-10.4132
▁edilməsinin	-10.4137
▁etməkdir	-10.4146
▁məkanında	-10.4148
▁miqyasında	-10.4156
▁Qədim	-10.4157
▁metal	-10.4162
▁xadimləri	-10.4162
▁aparılmış	-10.4164
▁ideal	-10.4165
▁asılıdır	-10.4168
▁Rəsul	-10.4169
məyi	-10.417
▁Axı	-10.417
▁nüfuz	-10.4176
“	-10.4181
▁Kür	-10.4185
▁ölkəsi	-10.4186
▁Paris	-10.4188
▁sistemləri	-10.419
▁orqanının	-10.419
▁düşünür	-10.4191
▁İmtahan	-10.4192
▁töhfələr	-10.42
▁Sərvətlər	-10.4206
▁diqqətlə	-10.4209
gin	-10.4216
▁Əmir	-10.4219
▁işləmək	-10.422
nik	-10.4221
▁keçirməyə	-10.4222
▁vəsaitin	-10.4224
▁Kim	-10.4227
▁vəzifəsini	-10.4227
▁gürcü	-10.4229
▁atasının	-10.4233
▁vəd	-10.4234
▁müşaviri	-10.4249
▁yenidənqurma	-10.4251
▁orijinal	-10.4252
▁perspektivləri	-10.4255
▁vermişdi	-10.4256
▁Ermənistanı	-10.4258
▁re	-10.4258
▁Can	-10.426
▁deməyə	-10.426
▁gətirmək	-10.4261
▁xəbərə	-10.4262
rək	-10.4262
▁Nazim	-10.4263
▁Xocavənd	-10.4264
▁verirdi	-10.4267
▁Məhkəməsi	-10.4268
▁almışdır	-10.4276
▁Akif	-10.4278
▁Futbol	-10.4278
▁xristian	-10.428
▁cərəyan	-10.4282
▁qismən	-10.4282
▁forması	-10.4284
▁yazırdı	-10.4285
əcək	-10.4287
yer	-10.429
▁ilədək	-10.429
▁qanuna	-10.4297
▁həllində	-10.4299
▁qətnamə	-10.43
vari	-10.4302
▁poçt	-10.4304
▁misal	-10.4306
▁Qanununda	-10.4306
▁İsrailin	-10.4308
nün	-10.4313
məli	-10.4316
gə	-10.4322
▁rejissoru	-10.4328
▁Dövlətimizin	-10.4331
▁terrorçu	-10.4332
▁ayrılıb	-10.4334
▁bərqərar	-10.4336
▁etmişik	-10.434
▁Suriyada	-10.4341
▁Komissiyası	-10.4341
▁erkən	-10.4341
▁təxribat	-10.4346
▁küçə	-10.4347
▁Mo	-10.4347
▁qurban	-10.4347
mıza	-10.435
▁Layihə	-10.4351
▁jurnalistlərin	-10.4353
▁ictimaiyyətə	-10.4357
Əliyev	-10.4365
▁yurd	-10.4366
layıb	-10.4372
▁tutduğu	-10.4374
▁ötrü	-10.4375
ləşdirilməsinə	-10.4378
mır	-10.4378
▁mənbə	-10.4379
▁Fikrət	-10.438
iqtisadiyyatının	-10.4383
▁oxucu	-10.4385
▁cinayətkar	-10.4387
▁qoyan	-10.4388
▁jurnalistlər	-10.4394
ic	-10.4396
ve	-10.4396
▁Sabunçu	-10.44
▁Qərbin	-10.4402
ımızın	-10.4407
dövlət	-10.441
▁qulluq	-10.4412
▁adının	-10.4412
▁tərəfdaş	-10.4412
▁quruculuq	-10.4413
▁Azərbaycanlı	-10.4422
▁qəhrəmanlıq	-10.4422
▁çayı	-10.4425
▁tapmaq	-10.4425
▁Ümid	-10.4426
▁xalqımız	-10.4426
▁düşdü	-10.4429
▁Hikmət	-10.4432
▁coğrafi	-10.4433
▁doğuran	-10.4435
▁Düşünürəm	-10.4436
▁olunmuşdu	-10.4436
▁dördüncü	-10.4438
▁bütövlüyünü	-10.4441
▁korrupsiya	-10.4444
▁prosesdə	-10.4444
▁keçirilməsini	-10.4448
▁qadağa	-10.4452
▁Orxan	-10.4467
▁biləcəyini	-10.4467
▁ruhu	-10.4467
▁cavan	-10.447
mlə	-10.4472
▁Şuşada	-10.4474
▁qüdrətli	-10.4474
▁Zakir	-10.4475
▁abidə	-10.4475
▁faizini	-10.4483
▁şübhəsiz	-10.4488
so	-10.4495
▁olmağı	-10.4498
▁dünyanı	-10.45
▁yoluna	-10.4501
▁Sən	-10.4503
▁xəyanət	-10.4505
▁dünyası	-10.4505
ker	-10.4505
▁Gürcüstanda	-10.4506
▁nəsə	-10.4506
▁xırda	-10.4513
▁Masallı	-10.4518
▁çoxdan	-10.4519
çə	-10.452
▁d	-10.452
▁muzey	-10.4522
münasibətlərinin	-10.4532
em	-10.4536
▁hissədə	-10.4538
▁gəldiyi	-10.4539
▁deyirəm	-10.4542
qu	-10.4543
▁bazasının	-10.4544
▁tələbləri	-10.4544
org	-10.4548
▁Abdulla	-10.4551
▁qəsdən	-10.4552
▁həvalə	-10.4552
▁tip	-10.4553
▁gümüş	-10.4554
▁vətəndaşlarının	-10.4557
▁politoloq	-10.456
▁əmri	-10.4565
▁şirkətlər	-10.4567
▁Bankın	-10.4568
yəm	-10.4571
▁təqribən	-10.4571
▁olunmasında	-10.4575
);	-10.4577
▁Ədalət	-10.4579
rik	-10.458
mizdə	-10.4582
▁naməlum	-10.4587
▁mənsub	-10.4588
▁Zəngilan	-10.459
▁Ər	-10.4592
▁millətin	-10.4593
▁mərhələsinə	-10.4609
yın	-10.4611
▁yarımadasında	-10.4614
▁minimum	-10.4615
mo	-10.4615
▁qarşısı	-10.4618
▁haqları	-10.4619
▁salınıb	-10.462
▁olmadı	-10.4623
▁effektiv	-10.4624
ünü	-10.4625
The	-10.4628
▁xərcləri	-10.4628
▁yağ	-10.4631
nəqliyyat	-10.4633
▁günlərində	-10.4634
▁Macarıstan	-10.4636
▁müayinə	-10.4637
▁düşünürəm	-10.464
▁fars	-10.464
▁burda	-10.4642
▁şagirdlərin	-10.4643
▁uşağı	-10.4644
▁əcnəbi	-10.4644
qat	-10.4648
▁şəxsə	-10.4648
▁iz	-10.465
▁yaradılmasına	-10.4651
▁Bax	-10.4653
▁tarixini	-10.4659
▁məruzə	-10.4663
▁proqramlar	-10.4664
▁Ra	-10.4668
▁yerlərində	-10.4669
▁sahələr	-10.4669
▁çəkilmiş	-10.4669
▁sanksiyalar	-10.4672
▁imkanlarını	-10.4673
▁məhəbbət	-10.4674
ser	-10.4674
▁aqrar	-10.4677
▁boya	-10.4679
▁müharibəsinin	-10.468
nümayəndələrinin	-10.4681
▁kompleksi	-10.469
▁bariz	-10.469
▁qənaət	-10.4694
▁tərkibinə	-10.4694
▁Qanunun	-10.4698
▁xəstəliyi	-10.4698
▁Cümhuriyyəti	-10.4701
▁ölkəsinin	-10.4702
lin	-10.4702
▁məsuliyyəti	-10.4703
▁bütövlüyünün	-10.4703
▁səbəbləri	-10.4704
▁yaşayıb	-10.4707
▁Yolları	-10.4707
▁inşası	-10.4708
▁gözlənilən	-10.471
▁Seyid	-10.4711
▁respublikada	-10.4714
▁ağa	-10.4718
▁roman	-10.4718
▁Oyunlarının	-10.4718
fer	-10.4722
ah	-10.4723
▁Goranboy	-10.4725
▁çəkdiyi	-10.4733
▁mərkəzinə	-10.4733
▁Natiq	-10.4734
▁sahəsinin	-10.4735
▁keyfiyyət	-10.4736
▁Ölkədə	-10.4746
caq	-10.4749
▁Ro	-10.4756
▁ailənin	-10.4756
▁PKK	-10.4757
laq	-10.4759
▁Elxan	-10.4761
▁maraqlarını	-10.4762
▁formalaşması	-10.4762
▁müəssisəsi	-10.4764
▁planlaşdırılır	-10.4765
▁yönəlmiş	-10.4768
birindən	-10.4771
Tbilisi	-10.4773
▁Kon	-10.4784
▁başçıları	-10.4784
▁səsvermə	-10.4786
▁göstərici	-10.4791
▁qaldırmaq	-10.4791
▁Ölkəmizdə	-10.4791
▁ünvan	-10.4793
▁Yunanıstan	-10.4795
▁olma	-10.4796
▁əsərin	-10.4797
▁şəhərlərində	-10.4797
▁başlamışdır	-10.4805
▁hissəsinə	-10.4805
ron	-10.4806
▁Bo	-10.4807
▁texnologiyalar	-10.4808
▁idilər	-10.4808
▁tərəfinin	-10.4811
▁turist	-10.4812
▁sair	-10.4814
▁söylədi	-10.4814
▁ölümü	-10.482
▁Robert	-10.4821
▁sahibləri	-10.4824
▁işçilərinin	-10.4827
▁mətbuata	-10.4827
▁azaldılması	-10.4828
▁Yan	-10.4828
▁doğurur	-10.4829
▁məktəblərdə	-10.483
▁Pa	-10.4837
▁olmalı	-10.484
▁amerikalı	-10.4841
▁yardımı	-10.4841
▁vəzifəsi	-10.4849
▁tələbələri	-10.485
▁stimul	-10.4853
▁tə	-10.4855
od	-10.4858
▁fayda	-10.4862
▁əsgəri	-10.4862
▁öhdəsindən	-10.4866
▁istəmir	-10.487
▁Mehdiyev	-10.4873
▁mərkəzləri	-10.4874
▁prokuror	-10.4878
▁demişdi	-10.4879
Qeyd	-10.4882
▁sözünü	-10.4883
▁ictimaiyyəti	-10.4887
▁məcburiyyətində	-10.4889
▁Za	-10.4889
▁etsinlər	-10.489
▁lap	-10.489
▁Qeyri	-10.4894
▁idmançı	-10.4895
mişdi	-10.4896
▁doğum	-10.4897
üm	-10.4899
▁sonralar	-10.4901
▁v	-10.4904
▁vilayətinin	-10.4904
▁mina	-10.4908
▁çevrilməsi	-10.4909
▁tapır	-10.491
▁tənzimlənməsi	-10.491
▁çıxa	-10.4915
▁tamaşaçı	-10.4916
▁şeirləri	-10.4917
▁Qar	-10.4917
▁irsi	-10.4924
▁Xaçmaz	-10.4924
▁bildirmişdi	-10.4929
▁Mikayıl	-10.493
zaman	-10.4931
▁Tərəflər	-10.4933
▁icrasına	-10.4933
▁nəticələrinə	-10.4934
▁Rəşid	-10.4935
▁tanınır	-10.4937
▁Müxtəlif	-10.4938
ləşən	-10.4947
▁ustad	-10.4949
▁Fondun	-10.4952
▁Kərim	-10.4953
▁prinsipi	-10.4954
▁Aşıq	-10.4955
▁günəş	-10.4957
▁hadisənin	-10.4958
▁şeydən	-10.4959
▁keçirilməsində	-10.496
▁gördüm	-10.4961
▁istismar	-10.4961
▁lisenziya	-10.4963
▁çıxmış	-10.4963
▁mənzərə	-10.4965
▁tranzit	-10.4966
nizi	-10.4967
lənməsi	-10.4969
▁heyət	-10.497
▁ibtidai	-10.4971
oğlunun	-10.4971
eh	-10.4973
▁rüşvət	-10.4974
▁özüm	-10.4979
▁Elmar	-10.498
▁artmasına	-10.4985
daş	-10.4985
▁dövrə	-10.4986
▁qalması	-10.4988
▁şəhərindəki	-10.4989
▁Moldova	-10.499
▁əsassız	-10.4991
▁əlaqəsi	-10.4992
▁siyasətinə	-10.4992
▁görülməsi	-10.4998
▁İsmayıllı	-10.4999
▁qazın	-10.5
▁sənayesi	-10.5005
multikulturalizm	-10.5006
▁yaşına	-10.5007
ləmə	-10.5008
▁So	-10.5011
▁yuxarıda	-10.5013
▁yəhudi	-10.5013
▁filologiya	-10.5015
▁işlərini	-10.5015
▁qalma	-10.5017
▁torpaqları	-10.5017
▁məkan	-10.5023
tur	-10.5024
▁xəstəlik	-10.5025
▁görünən	-10.5033
▁DİN	-10.5034
▁Xidmət	-10.5039
▁qəsəbəsi	-10.5044
▁Hökuməti	-10.5046
▁itirib	-10.5048
▁imzalanıb	-10.505
▁Bildirilir	-10.5051
▁Növbəti	-10.5052
▁oldum	-10.5053
▁ekspertlər	-10.5054
▁Tədbir	-10.5055
▁kamera	-10.5055
▁üçtərəfli	-10.5058
▁görülmüş	-10.5059
birini	-10.5061
▁İnstitutunda	-10.5066
▁olarsa	-10.5068
▁Deputat	-10.5069
▁salır	-10.5073
▁blok	-10.5075
▁başında	-10.5076
▁rayonlarda	-10.5079
▁məlumdur	-10.5079
▁Krım	-10.5081
Bizim	-10.5082
▁qədəm	-10.5083
▁müəllimlərin	-10.5086
▁rəqib	-10.5089
luğa	-10.5089
▁Moskvanın	-10.5091
▁etdirilib	-10.5093
Böyük	-10.5095
▁dilini	-10.5095
▁bilmədi	-10.5096
▁millisinin	-10.5098
▁hesabında	-10.5099
▁Yaxşı	-10.5099
▁göstərilib	-10.5101
▁Paşa	-10.5102
▁Dəmir	-10.5102
▁Özü	-10.5104
▁Oğuz	-10.5104
▁c	-10.5105
▁qarşıda	-10.5107
▁dəyişdirilməsi	-10.5107
layan	-10.5108
▁Ne	-10.511
▁Kabinetinə	-10.5113
mdə	-10.5115
▁Mustafayev	-10.5116
şünaslıq	-10.5118
▁vuran	-10.5123
▁respublikamızın	-10.5129
ləşdirmə	-10.5129
lanır	-10.513
▁Ye	-10.5132
▁tərəfdaşlıq	-10.5133
▁Naxçıvanda	-10.5133
▁Lo	-10.5134
▁emalı	-10.5135
▁bürünc	-10.5135
...”	-10.5135
▁balıq	-10.514
▁qram	-10.514
▁layihələrinin	-10.514
▁xalça	-10.5143
▁materialları	-10.5145
▁faciə	-10.515
▁tədricən	-10.5152
▁səlahiyyətləri	-10.5153
▁Bolqarıstan	-10.5153
▁taxıl	-10.5156
▁Komitə	-10.5156
▁siyahısına	-10.5157
▁paytaxtın	-10.5158
ax	-10.5158
av	-10.516
▁sahənin	-10.5169
▁fəxr	-10.517
▁etmişəm	-10.5172
▁tarixin	-10.5175
▁yollar	-10.5177
▁yazılan	-10.518
▁problemlərinin	-10.5186
▁vaxtdan	-10.5186
▁adamların	-10.5187
İran	-10.5191
▁araşdırılması	-10.5193
▁şəkil	-10.5193
▁yaradıcılığında	-10.5196
▁müəllifin	-10.5197
▁minnətdarlığını	-10.5198
▁qayğısı	-10.5198
▁İtaliyanın	-10.5202
▁kadrların	-10.5205
▁yerindən	-10.5207
▁həlledici	-10.5213
▁bənzər	-10.5215
▁dərəcəsi	-10.5215
ləndirilməsinə	-10.5215
▁Şöbəsinin	-10.5216
▁AXCP	-10.5217
▁süd	-10.5222
Sa	-10.5224
▁alış	-10.5224
▁Ara	-10.5231
▁Aşağı	-10.5233
▁məktəbə	-10.5238
▁həyatına	-10.5239
yeni	-10.5241
dirlər	-10.5241
aya	-10.5246
▁proseslərin	-10.5253
▁gətirdi	-10.5254
nizə	-10.5257
▁azadlığa	-10.5258
▁hüququn	-10.5259
▁Sizi	-10.526
▁teatrın	-10.526
▁fəlsəfi	-10.5263
▁Qu	-10.5267
lənmə	-10.527
▁Liqasında	-10.5272
▁xanın	-10.5275
▁silsilə	-10.5275
▁anda	-10.5276
▁İsveç	-10.528
▁həmkarı	-10.5282
▁Be	-10.5282
Məmmədov	-10.5288
hi	-10.5289
▁açıqlanıb	-10.5294
▁masa	-10.5297
▁tikilib	-10.5297
şə	-10.5301
▁regionlarda	-10.5302
▁şöbəsi	-10.5302
lamaq	-10.5304
▁sistemli	-10.5305
▁Gəncəvi	-10.5305
▁Tehran	-10.5306
▁sülhün	-10.531
▁atır	-10.5313
▁avtomobillərin	-10.5313
▁mətbuatda	-10.5313
▁qaydalarını	-10.5313
▁dəri	-10.5318
▁Mixail	-10.5321
▁bazası	-10.5321
▁prosesini	-10.533
▁xeyir	-10.5332
▁göy	-10.5332
▁kəndinin	-10.5337
anı	-10.5338
▁keçməsi	-10.5341
▁parlamentin	-10.5343
▁ehtiva	-10.5344
▁üsulu	-10.5345
▁məktəbində	-10.5346
▁komandiri	-10.5347
▁istinadla	-10.5348
▁Va	-10.5349
▁olduq	-10.5352
▁yadda	-10.5355
▁təkliflərini	-10.5355
▁mərkəzinin	-10.5359
▁orda	-10.536
▁qapalı	-10.5366
per	-10.5372
ten	-10.5374
▁yaralı	-10.5375
▁çəkisi	-10.5376
▁rəhbərliyinə	-10.5376
▁dağlıq	-10.5383
▁Elektron	-10.5383
▁professoru	-10.5383
▁Teatrında	-10.5384
▁Da	-10.5387
▁təsirini	-10.5389
▁başı	-10.5396
▁saziş	-10.5396
▁İstanbulda	-10.5399
▁rəqəmsal	-10.54
▁olacaqdır	-10.5401
▁Avtomobil	-10.5406
▁qoyulması	-10.5407
▁yazılıb	-10.5407
▁potensialının	-10.5412
▁tərkibi	-10.5414
▁oynayan	-10.5419
▁Demokratik	-10.542
▁Mənə	-10.542
▁sənədin	-10.5423
▁imkanlarının	-10.5425
▁insana	-10.543
▁mərhum	-10.5435
▁torpaqlarımızın	-10.5437
▁mütəxəssisləri	-10.5438
▁xidmətin	-10.5438
Cənub	-10.5439
▁məsələn	-10.5452
baş	-10.5455
▁göstəriş	-10.5455
ABŞ	-10.5461
▁oyunları	-10.5461
ent	-10.5465
yo	-10.5468
▁məntəqəsi	-10.5469
▁tər	-10.5469
▁ayda	-10.5475
▁üzündən	-10.548
▁içməli	-10.548
▁olmasından	-10.548
▁bütöv	-10.5481
cağı	-10.5484
şünas	-10.5489
▁Qorqud	-10.5493
▁təsnifat	-10.5494
▁qrupları	-10.5494
▁maska	-10.5496
▁Qrupunun	-10.5496
▁məhkəmənin	-10.5502
▁Televiziya	-10.5502
▁rəsmisi	-10.5502
▁keçirəcək	-10.5504
şan	-10.5505
mın	-10.5505
▁artilleriya	-10.5505
land	-10.5506
▁Açıq	-10.5508
▁nəyə	-10.5509
▁Mübarizə	-10.5513
▁Ramil	-10.5514
imizi	-10.5515
be	-10.5518
▁Dünən	-10.5521
▁alsaq	-10.5528
▁Hakimiyyəti	-10.553
▁müstəqilliyi	-10.5536
▁çatan	-10.5538
▁Vəliyev	-10.5542
▁Media	-10.5543
▁Günün	-10.5544
▁üstə	-10.5551
▁texnoloji	-10.5552
▁ictimaiyyətin	-10.5552
▁etməyin	-10.5553
▁göstəricisi	-10.5555
abad	-10.5557
▁prosesin	-10.5558
▁müxbir	-10.5559
▁Əməliyyat	-10.5562
▁köçkünlərin	-10.5562
▁təşviq	-10.5572
▁şəffaf	-10.5584
▁Cəmiyyəti	-10.5585
▁sınaq	-10.5587
▁yerləşdirilməsi	-10.5589
mişdir	-10.5591
▁post	-10.5593
▁iclasda	-10.5594
▁daşı	-10.5606
alı	-10.561
▁edilmir	-10.5613
▁dəyişən	-10.5615
▁incə	-10.5616
▁tapşırığı	-10.5619
▁əraziləri	-10.5622
De	-10.5624
▁addımı	-10.5626
▁saxlaya	-10.5628
▁bölgələrində	-10.5629
▁gücünü	-10.563
yin	-10.5635
kdə	-10.5638
Avropa	-10.5641
▁Düzdür	-10.5644
ləyib	-10.5646
▁ayından	-10.5646
▁Rafiq	-10.5647
://	-10.565
▁rejim	-10.5651
▁bomba	-10.5655
▁getdi	-10.5656
▁Qafqazın	-10.5658
▁əsərlərinin	-10.566
▁dillərində	-10.566
▁Fərhad	-10.5663
▁qazandı	-10.5665
▁tədbirlərinin	-10.5666
ster	-10.5669
▁səkkiz	-10.5673
▁xas	-10.5676
▁Zaur	-10.5677
▁başladığı	-10.5677
yor	-10.568
▁hakimi	-10.5683
ia	-10.5684
qal	-10.5687
▁təməl	-10.5688
laşır	-10.5691
th	-10.5691
▁cəmiyyətə	-10.5698
▁dəhlizi	-10.5699
▁Ərəbistanı	-10.5704
▁bölgə	-10.5705
tal	-10.5707
▁Qlobal	-10.5712
▁məktubu	-10.5714
▁əsərində	-10.5721
▁edilirdi	-10.5723
▁Kamran	-10.5725
▁müstəqilliyinin	-10.5729
▁Almaniyada	-10.5731
▁marağı	-10.5732
▁sonda	-10.5734
▁gətirdiyi	-10.5734
▁sonu	-10.5735
ğın	-10.5736
▁tədqiq	-10.5736
▁siyasətçi	-10.5742
▁hekayə	-10.5742
▁tərəfində	-10.5746
namə	-10.5747
▁dəyərlərin	-10.5751
lığına	-10.5752
▁yumurta	-10.5754
▁saxlayıb	-10.5755
▁siqaret	-10.5759
▁təmiri	-10.5763
▁Əsəd	-10.5764
oloq	-10.5764
▁çempionatında	-10.5768
▁kiloqram	-10.5772
▁qeydiyyata	-10.5772
▁Pro	-10.5777
▁çatır	-10.5777
▁Səhmdar	-10.578
▁qaldığı	-10.5793
▁Əsədov	-10.5794
▁sutka	-10.5796
▁xatirəsinə	-10.5799
▁tutdu	-10.5801
▁milyondan	-10.5801
▁Rasim	-10.5802
▁anlaşma	-10.5802
▁Serbiya	-10.5803
rus	-10.5803
▁viza	-10.5807
▁olunmur	-10.5808
▁qəzetində	-10.5814
▁uğurları	-10.5814
▁sona	-10.5817
▁yaşa	-10.5819
▁saxlanması	-10.5819
▁səfərbər	-10.5823
▁Əvvəlcə	-10.5824
▁nəşri	-10.5827
▁arabir	-10.5829
▁seçilir	-10.583
▁ər	-10.5832
oy	-10.5832
▁qismi	-10.5834
▁Mübariz	-10.5837
▁azalması	-10.5837
▁tərəqqi	-10.5838
yik	-10.5838
▁London	-10.5838
ləyən	-10.5839
▁Yevlax	-10.5842
hökumət	-10.5842
▁dava	-10.5842
▁kənddə	-10.5842
▁iştirakçılarına	-10.5843
▁qarşıdurma	-10.5849
▁prospekti	-10.585
▁məbləğ	-10.5851
▁Oyunlarında	-10.5851
▁təşəbbüs	-10.5851
▁Sankt	-10.5854
▁alınmaqla	-10.5854
▁nəticələrini	-10.5854
adək	-10.5855
▁ulduz	-10.5859
▁İsveçrə	-10.586
▁qurumlarının	-10.5864
▁irsinin	-10.5867
▁aşkarlanıb	-10.5869
▁rifah	-10.5873
▁tarixindən	-10.5877
▁mühəndis	-10.5878
▁Təsadüfi	-10.588
▁evdən	-10.5881
▁qurulub	-10.5883
▁Kor	-10.5893
▁alacaq	-10.5896
laşmış	-10.5897
▁yaradacaq	-10.5899
▁vurğulayan	-10.59
▁gələcəyə	-10.5902
▁məsələsini	-10.5905
▁Lu	-10.5909
▁Dmitri	-10.5909
▁beyin	-10.591
▁Ziya	-10.5915
▁yazmaq	-10.5915
▁poeziya	-10.5916
▁ibn	-10.5918
▁Ekspert	-10.592
Vətən	-10.5921
▁azdır	-10.5929
▁tapşırıqlar	-10.5933
▁yayım	-10.5936
▁bitirib	-10.5941
▁danışdı	-10.5943
zo	-10.5946
▁başlanan	-10.5947
ləyə	-10.5949
▁adlandırıb	-10.5949
▁evinin	-10.5949
▁abidələri	-10.5949
▁taksi	-10.5952
▁yazan	-10.5954
▁dedim	-10.5957
▁Vaşinqton	-10.5959
▁suyu	-10.5962
▁Qanununa	-10.5962
▁ömrünün	-10.5974
▁fikrini	-10.5974
▁şikayəti	-10.5974
▁təzyiqi	-10.5976
▁xəbərlər	-10.5982
▁Vergi	-10.5982
▁böyükdür	-10.5983
ük	-10.5985
▁yaratmağa	-10.5985
▁təsadüfi	-10.5985
▁prezidentin	-10.599
▁önünə	-10.599
▁vətəndaşlara	-10.5994
▁bilmirlər	-10.5997
▁açılışında	-10.6
▁işçilərin	-10.6001
▁Vi	-10.6001
▁mübarizəyə	-10.6001
▁quruluş	-10.601
▁Bi	-10.6012
▁övladları	-10.6021
▁h	-10.6033
▁danışıqların	-10.6033
▁hücuma	-10.6037
imizə	-10.6038
▁qələbəsi	-10.6039
▁yetirir	-10.604
▁Har	-10.6041
▁Gəncədə	-10.6041
▁Zaqatala	-10.6042
▁yağı	-10.6048
▁vəzifələrin	-10.6048
▁ölən	-10.6049
▁Bakıdakı	-10.605
▁aktı	-10.6053
▁proqramının	-10.6057
Al	-10.6058
stan	-10.6066
▁birdəfəlik	-10.6068
▁mülkiyyət	-10.6069
▁gətirilməsi	-10.607
▁olanların	-10.607
op	-10.607
▁göstərmişdir	-10.6072
çisi	-10.6072
▁çar	-10.6074
▁Mak	-10.6075
▁kəməri	-10.6077
vin	-10.6079
▁çevik	-10.6089
▁modeli	-10.6089
▁göndərib	-10.6091
▁çatdırdı	-10.6095
▁iştirakçı	-10.6105
▁dənizi	-10.6107
▁gəncləri	-10.6108
▁partiyalar	-10.6108
▁şöbəsinə	-10.6112
▁Mehdi	-10.6118
▁Lider	-10.612
▁nədən	-10.6122
▁rəssamı	-10.6125
▁verməyib	-10.6125
▁tədbirlərdə	-10.6127
▁tərəfə	-10.6132
▁xarakteri	-10.6133
www	-10.6137
▁tanınması	-10.6141
▁gəlirdi	-10.6142
▁Məclis	-10.6143
▁təyinat	-10.6143
▁bilirik	-10.6146
▁obrazı	-10.6146
▁külək	-10.6148
▁tərəfin	-10.6151
▁harada	-10.6157
▁azyaşlı	-10.6157
▁Təbriz	-10.6159
▁sıradan	-10.616
▁məqalələr	-10.6164
▁yazılar	-10.6167
▁xatirəsi	-10.6168
▁çörək	-10.6172
Heydər	-10.6173
▁oyunçu	-10.6174
ok	-10.6177
lığının	-10.6179
▁kəndlərində	-10.618
▁Qubadlı	-10.618
▁Oqtay	-10.6182
▁içəri	-10.6183
▁gediş	-10.6183
▁gətirilən	-10.6184
▁mühiti	-10.6185
▁özlərinə	-10.6189
▁Ri	-10.6189
▁bizimlə	-10.6193
▁katib	-10.6193
▁yanacaq	-10.6194
▁Qırmızı	-10.6195
▁l	-10.6197
▁Ölkənin	-10.62
▁alıram	-10.6204
▁kəndin	-10.621
▁qanunla	-10.6211
▁komitə	-10.6215
▁məndən	-10.6215
hazırda	-10.6216
▁Üç	-10.6217
▁Assambleyasının	-10.6218
▁edər	-10.6221
▁müəllimlər	-10.6222
▁nəticələnən	-10.6223
▁kimyəvi	-10.6225
Azərbaycanda	-10.6225
baba	-10.6229
▁dəyərlər	-10.6231
▁hazırlanır	-10.6235
▁yüksəldilməsi	-10.6236
▁fəaliyyətin	-10.6239
▁Tə	-10.6244
lının	-10.6244
▁məsafə	-10.6245
▁valideyn	-10.6246
▁cəm	-10.6247
Peterburq	-10.6247
▁idarəsinin	-10.6248
▁separatçı	-10.6249
▁etdirdi	-10.625
▁işləməyə	-10.6261
▁etməyən	-10.6262
▁Tu	-10.6267
▁binasında	-10.6268
▁tank	-10.6268
▁niyyəti	-10.6268
▁etibarilə	-10.6269
rsa	-10.6269
▁ifasında	-10.627
▁Qoşulmama	-10.6277
▁sahəsinə	-10.6278
▁iqtidar	-10.628
▁q	-10.6281
▁yerlərinin	-10.6284
▁kurs	-10.6284
tor	-10.6284
ez	-10.6285
▁ta	-10.6286
▁material	-10.6291
▁Cəlilabad	-10.6292
ədək	-10.6293
▁Müharibə	-10.6294
▁qarşılaşma	-10.6296
▁nəql	-10.6297
▁yaradılır	-10.6297
▁bildi	-10.6297
▁məktəblərin	-10.6298
▁bilirəm	-10.6299
▁binaların	-10.6299
▁açdı	-10.6303
maz	-10.6303
▁marşrut	-10.6303
▁Müstəqil	-10.6306
qları	-10.6309
▁tələblər	-10.6311
imi	-10.6313
▁diplom	-10.6315
▁həqiqət	-10.6317
▁təyinatı	-10.6319
▁xəttində	-10.6319
▁reytinq	-10.6321
▁oynayıb	-10.6322
▁aparılacaq	-10.6322
▁vətənpərvər	-10.6326
▁qatı	-10.6327
▁həqiqəti	-10.6329
▁Qız	-10.633
▁Xankəndi	-10.6335
▁əsərlərində	-10.6335
▁içki	-10.6339
▁qiymətləri	-10.634
▁Deməli	-10.6343
▁getdiyi	-10.6345
▁dayanan	-10.6353
▁Necə	-10.6355
▁yunan	-10.6355
▁ifadəsi	-10.6355
▁zirvə	-10.6356
▁gələni	-10.6357
▁komandanı	-10.6359
nd	-10.6365
▁yaranmasına	-10.6369
▁mütəxəssislərin	-10.637
▁bi	-10.6374
▁Cavad	-10.6378
▁gətirilib	-10.6378
▁Hal	-10.6384
▁misilsiz	-10.6385
▁Nəriman	-10.6392
▁diqqətinə	-10.6394
sizlik	-10.6397
ASAN	-10.6401
▁müxalifətin	-10.6401
▁istehlak	-10.6405
▁həyəcan	-10.6408
▁tarixlərində	-10.6409
▁Astara	-10.6416
▁Cəlil	-10.6417
▁Agentliyin	-10.6418
▁prokurorluq	-10.6418
▁sərgisi	-10.6419
▁çıxacaq	-10.6422
▁məhsulun	-10.6423
▁keçirdi	-10.6427
▁bildirmək	-10.6428
▁opera	-10.6431
kdən	-10.6431
bat	-10.6433
▁mütərəqqi	-10.6433
qiymətləndirilir	-10.6437
▁baha	-10.6438
mat	-10.644
▁cavabı	-10.6442
▁magistral	-10.6444
▁jurnalının	-10.6445
▁şəbəkədə	-10.6445
▁malların	-10.6447
▁Moskvaya	-10.645
▁mətn	-10.645
▁sevinc	-10.6455
▁qazanmış	-10.6456
▁oldular	-10.6459
▁halında	-10.646
ləşməsi	-10.6461
▁ideoloji	-10.647
▁gözləri	-10.647
▁şirin	-10.647
▁missiya	-10.6472
▁çatmaq	-10.6473
▁pilot	-10.6475
Nə	-10.6477
▁hərbçi	-10.6479
▁büdcəsi	-10.6481
▁konfransı	-10.6483
▁fəlakət	-10.6484
▁amillər	-10.6488
▁Yəqin	-10.6491
▁başlaması	-10.6493
▁hesabla	-10.6495
▁Təşkilat	-10.6495
▁arzusu	-10.6496
▁ixtisası	-10.6497
▁Ab	-10.6506
▁müalicəsi	-10.6507
▁mesaj	-10.6507
▁Əminəm	-10.6507
▁dostları	-10.6507
lərimizi	-10.6512
▁protokol	-10.6512
▁məsələlərlə	-10.6515
▁tabeliyində	-10.6515
▁etməsini	-10.6521
ze	-10.6521
▁Ramazan	-10.6522
▁fakültəsinin	-10.6522
▁iqtisadiyyatına	-10.6522
▁gəlmişdi	-10.6526
▁hücumu	-10.653
▁açılan	-10.6531
▁Əsgərov	-10.6532
▁tələbat	-10.6535
müş	-10.6537
▁modern	-10.6539
▁təşəkkürünü	-10.6539
▁rayonları	-10.6539
▁təcavüzkar	-10.654
▁qəhrəmanı	-10.6542
▁abadlıq	-10.6543
▁çəkilməsi	-10.6545
▁şou	-10.6545
▁Günəş	-10.6548
polkovnik	-10.6549
▁üzünə	-10.6553
▁keçə	-10.6553
▁olmuşam	-10.656
▁halı	-10.6567
▁regionların	-10.6567
▁olsaydı	-10.6568
▁sakinlər	-10.6571
qla	-10.6574
▁keçirilməsinin	-10.6574
▁Təkcə	-10.6574
atı	-10.6577
▁hədə	-10.6577
▁norma	-10.6579
▁qaydalara	-10.6581
▁müharibəyə	-10.6581
▁cümlə	-10.6583
mət	-10.6583
▁göstəriciləri	-10.6584
▁gündür	-10.6585
▁savaş	-10.6585
▁edəndə	-10.6586
▁qeydiyyatı	-10.6587
▁Zərifə	-10.6589
Musavat	-10.6591
▁mahiyyəti	-10.6593
▁yeraltı	-10.6595
aş	-10.6597
▁Qanun	-10.6597
Xalq	-10.6598
▁park	-10.66
▁Nazirliyin	-10.6602
▁aksiyası	-10.6603
çiçəklilər	-10.6605
▁ödəmə	-10.6605
▁Göy	-10.6608
uk	-10.6612
▁çayının	-10.6613
▁alınaraq	-10.6614
▁məsələlərdə	-10.6617
▁Aslan	-10.6621
▁yana	-10.6622
▁Hüquqları	-10.6625
▁göstəricisidir	-10.6625
▁qiymətləndirir	-10.6627
▁cəzası	-10.6627
▁razılığa	-10.6629
əz	-10.6629
▁iclas	-10.6631
▁müraciəti	-10.6635
▁gətirə	-10.6635
▁sülhməramlı	-10.6637
pi	-10.6641
▁abidəsi	-10.6643
▁görüşün	-10.6645
▁əhəmiyyətə	-10.6645
▁Salyan	-10.6646
▁rəhbərinin	-10.6649
▁şagirdlər	-10.6649
▁minik	-10.6653
mızda	-10.6654
▁ünvanı	-10.6655
▁müzakirəsi	-10.6656
▁qalmaq	-10.666
▁zəfər	-10.6664
▁atdığı	-10.6664
▁yada	-10.6666
▁Mə	-10.6667
▁oxumaq	-10.6668
▁Ni	-10.6669
▁əhval	-10.667
▁musiqisi	-10.6673
üstə	-10.6674
▁arxeoloji	-10.6678
▁g	-10.6678
▁deməli	-10.6683
▁Göyçay	-10.6684
▁gənclərə	-10.6688
▁nazirlik	-10.6689
▁dildə	-10.669
▁turistlərin	-10.669
iq	-10.669
▁fundamental	-10.6691
▁xəbərdar	-10.6692
▁sayını	-10.6693
idir	-10.6696
▁qətiyyətli	-10.6703
▁fərqi	-10.6704
▁məhsullar	-10.6705
▁istilik	-10.6706
▁pulsuz	-10.6706
▁energetika	-10.6708
▁kubmetr	-10.6709
▁dəstəyini	-10.6714
▁sal	-10.6715
▁Mu	-10.6715
▁Bankının	-10.6716
▁törədən	-10.6721
yon	-10.6722
▁başçısına	-10.6726
▁mehriban	-10.6729
▁önə	-10.6731
▁Qol	-10.6731
giya	-10.6734
mon	-10.6734
▁Kal	-10.6737
▁Sentyabrın	-10.6738
▁Millətlər	-10.6739
▁əy	-10.6741
▁Ağcabədi	-10.6744
▁Səbail	-10.6744
▁vasitələrin	-10.6745
▁nümunələr	-10.6751
▁liderləri	-10.6751
▁dəstələri	-10.6753
▁müddətə	-10.6754
▁Bil	-10.6758
▁xalqını	-10.6758
▁yollarını	-10.676
▁kəndləri	-10.6764
▁büdcəsinin	-10.6764
▁Cəmil	-10.6764
▁məbləğdə	-10.6768
▁Araşdırmalar	-10.6768
▁Hə	-10.6769
ard	-10.6773
▁qonağı	-10.6773
▁müharibədə	-10.6773
▁xalqlarının	-10.6775
▁Dünyada	-10.6777
▁durumu	-10.6777
▁hazırlamaq	-10.6781
▁ölkədəki	-10.6782
▁yetirib	-10.6785
▁miqdarı	-10.6786
▁Amerikanın	-10.6787
▁rəqəm	-10.6791
kən	-10.6791
Əgər	-10.6795
▁yaşamış	-10.6796
▁ifşa	-10.6797
▁yaşadıqları	-10.6797
▁xidmətlərinin	-10.6799
▁Ver	-10.6799
▁platforma	-10.6802
▁komissiya	-10.6805
Real	-10.6807
▁Po	-10.6808
▁dayandırılması	-10.681
▁qurulan	-10.681
▁payı	-10.6811
▁Oktyabrın	-10.6811
▁Mərkəzin	-10.6813
tədqiqat	-10.6815
ho	-10.6815
▁qaytarılması	-10.6815
▁prosesləri	-10.6816
▁formalaşmasında	-10.6816
▁Şa	-10.6817
▁kommersiya	-10.6825
▁qərəzli	-10.6828
▁təslim	-10.6829
▁Arzu	-10.6831
▁Elşad	-10.6831
▁sifarişi	-10.6838
sü	-10.684
▁Havanın	-10.6841
▁görmə	-10.6841
▁şirkətlərinin	-10.6841
ləşdirir	-10.6841
▁yaxındır	-10.6841
▁xaricdən	-10.6842
▁səhifə	-10.6843
dikləri	-10.6844
Son	-10.6848
▁Qarşı	-10.6852
▁neqativ	-10.6853
▁sənədi	-10.6853
▁Kərimli	-10.6854
▁bələdiyyənin	-10.6858
▁Fərmanı	-10.6858
▁qətiyyətlə	-10.6859
▁qoşunları	-10.6866
▁arada	-10.6867
▁Litva	-10.687
▁şüşə	-10.6872
▁qətimkan	-10.6872
▁rəmzi	-10.6874
▁dəyərləri	-10.6875
bət	-10.6877
▁etimad	-10.6878
ment	-10.688
▁Ho	-10.6881
masına	-10.6883
▁keçirildiyi	-10.6883
▁ərsəyə	-10.6886
▁planlaşdırır	-10.6886
ləşdirmək	-10.6888
pe	-10.6889
▁hadisəni	-10.6889
▁pro	-10.689
▁ailəsinin	-10.689
▁Əlizadə	-10.6892
▁sürücüsü	-10.6894
▁vurdu	-10.6894
▁təntənəli	-10.6895
Sumqayıt	-10.6896
▁dairə	-10.6897
▁abidələr	-10.6898
▁dayaq	-10.6902
dil	-10.6902
▁sevimli	-10.6905
▁şərəfinə	-10.6907
▁zabit	-10.6908
▁Ermənilər	-10.691
tin	-10.6919
▁Əfqanıstan	-10.6921
▁Müzəffər	-10.6923
▁sonsuz	-10.6926
▁vilayətində	-10.6926
▁seçimi	-10.6926
▁risk	-10.6926
▁olmasın	-10.6928
▁vermə	-10.6928
▁gəlirlər	-10.6929
▁folklor	-10.6931
▁saray	-10.6945
▁milyonlarla	-10.6948
▁miqyasda	-10.6948
▁Əlavə	-10.695
▁yaradıcılığının	-10.695
▁kimə	-10.6951
▁daşınması	-10.6953
▁rəqibi	-10.6954
▁tutulması	-10.6955
▁açaraq	-10.6957
▁sonlarında	-10.6961
▁təsdiqləyir	-10.6964
▁Sə	-10.6964
▁məsələlərdən	-10.6964
gün	-10.6965
▁iradə	-10.6966
qərb	-10.6969
▁Ata	-10.6969
▁Maraqlıdır	-10.6969
▁körpə	-10.697
▁müdafiəçisi	-10.6971
▁proqnoz	-10.6975
ks	-10.6976
▁şərtləri	-10.6977
▁Rabitə	-10.6977
▁dövrünə	-10.6978
▁emal	-10.6979
ly	-10.698
▁məhsuldar	-10.6982
▁dalğa	-10.6983
▁səviyyəyə	-10.6983
▁İKT	-10.6984
▁vəkil	-10.6984
▁səfirliyinin	-10.6985
▁AFFA	-10.6988
▁bərk	-10.699
ris	-10.699
▁ədəbiyyatşünas	-10.6993
▁ölkələrindən	-10.6998
▁mühitinin	-10.6999
ləmək	-10.7009
▁yarı	-10.7011
▁redaktor	-10.7011
▁zövq	-10.7014
▁vəziyyətdən	-10.7016
▁Bayram	-10.7017
▁kişilər	-10.7019
▁Qərarı	-10.7021
▁Hökumət	-10.7023
▁narazı	-10.7025
▁Mor	-10.7025
▁vəzifəyə	-10.7031
▁kitabında	-10.7035
▁Forumu	-10.7035
ji	-10.7035
▁polisi	-10.7036
▁ailələri	-10.7036
▁qoşunlarının	-10.7038
ja	-10.7041
har	-10.7045
▁ərazisinin	-10.7045
▁qüvvədə	-10.7046
▁şərtlər	-10.7046
▁çevrilmişdir	-10.7048
po	-10.7051
▁Tur	-10.7054
▁Nəhayət	-10.7058
▁Şair	-10.7059
▁bahalı	-10.7059
▁avtomat	-10.706
tel	-10.7061
▁keçərək	-10.7064
▁borcu	-10.7066
▁məqamlar	-10.7066
▁Kiyev	-10.7066
▁görüşə	-10.707
bəy	-10.7073
▁özlərinin	-10.7074
▁etməlidirlər	-10.7075
▁turizmin	-10.7082
▁QSC	-10.7082
▁Məcəlləsində	-10.709
▁Rumıniya	-10.7091
▁Radio	-10.7091
▁İnsanlar	-10.7092
▁xatırladıb	-10.7093
▁qızın	-10.7097
▁ölkəmizi	-10.7097
▁çatışmazlığı	-10.7098
▁dəyərində	-10.7099
▁Şuşanın	-10.7102
▁məscid	-10.7102
▁qarşıdakı	-10.7102
▁bayraq	-10.7103
▁qiymətinin	-10.7106
▁kafedrasının	-10.7107
Ü	-10.7108
▁artımı	-10.7112
▁vətəndaşın	-10.7115
▁fərmanı	-10.7117
▁səsini	-10.7119
▁təsərrüfatının	-10.7123
▁qoca	-10.7123
▁plana	-10.7123
▁qaçır	-10.7125
▁şanlı	-10.7126
▁zərərli	-10.7131
▁təqib	-10.7133
Ö	-10.7135
Ar	-10.7138
▁Qırğızıstan	-10.714
kal	-10.714
ac	-10.7143
▁oxuyub	-10.7144
▁məqsədləri	-10.7145
▁kitabları	-10.7145
▁qaranlıq	-10.7151
▁inqilab	-10.7155
▁təmizləmə	-10.7157
▁vaxta	-10.716
▁ikili	-10.7162
▁kimya	-10.7163
▁təsbit	-10.7163
larımızı	-10.7164
▁niyyətində	-10.7167
▁muxtar	-10.7167
mb	-10.7168
▁demə	-10.717
▁addımları	-10.7172
▁konfransda	-10.7175
ılan	-10.7176
▁et	-10.7178
▁oxuyan	-10.7179
▁Bağırov	-10.7179
▁yaradıldı	-10.7179
▁Var	-10.718
▁davamı	-10.718
▁Şərqdə	-10.718
▁istiqaməti	-10.7183
▁görülmüşdür	-10.7184
▁göstərirdi	-10.7186
▁Sərəncamı	-10.7188
▁şeiri	-10.719
▁Tural	-10.7191
▁praktiki	-10.7192
▁dilindən	-10.7192
▁yayımlanan	-10.7193
▁rəis	-10.7194
▁yollarının	-10.7195
val	-10.7196
▁çəkdi	-10.7198
▁Mahir	-10.72
▁Gədəbəy	-10.7202
▁hissəsidir	-10.7203
▁baxmaq	-10.7207
▁oturub	-10.7209
▁Ərdoğanın	-10.721
▁çıxaraq	-10.7215
▁inkişafa	-10.7215
▁jurnalistika	-10.7216
▁bitir	-10.7218
▁gəlişi	-10.722
▁di	-10.7224
▁ilində	-10.7224
▁payız	-10.723
▁Fərid	-10.7233
▁səhnəyə	-10.7234
▁dəyərlərə	-10.7239
▁mə	-10.7239
▁Noyabrın	-10.724
▁xalqları	-10.7243
▁hörmətlə	-10.7243
▁təcrübəli	-10.7243
▁zərərsiz	-10.7247
▁Fəxri	-10.7248
▁Nobel	-10.7249
▁faktları	-10.7249
▁aralarında	-10.7253
▁istəyirdi	-10.7254
▁edildikdən	-10.7259
▁səviyyəsini	-10.7261
▁bilirdi	-10.7263
▁qüvvəsi	-10.7265
▁Keçmiş	-10.7265
▁verilsin	-10.7266
▁danışarkən	-10.7267
Əl	-10.727
tər	-10.727
▁zərərçəkmiş	-10.727
▁Nəzarət	-10.7271
▁göstərirlər	-10.7275
▁tələbəsi	-10.7276
mişəm	-10.7278
▁kollektivi	-10.7279
ləşdirib	-10.728
▁Dini	-10.7281
▁şəbəkəsi	-10.7284
▁hissələri	-10.7284
▁xarakterizə	-10.7288
▁sözlərini	-10.7288
▁insanlarla	-10.729
▁Yu	-10.7291
layır	-10.7292
türk	-10.7292
▁süjet	-10.7296
ativ	-10.7296
Ukrayna	-10.7298
mışam	-10.7298
▁çatdı	-10.7303
▁sevən	-10.7304
▁xadim	-10.7305
▁nikah	-10.7307
▁səy	-10.7307
▁özümü	-10.7309
ağ	-10.7309
▁Braziliya	-10.731
▁şirkətlərin	-10.7319
▁ictimaiyyətinə	-10.732
▁zamanlarda	-10.7322
▁hərəkətlər	-10.7322
▁xeyrinə	-10.7329
ğını	-10.7329
▁ve	-10.7329
inq	-10.7329
▁ada	-10.733
▁yaratmışdır	-10.7333
mda	-10.7333
▁qruplar	-10.7334
▁ölkələrlə	-10.7334
▁başını	-10.7336
▁aktların	-10.7341
▁göstərmiş	-10.7344
▁hallarının	-10.7344
▁qrupun	-10.7345
▁ayın	-10.7347
▁Fətəli	-10.7348
▁törədilən	-10.735
▁başladılar	-10.7352
▁təsdiqləyib	-10.7352
▁dərd	-10.7355
▁Trampın	-10.7357
est	-10.7359
▁ab	-10.7359
▁populyar	-10.736
▁aydan	-10.7366
▁irs	-10.7368
▁Cəlal	-10.737
▁Azadlıq	-10.737
▁hala	-10.7371
tra	-10.7376
▁Dil	-10.7379
▁sahilində	-10.7381
▁Hüseynova	-10.7383
▁Federal	-10.7384
▁köçürülməsi	-10.7387
▁Baba	-10.7389
▁kompensasiya	-10.7389
▁ölkəsində	-10.739
▁dövriyyəsi	-10.7391
erməni	-10.7392
▁mövcudluğu	-10.7395
▁heyvanlar	-10.7399
▁siyahı	-10.7401
sınlar	-10.7403
▁Qəhrəmanı	-10.7404
Mançester	-10.7405
▁Per	-10.7406
▁sahibkarlığın	-10.741
▁havanın	-10.7411
▁elmin	-10.7411
▁hara	-10.7411
yəcək	-10.7412
▁Qüvvələrin	-10.7414
▁kampaniyası	-10.7416
▁soyqırım	-10.7418
▁rejimin	-10.7421
▁istədiyini	-10.7422
▁maarifləndirmə	-10.7424
▁razılığı	-10.7424
▁sahibkarlar	-10.7425
▁Göz	-10.7432
▁Am	-10.7432
▁seçkilər	-10.7433
▁əməliyyatların	-10.7435
▁əşyaları	-10.7436
▁yetirmək	-10.7437
ıl	-10.7438
ian	-10.7439
▁çıxarılan	-10.7442
▁yarandı	-10.7445
▁qazana	-10.745
▁digərləri	-10.7451
▁Müqəddəs	-10.7451
▁Kanada	-10.7451
▁Mərkəz	-10.7452
▁zorla	-10.7453
▁Vəli	-10.7453
▁dolğun	-10.7454
▁təsirli	-10.7456
▁İnkişafı	-10.7456
▁Mayın	-10.7458
▁vəziyyətinin	-10.7461
▁Fəaliyyət	-10.7464
▁yarısı	-10.7466
▁həcmində	-10.7467
▁sevgisi	-10.7468
▁hazırlaşır	-10.7472
▁sektor	-10.7473
▁Van	-10.7475
▁itki	-10.7477
▁nəfərlik	-10.7478
▁Vətəndaş	-10.7478
▁yeniyetmə	-10.7478
▁yuxu	-10.7479
▁Qala	-10.7479
▁torpaqlarının	-10.748
▁mətbuatı	-10.7481
▁qayıdıb	-10.7482
zadənin	-10.7483
tr	-10.7483
nızı	-10.7484
ımızı	-10.7486
yeva	-10.7487
dirsə	-10.7487
▁Cavanşir	-10.7488
▁bəndində	-10.7491
▁Statistika	-10.7492
▁əsərlərini	-10.7494
▁respublikamızda	-10.7494
▁Qələbə	-10.7498
▁etdikdə	-10.7501
laşması	-10.7501
▁formasında	-10.7502
▁alov	-10.7503
▁əsilli	-10.7507
▁festival	-10.7509
▁dövlətlərinin	-10.7511
bəyov	-10.7512
▁xidmətlərinə	-10.7515
yır	-10.7517
▁maddənin	-10.7519
▁istifadəsinə	-10.7521
likdən	-10.7526
▁Yaqub	-10.7526
▁mədəniyyətin	-10.7527
▁açılır	-10.7527
▁çevrilən	-10.7535
▁Pir	-10.7536
▁ömrü	-10.7537
▁dəstəsi	-10.7539
bil	-10.7539
▁Səfir	-10.7543
▁zorakılıq	-10.7546
▁köç	-10.7547
▁prinsiplərinə	-10.7555
AZƏRTAC	-10.7556
▁danışığı	-10.7557
▁verilmir	-10.7557
▁azadlıqlarının	-10.7559
▁fasiləsiz	-10.7559
fon	-10.756
let	-10.7561
▁He	-10.7563
▁Əsgər	-10.7564
▁çıxara	-10.7571
▁müəssisələrinə	-10.7571
▁istehsalat	-10.7572
mal	-10.7574
▁şərəf	-10.7576
▁agentliyi	-10.7577
dıqları	-10.7579
▁Sabirabad	-10.758
▁Madrid	-10.7584
▁mövzuda	-10.7585
Ən	-10.7586
▁nədir	-10.7592
▁işlədiyi	-10.7593
▁parlamentinin	-10.7594
▁bankın	-10.7596
▁Xəlil	-10.7596
▁Xətalar	-10.7597
▁vəziyyətinə	-10.7598
▁klubun	-10.7598
▁yazıları	-10.76
▁nömrəsi	-10.7601
▁ANS	-10.7606
▁Qısa	-10.7607
▁edilməklə	-10.761
▁çıxardı	-10.7612
▁monitorinq	-10.7612
▁tolerantlıq	-10.7613
▁Ərazi	-10.7614
▁Görüş	-10.7615
▁Gün	-10.7626
▁sakinlərin	-10.7629
▁Qaradağ	-10.7634
Ka	-10.7637
▁texnikası	-10.7637
▁Yuxarı	-10.7639
altı	-10.7642
▁polisə	-10.7642
▁örnək	-10.7644
▁keçirə	-10.7645
▁sərhədləri	-10.7647
▁məhsulu	-10.7647
▁kirayə	-10.7651
▁illərdən	-10.7652
▁ibadət	-10.7654
▁Do	-10.7658
▁atan	-10.7659
▁bacarığı	-10.7661
▁kadrlar	-10.7661
▁taxta	-10.7664
▁niyyətindədir	-10.7665
▁laureatı	-10.7665
▁sürən	-10.7667
▁regionunda	-10.7671
▁şər	-10.7673
Mənim	-10.7673
duğu	-10.7674
▁edənlərin	-10.7681
▁torpaqların	-10.7685
▁Həyat	-10.7686
▁sakinlərinin	-10.7692
ləşdirilir	-10.7693
▁ölçü	-10.7693
▁Ser	-10.7696
▁maneə	-10.7697
liyindən	-10.7698
▁arvadı	-10.7698
ika	-10.77
▁dəyişməsi	-10.7703
ator	-10.7704
▁oynadığı	-10.771
▁bilməyəcək	-10.771
▁keçəcək	-10.7711
▁danışıqları	-10.7711
▁ədliyyə	-10.7712
▁maarif	-10.7712
▁Türkiyədən	-10.7714
▁şəxslərdən	-10.7714
▁verməlidir	-10.7715
▁həbsdə	-10.7716
▁axını	-10.7717
▁əməyi	-10.7719
kimilər	-10.7722
▁nəticələrə	-10.7722
▁Rzayev	-10.7724
▁ünvanına	-10.7725
▁məzmunu	-10.7725
▁Ki	-10.7726
▁dialoqun	-10.7729
ydı	-10.773
▁Məmmədyarov	-10.7735
▁Mülki	-10.7736
▁səyləri	-10.7739
▁əvəzsiz	-10.7743
▁bildirirlər	-10.7743
▁qadını	-10.7743
▁məqamda	-10.7745
▁atam	-10.7747
▁güzəştli	-10.7748
▁çəkilir	-10.7749
▁qaydası	-10.7751
▁Ölkəmizin	-10.7754
▁As	-10.7758
▁Cahangir	-10.7766
▁tərəflərin	-10.7766
▁virus	-10.7768
aj	-10.7769
▁Parisdə	-10.777
▁çıxar	-10.7777
https	-10.7782
▁hüquqlarını	-10.7783
▁münasibətlərdə	-10.7783
▁xalqlar	-10.7784
yyət	-10.7784
▁fərqlənir	-10.7788
dırlar	-10.7788
ger	-10.7789
dr	-10.779
▁xətləri	-10.7791
▁yerdən	-10.7792
▁gözəllik	-10.7793
▁nümunəsidir	-10.7794
▁sağlamlığı	-10.7796
▁Belçika	-10.7797
▁gəliblər	-10.7798
▁alimləri	-10.7798
▁filmlər	-10.7804
▁dönəmində	-10.7804
▁FHN	-10.7806
▁təkzib	-10.7811
▁oynamaq	-10.7814
▁rəğmən	-10.7815
▁gördü	-10.7823
▁bunlara	-10.7824
▁Fa	-10.7824
▁Suriyanın	-10.7824
▁infrastrukturu	-10.7828
▁Qax	-10.7828
▁it	-10.7828
▁Əbu	-10.783
▁sözçüsü	-10.783
▁göstərməsi	-10.7833
▁tənqidi	-10.7833
▁sırf	-10.7837
▁buraxılıb	-10.7837
bay	-10.7838
▁şəhərə	-10.7839
▁məsuliyyətə	-10.784
▁daşınmaz	-10.7842
▁zədə	-10.7843
▁gücləndirmək	-10.7843
▁yaxa	-10.7847
▁Sonradan	-10.7849
kon	-10.7849
▁komissiyasının	-10.785
▁Sevinc	-10.7853
▁yetirən	-10.7856
ləşib	-10.7864
▁hədəfi	-10.7869
▁seçkilərin	-10.7872
▁bin	-10.7873
▁Kreml	-10.7874
▁Nigar	-10.7875
▁Sovetinin	-10.7875
Şərq	-10.7877
birinin	-10.7877
▁Adam	-10.7878
▁müqabilində	-10.7878
▁Gecə	-10.788
▁sektoru	-10.7883
▁Fələstin	-10.7885
▁müstəvidə	-10.7885
▁oğurluq	-10.7886
▁yarış	-10.7888
▁getməyə	-10.7893
▁gəlinir	-10.7896
▁bilməzdi	-10.7897
▁vəziyyətlə	-10.7898
▁səbəblərdən	-10.79
▁verilməsini	-10.79
▁şəxsiyyəti	-10.7901
▁hərəkətə	-10.7901
▁Həmrəyliyi	-10.7902
▁Əbdül	-10.7905
cam	-10.7907
▁ölkələrinə	-10.7908
▁oğul	-10.7908
▁Allaha	-10.7909
▁qəzəb	-10.7911
▁ərazilər	-10.7912
▁kart	-10.7914
▁Pedaqoji	-10.7916
əş	-10.7917
▁tərif	-10.7917
ləyir	-10.7918
▁ürəkdən	-10.7921
▁unikal	-10.7921
zər	-10.7924
sün	-10.7925
▁qərarın	-10.7928
▁tapşırıq	-10.7928
▁analiz	-10.7929
▁ənənələri	-10.793
▁sırasına	-10.7931
")	-10.7932
▁Norveç	-10.7933
▁insident	-10.7938
rit	-10.7941
▁keçəcəyi	-10.7941
▁bıçaq	-10.7944
▁konstitusiya	-10.7945
▁kol	-10.7945
▁Kamil	-10.7947
▁əməlləri	-10.7947
dər	-10.7948
▁etmələri	-10.7948
▁sahil	-10.7948
▁qiymətləndirib	-10.7951
landı	-10.7953
▁törədilmiş	-10.7955
▁partiyaların	-10.7957
▁yatır	-10.7962
▁seminar	-10.7964
▁vəzifədən	-10.7969
▁görüşləri	-10.7971
▁yığmasının	-10.7973
▁Demək	-10.7975
▁analitik	-10.7975
▁istiqamətlərdə	-10.7976
▁xalqımıza	-10.7976
▁edəcəkdir	-10.7977
▁şamil	-10.7979
▁şagirdləri	-10.7979
▁şahid	-10.798
▁Təlim	-10.7981
▁çıxışları	-10.7984
▁üzünü	-10.7986
▁sistemlərinin	-10.7986
ləndi	-10.7991
▁yüksəkliklərdə	-10.7991
▁azalıb	-10.7992
▁təlimlər	-10.7994
əliyev	-10.7994
▁günah	-10.8001
Qara	-10.8003
▁Ruslan	-10.8006
▁Tanrı	-10.801
kə	-10.801
▁məktəblər	-10.8013
▁düşdüyü	-10.8014
ku	-10.8016
▁məktəblərində	-10.8021
▁sistemin	-10.8022
▁istintaqa	-10.8022
▁strategiyası	-10.8023
▁Səlim	-10.8024
▁In	-10.8024
▁laboratoriya	-10.8025
▁Aprelin	-10.8025
▁səbəbini	-10.8025
▁mövqelərini	-10.8037
▁belədir	-10.8047
▁ayrılmış	-10.8049
..."	-10.8057
▁müharibədən	-10.8061
▁büdcəsindən	-10.8062
▁Osman	-10.8065
▁öldürmə	-10.8067
▁xərclər	-10.8068
süz	-10.8069
▁təhlili	-10.807
Ma	-10.8072
▁həkimlər	-10.8074
▁Mirzəyev	-10.8074
eş	-10.8076
▁mənşəli	-10.8076
ff	-10.8079
▁Professor	-10.8081
▁artaraq	-10.8082
▁Mühafizə	-10.8082
▁saxlayan	-10.8083
çox	-10.8083
▁azalma	-10.8084
▁xəttinin	-10.8084
▁ailəsinə	-10.8085
▁məsuliyyətli	-10.8088
▁Vüsal	-10.8091
▁ölkədir	-10.8094
lararası	-10.8094
▁xitam	-10.8095
▁yığması	-10.8095
▁rəhbərlərinin	-10.8097
▁Serj	-10.8099
▁namizədlər	-10.8099
Barselona	-10.8102
▁ermənilərə	-10.8105
▁kitabının	-10.8111
▁qaynaq	-10.8112
▁adsız	-10.8115
▁se	-10.8116
▁planları	-10.8117
▁müəssisələrin	-10.8122
▁illiyinə	-10.8127
AK	-10.8136
▁olunmasının	-10.8137
▁zərbələr	-10.8139
▁tikilmiş	-10.8142
▁əla	-10.8143
▁evləri	-10.8144
yıq	-10.8146
▁obyektlərin	-10.8147
▁torpaqlarını	-10.8148
▁görüntüləri	-10.8149
▁növbə	-10.815
▁xərc	-10.8151
▁yaradıcılığına	-10.8156
▁əlinə	-10.8156
▁qarışıq	-10.8156
▁asanlıqla	-10.8158
▁Fond	-10.8159
lıların	-10.816
▁Partiya	-10.816
▁şərt	-10.816
▁etdiyiniz	-10.8161
▁başlamaq	-10.8162
▁yarandığı	-10.8171
▁baxır	-10.8171
▁Or	-10.8176
▁ətrafındakı	-10.8178
▁mahiyyətini	-10.8192
▁saç	-10.8192
▁Fazil	-10.8192
▁hərəkatının	-10.8193
▁Mark	-10.8198
▁yardımçı	-10.8198
▁küləyi	-10.8202
▁müddətdir	-10.8205
▁diplomat	-10.8205
ımı	-10.8206
.“	-10.8208
▁Kipr	-10.8215
▁Ad	-10.8216
▁Çexiya	-10.8221
▁yekunlarına	-10.8224
▁Ordu	-10.8224
▁pandemiyası	-10.8225
ör	-10.8226
▁Molla	-10.8228
▁Namiq	-10.8229
▁şəkər	-10.8235
▁Tələbə	-10.8239
▁dünyəvi	-10.824
▁nöqtə	-10.8242
▁ehtiyatları	-10.8243
▁göndərilən	-10.8245
sal	-10.8248
▁tutmaq	-10.8249
▁ayrılması	-10.8251
tri	-10.8253
rdi	-10.8255
▁yaxşıdır	-10.826
▁bizdən	-10.826
saq	-10.8264
▁imiş	-10.8266
▁qarşılanıb	-10.8267
▁Məclisi	-10.8268
▁metro	-10.8272
▁Portuqaliya	-10.8272
▁obyektləri	-10.8274
▁gah	-10.8275
▁Qida	-10.8275
▁Suraxanı	-10.8276
▁zəhmət	-10.8276
saydı	-10.8279
▁tərbiyəsi	-10.8279
▁stansiyası	-10.8283
▁siyahıya	-10.8284
▁müxalif	-10.8286
▁hörmətli	-10.8288
▁töhfəsini	-10.8288
▁sırada	-10.8293
▁dənizinin	-10.8299
▁nəzarətdə	-10.8301
▁bircə	-10.8301
▁alətləri	-10.8302
rt	-10.8304
▁səfərə	-10.8304
▁sayında	-10.8304
▁Ter	-10.8305
▁addımların	-10.8307
▁görüləcək	-10.831
▁maddələrin	-10.8311
len	-10.8312
▁günahkar	-10.8315
▁boyun	-10.8315
▁Rəhimov	-10.8316
▁məzmun	-10.8318
▁xatirəsini	-10.8318
lət	-10.8322
▁Du	-10.8324
▁İkincisi	-10.8324
▁tutması	-10.8325
▁Qarabağı	-10.8326
▁Texniki	-10.8329
▁Kara	-10.8329
▁maaş	-10.8332
▁Dar	-10.8332
▁məmnun	-10.8333
▁strategiya	-10.8334
▁Yaşar	-10.8336
▁Roman	-10.8337
▁Yunus	-10.8337
▁mövqeləri	-10.8338
▁verildiyi	-10.834
▁Fevralın	-10.8342
▁çətinliklər	-10.8344
ob	-10.8346
laya	-10.8349
▁qurub	-10.8353
ga	-10.8353
▁Nazirliyində	-10.8354
▁Qran	-10.8357
▁qaydalar	-10.836
▁hadisələrə	-10.8364
▁əyləncə	-10.8365
▁etdirəcək	-10.8367
Azadlıq	-10.837
▁İlyas	-10.8374
▁Valyuta	-10.8375
▁ba	-10.8376
▁yüksəlib	-10.8376
▁qayıdır	-10.8377
res	-10.8378
▁quş	-10.838
▁hamısını	-10.8382
▁uğursuz	-10.8382
▁dediyinə	-10.8382
▁hüququna	-10.8384
▁xəstəliyin	-10.8387
əd	-10.8388
tək	-10.8389
▁mərhələyə	-10.8389
▁inkar	-10.839
▁məntəqələri	-10.839
▁Ben	-10.8392
çıların	-10.8392
▁nizam	-10.8393
▁elədi	-10.8395
▁Qobustan	-10.8397
▁İyunun	-10.8398
▁ərazilərə	-10.8399
▁xatırladır	-10.8399
▁yarımçıq	-10.8402
▁rayonlarının	-10.8407
▁apara	-10.8409
▁Etibar	-10.8409
▁yararsız	-10.841
▁çoxşaxəli	-10.8414
▁gedəcək	-10.8415
▁tapılıb	-10.8416
▁bölməsində	-10.8417
eti	-10.8422
▁bölməsinin	-10.8427
▁qardaşlıq	-10.843
▁ittifaq	-10.8431
▁gördük	-10.8432
▁bazarı	-10.8432
▁layihəsini	-10.8433
▁Biləsuvar	-10.8434
▁Vasif	-10.8441
▁qərarını	-10.8445
▁üzvlərinə	-10.845
Hazırda	-10.8452
▁obyektlərinin	-10.8453
▁xəsarətləri	-10.8454
lanaraq	-10.8454
▁gəldiyini	-10.8454
▁Zirvə	-10.8455
▁dəyişikliyi	-10.8456
▁mənası	-10.8456
▁XXI	-10.8457
▁əmlakın	-10.8457
▁sistemini	-10.8461
▁kompleksinin	-10.8462
▁Av	-10.8463
vo	-10.8466
Onun	-10.8467
▁yayılmış	-10.8467
▁Bayden	-10.8468
Mü	-10.8471
▁pəncərə	-10.8475
▁çalışırdı	-10.8477
▁bildirirəm	-10.8481
nan	-10.8482
▁Məşhur	-10.8482
▁faciəsi	-10.8485
▁etdirdiyi	-10.8486
▁Kürdəmir	-10.8487
▁xəyal	-10.8488
▁yaratma	-10.849
▁başlamış	-10.849
▁Musayev	-10.8495
▁baxıb	-10.8498
▁fürsət	-10.8498
▁Turan	-10.8501
▁Qarabağdakı	-10.8502
▁İranla	-10.8506
▁Əbülfəs	-10.8506
▁Dekabrın	-10.8508
▁çalışırıq	-10.8508
▁tədbirlərə	-10.8511
▁İngilis	-10.8512
▁Torpaq	-10.8512
▁paylaşıb	-10.8512
▁torpağa	-10.8512
▁Şurasına	-10.8513
▁kəsi	-10.8513
▁salan	-10.8517
▁həddi	-10.8523
▁Elman	-10.8526
▁iddiaları	-10.8528
▁qrupuna	-10.8529
▁halların	-10.853
▁açmaq	-10.8531
▁İnternet	-10.8532
▁Məhkəmənin	-10.8534
▁gen	-10.8534
of	-10.8535
▁etdiklərini	-10.8536
▁xəritəsi	-10.8537
▁göndərdiyi	-10.854
▁Kino	-10.8541
▁bənd	-10.8541
▁minnətdarlıq	-10.8543
üç	-10.8544
▁salam	-10.8548
▁Mal	-10.8549
lana	-10.8549
▁olduğum	-10.855
▁Hacıbəyli	-10.855
▁Martın	-10.8552
▁səfirliyi	-10.8552
▁Qusar	-10.8553
▁münasibətlərini	-10.8554
▁sertifikat	-10.8554
▁cəbhədə	-10.8555
▁rekord	-10.8558
▁faizə	-10.856
▁zamanın	-10.856
▁ölənlərin	-10.8561
▁sənayesinin	-10.8562
▁gedirdi	-10.8565
bər	-10.8567
hüquqi	-10.8569
▁xərçəng	-10.8571
dağ	-10.8574
xi	-10.8579
▁BDU	-10.8582
▁qanı	-10.8582
▁Quliyevin	-10.8584
▁hə	-10.8588
▁etdirməyə	-10.8588
▁kar	-10.8589
▁çağırır	-10.8589
▁mütəşəkkil	-10.8593
▁Ömər	-10.86
▁torpağı	-10.8601
cağını	-10.8602
▁çevrilmiş	-10.8603
▁estetik	-10.8603
▁Hansı	-10.8603
▁ye	-10.8606
La	-10.8607
▁Dağ	-10.8607
▁kilsə	-10.8607
▁qoşun	-10.8611
▁filminin	-10.8612
▁səhnədə	-10.8612
▁En	-10.8615
▁kv	-10.8618
▁azərbaycançılıq	-10.862
▁arzulayıram	-10.8621
▁dəyişdi	-10.8624
don	-10.8624
zin	-10.8625
▁Şəhidlər	-10.8626
laşıb	-10.8626
▁doğrusu	-10.8627
▁xəstəliklərin	-10.8627
▁Ber	-10.8627
▁vətəndaşlığı	-10.8628
▁şəhərindən	-10.8628
▁qanunvericiliyə	-10.8629
▁dram	-10.8631
▁ərazilərinin	-10.8631
▁ideyası	-10.8632
▁Müşahidə	-10.8633
io	-10.8634
ray	-10.8637
▁icbari	-10.8638
▁kanalizasiya	-10.8638
çü	-10.8639
▁bölgənin	-10.8641
▁müraciətlər	-10.8642
▁əsrlərdə	-10.8642
▁qaynar	-10.8643
▁Sadıqov	-10.8643
▁əzab	-10.8644
▁təmizlənməsi	-10.8646
başı	-10.8647
▁Ondan	-10.8648
▁həddə	-10.8651
▁etibar	-10.8651
▁Sədri	-10.8655
▁biləcəklər	-10.866
rət	-10.8665
▁Faiq	-10.8667
▁həmrəylik	-10.8667
▁Əmin	-10.8667
▁aviasiya	-10.8668
▁eks	-10.8669
▁Liqası	-10.8673
▁mahnısı	-10.8673
▁ağıllı	-10.8674
▁elminin	-10.8675
▁xəstəlikləri	-10.8676
▁Min	-10.8679
▁qolu	-10.8679
▁Bakıdan	-10.8682
pen	-10.8683
▁z	-10.8684
▁artırılmasına	-10.8686
▁nişan	-10.8687
▁ehtiramla	-10.8687
net	-10.8688
▁siyasətində	-10.8691
▁məqsədlər	-10.8693
▁Prokurorluğun	-10.8694
▁hərəkatı	-10.8695
▁ustası	-10.8696
▁qızlar	-10.8697
▁bəndini	-10.8699
▁valideynlər	-10.8699
▁müzakirəyə	-10.87
▁üslub	-10.8706
AR	-10.8706
▁Hüseynovun	-10.8706
▁təhsilə	-10.8707
▁qətl	-10.8708
▁Par	-10.8711
▁Forumunun	-10.8711
▁Sözüge	-10.8711
▁şöhrət	-10.8713
▁yığma	-10.8715
▁mətbuatın	-10.8715
▁ailəsində	-10.8717
▁referendum	-10.8721
▁istismara	-10.8722
▁oğluna	-10.8724
▁ümumtəhsil	-10.8725
▁zəminində	-10.8725
▁ictimaiyyətinin	-10.8727
kur	-10.8728
▁çiçək	-10.873
▁vurğulanır	-10.873
ion	-10.8731
▁təşkilati	-10.8732
▁temperatur	-10.8732
ft	-10.8734
İN	-10.8735
▁təqaüd	-10.8742
▁atmaq	-10.8745
▁standart	-10.8746
▁liderin	-10.875
▁təcrid	-10.875
▁ölümünə	-10.875
▁kosmik	-10.8751
▁ocağı	-10.8754
▁Hakim	-10.8754
▁ov	-10.8756
▁bəyanatlar	-10.8756
▁kitabda	-10.8756
▁işlərdən	-10.8757
▁imzalanan	-10.8757
▁məkanda	-10.8757
▁müəssisəsinin	-10.8757
▁AZN	-10.8759
▁Məlumatda	-10.8762
▁vaksin	-10.8762
▁kampaniya	-10.8765
▁yetirilib	-10.8768
▁almışdı	-10.877
▁Teatrı	-10.8775
▁Baku	-10.8775
▁yaranma	-10.8776
▁əsaslanır	-10.8776
▁istismarı	-10.8778
▁proqramlarının	-10.8779
▁maye	-10.8779
▁r	-10.8779
▁İdarəetmə	-10.8783
▁plastik	-10.8784
▁Sığorta	-10.8784
▁qəzetin	-10.8785
oz	-10.8786
sar	-10.8787
▁beləliklə	-10.8789
▁pozulmasına	-10.8792
▁nəyi	-10.8794
lıyıq	-10.8795
▁Zaman	-10.8797
▁hamımız	-10.8799
rey	-10.8802
▁qoşulub	-10.8802
▁yardımın	-10.8807
▁bazarda	-10.8811
▁olmasıdır	-10.8813
▁nitq	-10.8815
lilər	-10.8819
İslam	-10.8821
▁əsərlərin	-10.8821
▁qazı	-10.8822
▁partiyasının	-10.8827
kü	-10.8832
maqla	-10.8833
▁qatar	-10.8838
▁intizam	-10.8844
▁Əks	-10.8847
▁Məqsəd	-10.8847
▁ayrılmaz	-10.885
▁əminəm	-10.8851
▁oluruq	-10.8853
ven	-10.8855
▁Muzeyi	-10.8855
▁cəhdləri	-10.8855
imizdə	-10.8859
▁amansız	-10.8861
▁qəzaya	-10.8862
▁xoşbəxtlik	-10.8863
▁Sarı	-10.8868
▁çatacaq	-10.8869
▁hesablı	-10.8869
▁alıblar	-10.887
▁ailələrinə	-10.8873
▁futbolçular	-10.8874
▁qurucusu	-10.8876
▁Qal	-10.8877
▁abidələrin	-10.8879
▁sel	-10.8879
▁illəri	-10.8881
▁saz	-10.8882
▁qaldırıb	-10.8882
▁mln	-10.8883
▁mineral	-10.8883
▁başsağlığı	-10.8884
layaraq	-10.8885
▁təqsirli	-10.8885
▁mövqelərdən	-10.889
▁anlayışı	-10.8891
lon	-10.8894
Assosiasiyasının	-10.8897
▁Respublikasına	-10.8898
▁Sülh	-10.8898
▁pozan	-10.89
▁iştirakçılar	-10.89
Amma	-10.8901
▁məscidi	-10.8901
▁Vətənə	-10.8905
▁Qadınlar	-10.8906
▁edam	-10.8908
▁riyaziyyat	-10.8908
▁filmdə	-10.8911
▁Görkəmli	-10.8915
▁fəaliyyətindən	-10.8918
çək	-10.8921
▁müştəri	-10.8921
▁İşçi	-10.8921
▁qətiyyən	-10.8925
Naxçıvan	-10.8928
▁dağı	-10.8928
▁şəraitin	-10.8929
yana	-10.8931
▁toplantı	-10.8933
▁od	-10.8934
▁dəyişikliklərin	-10.8935
▁gəlmir	-10.8941
▁bazarına	-10.8943
▁Ca	-10.8943
▁Mehman	-10.8944
▁binalar	-10.8944
▁havada	-10.8946
▁dəqiqəlik	-10.8947
▁Departamentinin	-10.8948
▁Rusiyanı	-10.895
▁çağdaş	-10.8952
daxili	-10.8958
▁Qazaxıstanın	-10.8958
▁Mariya	-10.8959
▁məqamı	-10.896
▁sualları	-10.8961
▁bələd	-10.8961
▁gücündə	-10.8962
▁sualı	-10.8963
▁ehtiram	-10.8965
▁prosesə	-10.8965
▁təcavüz	-10.8968
▁Qrupu	-10.8969
mər	-10.8969
▁sazişi	-10.8969
ans	-10.8969
▁cəhdi	-10.897
▁üsyan	-10.8973
▁heyətinə	-10.8975
▁çalışdığı	-10.8975
▁valideynləri	-10.8978
▁əngəl	-10.8985
▁məsələlərinə	-10.8986
▁Mart	-10.8988
▁prinsip	-10.899
likdə	-10.899
▁qaydasında	-10.8991
▁probleminin	-10.8992
▁Babək	-10.8993
▁müddətli	-10.8995
▁durur	-10.8995
▁çıxma	-10.8996
▁qab	-10.8999
▁başlanması	-10.9
▁buraya	-10.9
▁Əkbər	-10.9002
▁sərhədi	-10.9003
▁mövsümün	-10.9004
▁baba	-10.9006
▁böhranı	-10.9007
▁məntəqələrində	-10.9009
rəsmi	-10.9011
▁edilməyib	-10.9013
▁Nur	-10.9014
çilərin	-10.9015
▁istedadı	-10.902
▁görəndə	-10.9022
▁miqrasiya	-10.9023
▁evlərin	-10.9024
▁sevdiyi	-10.9026
▁alındı	-10.9026
▁mərasim	-10.9028
▁tərəfdarı	-10.9028
▁nümunəvi	-10.9029
▁vurğulayır	-10.9029
▁suvarma	-10.9029
Ra	-10.903
▁dekabrında	-10.903
Qərb	-10.9033
▁çəkiliş	-10.9036
▁Trans	-10.9037
▁heyran	-10.9038
▁ştat	-10.9043
▁zəbt	-10.9046
▁şəkillər	-10.9047
▁mədəniyyətinə	-10.9047
ada	-10.9048
sel	-10.9048
▁Avstraliya	-10.905
▁Mil	-10.9051
▁verməklə	-10.9051
▁Kol	-10.9052
▁irəliləyiş	-10.9054
▁istedad	-10.9056
▁qurbanı	-10.9061
▁yaşanan	-10.9063
bank	-10.9063
▁bağlanması	-10.9064
▁idim	-10.9065
▁aparacaq	-10.9069
▁efir	-10.907
▁Əvvəllər	-10.9074
▁Palatasının	-10.9074
cəm	-10.9074
▁Müğənni	-10.9076
mun	-10.9079
▁vurğu	-10.9084
iv	-10.9085
kt	-10.9085
▁məntəqəsində	-10.9086
▁mübarizənin	-10.9088
▁səfərlər	-10.9095
▁Tikinti	-10.9098
▁Xorvatiya	-10.9098
▁Latviya	-10.9099
▁nəticələrinin	-10.91
▁hazırlanmasında	-10.91
leytenant	-10.91
▁Obama	-10.9102
▁üzr	-10.9103
▁innovativ	-10.9103
ham	-10.9109
▁Axşam	-10.9109
▁başda	-10.9111
▁bildiriş	-10.9111
▁adlarını	-10.9114
▁adekvat	-10.9115
▁üsul	-10.9117
▁Döyüş	-10.9117
▁dua	-10.9117
▁proseslərə	-10.9118
▁yoldaşları	-10.9118
▁Filmin	-10.9119
▁Xəstəxanasına	-10.9121
▁At	-10.9123
▁Niderland	-10.9124
▁saxlama	-10.9127
iyev	-10.9131
Na	-10.9131
isi	-10.9132
▁oyunlar	-10.9133
▁qaçıb	-10.9134
▁vəziyyətini	-10.9136
▁Tar	-10.9138
▁Politoloq	-10.9142
▁meyiti	-10.9144
▁savadlı	-10.9145
▁verənlər	-10.9145
▁Alman	-10.9145
▁ikən	-10.9146
▁illərlə	-10.9147
▁Sara	-10.9149
▁Göygöl	-10.915
▁müsabiqənin	-10.915
▁Öndərin	-10.9152
▁qəzası	-10.9153
▁Zeynalov	-10.9154
▁müharibəsindən	-10.9154
▁işlərlə	-10.9154
▁başlamışdı	-10.9157
▁təəssürat	-10.9158
▁adlanır	-10.9158
▁bilmədiyi	-10.9161
▁qazanır	-10.9161
▁diş	-10.9169
▁Elşən	-10.9171
▁şansı	-10.9171
çe	-10.9172
▁islahatları	-10.9177
▁həkk	-10.9179
▁qohumları	-10.9181
▁Yardım	-10.9182
▁dəstəklənməsi	-10.9183
▁Paşayeva	-10.9184
▁məkanı	-10.9184
▁oyununda	-10.9184
▁qayıtmaq	-10.9185
▁mükafatına	-10.9185
▁Anadolu	-10.9188
▁Finlandiya	-10.9189
▁ifaçısı	-10.9191
malıyıq	-10.9191
▁keyfiyyəti	-10.9193
▁Əsasnamə	-10.9196
▁şəhərləri	-10.9199
▁ünvanında	-10.92
▁bazasında	-10.9201
▁Yanvarın	-10.9202
▁binada	-10.9204
▁kölgə	-10.9206
▁jurnalı	-10.921
▁Güney	-10.9216
Belə	-10.9224
▁məxsusdur	-10.9226
▁İyulun	-10.9227
üz	-10.9229
lay	-10.9229
ğu	-10.9231
▁Məhkəməsinə	-10.9232
▁çöl	-10.9236
▁idarəçilik	-10.9237
▁xəstəliklər	-10.9237
pro	-10.9237
▁dayanıb	-10.9238
▁istəsə	-10.9242
▁xəstəxanada	-10.9246
▁peyğəmbər	-10.9252
▁ordunun	-10.9257
yevin	-10.9258
▁hədəfə	-10.9259
düyü	-10.9261
▁qalmışdı	-10.9261
▁qəpik	-10.9264
▁müvəffəqiyyətlə	-10.9264
▁vurduğu	-10.9266
▁Hesabat	-10.9267
▁Söz	-10.9267
▁unudulmaz	-10.9268
▁qoyun	-10.9271
▁proqramına	-10.9271
▁vurur	-10.9271
▁Albaniya	-10.9275
▁mədəniyyətini	-10.9275
▁qəlbində	-10.9276
▁sığınacaq	-10.9283
▁iyirmi	-10.9283
▁cansağlığı	-10.9285
▁gəlmə	-10.9288
▁dövlətinə	-10.9289
▁doqquz	-10.9289
▁tarixdən	-10.9291
▁Ermənistandan	-10.9292
car	-10.9301
▁Məmmədli	-10.9304
▁ehtiyatlarının	-10.9305
▁mitinq	-10.9309
▁toxunan	-10.9311
ren	-10.9311
▁düşməni	-10.9313
▁olunsun	-10.9323
;"	-10.9323
▁turnir	-10.9324
▁vurmaq	-10.9325
▁nişanı	-10.9325
Əli	-10.9328
▁proqramında	-10.9333
▁Tanınmış	-10.9333
▁götürmək	-10.9333
▁inamla	-10.9334
▁düşmənə	-10.934
▁əlamətləri	-10.9341
dilli	-10.9341
▁türkiyəli	-10.9343
hücum	-10.9344
▁quruluşu	-10.9345
▁Məktəb	-10.9356
Ağ	-10.9357
▁dəstəkləyən	-10.9357
▁Bal	-10.9361
▁Səfərov	-10.9362
▁meydanda	-10.9363
yat	-10.9364
▁İmişli	-10.9365
El	-10.9365
▁kanalı	-10.9365
▁YUNESKO	-10.9366
▁Keçən	-10.9368
▁Ağsu	-10.9369
▁dəyişmək	-10.9369
▁etmədən	-10.9369
▁getməsi	-10.9369
▁etdirə	-10.9371
lardır	-10.9374
▁Bunlardan	-10.9376
▁Muzeyinin	-10.9378
▁rəsmən	-10.9381
▁versə	-10.9381
▁ürəyi	-10.9382
▁başçılarının	-10.9384
▁dar	-10.9389
▁Qəza	-10.9392
▁səlahiyyətlərin	-10.9393
▁yerlər	-10.9394
qızı	-10.9395
▁yavaş	-10.9395
▁günahsız	-10.9396
▁düşmək	-10.9398
▁getmə	-10.9399
▁AB	-10.94
əb	-10.94
▁müttəfiq	-10.9401
▁Hərəkatının	-10.9401
▁vaksinasiya	-10.9401
▁dönüş	-10.9406
▁rayonuna	-10.9408
▁Ağstafa	-10.9409
xar	-10.9414
▁Pol	-10.9414
▁Muğam	-10.9418
▁törətməkdə	-10.9422
adze	-10.9423
▁üzərindəki	-10.9424
bin	-10.9425
▁etməkdədir	-10.9427
lənərək	-10.9428
▁turunda	-10.9428
▁növbədənkənar	-10.9435
▁Sin	-10.9435
▁Qəhrəman	-10.9437
▁ver	-10.9437
▁Kommunist	-10.9438
▁qiymətə	-10.9442
pp	-10.9442
▁mehmanxana	-10.9443
▁Görünür	-10.9443
▁qaldığını	-10.9444
▁Müsabiqə	-10.9446
▁Araşdırma	-10.9448
▁itirmiş	-10.9453
▁yaşaya	-10.9456
▁statistik	-10.9457
▁Qor	-10.9461
▁aparıblar	-10.9464
▁məktəbləri	-10.9468
üs	-10.9469
▁ərazinin	-10.9474
▁Sabah	-10.9476
▁köməklik	-10.9476
▁peyk	-10.9485
▁qarış	-10.9489
▁Ola	-10.9492
▁kürd	-10.9494
▁verdiyimiz	-10.9494
▁xanəndə	-10.9495
▁səylərini	-10.9497
▁tikintisinə	-10.9497
▁sərhədində	-10.9498
▁amili	-10.9501
▁get	-10.9501
▁çempionatı	-10.9503
▁saf	-10.9505
▁iradəsi	-10.9505
▁gəlirləri	-10.9506
▁Pri	-10.9507
▁Danimarka	-10.9507
▁bölməsi	-10.9508
▁Dr	-10.951
loji	-10.9511
illik	-10.9516
▁yazdı	-10.9519
▁bitirdikdən	-10.952
▁çatdıran	-10.9523
enko	-10.9524
ünün	-10.9524
▁olduğumuz	-10.9524
▁banisi	-10.9524
▁adamlarının	-10.9528
▁akt	-10.9528
▁Bey	-10.9529
Prezident	-10.953
▁göndərilir	-10.9531
▁zalı	-10.9541
▁İstər	-10.9542
▁kvadratmetr	-10.9544
▁qə	-10.9544
▁Cəmiyyətin	-10.9545
▁Lavrov	-10.9545
▁Tacikistan	-10.9547
▁sülhə	-10.955
▁verdilər	-10.955
▁VI	-10.9551
▁ilham	-10.9552
▁mənimlə	-10.9553
▁etməyəcək	-10.9553
▁Ö	-10.9553
▁sevgilisi	-10.9554
▁kasıb	-10.9555
▁şəbəkəsinin	-10.956
▁əşyalar	-10.9561
▁məhdudiyyət	-10.9562
▁Axundov	-10.9565
▁katibinin	-10.9567
▁müqaviləsinin	-10.9567
▁mahnılar	-10.9568
▁ölü	-10.9568
Razılığa	-10.9568
▁Machine	-10.9572
▁bildirərək	-10.9572
▁ot	-10.9574
▁örtüyü	-10.9574
bek	-10.9576
▁romanı	-10.9578
lüyü	-10.958
▁hüquqşünas	-10.9582
▁hasil	-10.9584
Azər	-10.9585
▁mərkəzlərinin	-10.9585
▁Novruzov	-10.9586
▁mahnıları	-10.9588
▁Amerikada	-10.9588
▁yerin	-10.9592
▁Bə	-10.9592
▁yaşamağa	-10.9597
▁Aygün	-10.9597
▁Prezidentimiz	-10.96
mey	-10.9602
▁ol	-10.9605
▁uşaqlıq	-10.9605
ap	-10.9608
▁sayına	-10.9608
▁bildirdilər	-10.961
▁missiyası	-10.9614
▁ö	-10.9614
▁keyfiyyətinin	-10.9614
lıqla	-10.9614
▁göndərilməsi	-10.9615
▁şeylər	-10.9616
▁Xüsusən	-10.9617
▁səlahiyyət	-10.9618
▁söhbətlər	-10.9621
▁mövsümündə	-10.9622
▁yerlərə	-10.9623
▁götürən	-10.9624
▁onlarda	-10.9627
▁əyalət	-10.9627
▁tərəfinə	-10.9629
▁Polad	-10.9629
▁müsabiqəsinin	-10.9629
▁əsasları	-10.9629
▁partiyası	-10.9629
▁apardı	-10.963
▁yaxınlığındakı	-10.9631
▁Pi	-10.9632
▁xor	-10.9633
▁namizədlərin	-10.9634
▁narazılıq	-10.9634
▁ma	-10.9635
▁diqqətli	-10.9635
▁doğur	-10.9639
ovanın	-10.9639
▁döş	-10.9639
▁qalıqları	-10.9641
▁təqdir	-10.9642
▁heyətin	-10.9653
▁hücumçu	-10.9653
▁cins	-10.9654
▁çalışmaq	-10.9655
▁sualına	-10.9656
ket	-10.966
▁Pənah	-10.966
▁qərarların	-10.9662
▁tariximizin	-10.9664
Ya	-10.9667
▁asfalt	-10.9668
rdı	-10.967
▁vətəndaşlıq	-10.9672
▁artacaq	-10.9673
▁teatrı	-10.9674
▁kişinin	-10.9676
▁saldı	-10.9677
▁Agentlik	-10.9677
▁filmində	-10.9677
▁tədqiqatların	-10.9678
▁genişlənməsi	-10.9678
manın	-10.968
lamağa	-10.968
▁silahı	-10.9682
▁sahibkar	-10.9686
▁götürülməsi	-10.969
▁qiymətlər	-10.9691
əti	-10.9691
▁Enerji	-10.9697
▁boy	-10.9697
▁qayıdan	-10.9698
▁deyiləm	-10.9702
Quliyev	-10.9704
▁şans	-10.9706
▁dedilər	-10.9706
▁başlanğıcı	-10.9707
▁paylaşım	-10.9708
lərdir	-10.9708
▁Göründüyü	-10.9712
▁görüntülər	-10.9713
▁yollarla	-10.9715
▁əlil	-10.9715
laş	-10.9715
▁Komissiyanın	-10.9717
▁Çar	-10.9719
▁gəl	-10.9721
▁Tək	-10.9722
▁həddindən	-10.9722
▁Zahid	-10.9724
▁limanı	-10.9724
▁şöbəsində	-10.9725
▁hadisədən	-10.9725
▁aktları	-10.9726
▁onsuz	-10.973
▁qorunmasına	-10.9732
▁şöhrətli	-10.9733
▁nəzəriyyə	-10.9734
▁qazan	-10.9735
▁olunmaq	-10.9735
▁Aqil	-10.9736
▁optimal	-10.9737
▁dəhliz	-10.9737
▁Hi	-10.9737
▁müstəqilliyimiz	-10.9738
▁köçkünlər	-10.9739
▁Şəhid	-10.9739
▁Elektrik	-10.9739
▁izləmək	-10.9741
▁Layihənin	-10.9746
▁başlandı	-10.9747
▁bilmərəm	-10.9753
ll	-10.9753
▁beşinci	-10.9756
▁sürü	-10.9757
▁göstərişi	-10.9757
▁Rüstəmov	-10.9758
▁prinsipial	-10.9759
▁nəvəsi	-10.976
▁İclasda	-10.9761
▁iqtisadçı	-10.9762
▁kafedra	-10.9763
▁Əliyevlə	-10.9765
▁qurulmuş	-10.9765
▁məsafədə	-10.9767
nar	-10.9767
▁olunma	-10.9767
ril	-10.9768
▁Alim	-10.9768
▁çatması	-10.9768
▁nəzarətində	-10.9768
▁deyərlər	-10.977
▁torpaqlarımızı	-10.9773
ayback	-10.9773
▁inflyasiya	-10.9775
▁AzərTAc	-10.9777
▁forum	-10.978
▁çərşənbə	-10.9784
▁Sər	-10.9784
▁altındadır	-10.9787
bundan	-10.9787
▁şəkli	-10.979
▁Humanitar	-10.9791
ss	-10.9792
▁şübhələr	-10.9796
▁paltar	-10.9797
▁Tiflis	-10.9799
▁göstəricilər	-10.98
AL	-10.9802
▁məhdudiyyətlər	-10.9804
met	-10.9806
▁təpə	-10.9806
▁David	-10.9812
▁dosent	-10.9813
▁Argentina	-10.9814
cəyi	-10.9817
▁fəth	-10.9818
▁ondadır	-10.9819
▁Opera	-10.9819
▁məhkəməsi	-10.982
▁məntəqə	-10.982
▁quraşdırılıb	-10.9821
▁Hamı	-10.9821
▁Berlin	-10.9821
▁nüfuzu	-10.9821
▁Andrey	-10.9823
mür	-10.9824
▁əfv	-10.9825
skaya	-10.9825
▁Əliyevi	-10.9825
▁Yenə	-10.9825
▁yaradılmasının	-10.9827
▁yürüş	-10.9827
▁tədqiqi	-10.9828
▁məktəblərinin	-10.9828
▁mədə	-10.9831
▁olunmayıb	-10.9831
▁qoyma	-10.9832
▁PA	-10.9834
▁Elvin	-10.9839
▁oynadı	-10.9842
▁xidmətlərindən	-10.9847
▁qonaqları	-10.9853
br	-10.9855
cəyik	-10.9855
▁Zelenski	-10.9855
▁bio	-10.9857
▁deputatlar	-10.9858
▁yolların	-10.9858
əs	-10.986
▁ləkə	-10.9861
▁tütün	-10.9861
▁buradan	-10.9864
▁sürgün	-10.9864
▁sərvəti	-10.9865
▁vurulub	-10.9866
▁yetərincə	-10.9866
▁yüksəkdir	-10.9869
▁Sərəncamına	-10.987
▁səfərləri	-10.9871
▁strategiyasının	-10.9872
▁Din	-10.9873
dor	-10.9876
▁münasibətini	-10.9877
▁çevirmək	-10.9877
▁timsalında	-10.9877
▁məzarı	-10.9879
▁bilməsi	-10.9881
▁Arxivləşdirilib	-10.9882
▁olacaqlar	-10.9886
pə	-10.9886
▁verin	-10.9886
▁Sahil	-10.9887
▁mediada	-10.9889
▁Apellyasiya	-10.9891
▁Yazı	-10.9891
▁öldürülməsi	-10.9892
▁Beyləqan	-10.99
▁Eləcə	-10.9904
▁tar	-10.9905
▁təqvim	-10.9905
York	-10.9906
▁arası	-10.9907
▁xoşagəlməz	-10.9907
▁istiqamətlər	-10.9908
▁fizika	-10.9909
▁şagirdi	-10.991
▁inci	-10.9912
▁birliyinin	-10.9915
▁maraqlarının	-10.9915
▁söyləmək	-10.9917
▁səhnəsində	-10.9922
▁imkanlarından	-10.9923
▁çatdırır	-10.9923
▁Balakən	-10.9924
▁keçirildiyini	-10.9926
▁nəsr	-10.9927
▁alınmasına	-10.9927
▁divar	-10.9929
▁qoy	-10.993
▁Cari	-10.993
▁verilməsinə	-10.9931
▁istəyənlər	-10.9932
▁obraz	-10.9932
▁festivalı	-10.9933
qı	-10.9933
▁mövzular	-10.9933
▁gənclik	-10.9934
▁parçası	-10.9935
Mə	-10.9937
▁buraxılması	-10.9938
▁Qanunu	-10.9947
▁suallarını	-10.9948
▁azaltmaq	-10.9949
tay	-10.9951
▁heyrət	-10.9951
▁təməli	-10.9952
hal	-10.9956
▁ölçülü	-10.9957
▁ört	-10.9957
▁itirən	-10.9958
▁üzləşdiyi	-10.9959
▁faizdən	-10.9959
▁sürdüyü	-10.996
▁İrlandiya	-10.996
▁bəşəri	-10.9962
▁inşaat	-10.9963
▁sərgidə	-10.9964
nov	-10.9966
▁otağı	-10.9968
▁baxanda	-10.997
▁Asif	-10.997
▁qoyuldu	-10.997
▁payına	-10.9971
▁görməyə	-10.9973
▁formasını	-10.9973
▁kursu	-10.9974
▁bol	-10.9977
▁Qərargah	-10.9977
▁Həkim	-10.9977
▁səviyyəsindən	-10.9978
▁torpaqlarda	-10.9979
▁tük	-10.998
▁dövrünü	-10.9984
▁İrəvanda	-10.9984
▁qalmır	-10.9985
▁buz	-10.9986
▁quruluşçu	-10.9989
▁çağırışlar	-10.999
▁namizədliyini	-10.999
▁cinayətlər	-10.999
▁rubl	-10.9992
▁sədrlik	-10.9993
▁olmamalıdır	-10.9993
▁kö	-10.9993
eri	-10.9996
▁Vergilər	-10.9996
▁yanıb	-10.9998
▁götürdüyü	-10.9999
▁talan	-11.0002
▁pambıq	-11.0002
▁nöqtəsi	-11.0003
▁həddən	-11.0004
▁qaydalarının	-11.0007
▁üzvüdür	-11.0009
▁yaradılacaq	-11.001
▁əlini	-11.0011
▁obyekt	-11.0012
▁qanunlar	-11.0014
▁Camal	-11.0015
▁fənn	-11.0015
▁qəlb	-11.0018
▁Qan	-11.0019
▁ayaqqabı	-11.0021
▁köklü	-11.0021
avi	-11.0023
Eurovision	-11.0024
▁böhtan	-11.0024
▁əsgərləri	-11.0024
Qızıl	-11.0027
Dədə	-11.003
▁tamaşaçılar	-11.0031
cəyəm	-11.0031
▁deyərək	-11.0032
▁On	-11.0033
▁meydanı	-11.0038
▁qu	-11.0042
▁Kremlin	-11.0043
▁Strateji	-11.0043
▁fasilə	-11.0045
▁məqalədə	-11.0045
▁qalası	-11.0045
▁hərbçiləri	-11.005
▁genişləndirmək	-11.0051
▁yataq	-11.0052
▁Komanda	-11.0053
▁ənənə	-11.0055
▁Mədəni	-11.0055
▁Polisi	-11.0056
▁əhəmiyyətindən	-11.0056
▁baxan	-11.0058
▁yarana	-11.0061
▁durum	-11.0065
reallaşdırılması	-11.0065
▁eni	-11.0065
▁adlandırılan	-11.0065
▁Üçüncü	-11.0069
▁vaxtından	-11.007
▁Universitet	-11.0071
fər	-11.0071
▁Sonralar	-11.0072
▁atdı	-11.0073
▁aktyorlar	-11.0074
▁yön	-11.0075
▁buğda	-11.0075
▁medianın	-11.0076
▁suverenliyi	-11.0081
▁ixracı	-11.0083
qanunvericiliyin	-11.0085
ırdı	-11.0085
▁Viktor	-11.0086
▁həvəs	-11.0088
▁önəmlidir	-11.0088
▁tərəfləri	-11.0088
laşan	-11.0088
▁hakimiyyətdə	-11.0089
▁Assosiasiyası	-11.0093
fin	-11.0093
▁bilet	-11.0094
▁tikilən	-11.0095
▁sərhəddə	-11.0096
atın	-11.0097
▁yağacağı	-11.0097
ys	-11.0097
AS	-11.0099
▁hazırlayır	-11.0103
ləndiyi	-11.0108
▁sonunadək	-11.0109
Ay	-11.0118
▁SİA	-11.0119
▁muzeyin	-11.0122
AN	-11.0122
▁zirehli	-11.0125
▁işgəncə	-11.0125
▁doza	-11.0126
tun	-11.0128
▁verdim	-11.0131
▁ayağa	-11.0131
▁məhbus	-11.0131
▁güzəşt	-11.0132
▁yaddaş	-11.0132
▁Əksinə	-11.0133
▁perspektiv	-11.0133
▁qərarları	-11.0135
▁turistlər	-11.0135
▁dünyasında	-11.0138
▁Müəyyən	-11.0141
▁qadir	-11.0145
▁söylədiyi	-11.0146
ep	-11.015
Su	-11.0155
▁mətbəx	-11.0157
mışıq	-11.0159
▁Te	-11.0159
▁Tədbirin	-11.0159
▁gəlmişdir	-11.0163
▁törətdikləri	-11.0166
onu	-11.0168
▁Dəhlizi	-11.0169
ens	-11.0169
▁VII	-11.0169
qulu	-11.0171
Ta	-11.0171
▁namizədliyi	-11.0173
▁tikilməsi	-11.0174
▁Səid	-11.0174
▁rəyi	-11.0176
lənəcək	-11.0179
▁fəhlə	-11.0179
▁diaqnozu	-11.0181
▁qitə	-11.0182
▁etdiyinə	-11.0186
▁Qanuna	-11.0187
▁seyr	-11.0187
off	-11.0187
▁altındakı	-11.0188
təpə	-11.019
▁Şamil	-11.0191
▁hesabatı	-11.0194
▁dəqiqədə	-11.0194
▁Yaponiyanın	-11.0194
▁alimlərin	-11.0198
▁bankların	-11.0198
üş	-11.0199
▁virtual	-11.02
▁ağız	-11.0201
▁qanunları	-11.0203
fe	-11.0205
▁ç	-11.0208
▁satışa	-11.0209
▁düşünülmüş	-11.0211
▁tədqiqatçı	-11.0211
▁nəticəyə	-11.0213
▁şam	-11.0215
▁Bağdad	-11.0218
ina	-11.0221
▁tətbiqinə	-11.0221
▁darmadağın	-11.0222
▁İdarəsində	-11.0222
anda	-11.0224
▁mənbələri	-11.0226
▁qaya	-11.0227
▁Şuşaya	-11.0228
▁danışıqlara	-11.0229
▁resursları	-11.0229
▁ədəbiyyatın	-11.023
▁övlad	-11.0231
Da	-11.0231
▁Top	-11.0232
▁soyqırımının	-11.0233
▁Aprel	-11.0234
▁siyahısında	-11.0235
▁toplayıb	-11.0237
▁Xa	-11.0237
izmin	-11.0243
▁matçda	-11.0244
▁tanışlıq	-11.0244
▁təyyarəsi	-11.0245
▁tapmışdır	-11.0246
▁əsərinin	-11.0248
▁sahibkarların	-11.0248
▁yağmursuz	-11.025
▁Bildirib	-11.025
▁məhəl	-11.0254
▁geridə	-11.0256
▁erməniləri	-11.0257
▁işlərində	-11.0258
İndi	-11.0259
▁yazıçının	-11.026
günə	-11.026
▁Mahmudov	-11.026
▁ofis	-11.0261
▁konserti	-11.0261
▁niyyət	-11.0262
▁Ələkbərov	-11.0265
▁Aleksey	-11.0265
bel	-11.0272
▁Həzrət	-11.0272
▁sahəsindəki	-11.0273
▁qərargah	-11.0274
▁kral	-11.0275
▁qum	-11.0276
nis	-11.0277
sinlər	-11.028
▁təxirəsalınmaz	-11.0281
▁yaşaması	-11.0283
▁sanksiyaların	-11.0285
ləşdirilən	-11.0286
▁vəzifələrini	-11.0287
▁Ətraf	-11.0287
▁cavabdeh	-11.0289
▁kompozisiya	-11.029
▁qohum	-11.0291
UN	-11.0295
▁vüsət	-11.0295
▁etdiriləcək	-11.0295
▁həcmdə	-11.0295
▁sınaqdan	-11.03
▁məşğulluq	-11.0302
▁texnologiyası	-11.0302
▁Səfəvi	-11.0304
▁doğrudan	-11.0309
▁qoyulur	-11.0309
▁parlamentdə	-11.0311
▁icrasını	-11.0312
▁müsabiqədə	-11.0315
▁əlilliyi	-11.0316
▁bıçaqla	-11.0317
▁qadınlara	-11.0318
▁filmləri	-11.0318
▁tərəfdə	-11.0319
iy	-11.0319
▁göstərərək	-11.0319
ziya	-11.032
▁Emil	-11.0321
▁pedaqoq	-11.0323
▁müəllimləri	-11.0327
▁başqalarının	-11.0329
məsinə	-11.0329
▁ayrılır	-11.033
▁konstruktiv	-11.033
▁konsepsiya	-11.0332
▁Tağıyev	-11.0333
uç	-11.0333
▁qalxan	-11.0335
▁qurğular	-11.0335
▁tanıdılması	-11.0335
af	-11.0336
sta	-11.0337
las	-11.0339
▁musiqiçi	-11.0339
▁tarixən	-11.0339
▁sektorun	-11.034
▁Qış	-11.0341
ılmış	-11.0344
erin	-11.0345
▁kiminsə	-11.0345
şərq	-11.0346
▁Təbiət	-11.0347
▁kreditlər	-11.0354
▁Nəzərə	-11.0354
▁anasının	-11.0356
▁Saziş	-11.0356
▁Məcnun	-11.0357
▁heyvanların	-11.0358
verici	-11.0358
oba	-11.0359
▁dəhlizinin	-11.0359
şı	-11.036
▁qurğu	-11.036
▁üstündən	-11.0361
▁bəyanatı	-11.0363
▁Ti	-11.0363
▁öldürülüb	-11.0364
▁şəhərlərdə	-11.0365
▁operatoru	-11.0365
▁münasib	-11.037
▁rejimini	-11.0371
▁Proqramının	-11.0372
▁yazar	-11.0374
▁ideyaları	-11.0374
Dünya	-11.0376
▁meri	-11.0376
ıcı	-11.0377
▁miqyaslı	-11.0379
▁etmişdilər	-11.0379
▁hündürlüyü	-11.0381
▁vilayət	-11.0384
▁Val	-11.039
▁hamının	-11.039
▁oyuna	-11.0391
▁çoxluğu	-11.0393
▁çəkin	-11.0393
▁əz	-11.0394
▁hadisədir	-11.0395
▁oyunun	-11.0395
tir	-11.0396
ləşmiş	-11.0396
▁komandalar	-11.0397
▁par	-11.0399
▁imtahanı	-11.0399
▁ruhunda	-11.0399
▁ortalarında	-11.0401
▁formatda	-11.0401
▁Xanım	-11.0402
▁sənətkarın	-11.0402
Si	-11.0407
▁nazirlərinin	-11.0407
▁uğurlara	-11.0408
▁ipoteka	-11.0412
▁şəxsiyyətin	-11.0413
▁bölgəsinin	-11.0414
bədii	-11.0415
▁Avqustun	-11.0417
▁Bunların	-11.0418
▁nümayişi	-11.0418
▁döyüşlər	-11.042
▁Vurğun	-11.0421
▁məmur	-11.0421
▁kartı	-11.0421
▁çıxdığı	-11.0421
▁Mahnı	-11.0423
▁təklifləri	-11.0425
▁ağıl	-11.0425
▁həkimi	-11.0426
ləşdirməyə	-11.0427
▁toxunub	-11.0429
▁Gürcüstana	-11.043
▁kənarında	-11.0435
yyə	-11.0436
▁başlayıblar	-11.0436
▁təhrif	-11.0438
▁Nazirlik	-11.0439
▁təbəqə	-11.044
▁variant	-11.044
Me	-11.044
▁irad	-11.0443
▁günədək	-11.0445
▁Corc	-11.0445
▁bölgəsi	-11.0447
▁oynaya	-11.0448
başa	-11.0449
▁əs	-11.0449
kom	-11.045
▁İraqın	-11.0452
▁müxbiri	-11.0455
▁Çində	-11.0456
Şuşa	-11.0458
▁sabitliyi	-11.0459
▁mikro	-11.046
▁qardaşları	-11.046
▁əşya	-11.0462
▁Ağdaş	-11.0462
▁bölmə	-11.0463
▁ədəbiyyatında	-11.0464
▁plenar	-11.0465
▁məhkəmədə	-11.0466
▁deyəndə	-11.0466
▁xəbərsiz	-11.0468
qəsd	-11.0474
ium	-11.0475
▁redaksiya	-11.0478
▁rəngarəng	-11.0478
▁çəkmiş	-11.048
▁xaricə	-11.048
▁kon	-11.0482
▁işsiz	-11.0482
▁intellekt	-11.0482
üstü	-11.0483
▁götürülmüş	-11.0483
lıqdan	-11.0487
▁verməyi	-11.0488
rak	-11.0488
ral	-11.0489
bra	-11.0489
▁zor	-11.0489
▁qəfil	-11.0491
▁oynayacaq	-11.0492
▁vətənə	-11.0492
▁idmanın	-11.0492
▁layihəyə	-11.0493
Pa	-11.0494
▁həqiqətləri	-11.0494
Şah	-11.0495
▁Neftçala	-11.0495
▁standartlarına	-11.0495
▁anam	-11.0495
▁nailiyyətləri	-11.0495
gü	-11.0496
▁Rəyasət	-11.0496
sil	-11.0498
ləndirmə	-11.0499
▁igid	-11.05
▁işlənməsi	-11.0501
Çünki	-11.0501
zar	-11.0502
▁dollarlıq	-11.0504
▁tale	-11.0505
▁yayımı	-11.0506
zu	-11.0507
▁seçici	-11.0516
▁Yox	-11.0517
▁avtomatik	-11.0522
▁həmkarları	-11.0522
▁məzənnəsi	-11.0523
Facebook	-11.0524
▁qalxıb	-11.0528
▁Oyun	-11.0528
▁Həbib	-11.0528
sh	-11.0528
▁gücünə	-11.0529
▁göndərir	-11.0531
▁görül	-11.0531
▁Məhərrəm	-11.0533
Bütün	-11.0534
▁kəndinə	-11.0538
▁keçiriblər	-11.0538
lis	-11.0539
Əsrin	-11.054
gah	-11.0541
Gürcüstan	-11.0541
▁sülhməramlıları	-11.0542
▁torpağın	-11.0543
▁zonasında	-11.0543
▁götürür	-11.0544
▁Qasım	-11.0545
▁olmasaydı	-11.0545
▁sanksiya	-11.0552
iştirakçılarının	-11.0554
▁Mer	-11.0556
▁Pərviz	-11.0557
▁Nikolay	-11.0557
▁istehsalının	-11.0558
▁təşkilinə	-11.0559
▁oktyabrında	-11.056
▁gözlənilməz	-11.0565
▁Ənvər	-11.0565
ğun	-11.0568
ara	-11.0569
▁vurğulamaq	-11.0572
ola	-11.0573
▁Şi	-11.0573
▁xəttinə	-11.0574
▁sər	-11.0574
▁agentliyinə	-11.0576
▁mətbuatına	-11.0576
▁stabil	-11.0578
▁xəstələrin	-11.0578
▁Sü	-11.0578
ləşdi	-11.0578
▁jurnal	-11.058
▁gözəlliyi	-11.058
▁sürəti	-11.0583
tion	-11.0589
▁yoldan	-11.059
▁lent	-11.0591
▁söyləyən	-11.0591
▁festivalın	-11.0593
AM	-11.0594
▁qonaqların	-11.0594
▁mexanizmi	-11.0595
▁Lerik	-11.0596
▁verilməlidir	-11.0601
▁təminatının	-11.0602
▁kitabların	-11.0603
▁qabiliyyətinin	-11.0606
fo	-11.0606
▁atılıb	-11.0609
▁Facebook	-11.061
▁çoxları	-11.061
▁çirkin	-11.061
▁qayıdışı	-11.0611
▁İndiki	-11.0611
▁oxuyur	-11.0613
▁dəstəyə	-11.0614
▁Komandanın	-11.0616
▁qalmayıb	-11.0616
▁Səhər	-11.062
▁buyurur	-11.062
▁qov	-11.062
▁Ge	-11.0621
▁Dəstəyi	-11.0621
▁statistika	-11.0623
▁Şirin	-11.0625
▁kədər	-11.0629
▁Sahib	-11.0629
▁xərclərinin	-11.063
▁məqaləsində	-11.0632
ləyərək	-11.0633
▁edilməli	-11.0634
▁karyera	-11.0635
▁şəxslərlə	-11.0636
deyə	-11.0642
▁is	-11.0643
▁Oruc	-11.0644
ğan	-11.0645
▁şifahi	-11.0645
lıqda	-11.0649
AT	-11.0649
▁aldığını	-11.0649
bul	-11.0649
”)	-11.0653
▁məmnunluq	-11.0653
▁MTN	-11.0654
▁insanlarda	-11.0655
mayor	-11.0656
▁yanaşır	-11.0658
neçə	-11.066
▁çəkməyə	-11.0661
ləndiyini	-11.0661
▁müəssisələr	-11.0662
▁bürosunun	-11.0663
gil	-11.0664
▁Şirkəti	-11.0667
▁aparılmasına	-11.0667
Le	-11.0668
▁manatı	-11.067
▁Bor	-11.0673
▁qrupların	-11.0674
▁qrupunda	-11.0676
▁Dağıstan	-11.068
▁oğlunu	-11.068
ilir	-11.068
▁varmı	-11.068
▁axşamı	-11.0682
▁cəlbedici	-11.0684
▁pozitiv	-11.0687
▁hissənin	-11.0688
▁qarın	-11.0692
▁qatılan	-11.0692
▁göndərdi	-11.0695
▁obrazlar	-11.0695
▁unutma	-11.0698
▁günahı	-11.07
Dağlıq	-11.0701
▁Hüquqi	-11.0701
▁formalaşdırılma	-11.0702
▁evlərinə	-11.0705
▁suala	-11.0706
▁yaxınları	-11.0707
rd	-11.0708
▁təşviqi	-11.0708
▁vurma	-11.071
▁qoruyur	-11.0712
▁Süleymanov	-11.0714
cəyini	-11.0716
▁obyekti	-11.0718
▁vəsaitlərin	-11.0718
▁sənətçi	-11.0721
▁uzaqgörən	-11.0723
▁nəşriyyat	-11.0723
▁kom	-11.0725
əyə	-11.0728
yn	-11.0728
▁Fe	-11.0729
▁birləşməsi	-11.073
▁Boris	-11.0731
▁saniyə	-11.0737
▁hissləri	-11.0738
▁qanunu	-11.0738
▁alırlar	-11.074
▁Art	-11.0741
▁işlənib	-11.0741
▁ifadələr	-11.0742
▁mənfəət	-11.0743
▁Aralıq	-11.0744
▁adaları	-11.0745
▁kəmər	-11.0746
▁layihəsinə	-11.0754
İnsan	-11.0754
▁tərəfdarları	-11.0755
▁Kral	-11.0757
▁sübuta	-11.0757
▁dik	-11.0757
▁haqlarının	-11.0758
▁fond	-11.0758
▁Şir	-11.0762
▁sirr	-11.0763
ladı	-11.0765
▁potensialını	-11.0765
▁kriminal	-11.0766
ləşdirdiyi	-11.0768
▁Şirkətinin	-11.077
▁güvən	-11.077
sıdır	-11.0771
▁zəmanət	-11.0772
▁sayıla	-11.0774
▁irsin	-11.0774
ari	-11.0774
▁pasport	-11.0778
VAZ	-11.0781
lak	-11.0787
▁alimin	-11.0791
bala	-11.0791
▁əlaqədə	-11.0792
▁istərdik	-11.0793
▁duz	-11.0794
▁yazılır	-11.0796
▁apellyasiya	-11.0796
▁dövlətimiz	-11.0797
▁İstehsalat	-11.0798
▁barış	-11.08
▁ukraynalı	-11.0802
▁sub	-11.0802
▁odlu	-11.0803
həm	-11.0806
▁dollardan	-11.0806
▁avadanlıq	-11.0807
▁təcavüzü	-11.0809
▁Bilirsiniz	-11.081
▁praktik	-11.0812
▁rəhmət	-11.0813
▁yolundan	-11.0814
▁XVIII	-11.0817
▁tərcüməçi	-11.0817
▁Yanğın	-11.082
▁səslə	-11.0821
▁düşəcək	-11.0821
▁kontekstində	-11.0821
▁Peyğəmbər	-11.0822
▁quruma	-11.0823
▁yarışlarda	-11.0828
▁Operativ	-11.0828
▁əsrə	-11.0833
▁hüququnu	-11.084
▁Kateqoriya	-11.0843
mla	-11.0844
▁gedişində	-11.0844
▁gecəsi	-11.0845
▁komissiyanın	-11.0846
▁əvvəlindən	-11.0847
▁mavi	-11.0848
▁ixtisaslı	-11.0848
▁aş	-11.0849
▁Daş	-11.0849
▁Fərman	-11.0851
▁Tədris	-11.0853
kləri	-11.0853
red	-11.0854
ura	-11.0855
▁Xaç	-11.0861
▁Bazar	-11.0861
▁problemlərini	-11.0861
▁Qəzet	-11.0862
▁xeyirxah	-11.0865
▁keçidi	-11.0865
▁büruzə	-11.0866
port	-11.0868
▁yaşama	-11.0868
▁aparatı	-11.0868
▁Mərkəzinə	-11.0874
▁türkdilli	-11.0876
▁təbiəti	-11.0876
▁Londonda	-11.0879
▁Park	-11.0879
▁əməkhaqqı	-11.088
▁yanaşması	-11.0881
▁ekologiya	-11.0884
▁ötürülməsi	-11.0884
▁tarixçi	-11.0886
▁xaos	-11.0887
məliyik	-11.0887
▁Liqa	-11.0891
▁sürüb	-11.0891
Bank	-11.0892
▁aləmində	-11.0893
▁ləğvi	-11.0895
▁Stalin	-11.0895
▁izahat	-11.0896
▁ordumuzun	-11.0896
▁inteqrasiyası	-11.0898
▁kimliyi	-11.0899
▁nöqteyi	-11.0901
▁danışa	-11.0902
mdən	-11.0903
yir	-11.0903
▁ərazini	-11.0908
alma	-11.0908
bor	-11.0909
▁bilmərik	-11.0909
AD	-11.0909
▁şiş	-11.091
▁salınmış	-11.091
▁ü	-11.0912
məyən	-11.0915
▁reallığı	-11.0917
▁yeniliklər	-11.0917
skinin	-11.0918
▁bas	-11.0919
▁vasitələrdən	-11.0922
▁görüşdən	-11.0923
▁cinayəti	-11.0923
▁gözdən	-11.0924
▁köməkçi	-11.0926
çıları	-11.0927
▁böhranın	-11.0928
▁xəbərləri	-11.0932
▁verməli	-11.0935
▁Çi	-11.0936
▁görüşlərin	-11.0937
lli	-11.0939
▁mühakimə	-11.094
▁ziyalılar	-11.094
▁coğrafiya	-11.0943
▁yarımmüdafiəçi	-11.0943
▁qoymuş	-11.0944
▁məqsədə	-11.0944
▁Ələkbər	-11.0944
▁Rəhim	-11.0944
▁...	-11.0945
▁güclənməsi	-11.0945
▁otur	-11.0947
▁ifaçı	-11.0948
▁sessiyasında	-11.095
▁olduqdan	-11.0952
▁Anna	-11.0954
▁əlaməti	-11.0958
▁qabarıq	-11.096
▁Kredit	-11.0962
▁yapon	-11.0962
▁bazarının	-11.0964
▁yaratmış	-11.0965
▁bəyanatda	-11.0966
▁variantı	-11.0968
umu	-11.0971
▁Sərdar	-11.0971
▁Şabran	-11.0971
▁İngiltərənin	-11.0972
▁Adı	-11.0972
...""	-11.0973
▁vaxtaşırı	-11.0975
İlk	-11.0976
▁rejiminə	-11.0977
▁yaradılmasını	-11.0978
▁Parlamentinin	-11.0979
▁müddətdən	-11.098
mayıb	-11.0982
▁Meksika	-11.0982
▁konfransın	-11.0982
▁bioloji	-11.0983
om	-11.0986
▁suya	-11.0987
lim	-11.0989
▁mediası	-11.0991
yini	-11.0991
şəhər	-11.0991
▁üstəlik	-11.0991
▁Qəbul	-11.0994
▁ştatının	-11.0994
▁yararlı	-11.0999
▁bəyannamə	-11.0999
▁işğalından	-11.1001
▁Nicat	-11.1003
▁pulunu	-11.1004
▁iddiası	-11.1005
▁gəmisi	-11.1006
Həsənov	-11.1007
▁alət	-11.1008
səlahiyyətlərini	-11.1009
lığından	-11.1013
COVID	-11.1014
▁Ordubad	-11.1015
ili	-11.1015
▁ideologiya	-11.1015
ms	-11.1017
▁inan	-11.1021
▁varisi	-11.1023
▁Ukraynadakı	-11.1024
▁şimalında	-11.1027
▁romantik	-11.1028
▁əhəmiyyətlidir	-11.1029
▁diri	-11.1031
▁döyüşçü	-11.1031
▁araşdır	-11.1031
▁Kə	-11.1034
▁əxlaq	-11.1034
▁Fi	-11.1034
yaraq	-11.1035
məşq	-11.1035
▁nar	-11.1036
▁emosional	-11.1038
ılır	-11.1039
▁eləmək	-11.1041
▁Tehsil	-11.1042
▁dağlarda	-11.1043
▁divarları	-11.1043
luğunu	-11.1044
▁dizayn	-11.1044
▁amillərdən	-11.1044
▁İrəvanın	-11.1045
▁müəllimə	-11.1046
▁Müslüm	-11.1049
▁kralı	-11.1049
kommunikasiya	-11.1049
▁bildiyi	-11.1055
yol	-11.1057
▁Bildiyiniz	-11.1057
▁tədbirə	-11.1058
Onlar	-11.1059
▁xəstəxana	-11.1059
▁yaşayırlar	-11.1061
▁səylər	-11.1061
▁Sonuncu	-11.1061
▁kəmərinin	-11.1062
yaq	-11.1063
▁dəf	-11.1063
Ba	-11.1063
▁qatılıb	-11.1064
▁hündür	-11.1067
▁Ramin	-11.107
▁getmir	-11.1071
▁müəssisəsində	-11.1072
▁bilmirik	-11.1074
Lakin	-11.1075
▁formalaşmasına	-11.1076
▁birləşmə	-11.1078
▁idarəçiliyi	-11.1079
▁Tam	-11.1081
▁əsərlərindən	-11.1081
▁Müharibəsi	-11.1082
▁imperiya	-11.1082
▁Qoca	-11.1084
▁müqavilənin	-11.1085
▁Prokurorluq	-11.1085
▁Şirkət	-11.1087
▁zəhər	-11.1087
▁seçib	-11.1088
▁müdafiəsinin	-11.1088
_	-11.1089
▁axtar	-11.1089
▁uğuru	-11.109
▁pillə	-11.1093
▁şiə	-11.1094
▁vəhşi	-11.1094
▁Nəsrəddin	-11.1094
▁Ey	-11.1095
▁cəsarət	-11.1095
▁gələcəyini	-11.1097
mayan	-11.1097
▁Ur	-11.1098
laşdırır	-11.1098
▁qidalanma	-11.1102
▁Müşfiq	-11.1102
▁edirsiniz	-11.1102
▁sevir	-11.1102
▁sivil	-11.1103
▁polisin	-11.1103
▁Məclisdə	-11.1103
▁Qaydaları	-11.1104
Həmin	-11.1104
▁tanıyır	-11.1104
ovu	-11.1107
ns	-11.1108
▁nağıl	-11.1109
landığı	-11.1111
▁müddətinin	-11.1111
▁qurumu	-11.1112
▁qalmaqal	-11.1113
qor	-11.1113
▁Akademiyasında	-11.1118
▁manatlıq	-11.1118
ry	-11.112
▁gərginliyin	-11.1121
▁Heyəti	-11.1123
▁əhalini	-11.1125
▁eşq	-11.1125
▁vermədi	-11.1129
▁Qalib	-11.1131
▁nazirləri	-11.1134
▁noyabrında	-11.1137
▁Bala	-11.1137
▁olunsa	-11.1137
▁aşı	-11.1139
▁prospektində	-11.1143
▁nəsillərə	-11.1146
▁düşünən	-11.1147
▁səma	-11.1147
▁bilmirdi	-11.1147
Aİ	-11.1149
▁Komandanı	-11.115
▁atılması	-11.1152
▁edildikdə	-11.1153
▁hadisələrdən	-11.1153
zdan	-11.1154
les	-11.1154
▁davamçısı	-11.1158
▁keçirirlər	-11.1158
▁təfəkkür	-11.116
şin	-11.116
▁iclasının	-11.1163
▁tendensiya	-11.1164
▁gedəndə	-11.1164
İn	-11.1167
▁çəkə	-11.1167
▁tele	-11.1167
▁fərqlənən	-11.1168
▁azərbaycanlının	-11.1171
▁danışma	-11.1172
▁xatırladan	-11.1172
▁gedərək	-11.1172
mit	-11.1175
▁didərgin	-11.1177
▁Vaxtilə	-11.1177
▁müqavilələr	-11.1177
▁ruhunu	-11.1178
▁cümə	-11.118
▁kəndindən	-11.118
ret	-11.1181
▁komandanlığı	-11.1182
)"	-11.1183
▁Festivalı	-11.1183
ani	-11.1184
▁aparmağa	-11.1186
▁mübadilə	-11.1188
▁sentyabrında	-11.119
▁layihəsində	-11.1192
▁əti	-11.1192
▁okean	-11.1193
▁bölgəyə	-11.1193
▁yığ	-11.1193
▁ilahi	-11.1195
▁sahələrinə	-11.1198
Baş	-11.1199
▁danışıq	-11.1202
▁Nağıyev	-11.1205
▁üstünlüyü	-11.1206
▁banklar	-11.1206
klə	-11.1208
▁Bura	-11.1208
▁Paşayev	-11.1209
Təhsil	-11.121
▁Bələdiyyənin	-11.1214
▁humanist	-11.1214
▁kapitanı	-11.1215
▁olmaqdan	-11.1216
yaşıl	-11.1219
▁vərəqə	-11.1222
▁filmlərin	-11.1223
▁çalışmışdır	-11.1231
İS	-11.1233
▁zona	-11.1233
▁keçmə	-11.1234
▁Birgə	-11.1234
▁birləşdirir	-11.1234
▁pillədə	-11.1236
▁Şəhərin	-11.1238
▁daşın	-11.1241
▁İsgəndər	-11.1243
Şahdəniz	-11.1243
▁Abdullah	-11.1243
qay	-11.1244
▁Sadiq	-11.1245
▁etməsindən	-11.1245
▁çatdıqdan	-11.1245
▁Məh	-11.1246
▁Onlara	-11.1246
▁səslənən	-11.1249
▁mühitə	-11.1249
▁kafe	-11.125
▁quraşdırılması	-11.1252
Allah	-11.1256
▁Hu	-11.1257
▁təbiətin	-11.126
▁gedişi	-11.1261
▁Zi	-11.1261
fat	-11.1262
DA	-11.1263
▁obrazını	-11.1265
mdan	-11.1265
▁Nar	-11.1266
▁mərkəzin	-11.1266
salar	-11.1267
▁qoyuluşu	-11.1267
▁Brüssel	-11.1271
▁siyasətə	-11.1272
▁təşkilatlarda	-11.1273
izasiya	-11.1274
▁taleyini	-11.1277
ld	-11.1277
iyanın	-11.1277
▁strukturu	-11.1279
▁klinika	-11.1281
▁sərhədlərin	-11.1283
▁bəndə	-11.1287
rı	-11.1287
▁səfirlik	-11.1289
▁qurbanlarının	-11.129
Zirə	-11.1293
▁janr	-11.1294
▁İnanıram	-11.1294
Nar	-11.1298
▁Baxmayaraq	-11.13
▁helikopter	-11.1303
▁AXC	-11.1303
▁aprelində	-11.1304
▁dənizində	-11.1304
▁görüşlərdə	-11.1305
▁Çay	-11.1308
▁olunmaqla	-11.1308
▁Dədə	-11.1309
▁operator	-11.1309
▁şahmat	-11.131
▁kreditlərin	-11.131
▁komissiyası	-11.1311
▁atma	-11.1311
del	-11.1312
▁Birincisi	-11.1313
▁Daşkəsən	-11.1315
▁yanvarında	-11.1316
▁bağlayıb	-11.1317
ation	-11.1317
▁Miqrasiya	-11.1318
▁Şübhəsiz	-11.1321
▁dedikdə	-11.1322
umuz	-11.1322
▁mənəviyyat	-11.1322
▁İrandan	-11.1322
istiqamətlərində	-11.1322
▁müsabiqəsi	-11.1322
▁xələl	-11.1323
▁Qənirə	-11.1323
urnalist	-11.1326
▁qrafik	-11.1326
▁lentə	-11.133
▁standartlar	-11.133
▁ştatında	-11.133
▁evlər	-11.1331
▁səhhəti	-11.1334
▁saxlamağa	-11.1335
▁həvəslə	-11.1336
▁şərab	-11.1346
▁möhtərəm	-11.1347
▁obyektlər	-11.1347
▁istəmirəm	-11.1347
MA	-11.135
▁binaları	-11.1351
▁şaxta	-11.1352
▁bunlardan	-11.1352
▁kəlmə	-11.1356
▁Salman	-11.1357
▁Qrup	-11.1359
bl	-11.1359
▁edilməsindən	-11.1359
eb	-11.1361
istəməz	-11.1363
▁nişanlı	-11.1365
▁məzmunda	-11.1366
▁bəhanə	-11.1367
▁Soveti	-11.1368
▁Kəşfiyyat	-11.137
▁səsləndirilib	-11.1371
▁Atatürk	-11.1372
▁universitetləri	-11.1374
▁fondu	-11.1375
▁yönələn	-11.1375
lov	-11.1376
▁Hidrometeorolo	-11.1378
▁Ve	-11.1378
▁sahələrin	-11.1378
▁söy	-11.1379
▁arzulayıb	-11.1379
▁lirik	-11.138
▁yem	-11.1381
▁suveren	-11.1381
▁Komissiya	-11.1382
▁verəcəyini	-11.1384
▁müəssisənin	-11.1385
▁heyətini	-11.1385
▁düşər	-11.1386
▁iştirakçıların	-11.139
▁İvan	-11.1391
▁istədi	-11.1393
▁yataqxana	-11.1393
▁Ştatlar	-11.1394
▁kilsəsi	-11.1394
▁qarşısındakı	-11.14
otu	-11.1401
▁fə	-11.1401
istan	-11.1403
▁Nərgiz	-11.1404
▁sövq	-11.1405
▁uçot	-11.1405
▁dərsləri	-11.1405
qala	-11.1406
▁limanında	-11.1406
▁növlərinin	-11.1406
lanacaq	-11.1409
yanı	-11.1412
▁doğulan	-11.1413
▁vurğulamışdır	-11.1414
▁müzakirələrin	-11.1414
▁satmaq	-11.1418
▁düşə	-11.1422
▁oğru	-11.1422
▁kapital	-11.1422
Re	-11.1423
▁gey	-11.1425
ros	-11.1425
çısı	-11.1427
▁Karl	-11.1427
▁Məni	-11.1428
▁deportasiya	-11.143
▁Məcəlləsinə	-11.1431
▁Qətər	-11.1432
▁millisi	-11.1432
▁Müstəqillik	-11.1434
▁hüquqa	-11.1435
▁sivilizasiya	-11.1435
▁cavablandırıb	-11.1435
▁qohumu	-11.1435
▁adlar	-11.1436
▁filosof	-11.1437
▁iti	-11.1438
▁mükafatlandırıl	-11.1439
may	-11.144
▁klubunda	-11.144
▁yenicə	-11.144
▁bölüşüb	-11.1442
▁aqressiv	-11.1442
▁poema	-11.1442
▁İcraiyyə	-11.1444
▁Muradov	-11.1445
▁vadar	-11.1445
▁məsələsinin	-11.1446
▁AZƏRBAYCAN	-11.1447
▁borcunu	-11.1447
▁Rejissor	-11.1448
▁yumşaq	-11.1448
▁camaat	-11.1449
▁yazısı	-11.145
▁imzası	-11.145
▁qulluqçuların	-11.145
▁Proqram	-11.145
▁balans	-11.1453
▁Rafael	-11.1455
▁Naxçıvanın	-11.1457
▁torpaqlarında	-11.1457
▁Muzeyində	-11.1459
▁səhra	-11.1459
Sən	-11.146
gov	-11.1462
▁yetirməsi	-11.1464
one	-11.147
▁Həmkarlar	-11.147
▁prinsiplər	-11.1471
▁ölkəmizdəki	-11.1476
▁cinayətlərin	-11.1476
▁vətəni	-11.1478
▁nəsli	-11.1479
İR	-11.1481
▁institutun	-11.1481
▁vəsaitlər	-11.1481
▁qul	-11.1482
▁Kur	-11.1484
▁görürəm	-11.1485
▁tələblərini	-11.1487
▁şəhidlərimizin	-11.1488
Mercedes	-11.149
▁təlimat	-11.1491
▁nizamnamə	-11.1491
▁məzmunlu	-11.1492
▁təsisçisi	-11.1492
▁müəllifidir	-11.1493
▁danışıqlarda	-11.1493
▁Texnologiyalar	-11.1493
▁əmisi	-11.1495
▁xalla	-11.1497
▁tamaşaçıların	-11.1498
▁arayış	-11.1498
▁nələr	-11.1502
▁Həsənli	-11.1503
▁hamilə	-11.1504
▁xəta	-11.1504
▁bacaran	-11.1507
amanlıq	-11.1507
imin	-11.1507
▁cinayətin	-11.1509
▁doğulub	-11.1509
▁Aparatının	-11.1509
nes	-11.151
▁bədbəxt	-11.1513
▁dəyişə	-11.1515
▁qoşunların	-11.1516
▁dayandırılıb	-11.1517
▁idarəsi	-11.1517
▁gəlməyə	-11.1518
▁vacibliyi	-11.152
▁küçədə	-11.1522
▁münaqişələr	-11.1526
▁rejimində	-11.1527
▁münasibətlərə	-11.1528
▁rolunun	-11.1528
▁qane	-11.1529
anlar	-11.1532
▁materialların	-11.1532
▁büdcəsində	-11.1534
Mədəniyyət	-11.1536
▁çatmış	-11.1539
▁Məsələləri	-11.154
▁İspaniyanın	-11.1541
▁dramaturq	-11.1543
▁repressiya	-11.1543
fr	-11.1548
▁əsaslanaraq	-11.155
▁olunmayan	-11.1551
▁verilə	-11.1552
▁Livan	-11.1553
ımıza	-11.1556
sus	-11.1556
şah	-11.1557
▁ödəmək	-11.1559
▁şeyin	-11.1561
▁toplanması	-11.1562
▁büdcəsinə	-11.1563
▁işıqlı	-11.1563
▁Həsənovun	-11.1564
qca	-11.1565
▁hüququnun	-11.157
▁qızının	-11.1571
ardı	-11.1572
▁qazanılan	-11.1573
▁avadanlıqlar	-11.1574
▁qoruya	-11.1575
▁Hacıqabul	-11.1575
məyin	-11.1576
▁mis	-11.1577
▁Say	-11.1577
▁məqsədli	-11.158
quruculuq	-11.158
Ha	-11.158
▁həsrət	-11.1584
▁imperiyasının	-11.1585
▁Qəzza	-11.1586
ino	-11.1586
▁sözündən	-11.1589
zan	-11.1591
keş	-11.1592
▁nəyin	-11.1593
▁çıxarma	-11.1595
▁iştirakını	-11.1596
▁mənasını	-11.1596
ruhiyyə	-11.1597
til	-11.1598
kol	-11.16
▁bağlanmış	-11.16
▁Ceyms	-11.1603
▁üzvlərindən	-11.1606
▁oxuculara	-11.1607
▁hazırıq	-11.1607
▁zərurət	-11.1608
▁səslənir	-11.1609
▁KTMT	-11.161
▁gətirmə	-11.1611
▁Sazişin	-11.1613
▁Şəxsi	-11.1614
▁etdirərək	-11.1614
▁gəlsə	-11.1614
ng	-11.1614
▁Sarkisyan	-11.1614
▁şeyə	-11.1617
▁Konservatoriya	-11.1618
▁yayılmasının	-11.1618
inski	-11.1619
▁vəzifələrə	-11.1619
▁Kaliforniya	-11.1622
▁vuraraq	-11.1622
▁İs	-11.1626
▁Kitabxana	-11.1627
▁Bayrağı	-11.1628
▁məşğuldur	-11.1629
▁tələbələrə	-11.1629
▁Tbilisi	-11.1632
▁xüsusiyyəti	-11.1633
▁memar	-11.1634
▁silahlar	-11.1635
▁Xəlilov	-11.1636
▁zərif	-11.1638
Di	-11.1638
ilən	-11.1638
▁hay	-11.1639
▁zavodu	-11.1641
▁nüfuzunun	-11.1642
sursat	-11.1644
▁Müsəlmanları	-11.1648
▁irimiqyaslı	-11.1649
▁yanğından	-11.165
▁vura	-11.1651
▁istəməyən	-11.1652
▁qiymətləndiril	-11.1652
cağam	-11.1654
▁Departamenti	-11.1656
iti	-11.1656
▁keçirməsi	-11.1657
▁Yolu	-11.1658
▁hərəkat	-11.166
▁mənasız	-11.1662
▁etsək	-11.1664
çiləri	-11.1664
▁yaşayacaq	-11.1665
▁komandaya	-11.1666
▁soyu	-11.1666
▁ailədə	-11.1666
▁fəaliyyətlə	-11.167
▁qaytarmaq	-11.167
▁işğalçılıq	-11.167
▁zibil	-11.1671
AZ	-11.1671
▁Sərəncamın	-11.1672
▁suallara	-11.1678
▁adıçəkilən	-11.1679
▁kommunal	-11.1685
▁köçür	-11.1686
▁göründüyü	-11.1687
▁övladlarının	-11.1687
bal	-11.1688
▁nağd	-11.1688
▁dəvəti	-11.1688
▁alimi	-11.1689
▁söhbəti	-11.169
▁Nəticə	-11.1691
xanlı	-11.1692
undan	-11.1693
▁zərurəti	-11.1694
▁universitetdə	-11.1695
Qars	-11.1695
▁qrant	-11.1696
▁qapısı	-11.1696
▁Bəy	-11.1699
laşa	-11.1699
▁keçiriləcəyi	-11.1702
▁əlavələr	-11.1703
▁iaşə	-11.1706
▁Qardaş	-11.1709
▁olacağıq	-11.1711
▁yayın	-11.1712
▁MK	-11.1712
▁Don	-11.1713
ləşdirən	-11.1713
▁vəzifələrdən	-11.1713
▁Sonrakı	-11.1714
▁çəkmə	-11.1714
▁fəaliyyətdə	-11.1715
▁xammal	-11.1715
üst	-11.1716
▁çevriliş	-11.1717
▁götürdü	-11.1717
▁filialı	-11.1717
▁yubileyinə	-11.1718
arası	-11.1724
▁sakin	-11.1725
▁Pan	-11.1727
▁vəkilləri	-11.1729
aşkar	-11.1731
▁yeməyi	-11.1732
▁iddialar	-11.1735
▁qoşulması	-11.1735
iyyəti	-11.1735
▁zamanında	-11.1736
▁kabinet	-11.1736
▁Hərəkatı	-11.1737
▁Həmid	-11.1738
▁proqramın	-11.174
▁enerjisinin	-11.174
▁eşitmə	-11.1742
▁dəyişiklikləri	-11.1742
▁zalında	-11.1743
▁yaradıcısı	-11.1745
▁Məcid	-11.1745
▁etmədi	-11.1749
▁en	-11.1749
▁vəsaitləri	-11.175
▁aktyoru	-11.1751
▁icarə	-11.1754
▁kod	-11.1754
▁gözlə	-11.1756
▁çıxışlar	-11.1756
▁ailələrin	-11.1758
▁buraxma	-11.1759
▁genetik	-11.176
▁ordumuz	-11.1761
▁dəyib	-11.1763
▁məktəbli	-11.1763
▁qadınları	-11.1767
▁etməsinin	-11.1769
▁Cabbarov	-11.177
▁mərasimdə	-11.1772
▁olmazdı	-11.1773
bur	-11.1774
▁mətbuatında	-11.1776
▁çıxmağa	-11.1776
▁məsələlərini	-11.1778
lığında	-11.1779
▁əməliyyatlarına	-11.1781
▁etiqad	-11.1783
▁Vidadi	-11.1785
▁teatrının	-11.1786
▁kommunist	-11.1787
▁qaldırır	-11.1788
tmaq	-11.1788
ləndirilməsində	-11.1789
▁AŞPA	-11.1789
▁MSK	-11.1789
▁zabiti	-11.1789
▁komediya	-11.1793
▁qura	-11.1794
▁sayır	-11.1795
▁fakültəsində	-11.1796
▁ifadəsində	-11.1796
▁çalışacaq	-11.1798
▁Gələn	-11.18
▁Bizə	-11.1802
▁Məcəllənin	-11.1802
▁Rəsulzadə	-11.1803
▁Kan	-11.1803
▁inamı	-11.1804
▁Anlaşma	-11.1804
▁psixoloq	-11.1805
vel	-11.1807
▁toz	-11.1807
▁bəşəriyyətin	-11.1808
▁keyfiyyətləri	-11.1808
▁planına	-11.1811
▁pərdə	-11.1811
▁alınmışdır	-11.1812
▁imperiyası	-11.1812
▁basqın	-11.1812
▁çiyin	-11.1813
▁məqamları	-11.1813
gel	-11.1814
▁icazəsi	-11.1816
▁mövsümü	-11.1816
▁möhkəmlənməsi	-11.1817
▁olimpiada	-11.1817
▁bakalavr	-11.1817
▁açıqlamalar	-11.1818
▁İttifaqına	-11.1818
▁riski	-11.1819
▁ruslar	-11.1819
▁rəqəmlər	-11.182
▁Georgi	-11.182
Qa	-11.1821
▁proqramların	-11.1824
▁düymə	-11.1826
▁vətəndaşının	-11.1827
lib	-11.1828
▁qır	-11.1828
▁məharətlə	-11.1828
▁rifahı	-11.1829
ılması	-11.1831
▁Bəhram	-11.1832
▁şura	-11.1832
▁düşmə	-11.1833
▁itkisi	-11.1834
gu	-11.1836
▁Konqres	-11.1837
▁təəccüb	-11.1838
▁mövqeyindən	-11.184
▁verəcəyi	-11.1841
▁Qo	-11.1841
▁hesablanmış	-11.1841
▁Onda	-11.1842
▁musiqisinin	-11.1842
▁yaşayırdı	-11.1843
▁davranışı	-11.1844
▁müvəffəq	-11.1844
▁dənizdə	-11.1845
▁dərəcəsində	-11.1846
▁edilsə	-11.1847
▁yayılmışdır	-11.1848
▁keçdikcə	-11.1849
Çox	-11.1851
▁sürücülər	-11.1851
▁bağlama	-11.1853
▁səhifəsi	-11.1856
▁böyrək	-11.1857
▁qurulmasına	-11.1862
▁paytaxtda	-11.1866
kli	-11.1871
▁sessiyası	-11.1871
layıcı	-11.1872
▁Türkiyəni	-11.1873
▁Hüseynli	-11.1874
▁uzadılması	-11.1879
▁sanballı	-11.1879
▁torpaqlar	-11.188
▁yerinin	-11.188
▁ötür	-11.1881
luğun	-11.1881
▁dələduzluq	-11.1881
Ceyhan	-11.1882
▁işçilər	-11.1883
▁Oyunlarına	-11.1884
▁münasibətlərinə	-11.1885
məklə	-11.1885
▁qiymətlərin	-11.1886
Qafqaz	-11.1887
▁Atası	-11.1887
▁əlaqələrini	-11.1888
▁situasiya	-11.1888
▁telekommunikasi	-11.1889
ıdır	-11.1889
▁yenilik	-11.189
▁tribuna	-11.1891
▁planet	-11.1891
▁soy	-11.1893
▁qoruyan	-11.1893
zer	-11.1895
▁fəaliyyətləri	-11.1896
▁ip	-11.1896
nıza	-11.1896
ələ	-11.1897
▁vərəq	-11.1897
▁vəzifədə	-11.1901
▁soydaşlarımızın	-11.1901
sam	-11.1903
▁mənbələr	-11.1906
▁zarafat	-11.1908
▁problemlərlə	-11.1911
▁Artur	-11.1914
▁Məlumdur	-11.1914
▁dairəsinin	-11.1916
▁İqor	-11.1918
▁nəqliyyatı	-11.1918
▁Estoniya	-11.1918
▁icarəyə	-11.1919
▁qalaraq	-11.1919
▁avtomobillə	-11.192
▁verdikləri	-11.192
tma	-11.192
▁varlı	-11.1921
▁kütlə	-11.1921
▁Her	-11.1924
▁vilayəti	-11.1925
ell	-11.1925
▁oyundan	-11.1926
tro	-11.1927
Siz	-11.1929
▁Sumqayıtda	-11.193
▁Komitəsinə	-11.1931
▁dis	-11.1931
▁bacı	-11.1932
▁keçirməyi	-11.1937
▁məmnunluğunu	-11.1938
▁Tədqiqat	-11.1938
▁İdarəsinə	-11.1942
▁həyət	-11.1943
▁sürür	-11.1943
▁Vilayət	-11.1943
▁sahibkarlara	-11.1943
▁ümumxalq	-11.1944
top	-11.1944
▁istəmə	-11.1948
▁Aparılan	-11.1951
▁aç	-11.1951
▁edərsə	-11.1951
▁yazdıqları	-11.1952
▁Vəkil	-11.1952
▁səh	-11.1955
▁aparırlar	-11.1955
▁gününə	-11.1955
▁dastan	-11.1956
▁inanıram	-11.1957
▁vurulması	-11.1958
▁hərbçilər	-11.1959
▁nəzəriyyəsi	-11.1961
▁yazdığına	-11.1962
▁restoran	-11.1966
▁təsdiqini	-11.1967
▁Məhərrəmov	-11.1967
▁ruhuna	-11.1969
▁Novosti	-11.1969
▁manatın	-11.1971
▁özümə	-11.1972
▁Məncə	-11.1972
▁birliyin	-11.1976
▁xaric	-11.1977
Fi	-11.1977
▁qurur	-11.1978
▁əlaqədardır	-11.1978
▁otağında	-11.1979
▁Qacar	-11.1979
▁gözləmək	-11.198
▁artırıb	-11.1982
▁virusun	-11.1986
▁lövhə	-11.1987
ənin	-11.1987
▁cild	-11.1988
▁muzeyi	-11.1989
▁məntəqələrinin	-11.1996
▁aparıldı	-11.1997
▁Bosniya	-11.1998
▁yarışda	-11.1998
ilər	-11.1999
▁Şam	-11.2
▁çıxaracaq	-11.2004
Ko	-11.2005
▁koronavirusun	-11.2006
▁buradakı	-11.2006
xal	-11.2009
▁sala	-11.201
▁caz	-11.2012
▁bağışla	-11.2012
▁yoxlanılması	-11.2013
▁Klub	-11.2013
▁qazanc	-11.2017
▁Aqrar	-11.2018
▁qoşulma	-11.2018
▁bəyanatında	-11.2021
▁italyan	-11.2025
eli	-11.2028
▁Yazıçı	-11.2031
▁həmsədr	-11.2031
▁Xidmətindən	-11.2032
▁rəssamın	-11.2032
▁Xəzərin	-11.2034
masını	-11.2035
▁sahiblərinin	-11.2035
▁birləşmələri	-11.2036
▁daşıma	-11.2042
▁sursat	-11.2044
▁Koronavirus	-11.2045
▁stadionunda	-11.2048
▁xəritə	-11.2049
▁minməsi	-11.2051
▁sazişin	-11.2052
▁ərazidən	-11.2052
▁Mat	-11.2053
▁aşiq	-11.2054
▁əsaslarla	-11.2055
▁cavabını	-11.2055
▁müdafiəçi	-11.2056
▁seçicilərin	-11.2059
▁məxfi	-11.2059
▁etibarı	-11.206
▁surəti	-11.2061
▁General	-11.2064
▁auditoriya	-11.2065
▁zərbələri	-11.2068
▁qabaqcadan	-11.207
▁varlığı	-11.207
AY	-11.207
▁ucbatından	-11.2073
▁Mərasimdə	-11.2074
▁/	-11.2075
▁dəymiş	-11.2075
▁keçməyə	-11.2076
▁rektor	-11.2077
▁Post	-11.208
▁zərbəsi	-11.2081
▁matçında	-11.2082
▁pilotsuz	-11.2082
▁Əfqanıstanda	-11.2082
▁edirdim	-11.2085
Hüseynov	-11.2085
▁Mənbə	-11.2086
▁y	-11.2088
▁qurumlara	-11.2088
dra	-11.2089
▁məhəllə	-11.2089
▁investisiyalar	-11.2093
▁magistratura	-11.2093
sızlıq	-11.2094
▁səviyyədədir	-11.2095
▁qabiliyyətini	-11.2096
▁həyətində	-11.2098
▁fikrində	-11.2105
xt	-11.2106
▁uzunluğunda	-11.2109
▁avto	-11.211
▁toplusu	-11.2114
▁icması	-11.2116
bit	-11.2117
▁mühitdə	-11.2118
▁panel	-11.2119
▁Füzulinin	-11.2122
▁qardaşım	-11.2122
▁qoya	-11.2123
▁işləmiş	-11.2123
▁yoluxanların	-11.2123
▁yerləşdirilmiş	-11.2125
▁şəhərini	-11.2126
▁Abdullayevin	-11.2127
▁səsləndirdiyi	-11.2127
▁uydurma	-11.2128
▁seçildi	-11.213
ska	-11.2131
▁baxışı	-11.2132
enin	-11.2132
▁həftədə	-11.2135
for	-11.2135
▁dəyişmə	-11.2136
▁hakimlər	-11.2137
ılsın	-11.2137
▁daima	-11.2138
▁edilməməsi	-11.2139
arkən	-11.2142
▁ümumən	-11.2143
▁Komitənin	-11.2146
▁aparıcısı	-11.2147
▁liman	-11.2148
▁xatirələri	-11.2151
▁olacağına	-11.2151
▁xətlərinin	-11.2151
▁gözləyən	-11.2154
▁aparılmışdır	-11.2158
məyib	-11.2162
▁atılır	-11.2162
▁əvəzində	-11.2162
▁peşəkarlıq	-11.2166
▁Aslanov	-11.2168
▁sözünün	-11.2168
je	-11.2169
liyində	-11.2174
▁qısamüddətli	-11.2176
▁tuta	-11.2177
▁Muzey	-11.2177
▁Hacıbəylinin	-11.2177
▁yaşam	-11.2178
▁müdaxiləsi	-11.2178
▁Kənan	-11.218
▁mövqeyinə	-11.218
▁qərarlaşıb	-11.2182
▁dairəsində	-11.2182
▁içi	-11.2183
▁həzm	-11.2184
▁dostum	-11.2186
baz	-11.2186
▁reallıqları	-11.2186
▁mülayim	-11.2187
▁tövsiyələr	-11.2188
▁oradakı	-11.2188
▁rayonların	-11.2189
▁Monitorinq	-11.219
▁Hafiz	-11.219
▁İnvestisiya	-11.219
▁verilməyib	-11.219
▁kanal	-11.2192
dib	-11.2193
▁döyüşə	-11.2193
info	-11.2195
▁bağı	-11.2195
▁red	-11.2195
pon	-11.2195
▁çıxaran	-11.2195
▁xidmətinə	-11.2196
▁mənzillərin	-11.2198
▁başlayanda	-11.2198
▁hərəkətdə	-11.2199
sim	-11.2201
yı	-11.2202
▁müavinləri	-11.2204
şir	-11.221
▁kamil	-11.221
▁usta	-11.2214
▁redaksiyada	-11.2215
▁Türkiyədəki	-11.2216
▁yüklərin	-11.2218
Mar	-11.2221
▁verilmə	-11.2223
▁qəzetinə	-11.2223
▁səhifələrində	-11.2225
▁ağrısı	-11.2225
▁istifadəçiləri	-11.2225
▁Qars	-11.2227
▁öldürüb	-11.2228
he	-11.2231
▁Gi	-11.2232
dırsa	-11.2232
▁matç	-11.2233
▁Slovakiya	-11.2233
▁ÜDM	-11.2233
▁fevralında	-11.2234
▁civə	-11.2235
psixoloji	-11.2235
Roma	-11.2235
▁Zaqafqaziya	-11.2236
▁etmədiyi	-11.2236
▁Mənzil	-11.2238
▁mərkəzlərində	-11.2238
▁bölgüsü	-11.2239
yur	-11.2239
▁olmadıqda	-11.224
▁sənəddə	-11.2241
▁çevirib	-11.2242
▁şərəflə	-11.2242
▁liberal	-11.2245
▁oxuduğu	-11.2249
▁quran	-11.2249
▁İpək	-11.225
SOCAR	-11.225
▁Bur	-11.2252
▁pozub	-11.2253
▁hücumçusu	-11.2254
qon	-11.2255
▁üsulla	-11.2257
▁qulluqçusu	-11.2257
urnalistlər	-11.2257
lması	-11.2258
▁fotolar	-11.2259
▁etmirlər	-11.2262
▁möhkəmlənməsinə	-11.2262
▁Hey	-11.2264
▁adama	-11.2264
ılıb	-11.2265
aç	-11.2265
▁Gözəl	-11.2266
▁qutu	-11.2267
▁jurnalında	-11.227
▁üslubu	-11.227
▁tamaşaya	-11.2271
▁Ol	-11.2273
▁Doğrudur	-11.2273
▁Sol	-11.2274
▁yüksələn	-11.2275
▁mətni	-11.2276
▁həcminin	-11.2277
▁sağlamlığının	-11.2277
▁Sar	-11.2279
▁içinə	-11.2279
vr	-11.228
▁sərfəli	-11.2282
▁neytral	-11.2286
▁kabel	-11.2286
▁başlanğıc	-11.2287
▁olmaları	-11.2287
▁çempion	-11.2288
▁liderimiz	-11.2288
▁xərclərin	-11.2289
▁hamıya	-11.2289
▁nəzarətə	-11.229
lır	-11.2292
▁təşkilatlara	-11.2293
▁sözlərindən	-11.2294
▁mahiyyət	-11.2294
▁profilaktik	-11.2295
▁ikiqat	-11.2296
▁Həmişə	-11.2298
▁Əmlak	-11.2299
▁yetirməyə	-11.2301
▁hədiyyələr	-11.2301
▁qa	-11.2301
▁Tamaşaçılar	-11.2302
▁İtaliyada	-11.2303
▁anbarı	-11.2303
▁çadır	-11.2305
İP	-11.2306
lıb	-11.2308
▁İndiyədək	-11.2309
Fransa	-11.231
▁yaradıcılığını	-11.2311
▁həmrəyliyi	-11.2312
▁tərəvəz	-11.2312
▁mayında	-11.2312
laşdı	-11.2313
▁formalaşmış	-11.2314
▁ailələrinin	-11.2315
▁Brüsseldə	-11.2316
▁musavat	-11.2318
ovski	-11.2318
▁biganə	-11.2321
Mi	-11.2321
▁ağacların	-11.2321
▁Zati	-11.2322
▁qurğuların	-11.2324
▁doğulduğu	-11.2326
zı	-11.2326
▁təzyiqlər	-11.2326
▁İraqda	-11.2327
▁modul	-11.2327
▁şərik	-11.2329
▁formaları	-11.2329
▁halına	-11.2329
,“	-11.2331
▁yetirilir	-11.2331
▁ətrafı	-11.2334
▁ekspertiza	-11.2336
▁Tədbirlər	-11.234
▁əvvəldən	-11.2341
▁kifayətdir	-11.2341
▁mühacirət	-11.2341
sir	-11.2343
▁vəziyyətində	-11.2343
▁diz	-11.2344
daşı	-11.2345
sion	-11.2346
▁xadimlərinin	-11.235
▁yetirmələri	-11.235
▁tapşırılıb	-11.2352
ılma	-11.2354
▁meyl	-11.2354
▁Əvvəlki	-11.2354
Beynəlxalq	-11.2357
▁partlayıcı	-11.2357
▁mövsümdə	-11.2358
nizdə	-11.2358
▁dəstəkləmək	-11.2358
▁hücumundan	-11.2359
▁vasitələrlə	-11.236
▁tut	-11.236
▁qurultay	-11.2361
pan	-11.2361
▁məhkəməsinin	-11.2366
▁gəncin	-11.2366
Qalatasaray	-11.2369
▁gənclərimiz	-11.237
▁sənətin	-11.2372
▁mövzuları	-11.2375
▁hüdudlarından	-11.2375
▁analoji	-11.2379
▁Bay	-11.238
▁mübarizəsi	-11.238
▁martında	-11.238
milli	-11.2383
▁korrupsiyaya	-11.2383
▁fəallıq	-11.2384
▁şahzadə	-11.2384
▁düşərgə	-11.2385
lənmişdir	-11.2385
▁sahillərində	-11.2386
▁Problemləri	-11.2386
por	-11.2387
▁antiterror	-11.2388
▁halal	-11.2389
▁Martin	-11.239
▁magistr	-11.2392
▁idmançılar	-11.2393
öz	-11.2395
laşdırmaq	-11.2396
▁dayanacaq	-11.2399
▁xoşməramlı	-11.2399
təhlükəsizliyini	-11.2399
Müsavat	-11.2399
dia	-11.2401
indəki	-11.2403
▁yurdu	-11.2403
▁apasport	-11.2404
▁verirəm	-11.2404
▁çərçivə	-11.2407
▁maraqlandıran	-11.2408
▁satılan	-11.2409
▁götürərək	-11.2411
▁fəaliyyətlərini	-11.2411
▁atışma	-11.2412
▁edirsə	-11.2412
dığımız	-11.2413
▁stansiyasının	-11.2413
▁qaldırdı	-11.2415
▁yaradılmasında	-11.2415
▁söyləyir	-11.2417
▁Sal	-11.2417
Turan	-11.2418
▁mini	-11.2422
▁keçməsinə	-11.2425
iyası	-11.2428
isti	-11.2428
▁həftənin	-11.243
▁vurulan	-11.2431
müəllim	-11.2432
▁kəsib	-11.2433
▁gəldim	-11.2434
Li	-11.2435
▁hökmdarı	-11.2437
▁zirvəsinə	-11.2439
▁Sosialist	-11.2439
▁gətirəcək	-11.2439
▁qadına	-11.2441
▁yaranacaq	-11.2443
▁Ələsgər	-11.2443
▁mədən	-11.2444
—	-11.2444
▁Uşaqlar	-11.2445
indiki	-11.2445
▁özümüz	-11.2447
▁Ça	-11.2449
▁Sənət	-11.2449
Bil	-11.2449
▁ideyalar	-11.2449
▁xatirələr	-11.2452
▁güzəştlər	-11.2453
▁Adətən	-11.2454
▁Məmmədquluzadə	-11.2456
▁Saatlı	-11.2456
▁filial	-11.2459
▁aldıqları	-11.2459
▁Hakimiyyət	-11.2461
▁layihələrə	-11.2462
ex	-11.2462
▁əyalətində	-11.2465
▁dünyasına	-11.2466
▁TANAP	-11.2466
▁götürülən	-11.2467
▁Quran	-11.2468
▁istiqlal	-11.2469
▁torpaqlarına	-11.2469
▁hücumlar	-11.2469
▁faizinin	-11.247
▁mübarizəni	-11.2471
▁hərb	-11.2476
▁Şəhriyar	-11.2476
alın	-11.2476
▁göstərmə	-11.2476
▁otuz	-11.2478
▁müttəfiqləri	-11.2478
▁Ehtiyat	-11.2479
pri	-11.248
▁görüşmək	-11.2481
▁tamaşası	-11.2481
arı	-11.2482
▁qoyaraq	-11.2482
▁inanma	-11.2483
▁müavinət	-11.2485
▁Rüfət	-11.2486
tac	-11.2488
▁telefonla	-11.2489
▁olunduqdan	-11.249
▁avtomobillər	-11.249
▁görürlər	-11.249
▁karyerasını	-11.2491
▁tərəqqisi	-11.2492
mas	-11.2495
▁mərmi	-11.2496
▁iranlı	-11.2496
▁Əfəndiyev	-11.2496
▁sürülüb	-11.2498
▁barel	-11.2499
▁problemlərə	-11.25
APA	-11.25
landırılması	-11.2501
▁gəlirlərinin	-11.2503
▁müəyyənləşib	-11.2503
▁danışmağa	-11.2503
▁mənşəyi	-11.2505
▁hasilatı	-11.2507
▁Ermənilərin	-11.2507
▁yaddaqalan	-11.251
sey	-11.2511
▁anlama	-11.2511
▁qızları	-11.2513
▁çağırışı	-11.2515
▁namaz	-11.2516
▁sarayında	-11.2516
▁qonşuluq	-11.2516
▁Sakit	-11.2517
▁Tiflisdə	-11.2517
art	-11.2518
Gəncə	-11.2519
▁səlahiyyəti	-11.2521
▁problemlərdən	-11.2522
▁yükü	-11.2524
▁mövzularda	-11.2525
▁həmsədri	-11.2527
▁bağlayır	-11.2529
▁məktubda	-11.253
▁serial	-11.2531
▁matçı	-11.2532
▁Musiqili	-11.2534
▁məhəbbəti	-11.2535
▁sinir	-11.2535
▁sinfi	-11.2535
▁təşkilində	-11.2537
▁Korrupsiyaya	-11.2537
▁olunurlar	-11.2537
▁tənzimləmə	-11.2539
▁mənalı	-11.254
▁könül	-11.254
▁rayonundan	-11.2543
▁Yuri	-11.2544
▁axtarır	-11.2545
▁qrupa	-11.2545
▁açar	-11.2547
▁etmirəm	-11.2548
▁olmuşuq	-11.2548
▁təşkilata	-11.2551
▁stəkan	-11.2552
▁Fəxrəddin	-11.2552
▁mövzusuna	-11.2552
▁türklər	-11.2552
▁bala	-11.2552
▁vasitələr	-11.2553
▁anlamaq	-11.2554
▁vəsaitlərinin	-11.2556
▁döyüşdə	-11.2557
gəl	-11.256
ty	-11.2561
▁St	-11.2561
▁əldən	-11.2561
▁xüsusda	-11.2563
▁Kazım	-11.2563
▁insanlardan	-11.2564
▁Elmira	-11.2565
▁tünd	-11.2567
▁hadisəyə	-11.2569
▁həyati	-11.257
▁çevriləcək	-11.2571
▁tuş	-11.2572
▁hesablanması	-11.2572
sosial	-11.2572
gül	-11.2573
▁Qərar	-11.2574
▁deputatları	-11.2574
▁infeksiyasına	-11.2574
▁mütaliə	-11.2575
maddi	-11.2575
▁müsabiqəsində	-11.2578
▁eniş	-11.2578
▁reallıqlar	-11.2578
▁faşist	-11.2579
▁aləmi	-11.2582
▁sükutla	-11.2585
▁prezidentliyə	-11.2585
▁TÜRKSOY	-11.2586
▁ədəbiyyata	-11.2586
▁verilişində	-11.2586
▁toxum	-11.2587
▁dostlar	-11.2588
▁Ke	-11.259
▁sənətinə	-11.2591
▁olunmamış	-11.2592
▁maşının	-11.2592
▁Tom	-11.2593
▁arı	-11.2596
▁mətbuatının	-11.2597
▁icma	-11.2601
▁mütəfəkkir	-11.2602
▁boğ	-11.2604
▁istiqamətlərin	-11.2607
ök	-11.2608
▁Bizdə	-11.261
▁missiyasını	-11.261
▁Makron	-11.261
▁münbit	-11.2614
▁Bat	-11.2615
▁videoçarx	-11.2617
▁İli	-11.2622
▁haqqının	-11.2623
▁formatında	-11.2623
▁Hay	-11.2623
▁təklifini	-11.2624
▁qarşılığında	-11.2624
▁illə	-11.2628
▁açıqlamada	-11.2628
▁divan	-11.263
▁dairələri	-11.2631
▁bilə	-11.2631
▁Makedoniya	-11.2633
▁Mövlud	-11.2635
▁tanıma	-11.2636
▁rəngi	-11.2637
▁satın	-11.2639
▁tərəfdaşlığı	-11.2641
Çelsi	-11.2644
▁diplomu	-11.2645
▁İsgəndərov	-11.2645
▁yüksəkliyi	-11.2646
çinin	-11.2646
ləşdirə	-11.2646
▁elementləri	-11.2648
▁Təxminən	-11.2649
▁zəngindir	-11.265
▁Müsəlman	-11.2653
▁dairələr	-11.2655
▁səbəblər	-11.2655
▁olursa	-11.2656
▁Əbülfəz	-11.2656
▁inandırıcı	-11.2656
▁Astragalus	-11.2656
▁etdirmişdir	-11.2657
▁etdirməsi	-11.2657
▁deyillər	-11.2659
▁Los	-11.2659
▁üsulları	-11.2663
▁cüt	-11.2663
Twitter	-11.2664
▁mərhəmət	-11.2665
▁qət	-11.2665
acağı	-11.2666
çün	-11.2666
▁özbək	-11.2667
sor	-11.2667
▁Kimya	-11.2667
▁almaqla	-11.2669
▁kəsilmiş	-11.2669
oş	-11.2673
▁Pekin	-11.2673
▁əmtəə	-11.2674
▁Qoy	-11.2675
sur	-11.2676
▁bel	-11.2677
▁Vyetnam	-11.2678
▁Quliyeva	-11.2682
▁ödənişli	-11.2683
▁oxunuş	-11.2683
▁çəkilişi	-11.2685
▁olmadığından	-11.2686
▁əminliyini	-11.269
sat	-11.269
▁minnətdarlığımı	-11.2691
▁qonaqlara	-11.2693
▁sevin	-11.2694
▁Seyidov	-11.2694
▁özümüzü	-11.2696
▁siyasətdə	-11.2697
bol	-11.2697
▁tətil	-11.2699
▁Ankarada	-11.2702
hava	-11.2707
▁seçkilərinin	-11.2707
▁bölgəsinə	-11.2708
▁çata	-11.271
▁mövqeyinin	-11.271
▁dövründən	-11.2711
soy	-11.2711
▁düşünmək	-11.2713
əri	-11.2715
dikdə	-11.2718
▁Dan	-11.2721
▁Bahar	-11.2721
▁virusa	-11.2726
▁tuturdu	-11.2726
▁Hörmətli	-11.2727
▁təşəbbüslər	-11.2728
çin	-11.2728
▁hesabatında	-11.2729
▁kitabını	-11.2729
ras	-11.2731
▁Kitabın	-11.2734
ılsa	-11.2734
▁təşkilatlarla	-11.2736
▁getdiyini	-11.2737
▁məscidin	-11.2739
nizlə	-11.274
▁əsərdə	-11.274
▁müşavirə	-11.274
boyu	-11.2741
▁sinə	-11.2742
▁keçirərək	-11.2744
Araz	-11.2745
▁rifahının	-11.2745
▁abad	-11.2745
▁Məqalədə	-11.2747
▁Xocalıda	-11.2747
lum	-11.2749
▁Liviya	-11.275
▁öyrənməyə	-11.275
İki	-11.275
▁bitirən	-11.2751
▁ixtisaslaşmış	-11.2754
▁yanğınsöndürən	-11.2756
▁xatırlayır	-11.2757
Molla	-11.2757
▁əsərini	-11.2759
▁adası	-11.276
▁yaddaşında	-11.2764
▁cəbhənin	-11.2765
▁öhdəlikləri	-11.2766
▁yoxdu	-11.2767
aliləri	-11.2767
▁seriya	-11.2768
etik	-11.2771
▁publisist	-11.2771
▁yetirdiyi	-11.2771
▁istək	-11.2772
▁borclu	-11.2776
▁Gəncəvinin	-11.2776
▁yerlik	-11.2776
▁veririk	-11.2776
▁ud	-11.2777
▁qazıntı	-11.2777
▁altından	-11.2777
oqrafiya	-11.2779
▁planlar	-11.2779
▁ac	-11.2784
▁qadağandır	-11.2785
▁Group	-11.2786
ımın	-11.2787
▁qalın	-11.2788
▁dərslik	-11.2789
▁tərkibli	-11.2789
▁duyğu	-11.279
▁şiddətli	-11.279
▁tikilir	-11.2791
▁qiymətini	-11.2792
▁bəraət	-11.2792
▁sahələrini	-11.2797
Za	-11.2797
▁Atam	-11.2798
▁anım	-11.2798
▁administrasiya	-11.2799
▁yerüstü	-11.2799
▁agentliyinin	-11.2801
▁Məktəbinin	-11.2801
▁açıldı	-11.2804
▁nisbəti	-11.2804
▁Hollandiya	-11.2806
▁müraciətlərin	-11.2806
▁toplanmış	-11.2808
▁Rayonun	-11.2809
▁uçotu	-11.2814
▁hazırlayan	-11.2814
ux	-11.2815
▁xəttini	-11.2816
▁parlamenti	-11.2816
▁deyiblər	-11.2816
mil	-11.2818
Qu	-11.2819
▁doldur	-11.2822
▁fəallığı	-11.2822
▁oynamışdır	-11.2823
▁ömrünü	-11.2828
▁əsgərlər	-11.2828
▁əlifbası	-11.2829
▁öndə	-11.2829
▁fədakar	-11.283
▁Kuboku	-11.2831
▁sirri	-11.2831
▁bənzərsiz	-11.2833
▁abidələrinin	-11.2834
Ana	-11.2834
▁çatdıra	-11.2835
▁qurduğu	-11.2838
Kəpəz	-11.2838
▁FİFA	-11.2838
▁ayırıb	-11.2838
▁etdirilən	-11.2838
▁DİM	-11.2839
▁vurğulayaraq	-11.2841
▁öncədən	-11.2842
▁məqalələri	-11.2842
▁izləyə	-11.2843
▁toqquşma	-11.2843
lah	-11.2843
▁Bel	-11.2844
▁qoruyucu	-11.2845
uc	-11.2847
▁Balet	-11.2848
▁alqış	-11.2849
▁əsəbi	-11.2849
▁sənətə	-11.285
▁dilin	-11.285
lənmək	-11.2851
▁Vo	-11.2851
▁Orucov	-11.2853
▁müşahidəçi	-11.2853
▁alın	-11.2853
▁Yaxud	-11.2853
▁endir	-11.2854
▁tapılması	-11.2859
▁nəqliyyatın	-11.286
Bo	-11.2861
▁əlləri	-11.2861
▁görmüş	-11.2862
▁yas	-11.2863
▁şüarı	-11.2864
▁sessiya	-11.2866
▁qəbir	-11.2866
səydi	-11.2866
far	-11.2868
yavaş	-11.2868
▁tamaşalar	-11.2872
dıqdan	-11.2873
▁çoxtərəfli	-11.2873
▁Məktəbi	-11.2873
▁bəllidir	-11.2874
▁gələnlər	-11.2874
▁Pyotr	-11.2875
▁Konstitusiyasın	-11.2875
▁Allahdan	-11.2875
▁hökumətinə	-11.2879
▁çalışmış	-11.2881
▁Həsənova	-11.2882
▁görün	-11.2882
▁sındır	-11.2883
▁elmə	-11.2883
▁axın	-11.2884
▁sürülən	-11.2885
▁otel	-11.2885
▁İndoneziya	-11.2886
şəkilli	-11.2886
▁öyrənir	-11.2887
▁yoldaşım	-11.2889
▁lokal	-11.289
▁öhdəliyi	-11.289
▁XI	-11.2895
▁İsmayılova	-11.2896
Multikulturalizm	-11.2897
▁kəndlərdə	-11.2897
▁inanır	-11.2897
▁çıxışlarında	-11.2898
▁çalışdı	-11.2898
▁ödənişlər	-11.2898
▁Mon	-11.2898
▁Universitetin	-11.2899
▁səfərinin	-11.2904
▁aparılmalıdır	-11.2905
▁Konfrans	-11.2906
▁Han	-11.2907
▁acınacaqlı	-11.2909
▁dam	-11.291
lərimizə	-11.291
ayev	-11.2911
ken	-11.2911
▁tədarükü	-11.2913
▁bəla	-11.2914
▁Hüseynzadə	-11.2914
▁Sərkisyan	-11.2916
▁yumruq	-11.2916
▁tapşırıqların	-11.2916
▁məqsədəuyğun	-11.2917
▁marşrutu	-11.2917
▁IX	-11.2917
▁azalır	-11.2918
▁əhli	-11.2919
▁görürdü	-11.2921
▁gücləndirir	-11.2925
▁baxdı	-11.2926
▁Çavuşoğlu	-11.2926
▁qisas	-11.2926
▁ixtisaslar	-11.2927
▁ocaqları	-11.2927
go	-11.2929
▁Qabil	-11.293
▁məzənnə	-11.293
▁göstərdiyini	-11.293
▁qayıtması	-11.2931
▁Cəmiyyət	-11.2932
▁əksəriyyətinin	-11.2932
rk	-11.2935
▁göl	-11.2937
▁disk	-11.2937
yim	-11.2939
▁nəqli	-11.2941
▁iman	-11.2941
▁sil	-11.2942
▁məzhəb	-11.2942
▁dissertasiya	-11.2944
▁alban	-11.2944
▁səsləndirib	-11.2946
▁Əsasən	-11.2949
▁Ru	-11.295
▁əminliklə	-11.2952
▁Kütləvi	-11.2954
▁həmkarlar	-11.2954
▁dəyişikliklərə	-11.2955
Sabah	-11.2956
▁hərbçilərin	-11.2956
dri	-11.2956
▁fon	-11.2956
landığını	-11.2957
TA	-11.2958
▁oxumağa	-11.2958
ef	-11.2959
▁reallıq	-11.296
▁qəhrəmanları	-11.2961
▁istehlakçı	-11.2961
▁koordinasiya	-11.2961
▁torpaqlarımız	-11.2963
▁qruplarının	-11.2964
▁bazara	-11.2964
▁eksperti	-11.2964
▁cəhət	-11.2965
▁sürüşmə	-11.2971
▁Kuba	-11.2971
▁üzündə	-11.2972
▁ümum	-11.2972
▁arvad	-11.2972
kas	-11.2972
▁birdən	-11.2974
▁kə	-11.2974
▁hasar	-11.2974
▁toqquşmalar	-11.2975
▁heyvandarlıq	-11.2977
▁dolayı	-11.2977
▁klip	-11.2981
▁sanitar	-11.2981
▁yollarında	-11.2984
▁tikili	-11.2985
▁saatı	-11.2986
▁imkanlardan	-11.2988
sul	-11.2988
▁qoyulmuşdur	-11.2989
▁yekunlaşıb	-11.299
▁öncəsi	-11.299
Azərsu	-11.2992
▁yayılır	-11.2993
▁Yuxarıda	-11.2995
▁qurğuları	-11.2995
laşdırılıb	-11.2995
▁səp	-11.2996
▁boz	-11.2997
▁istədikləri	-11.2997
▁görərik	-11.2999
▁qurmağa	-11.2999
tis	-11.3
▁işığı	-11.3
▁dağıdıcı	-11.3001
ine	-11.3002
xalq	-11.3002
▁Bağ	-11.3003
▁türklərin	-11.3003
▁evlərinin	-11.3003
▁Mehmet	-11.3005
▁Yo	-11.3005
▁tutma	-11.3006
▁yerlərdən	-11.3007
▁anbar	-11.3008
▁digəri	-11.301
▁Xalça	-11.3011
▁çıxardığı	-11.3011
▁qalmışdır	-11.3012
ərkən	-11.3012
▁Dövlətin	-11.3014
▁görünmür	-11.3014
▁poli	-11.3014
ox	-11.3014
▁Cümhuriyyət	-11.3015
▁olunublar	-11.3015
▁daşıyıcısı	-11.3015
▁bütövlüyünə	-11.3022
▁normaları	-11.3023
▁diasporunun	-11.3025
ımda	-11.3028
▁kanalında	-11.3029
▁Hacıyevin	-11.3032
Tİ	-11.3037
▁münsiflər	-11.304
ate	-11.304
pur	-11.3041
orld	-11.3043
▁stansiya	-11.3044
▁bağlamaq	-11.3045
▁soydaşlarımız	-11.3046
alan	-11.3046
▁futbolçunun	-11.3047
▁seçmək	-11.3048
▁aksiyaları	-11.3049
ço	-11.3049
▁görüntü	-11.3052
▁Peşə	-11.3053
▁yerləşdirilən	-11.3054
alt	-11.3054
▁kvadrat	-11.3054
▁Ayrı	-11.3055
▁əlbir	-11.3055
birə	-11.3056
▁rayonundakı	-11.3056
▁tapacaq	-11.3057
▁don	-11.3058
nc	-11.3059
▁bilgi	-11.3061
▁gətirərək	-11.3062
▁təzahürüdür	-11.3064
tov	-11.3065
xə	-11.3065
▁hücumları	-11.3069
▁uz	-11.3069
▁zəhməti	-11.3071
▁Venesuela	-11.3073
▁Yunayted	-11.3073
▁siması	-11.3075
▁Mel	-11.3075
▁Günay	-11.3075
ünə	-11.3076
▁Biznes	-11.3077
hat	-11.3078
▁götür	-11.3079
bas	-11.308
▁Konfransı	-11.308
▁yollarda	-11.3081
dov	-11.3081
▁ertəsi	-11.3082
▁qal	-11.3083
Yol	-11.3085
▁Energetika	-11.3086
▁hamısının	-11.3087
▁nitqi	-11.3088
▁humanizm	-11.3089
▁Paytaxt	-11.3089
▁aclıq	-11.309
▁vətəndaşlarına	-11.3091
▁göstərdikləri	-11.3091
▁Tokio	-11.3092
:""	-11.3096
Mİ	-11.3097
▁mühasirəyə	-11.3098
▁sərkərdə	-11.3099
▁futbolçuların	-11.31
▁planda	-11.31
▁Şurasında	-11.3101
▁aylarda	-11.3102
▁institut	-11.3102
▁Mur	-11.3103
▁anlayış	-11.3105
dıqlarını	-11.3106
▁İlin	-11.3107
▁Palatası	-11.3108
▁Onları	-11.3109
▁konsepsiyası	-11.3111
▁dərsi	-11.3112
▁idxalı	-11.3113
▁to	-11.3113
laşdıran	-11.3115
▁müsadirə	-11.3117
▁yazmağa	-11.3117
▁dərslər	-11.3118
▁Sərgi	-11.3119
İB	-11.312
▁ucqar	-11.312
▁Naxçıvana	-11.312
▁ildəki	-11.3122
▁Həqiqətən	-11.3122
▁İordaniya	-11.3123
▁Məryəm	-11.3124
▁söykənən	-11.3125
veriş	-11.3125
lüyün	-11.3125
▁sağlamlığına	-11.3127
▁düçar	-11.313
mədən	-11.313
▁icmasının	-11.313
▁haqqını	-11.3131
▁bahasına	-11.3132
▁qabiliyyətinə	-11.3133
▁liderlərinin	-11.3133
▁münasibətlə	-11.3134
▁Qəmbər	-11.3134
▁tapşırıqları	-11.3135
elli	-11.3136
▁atmağa	-11.3137
cağıq	-11.3137
▁Nəbiyev	-11.3138
▁bildiririk	-11.3139
▁Prokurorluğunda	-11.3139
▁siyahısını	-11.3141
▁Düşmən	-11.3143
▁kənardan	-11.3143
lit	-11.3144
▁oyununu	-11.3145
▁reallaşması	-11.3146
▁maraqlar	-11.3147
▁Rusiyadakı	-11.3148
▁müəllifləri	-11.3149
sidir	-11.3152
▁üzüm	-11.3153
▁tətbiqini	-11.3153
qorxu	-11.3156
▁Kolumbiya	-11.3157
rab	-11.3157
▁Ölkəmiz	-11.3158
▁nəsillər	-11.3159
▁təsirindən	-11.316
▁vəsiqəsi	-11.316
▁prokuroru	-11.316
▁xəzinə	-11.3161
məişət	-11.3161
▁verməyəcək	-11.3162
▁yaşından	-11.3163
▁əmanət	-11.3166
heçə	-11.3169
▁Cəbhəsi	-11.317
▁qayğıya	-11.317
▁İmanov	-11.3172
▁Bülbül	-11.3174
qol	-11.3175
▁zülm	-11.3176
▁Super	-11.3176
ləşdirilməsini	-11.3177
▁XVI	-11.3177
▁neftinin	-11.3177
▁şəbəkəsində	-11.318
▁hazırlanmışdır	-11.3183
▁olunacağı	-11.3184
kimya	-11.3187
▁qulluğu	-11.3188
▁Səs	-11.3188
▁York	-11.3188
xe	-11.3188
▁başqanı	-11.319
▁binasına	-11.3192
aqlı	-11.3195
itar	-11.3195
▁xatirələrini	-11.3196
▁Siyavuş	-11.3196
▁kartof	-11.3196
▁məktəbəqədər	-11.3196
▁hadisələrlə	-11.3197
▁əsaslar	-11.3199
▁fərqlənmə	-11.32
▁finala	-11.3203
▁baxışları	-11.3204
▁Qarayevin	-11.3207
bri	-11.3207
▁məmurlar	-11.3208
▁qazanmışdır	-11.3212
▁Avro	-11.3212
▁Sav	-11.3214
▁ayırır	-11.3214
▁şəffaflığın	-11.3214
▁döyüşləri	-11.3214
▁birincisi	-11.3214
▁törətmiş	-11.3215
▁yerlə	-11.3217
▁yönəlib	-11.3218
▁bərabərdir	-11.3218
▁savaşı	-11.322
Hacıyev	-11.322
▁səviyyə	-11.3222
▁ölkəsinə	-11.3225
▁ehtiyatlı	-11.3227
nal	-11.3229
yr	-11.3229
▁Britaniyada	-11.323
▁təbliğatı	-11.323
▁görüşünün	-11.323
fan	-11.3232
▁para	-11.3235
▁ittihamı	-11.3235
▁geriyə	-11.3235
▁məsələlərinin	-11.3238
▁dayandırıb	-11.324
▁həkimlərin	-11.3241
▁məlumatın	-11.3244
▁olmuşlar	-11.3244
▁Ac	-11.3245
▁jurnalistin	-11.3246
▁faktoru	-11.3248
▁ar	-11.325
▁Pul	-11.3252
▁girib	-11.3253
▁Mövcud	-11.3254
▁tutumu	-11.3257
▁bəstəkarın	-11.3258
ullah	-11.3259
▁hamam	-11.3259
▁prinsiplərini	-11.3261
▁müdafiəsinə	-11.3261
▁mövcudluğunu	-11.3261
▁qaşığı	-11.3261
▁sektoruna	-11.3262
▁hökmdar	-11.3263
▁sədaqət	-11.3265
▁qanunverici	-11.3267
▁toplantısı	-11.3268
▁oxucular	-11.3268
şərtsiz	-11.3269
▁edəcəyinə	-11.3269
kər	-11.327
▁bolşevik	-11.3273
▁azından	-11.3273
▁Müraciət	-11.3273
▁resurslarının	-11.3274
küy	-11.3276
▁Sədr	-11.3277
▁sərhədlərinin	-11.3279
▁oyunçular	-11.3282
▁ilinin	-11.3282
Abdullayev	-11.3283
▁yarışı	-11.3284
▁duman	-11.3285
▁aksiyalar	-11.3286
▁izləyir	-11.3286
▁proqnozlaşdırıl	-11.3286
▁qrupundan	-11.3288
▁əsnasında	-11.3288
▁qənaətə	-11.329
▁otaqları	-11.329
mp	-11.3291
▁azaldır	-11.3291
▁Ermənistandakı	-11.3293
▁cədvəl	-11.3293
▁güləş	-11.3296
▁oraya	-11.3298
▁gətir	-11.3299
▁dəfədir	-11.33
▁sahibinin	-11.3301
xanov	-11.3301
yacağını	-11.3303
▁bilməməsi	-11.3308
▁Qurum	-11.3309
▁vaqon	-11.331
▁platforması	-11.3311
▁dayanma	-11.3311
ie	-11.3311
▁yayında	-11.3312
ləşdirdi	-11.3313
▁şeirlərində	-11.3313
▁detalları	-11.3314
▁Sanki	-11.3314
▁orqanizm	-11.3316
▁qıl	-11.3317
▁təhqiqat	-11.3317
▁qoymuşdur	-11.3321
▁İnqilab	-11.3323
▁monoqrafiya	-11.3325
▁mənzilin	-11.3326
▁öldürmək	-11.3327
▁atom	-11.3329
▁nüfuzunu	-11.333
▁qızların	-11.333
▁vasitəsinin	-11.3332
▁məskunlaşmış	-11.3333
▁keçirmiş	-11.3334
▁müsəlmanlar	-11.3337
▁mərkəzlərindən	-11.3338
▁orduya	-11.3339
▁ixtisar	-11.334
▁Arena	-11.334
▁kəndə	-11.3341
▁silahların	-11.3341
lənməyə	-11.3342
▁AZAL	-11.3342
qq	-11.3343
▁qazıntılar	-11.3343
▁Cavidin	-11.3345
IN	-11.3346
▁yaşdan	-11.3347
▁yarışın	-11.3347
▁endirib	-11.335
▁hakimiyyətini	-11.335
ətli	-11.335
▁Plan	-11.3356
▁öyrənib	-11.3357
▁cəsarətli	-11.3357
▁qırğın	-11.3357
▁sahibdir	-11.336
▁vokal	-11.3361
▁küçələrində	-11.3363
▁hazırlanmasına	-11.3365
▁tender	-11.3366
▁dənizə	-11.3366
▁toxuma	-11.3367
era	-11.3367
▁etdirirlər	-11.3369
▁abituriyentlər	-11.337
▁Məlik	-11.337
▁bilərmi	-11.337
▁sərxoş	-11.3372
▁fondun	-11.3372
▁Forum	-11.3372
Laçın	-11.3373
▁göstərilmiş	-11.3373
▁çağırdı	-11.3374
▁dedikləri	-11.3376
par	-11.338
▁fikrinə	-11.3382
▁cənnət	-11.3385
▁alınmalıdır	-11.3385
▁açdığı	-11.3386
▁daşıdığını	-11.3386
▁yüksəlməsi	-11.3387
▁İstənilən	-11.3387
▁finalda	-11.3388
▁azadlığının	-11.339
▁siyasətçilər	-11.339
ste	-11.339
sizliyi	-11.3394
▁qəzəl	-11.3395
▁versiya	-11.3395
▁super	-11.3396
laşacaq	-11.3397
▁zəka	-11.3401
▁mərhələnin	-11.3405
ucu	-11.3406
▁donor	-11.3406
▁etik	-11.3406
▁qiymətləndirmək	-11.3407
▁təcrübəyə	-11.3408
ləndirici	-11.3408
▁mətbu	-11.3411
▁taktiki	-11.3412
▁gərginliyi	-11.3414
▁xidmətlərini	-11.3417
▁Kazımov	-11.3417
▁oynama	-11.342
▁qaytar	-11.342
sək	-11.3421
▁Kitabda	-11.3421
▁ispan	-11.3423
▁xeyriyyə	-11.3424
▁me	-11.3425
▁aləm	-11.3425
▁bacarır	-11.3425
alim	-11.3426
▁sırasındadır	-11.3427
üyü	-11.3428
▁tamaşanın	-11.3428
▁deyək	-11.3429
▁qurdu	-11.3432
▁cəmiyyətində	-11.3432
▁yoluxub	-11.3433
▁əlifba	-11.3433
▁Aksiya	-11.3437
▁xidmətdə	-11.3438
▁getməyi	-11.3439
▁diqqətdə	-11.3439
▁maaşı	-11.3441
▁bəzək	-11.3442
▁alıcı	-11.3442
şar	-11.3442
▁qulluqçularının	-11.3443
sti	-11.3444
lərim	-11.3447
dem	-11.3448
▁strukturları	-11.3448
▁tapan	-11.345
▁Lev	-11.3451
▁eyniadlı	-11.3451
ella	-11.3452
▁Bəziləri	-11.3452
▁illərindən	-11.3453
▁qabağında	-11.3453
▁pulun	-11.3453
▁Meşə	-11.3454
▁te	-11.3455
▁hesablama	-11.3455
all	-11.3456
▁Bildirdi	-11.3456
▁Mütəxəssislər	-11.3457
▁perspektivlər	-11.3459
▁efirə	-11.346
▁çıxışını	-11.3461
▁qüdrəti	-11.3462
▁Respublikanın	-11.3465
▁orden	-11.3465
▁audit	-11.3465
▁aşağıda	-11.3465
▁itirir	-11.3466
▁bildik	-11.3468
▁maksimal	-11.3469
elin	-11.347
▁başladım	-11.347
liklər	-11.3474
▁Horadiz	-11.3475
▁yaza	-11.3475
▁tənəffüs	-11.3475
▁Quru	-11.3476
▁formalaşıb	-11.3477
▁bilirsiniz	-11.3478
▁Dərbənd	-11.3479
▁tədbirlərlə	-11.3481
▁tədrisi	-11.3483
▁əzəli	-11.3485
▁olsunlar	-11.3486
▁Tor	-11.3486
tum	-11.3486
▁uyğundur	-11.3488
aşvili	-11.3489
▁vəhdət	-11.349
▁dinamikası	-11.349
▁Hesablama	-11.3491
▁təşviqat	-11.3491
▁milyona	-11.3491
yü	-11.3491
▁Səbəb	-11.3492
▁körpüsü	-11.3492
▁bağırsaq	-11.3496
▁əyalətinin	-11.3496
müəyyənləşdirmək	-11.3497
▁Ulduz	-11.35
anlı	-11.35
▁məğlubiyyət	-11.3504
▁əsrdən	-11.3504
str	-11.3506
▁ömürlük	-11.3507
▁dövrlər	-11.3512
xo	-11.3514
▁koalisiya	-11.3518
▁professional	-11.3518
▁ümumbəşəri	-11.3518
▁təchizat	-11.3518
▁insanlıq	-11.352
end	-11.352
▁Mədəniyyəti	-11.352
▁demokratiyanın	-11.352
▁Beləcə	-11.3522
▁tənqidçi	-11.3522
▁Məcburi	-11.3525
▁normalarına	-11.3526
ero	-11.3527
sev	-11.3527
▁dönə	-11.3529
Baku	-11.353
▁quldur	-11.3531
▁vandalizm	-11.3532
▁iştirakçılarını	-11.3536
sər	-11.3536
▁seçilmişdir	-11.3537
▁sərnişinlər	-11.3538
▁Dadaşov	-11.3539
▁ağaclar	-11.3542
▁aparma	-11.3544
▁İradə	-11.3544
▁müzakirələrə	-11.3545
▁təyyarənin	-11.3546
▁müraciətində	-11.3546
▁müsəlmanların	-11.3546
▁şəhidlərin	-11.3547
▁senator	-11.3548
▁hekayəsi	-11.3548
▁gündəliyi	-11.3549
▁ehtiyatı	-11.3551
▁məqbul	-11.3551
▁şeirlərini	-11.3552
▁keçirilməlidir	-11.3552
▁Video	-11.3553
▁Lin	-11.3554
▁Asiyada	-11.3556
▁vicdan	-11.3556
▁Lalə	-11.3558
▁günorta	-11.356
▁ulduzu	-11.356
▁Sim	-11.3561
▁hotel	-11.3563
▁hərrac	-11.3565
pol	-11.3567
▁dünyadakı	-11.3568
▁atmosfer	-11.3568
cıq	-11.3569
▁təhrik	-11.3574
ona	-11.3574
▁Çıxış	-11.3575
▁səbəblərindən	-11.3579
▁sıralarında	-11.3579
▁soruşdu	-11.3582
▁kəsilməsi	-11.3582
▁insani	-11.3582
tiq	-11.3593
Şöhrət	-11.3594
▁satılır	-11.3599
▁şüur	-11.3599
▁Hindistanın	-11.36
▁təxliyə	-11.3606
qırmızı	-11.3606
▁Konfransda	-11.3606
▁yarası	-11.3607
▁mu	-11.3607
▁Vol	-11.3607
▁Kərimova	-11.3607
nızın	-11.3608
ız	-11.3609
▁çat	-11.3609
▁gözə	-11.361
▁qaldırılıb	-11.361
▁hökumətə	-11.3611
▁şərtlərlə	-11.3611
▁maşınları	-11.3611
▁xəstəlikdən	-11.3612
▁Barak	-11.3613
Nizami	-11.3613
▁polislər	-11.3615
vur	-11.3615
İL	-11.3616
Fa	-11.3617
▁quraşdırılmış	-11.362
▁səyyar	-11.3621
▁Telman	-11.3621
▁generalı	-11.3623
▁Əlaqələr	-11.3624
▁maddədə	-11.3624
▁gör	-11.3625
▁arenada	-11.3626
▁müştərək	-11.3627
▁səngər	-11.3628
çılığın	-11.3629
▁regionu	-11.3631
▁qaçan	-11.3631
▁sərvət	-11.3632
▁mərtəbəli	-11.3633
▁uzanan	-11.3634
▁federasiya	-11.3635
▁aparatının	-11.3635
▁versiyası	-11.3637
▁portalı	-11.3638
▁Köhnə	-11.3638
▁obyektin	-11.3642
▁tədqiqatçılar	-11.3643
▁çatdırılır	-11.3643
▁Heydərov	-11.3644
▁məzunları	-11.3644
▁qətiyyəti	-11.3644
▁ittihamlar	-11.3645
▁işlərindən	-11.3646
▁başlama	-11.3647
DİN	-11.3647
So	-11.3648
▁Sadıq	-11.3649
▁təxmin	-11.365
▁məsləhətçisi	-11.365
▁funksiyasını	-11.3651
▁nədənsə	-11.3651
Gün	-11.3651
▁vəhdəti	-11.3651
▁ünvanlayıb	-11.3654
▁rütbəsi	-11.3656
ktor	-11.3656
rar	-11.3657
▁tax	-11.3658
▁koronavirusdan	-11.366
dikdən	-11.366
▁Rəhman	-11.3662
▁yaşadan	-11.3663
▁Aviasiya	-11.3663
▁bazarlarına	-11.3664
▁Yaralı	-11.3665
▁innovasiya	-11.3665
vaz	-11.3671
▁Aktyor	-11.3672
▁uzaqda	-11.3672
▁düzü	-11.3672
▁sevinci	-11.3672
▁toqquşub	-11.3673
▁Şeir	-11.3674
▁demişəm	-11.3676
azərbaycanlılara	-11.3677
▁Naftalan	-11.3678
şt	-11.3679
▁bölünür	-11.368
TV	-11.3681
▁coğrafiyası	-11.3683
▁qarşılanır	-11.3684
ulla	-11.3684
▁mövzuya	-11.3685
▁Şirkətin	-11.3685
▁əlaqələrimizin	-11.3686
▁verməkdən	-11.3686
▁məqamlardan	-11.3686
nümayəndəliyinin	-11.3687
▁biznesin	-11.3687
▁Toğrul	-11.369
▁nəcib	-11.369
▁vasitəçiliyi	-11.3692
▁vasitəçi	-11.3693
▁ediləcəyi	-11.3694
spor	-11.3695
▁krediti	-11.3695
▁Maksim	-11.3695
vil	-11.3696
▁gələcəyinə	-11.3697
▁İbn	-11.37
▁hədsiz	-11.3703
ncə	-11.3705
▁dilləri	-11.3705
▁əzələ	-11.371
▁tərzdə	-11.371
▁memarı	-11.3712
pərvər	-11.3712
▁qeydiyyatına	-11.3713
▁hissəyə	-11.3715
▁vəzifəni	-11.3715
LU	-11.3716
▁komandamız	-11.3718
▁oxucuların	-11.3721
▁avadanlıqların	-11.3721
▁qanununun	-11.3723
▁Qapalı	-11.3723
▁makroiqtisadi	-11.3723
▁minimal	-11.3724
▁danışaraq	-11.3724
▁ardından	-11.3725
▁itirilməsi	-11.3726
▁bağlılığı	-11.3727
nt	-11.3727
▁gəldik	-11.3728
ləyici	-11.3728
rsə	-11.3729
▁aztəminatlı	-11.373
▁nailiyyətlərin	-11.3731
▁münaqişələrin	-11.3732
▁şurasının	-11.3733
fil	-11.3734
▁mövqedə	-11.3735
▁bilmədik	-11.3736
▁MR	-11.3737
▁alırdı	-11.3739
▁Yarış	-11.3741
▁məsuliyyətini	-11.3741
▁şad	-11.3743
▁qayna	-11.3743
▁PRESS	-11.3743
NGC	-11.3744
To	-11.3744
▁ziyanın	-11.3744
▁yaranmışdır	-11.3746
▁ərazisini	-11.3748
▁latın	-11.3749
▁sap	-11.3749
▁spesifik	-11.375
▁Qüds	-11.375
up	-11.3751
▁təşəkkürümü	-11.3751
▁ideologiyası	-11.3756
▁Bəhruz	-11.3756
▁təşkilatçısı	-11.3756
▁yaranmasının	-11.3757
▁qarşılaşacaq	-11.3758
▁diasporu	-11.3758
▁pərakəndə	-11.376
▁fakültə	-11.3761
▁Dialoq	-11.3761
▁oruc	-11.3762
▁xaricində	-11.3763
▁Gələcəkdə	-11.3765
▁qazanması	-11.3765
▁yarışları	-11.3765
▁ortasında	-11.3765
▁Müəllim	-11.3766
ruz	-11.3766
▁dezinfeksiya	-11.3766
▁ədib	-11.3767
▁siyahıda	-11.3767
▁qına	-11.3769
▁rəğbət	-11.3769
▁yazıda	-11.377
▁Vyana	-11.377
▁faktor	-11.3771
▁Nəcəf	-11.3772
casına	-11.3773
▁qazanacaq	-11.3773
▁aktlar	-11.3774
qanunvericiliklə	-11.3775
▁çəkildi	-11.3775
▁tikililər	-11.3777
▁paketi	-11.3777
▁fakültəsini	-11.3777
▁vətəndaşlarımız	-11.3778
bərpa	-11.3781
kəs	-11.3781
▁zavod	-11.3782
▁cəhdlər	-11.3783
▁Səttar	-11.3783
▁liderlik	-11.3785
press	-11.3786
▁sərginin	-11.3786
Dİ	-11.3788
▁dövlətlərarası	-11.3789
▁məntəqəsinin	-11.379
▁planlaşdırılan	-11.379
▁ağacı	-11.3793
▁zəruridir	-11.3794
▁şairlər	-11.3795
▁ey	-11.3796
▁məqaləsi	-11.3796
▁faciəsinin	-11.3797
▁istehsalına	-11.38
▁Sevda	-11.3802
▁Allahverdiyev	-11.3804
göz	-11.3812
▁yüksəliş	-11.3813
▁yazmışdı	-11.3814
▁üstü	-11.3815
▁TASS	-11.3818
▁Tay	-11.3818
▁veriliş	-11.382
▁Festival	-11.3821
▁Konqresinin	-11.3822
▁sanksiyaları	-11.3823
dis	-11.3824
qur	-11.3825
Vi	-11.3825
▁ötürmə	-11.3825
▁əməkdaşlığının	-11.3826
yuk	-11.3827
▁çəkərək	-11.3831
▁üzvünün	-11.3832
▁təməlini	-11.3833
▁gəncliyi	-11.3834
▁artmışdır	-11.3836
▁sarayı	-11.3837
əcəyi	-11.3837
bulaq	-11.3837
▁ölməz	-11.3838
▁nəzarətin	-11.3838
▁etməmək	-11.3841
▁nümayəndələrinə	-11.3843
▁miras	-11.3844
▁qılınc	-11.3845
▁lisey	-11.3847
▁soruş	-11.3848
▁məktəblərə	-11.3849
▁nümunələrinin	-11.3853
▁salmağa	-11.3853
▁zonası	-11.3854
▁Könül	-11.3854
▁bənzəyir	-11.3855
▁Bakını	-11.3855
▁hisslər	-11.3856
▁Qulu	-11.3857
▁tədarük	-11.3858
▁ərazilərini	-11.386
▁modelinin	-11.3864
▁dinlənilib	-11.3864
▁Ərdəbil	-11.3864
▁dənizin	-11.3867
▁nəsib	-11.3868
▁dəyərləndirib	-11.3868
▁Əksər	-11.3869
▁qalsa	-11.387
▁Zo	-11.387
aydın	-11.3871
▁məktublar	-11.3872
▁forumun	-11.3872
▁turnirdə	-11.3873
▁yüksəldi	-11.3874
▁psixotrop	-11.3874
nizin	-11.3875
▁İşğal	-11.3876
▁fi	-11.3878
▁Nəbi	-11.3878
▁Fər	-11.388
Se	-11.388
▁şəhidi	-11.388
raf	-11.388
▁yaratdığını	-11.3882
▁assosiasiya	-11.3882
▁vaxtsa	-11.3884
▁Abdul	-11.3885
▁yarımbənd	-11.3887
▁ədalətsiz	-11.3887
▁Qarabağla	-11.3887
▁qəzasında	-11.3888
▁klubuna	-11.3888
▁orqanın	-11.3888
▁baxma	-11.3889
▁abidənin	-11.389
▁yetir	-11.3891
▁dünyadan	-11.3891
▁teatrda	-11.3892
▁kontekstdə	-11.3892
▁kəsir	-11.3893
▁Saleh	-11.3895
▁Cavadov	-11.3896
▁Sel	-11.3899
Ancaq	-11.3899
▁bölgədəki	-11.3901
▁fərqlidir	-11.3904
Azəriqaz	-11.391
▁ağrılı	-11.391
▁yaşda	-11.3912
▁hamını	-11.3913
▁reaksiyası	-11.3914
▁sərhədinin	-11.3914
:"""	-11.3914
ix	-11.3916
▁oxuyanda	-11.3916
▁işlərdə	-11.3918
▁idik	-11.392
▁ödənişlərin	-11.3922
ləndirir	-11.3922
▁Evin	-11.3923
udur	-11.3924
▁düşünmə	-11.3925
▁camaatı	-11.3926
kat	-11.3928
olma	-11.3928
▁şairə	-11.3929
▁ipək	-11.3929
▁qanunda	-11.3933
▁quyu	-11.3934
▁görəsən	-11.3935
▁qayıtdı	-11.3935
▁uşağa	-11.3936
atlar	-11.3936
▁Fransız	-11.3936
▁qoşulan	-11.3937
bax	-11.394
▁fənlər	-11.394
▁ərə	-11.3942
▁prezidentləri	-11.3946
▁bağça	-11.3947
▁boyda	-11.3947
▁seçdiyi	-11.3948
▁turun	-11.3948
▁Talış	-11.3949
dal	-11.395
▁Xızı	-11.3952
▁orkestr	-11.3953
▁imam	-11.3954
▁şəxsiyyətlər	-11.3955
▁atəşi	-11.3959
▁təkbaşına	-11.396
qr	-11.396
▁Peşəkar	-11.3962
▁xam	-11.3964
cağına	-11.3966
▁ölkələrimizin	-11.3969
▁sənətkarlıq	-11.3975
▁sür	-11.3976
▁simpozium	-11.3977
▁İllər	-11.3977
▁gününü	-11.3978
▁vəzifələrində	-11.3978
▁bərpasına	-11.3981
▁artıracaq	-11.3981
▁əsgərlərin	-11.3983
▁sağalıb	-11.3984
qaç	-11.3985
müəyyən	-11.3985
▁müraciətləri	-11.3987
ps	-11.3987
▁gözləyirik	-11.3988
▁hakimiyyətinə	-11.3988
▁ailələr	-11.3991
▁layihədə	-11.3992
quliyev	-11.3995
▁qloballaşma	-11.3996
▁multikultural	-11.3996
▁qrupda	-11.3996
▁şəhərlər	-11.4001
▁artıqdır	-11.4003
▁illərinin	-11.4003
▁diplomatiya	-11.4004
madan	-11.4007
▁çıxmasına	-11.4008
▁inkişafından	-11.401
▁poeziyası	-11.4012
▁doğulmuş	-11.4012
▁kapitan	-11.4016
▁Ekspertlər	-11.4016
▁ARDNŞ	-11.4017
▁qırx	-11.4017
▁törədildikdə	-11.4018
▁həvəsi	-11.402
▁yataqlarının	-11.4022
▁istintaqı	-11.4022
▁Suriyaya	-11.4023
▁bağlanıb	-11.4026
▁pe	-11.4028
irlər	-11.403
▁fotoqraf	-11.4031
▁qoşulmaq	-11.4033
▁sərvətlər	-11.4035
▁Pu	-11.4035
▁dükan	-11.4035
▁rəisinin	-11.4037
mişik	-11.4037
▁Siti	-11.4038
▁Əhmədova	-11.4038
▁qurulur	-11.4039
▁dağıdılmış	-11.4039
cik	-11.4042
rü	-11.4044
LA	-11.4045
vey	-11.4046
▁yerləşməsi	-11.4047
▁pulları	-11.4048
▁verilişlər	-11.4049
əndə	-11.405
▁Mərakeş	-11.4052
ləməyə	-11.4053
▁nümayəndəsinin	-11.4053
▁iştirakına	-11.4055
▁subsidiya	-11.4055
▁Əfəndi	-11.4056
EN	-11.4056
mizdir	-11.4057
▁mərtəbəsində	-11.4059
▁vəzifələrdə	-11.4059
▁mərkəzindədir	-11.4061
▁keçirilə	-11.4061
mizlə	-11.4062
ers	-11.4063
▁orqanlar	-11.4064
▁muzdlu	-11.4066
▁havaya	-11.4068
▁ərazilərinə	-11.407
▁Maykl	-11.407
ial	-11.4072
▁Yaz	-11.4073
▁turda	-11.4073
Koroğlu	-11.4075
lk	-11.4075
▁paket	-11.4076
▁kütləsi	-11.4078
▁məkrli	-11.408
▁mütəxəssisi	-11.4082
▁Pakistanın	-11.4082
▁reabilitasiya	-11.4085
▁bəstəkarı	-11.4085
▁bölmələrinin	-11.4086
▁qədərdir	-11.4087
▁iştirakçılara	-11.4087
▁komandir	-11.4088
▁məsləhətçi	-11.4088
ləşdirilmə	-11.4089
▁siqnal	-11.409
▁Ombudsman	-11.4091
▁bişir	-11.4092
hu	-11.4093
▁hidro	-11.4094
▁yararlana	-11.4095
▁köməkliyi	-11.4095
▁qatıldığı	-11.4095
▁çoxunun	-11.4098
▁tapança	-11.4102
▁ordusuna	-11.4103
▁yar	-11.4103
▁Özünü	-11.4105
▁məndə	-11.4106
▁turnirin	-11.4107
▁görünməmiş	-11.4109
▁VIII	-11.411
▁bildirdiyinə	-11.4111
▁simfonik	-11.4111
▁Times	-11.4112
▁üzləşib	-11.4114
▁Yusifov	-11.4115
İK	-11.4115
▁cinayətləri	-11.4118
▁qorumağa	-11.4119
▁öyrəndik	-11.4119
▁mənimsəmə	-11.412
▁binalarının	-11.412
▁diabet	-11.4122
▁Messi	-11.4122
dini	-11.4123
ulmuş	-11.4124
▁baxılıb	-11.4126
▁for	-11.4128
▁Hələlik	-11.4129
tam	-11.413
▁aydındır	-11.4132
▁yaratmışdı	-11.4133
▁gündəmdə	-11.4134
laşdırıb	-11.4135
▁Cəfərli	-11.4136
▁üzvlərini	-11.4137
▁sultan	-11.4138
▁boğaz	-11.4138
▁koronavirusla	-11.4141
Administrasiyası	-11.4141
▁toplayan	-11.4142
▁aparması	-11.4144
▁avtomobilləri	-11.4145
▁axır	-11.4145
▁tor	-11.4145
▁evlərində	-11.4146
▁fondunun	-11.4146
vay	-11.4148
mısınız	-11.4149
▁Sultanov	-11.4151
▁Tomas	-11.4152
▁olmalıyıq	-11.4154
çan	-11.4155
▁bitən	-11.4155
▁yaşları	-11.4156
Almaniya	-11.4157
▁yürütdüyü	-11.4159
▁Sənan	-11.4161
▁əxlaqi	-11.4163
ilməsi	-11.4163
▁avqustunda	-11.4163
▁müşayiəti	-11.4164
▁davranışları	-11.4166
▁istifadəçi	-11.4167
▁məsuliyyətinə	-11.4168
▁İrəvana	-11.4169
ƏR	-11.417
ity	-11.4171
▁çalışıram	-11.4171
▁formalaşan	-11.4172
▁təmsilçisinin	-11.4172
▁məqsədimiz	-11.4172
▁Niyə	-11.4173
öl	-11.4175
▁Bütövlükdə	-11.4176
▁həbsxana	-11.4177
▁Planı	-11.4177
Elektron	-11.4178
▁Məşədi	-11.4179
▁tərəddüd	-11.4184
▁yaxınlaşıb	-11.4184
▁terrorçular	-11.4185
▁ödəyir	-11.4185
sevər	-11.4186
▁çıxmışdı	-11.4186
▁toplamaq	-11.4187
▁hekayələri	-11.4187
▁azarkeş	-11.4188
▁Tra	-11.4189
Uşaq	-11.419
layın	-11.4192
▁etdirilməsinə	-11.4192
▁Beş	-11.4192
▁turşusu	-11.4192
▁bəndinə	-11.4193
▁ödənişi	-11.4194
ətin	-11.4196
ER	-11.4197
▁kitaba	-11.4197
Bundan	-11.4198
▁eləsin	-11.4202
▁Sam	-11.4202
▁cəzaçəkmə	-11.4202
▁universitetlər	-11.4204
▁pozma	-11.4204
▁ictimaiyyətlə	-11.4205
▁Xəstə	-11.4208
▁yetirdi	-11.4208
ama	-11.421
▁qərarının	-11.4211
say	-11.4211
dum	-11.4213
▁sitat	-11.4213
▁xəstəliyə	-11.4214
Moskva	-11.4214
▁ənənələrini	-11.4215
▁çanta	-11.4216
▁verməyən	-11.4218
▁cənubunda	-11.4219
▁baxa	-11.422
uri	-11.422
texnologiyaların	-11.4222
▁hədəfləri	-11.4223
▁vitamini	-11.4224
▁Əlcəzair	-11.4226
▁Qazaxıstanda	-11.4227
▁Men	-11.4227
▁Kişi	-11.4227
mizdən	-11.4228
▁toplanan	-11.4228
▁çoxunu	-11.423
▁heykəl	-11.423
▁xilasetmə	-11.4233
▁etməməsi	-11.4234
▁Yaponiyada	-11.4237
əy	-11.4238
▁olimpiya	-11.4241
▁ayaqları	-11.4243
▁şərqində	-11.4245
▁olmaqdır	-11.4246
▁Müvafiq	-11.4248
▁namizədlik	-11.4248
▁torpaqlarından	-11.4249
▁özünüz	-11.425
▁əhatəli	-11.4251
▁gender	-11.4252
▁gözlərini	-11.4252
▁yaşlarından	-11.4253
▁şəkilləri	-11.4256
tiya	-11.4257
▁tatar	-11.4258
▁söyüş	-11.4258
▁keçirilmə	-11.4258
▁rəftar	-11.426
▁verilmişdi	-11.4261
▁atılmış	-11.4263
▁kişilərin	-11.4263
▁Rəqəmsal	-11.4265
▁məs	-11.4267
▁molla	-11.4267
▁xəsarətlər	-11.4268
▁Müəllimlər	-11.4268
▁çəkirdi	-11.4268
▁qəbildən	-11.4269
▁pozaraq	-11.4269
▁təlimlərin	-11.427
▁misli	-11.427
▁Türkdilli	-11.4271
▁Es	-11.4272
cəyinə	-11.4273
▁Ci	-11.4273
▁fəlsəfəsi	-11.4273
▁tədbirlərdən	-11.4274
▁agent	-11.4274
▁burun	-11.4275
▁zənginliyi	-11.4276
şe	-11.4276
▁mağara	-11.4278
▁Qafarova	-11.4279
▁buraxılışı	-11.4279
▁vəsatət	-11.4283
▁yoxsul	-11.4284
ılı	-11.4286
▁spirtli	-11.4287
▁dövlətçiliyimiz	-11.4287
▁əməkdaşlarına	-11.4288
▁imkanların	-11.4289
▁qay	-11.4292
ırlar	-11.4294
▁qayıda	-11.4296
xanım	-11.4296
▁Fu	-11.4297
▁tıxac	-11.4297
▁Sibir	-11.4299
▁imzalamaq	-11.4299
▁heroin	-11.4301
▁çevirir	-11.4301
▁veb	-11.4301
▁yöndə	-11.4302
▁işarəsi	-11.4303
▁qabiliyyət	-11.4303
▁velosiped	-11.4304
▁Çe	-11.4305
▁təşəbbüsləri	-11.4305
▁Pal	-11.4306
▁şərtlərini	-11.4306
▁suda	-11.4307
▁yerlərin	-11.4307
▁tüstü	-11.4308
▁Ga	-11.431
▁Taleh	-11.4311
▁Bina	-11.4311
▁avtobuslar	-11.4314
▁Vətənin	-11.4315
nəzəri	-11.4315
▁fotoları	-11.4316
▁gecikmə	-11.4316
▁kəmərləri	-11.4317
▁zavodunun	-11.4318
▁təhsilinin	-11.4318
▁ləyaqətlə	-11.4319
əvi	-11.432
ica	-11.432
▁ayına	-11.4323
▁bütünlüklə	-11.4326
▁olunmalı	-11.4328
▁ustalıqla	-11.4328
şu	-11.4328
▁sənətkarlar	-11.4328
▁şəxsiyyətlərin	-11.4329
▁formal	-11.4329
▁məktubunda	-11.433
▁dövlətçiliyin	-11.4331
▁anlayır	-11.4333
▁keçdiyini	-11.4334
▁arxasınca	-11.4336
▁təzahürü	-11.4336
Kaspi	-11.4336
▁Özbəkistanın	-11.4338
▁mallar	-11.4339
▁vida	-11.434
▁təyyarələri	-11.434
▁art	-11.4342
▁ko	-11.4343
kün	-11.4346
▁müəssisələrdə	-11.4346
▁etmirdi	-11.4347
▁Ham	-11.4347
▁Ada	-11.4347
▁dərsliklər	-11.4347
▁dinlərin	-11.4348
▁şənbə	-11.4348
▁şəbəkələr	-11.4349
▁verildiyini	-11.435
▁qaraciyər	-11.435
mədəniyyətimizin	-11.4354
yen	-11.4356
▁komandada	-11.4357
▁Kö	-11.436
▁immun	-11.4361
▁Çeçenistan	-11.4364
▁şücaət	-11.4365
▁süfrə	-11.4365
pat	-11.4366
▁Polşanın	-11.4367
▁addımdır	-11.4368
▁soyadı	-11.4368
▁edilməmiş	-11.437
▁Dörd	-11.4371
▁həyatından	-11.4372
misiniz	-11.4373
ılmır	-11.4373
▁effekt	-11.4374
▁satılması	-11.4374
▁yaxşılaşdırmaq	-11.4374
▁tutulmuşdur	-11.4376
▁almasına	-11.4376
▁terrorçuların	-11.4378
Qafqazinfo	-11.4379
▁PUA	-11.4379
▁Bol	-11.438
▁simvolu	-11.438
▁arxayın	-11.438
▁olunmağa	-11.4383
▁dövri	-11.4386
▁doktorluq	-11.4387
▁uğurların	-11.439
kor	-11.4393
ürdü	-11.4393
▁dediyim	-11.4394
▁nəzarətinə	-11.4395
▁tərəfdar	-11.4395
▁toplantısında	-11.4398
▁ayə	-11.4398
▁www	-11.4399
▁nisbi	-11.44
▁Dəstək	-11.4401
▁dəyərini	-11.4401
▁gəz	-11.4403
▁tanıyan	-11.4404
iyalı	-11.4404
▁təcrübəsini	-11.4406
▁itir	-11.4407
ck	-11.441
▁Sərəncam	-11.441
▁Amerikalı	-11.4413
▁Cu	-11.4413
▁aparırdı	-11.4413
▁bildirək	-11.4414
▁müsahibəsi	-11.4414
▁hissələrinin	-11.4415
▁Komissiyasına	-11.4415
▁PS	-11.4416
▁Memorandumu	-11.4418
▁yazılması	-11.4418
▁iyununda	-11.442
▁saatdan	-11.4423
▁Xal	-11.4424
▁təxribatçı	-11.4425
▁texnikanın	-11.4426
▁olmağın	-11.4426
▁Demokrat	-11.4427
▁komandaları	-11.4427
lanmalıdır	-11.4428
▁edərdi	-11.4429
▁topla	-11.4429
▁xarakterik	-11.443
▁TAP	-11.4431
▁çatmayan	-11.4433
▁müttəfiqi	-11.4435
▁yoxa	-11.4436
ictimai	-11.4437
umun	-11.4438
Həyat	-11.4438
▁qəsd	-11.4439
qiymətləndirilib	-11.4439
▁şirniyyat	-11.444
▁sərnişinlərin	-11.444
▁faktlarla	-11.4441
▁yerdədir	-11.4442
dıqda	-11.4442
▁şiddət	-11.4443
▁tapması	-11.4444
▁səciyyəvi	-11.4444
▁Nizamnamə	-11.4444
▁qazının	-11.4444
▁birimiz	-11.4447
silə	-11.4447
▁aşıb	-11.4448
▁Gör	-11.4449
▁bacarıqlı	-11.445
▁mənzillər	-11.445
abi	-11.4452
mor	-11.4453
▁əfsanəvi	-11.4455
▁qatil	-11.4455
▁möcüzə	-11.4456
▁ətrafına	-11.4456
▁fermer	-11.4457
▁düşmənçilik	-11.4457
şır	-11.4458
▁canını	-11.4459
▁nömrələri	-11.4461
▁bilmədim	-11.4461
▁Şərifov	-11.4464
▁məzar	-11.4466
▁toqquşması	-11.4468
▁fakültəsinə	-11.4468
AC	-11.4469
▁açılmasına	-11.447
▁Məclisə	-11.4473
▁etsələr	-11.4476
▁istefaya	-11.4476
▁vəzi	-11.4476
▁teatra	-11.4477
rıq	-11.4477
▁ifası	-11.4477
▁Günel	-11.4477
rinin	-11.4478
▁müəyyənləşdirir	-11.4478
▁xaç	-11.4479
▁üzvi	-11.448
▁ifadəsini	-11.4482
▁oğulları	-11.4484
▁boşluğu	-11.4485
mayın	-11.4486
avar	-11.4486
▁benzin	-11.4486
▁postsovet	-11.4486
▁Ker	-11.4487
▁şeirin	-11.4488
▁tərənnüm	-11.449
▁manatadək	-11.4491
zir	-11.4494
▁qiymətlərinin	-11.4496
▁nizamlanması	-11.4498
▁tapdı	-11.4501
▁qayıdacaq	-11.4501
▁səfərlərin	-11.4502
vid	-11.4502
▁Küveyt	-11.4502
Ev	-11.4503
ou	-11.4503
▁ünsiyyətdə	-11.4503
▁Parlamenti	-11.4504
Ədəbiyyat	-11.4507
set	-11.4507
▁Sen	-11.4507
▁dəyərinin	-11.4509
ilmiş	-11.4509
▁planının	-11.4509
nuz	-11.451
▁Şükür	-11.4511
▁çıxarmağa	-11.4511
▁yu	-11.4511
▁seçkilərə	-11.4511
ığı	-11.4512
▁Ed	-11.4513
▁Mər	-11.4515
duq	-11.4515
ava	-11.4516
▁Təşkilatın	-11.4517
▁qalxdı	-11.4518
▁Sloveniya	-11.4522
▁saxladığı	-11.4523
▁konvensiya	-11.4523
▁sözlərin	-11.4525
▁oynadığını	-11.4526
▁araşdırılır	-11.4526
▁sessiyasının	-11.4527
▁dillərdə	-11.4527
▁arzusunda	-11.4528
▁azaldı	-11.4529
▁varlıq	-11.453
▁sudan	-11.453
▁istiqamətə	-11.4534
▁yatağının	-11.4535
▁səbr	-11.4535
▁tanrı	-11.4536
eks	-11.4537
▁yoldaşlıq	-11.4541
▁saysız	-11.4541
irdi	-11.4542
▁fikrin	-11.4543
▁gübrə	-11.4544
Bavariya	-11.4544
▁başçılığı	-11.4545
▁Ruhani	-11.4545
▁Qüdrət	-11.4548
ES	-11.4548
▁həqiqətə	-11.4548
kr	-11.4549
▁əqli	-11.4549
pet	-11.455
▁laqeyd	-11.4552
▁musiqili	-11.4552
▁azalmasına	-11.4553
mel	-11.4553
▁nümayəndəlik	-11.4554
vəzifə	-11.4554
▁İnsanların	-11.4554
▁Əsər	-11.4555
von	-11.4558
▁istifadənin	-11.456
qov	-11.4561
▁rolları	-11.4561
ləndirən	-11.4564
▁ildönümünə	-11.4565
▁malikdirlər	-11.4567
▁sahələrə	-11.4569
▁azarkeşlər	-11.4569
NA	-11.457
bey	-11.4571
cer	-11.4575
Gül	-11.4575
▁səbəblərini	-11.4578
▁Əkrəm	-11.4578
▁təxribatlar	-11.4578
kul	-11.4578
ağı	-11.4581
▁Mişel	-11.4582
məh	-11.4582
▁tab	-11.4584
▁şirkətinə	-11.4584
▁Saat	-11.4585
▁qarşıdan	-11.4585
▁Hind	-11.4587
▁Fatma	-11.4588
▁oyunçusu	-11.4593
▁Assambleyası	-11.4594
▁ayağı	-11.4595
▁məzunu	-11.4596
▁Çu	-11.4596
▁hadisələrinin	-11.4597
lərindəki	-11.4597
▁araşdırmaları	-11.4597
adam	-11.4598
▁həddinə	-11.4598
▁İzmir	-11.4599
▁Ala	-11.46
▁xatırla	-11.4602
▁Şərqin	-11.4602
▁albom	-11.4602
sto	-11.4602
▁Niyazi	-11.4605
▁kanalının	-11.4606
▁verənləri	-11.4607
▁aciz	-11.4607
▁sahibinə	-11.4608
▁funt	-11.461
İsmayılov	-11.461
▁qüvvələrini	-11.4612
▁Tədqiqatlar	-11.4612
▁Səbinə	-11.4613
▁yayılmasına	-11.4614
▁yetərli	-11.4616
▁formalaşır	-11.4617
▁çatdığı	-11.4619
▁icrasının	-11.462
▁Diasporla	-11.4622
▁dairələrin	-11.4623
▁Nuriyev	-11.4623
▁problemlərinə	-11.4624
▁anlar	-11.4624
▁səsləri	-11.4626
▁tələbatı	-11.4628
▁Xidmətin	-11.4628
▁internat	-11.4629
▁əməyin	-11.4629
▁Onunla	-11.4629
▁layihəni	-11.4629
▁böl	-11.463
▁halının	-11.463
▁üzvlük	-11.4632
▁Əliyevaya	-11.4633
▁prosedur	-11.4633
Sosial	-11.4634
▁heykəli	-11.4634
▁izləyən	-11.4634
qun	-11.4635
imə	-11.4635
ləndirilməsinin	-11.4636
▁təlimi	-11.4637
▁Ələsgərov	-11.4638
▁festivalda	-11.4641
▁mərtəbə	-11.4642
▁əslən	-11.4643
▁qanunlarına	-11.4643
▁görüşünə	-11.4644
▁informasiyanın	-11.4646
▁ağla	-11.4646
lya	-11.4646
Hərbi	-11.4648
▁göstərmir	-11.465
▁tərəfdaşı	-11.4651
▁Daimi	-11.4652
▁içkilər	-11.4653
▁başdan	-11.4654
▁gətirməyə	-11.4655
▁alınacaq	-11.4655
▁düşmür	-11.4655
▁birtərəfli	-11.4656
pin	-11.4656
▁Kollektiv	-11.4657
▁hallara	-11.4658
▁əmlakı	-11.4659
▁qoymuşdu	-11.466
▁Göyçə	-11.466
▁Dahi	-11.4661
▁çıxanda	-11.4662
▁Lenin	-11.4662
▁mexanizm	-11.4663
▁Nuru	-11.4663
ord	-11.4664
▁haradan	-11.4664
▁həvəskar	-11.4665
▁müsahibədə	-11.4666
▁yoldaşının	-11.4667
dun	-11.4668
▁Filmdə	-11.4668
▁irqi	-11.4668
▁həmsədrləri	-11.467
▁Bəyannamə	-11.4671
▁Mövzu	-11.4673
▁yoxdursa	-11.4674
ənd	-11.4674
ena	-11.4674
▁Konvensiya	-11.4679
▁xanı	-11.468
▁şərtlərinə	-11.4681
▁Mey	-11.4684
▁XVII	-11.4685
▁alveri	-11.4686
▁yazma	-11.4687
▁qapıçı	-11.4687
▁nəticələrin	-11.4688
▁Bünyadov	-11.4689
▁qəddar	-11.4692
▁müvəffəqiyyət	-11.4693
▁məbədi	-11.4694
▁Abdullayeva	-11.4694
▁mərhələli	-11.4694
▁Donetsk	-11.4696
▁vasitələrində	-11.4698
Artıq	-11.4699
▁Ərəbistanının	-11.4699
▁ziddiyyət	-11.47
▁avadanlıqlarla	-11.47
▁aya	-11.4701
▁Eldəniz	-11.4702
▁məqsədlərə	-11.4702
arın	-11.4703
▁maarifçi	-11.4703
▁mübahisəli	-11.4706
▁Sev	-11.471
▁dəyişkən	-11.471
▁döy	-11.471
▁insanlığa	-11.471
▁pozuntusu	-11.471
▁regionlarında	-11.4712
▁ənənələrinin	-11.4713
▁yaymaq	-11.4714
▁salın	-11.4717
▁Nəsiminin	-11.4717
▁orqanına	-11.4718
▁Sey	-11.4719
▁sərəncamlar	-11.4719
▁Riçard	-11.472
▁ünvanlı	-11.472
▁gənclərinin	-11.4722
▁nənə	-11.4722
AB	-11.4722
▁Tağı	-11.4724
▁İqtisad	-11.4724
▁Firudin	-11.4727
▁maşınlar	-11.4728
▁cizgi	-11.4728
▁köçüb	-11.4728
▁təkliflərin	-11.473
▁Azerbaijan	-11.473
▁aramızda	-11.4731
▁uçan	-11.4732
▁qayıq	-11.4733
▁Ze	-11.4734
▁ürəyim	-11.4735
rom	-11.4735
▁çevrilə	-11.4736
▁Tər	-11.4736
▁təmasda	-11.4736
▁bilməlidir	-11.4738
▁edilməsidir	-11.4739
▁parkı	-11.474
dd	-11.4742
sm	-11.4742
▁çatmışdır	-11.4743
▁namizədin	-11.4744
▁məkana	-11.4744
▁COVİD	-11.4745
▁vergilər	-11.4745
▁ağrıları	-11.4745
▁açılmış	-11.4745
▁Milan	-11.4746
▁Real	-11.4746
▁qurulmasında	-11.4747
▁saxlanma	-11.4747
▁kəndli	-11.4749
▁bələdiyyəsi	-11.4751
yum	-11.4752
▁göndərmək	-11.4753
▁Yoxsa	-11.4755
üt	-11.4756
▁marağına	-11.4757
▁sümük	-11.4759
▁saxlanılaraq	-11.4761
▁himayə	-11.4761
bon	-11.4761
▁toplum	-11.4762
▁Pandemiya	-11.4763
SA	-11.4764
▁maqnit	-11.4764
▁Əzizov	-11.4765
▁qaynaqlanır	-11.4766
▁kökləri	-11.4766
▁nəfərdir	-11.4766
▁qaldırılmasına	-11.4767
▁qalırdı	-11.4769
▁Əşrəf	-11.4769
▁başlayandan	-11.4771
▁türkləri	-11.4773
▁itirmək	-11.4773
▁dayandırmaq	-11.4774
▁federal	-11.4775
▁deyirdilər	-11.4776
▁imperator	-11.478
▁pullar	-11.4781
qurum	-11.4782
▁karyerası	-11.4783
▁alanlar	-11.4784
▁yerlərinə	-11.4786
▁futbolçuları	-11.4787
ori	-11.4789
larımıza	-11.4792
▁formatı	-11.4793
Qırmızı	-11.4793
▁dəyərləndirir	-11.4793
▁peyda	-11.4794
▁sənayesində	-11.4796
Kərimov	-11.4796
▁təsdiqi	-11.4796
ED	-11.4798
▁Vəfa	-11.4798
▁tabeliyindəki	-11.4801
[...]
